{
  "version": "1.0",
  "truncation": null,
  "padding": null,
  "added_tokens": [],
  "normalizer": null,
  "pre_tokenizer": {
    "type": "ByteLevel",
    "add_prefix_space": false,
    "trim_offsets": true,
    "use_regex": true
  },
  "post_processor": {
    "type": "ByteLevel",
    "add_prefix_space": true,
    "trim_offsets": false,
    "use_regex": true
  },
  "decoder": {
    "type": "ByteLevel",
    "add_prefix_space": true,
    "trim_offsets": true,
    "use_regex": true
  },
  "model": {
    "type": "BPE",
    "dropout": null,
    "unk_token": null,
    "continuing_subword_prefix": null,
    "end_of_word_suffix": null,
    "fuse_unk": false,
    "byte_fallback": false,
    "ignore_merges": false,
    "vocab": {
      "\u0000": 0,
      "\u0001": 1,
      "\u0002": 2,
      "\u0003": 3,
      "\u0004": 4,
      "\u0005": 5,
      "\u0006": 6,
      "\u0007": 7,
      "\b": 8,
      "\t": 9,
      "\n": 10,
      "\u000b": 11,
      "\f": 12,
      "\r": 13,
      "\u000e": 14,
      "\u000f": 15,
      "\u0010": 16,
      "\u0011": 17,
      "\u0012": 18,
      "\u0013": 19,
      "\u0014": 20,
      "\u0015": 21,
      "\u0016": 22,
      "\u0017": 23,
      "\u0018": 24,
      "\u0019": 25,
      "\u001a": 26,
      "\u001b": 27,
      "\u001c": 28,
      "\u001d": 29,
      "\u001e": 30,
      "\u001f": 31,
      " ": 32,
      "!": 33,
      "\"": 34,
      "#": 35,
      "$": 36,
      "%": 37,
      "&": 38,
      "'": 39,
      "(": 40,
      ")": 41,
      "*": 42,
      "+": 43,
      ",": 44,
      "-": 45,
      ".": 46,
      "/": 47,
      "0": 48,
      "1": 49,
      "2": 50,
      "3": 51,
      "4": 52,
      "5": 53,
      "6": 54,
      "7": 55,
      "8": 56,
      "9": 57,
      ":": 58,
      ";": 59,
      "<": 60,
      "=": 61,
      ">": 62,
      "?": 63,
      "@": 64,
      "A": 65,
      "B": 66,
      "C": 67,
      "D": 68,
      "E": 69,
      "F": 70,
      "G": 71,
      "H": 72,
      "I": 73,
      "J": 74,
      "K": 75,
      "L": 76,
      "M": 77,
      "N": 78,
      "O": 79,
      "P": 80,
      "Q": 81,
      "R": 82,
      "S": 83,
      "T": 84,
      "U": 85,
      "V": 86,
      "W": 87,
      "X": 88,
      "Y": 89,
      "Z": 90,
      "[": 91,
      "\\": 92,
      "]": 93,
      "^": 94,
      "_": 95,
      "`": 96,
      "a": 97,
      "b": 98,
      "c": 99,
      "d": 100,
      "e": 101,
      "f": 102,
      "g": 103,
      "h": 104,
      "i": 105,
      "j": 106,
      "k": 107,
      "l": 108,
      "m": 109,
      "n": 110,
      "o": 111,
      "p": 112,
      "q": 113,
      "r": 114,
      "s": 115,
      "t": 116,
      "u": 117,
      "v": 118,
      "w": 119,
      "x": 120,
      "y": 121,
      "z": 122,
      "{": 123,
      "|": 124,
      "}": 125,
      "~": 126,
      "": 127,
      "": 128,
      "": 129,
      "": 130,
      "": 131,
      "": 132,
      "": 133,
      "": 134,
      "": 135,
      "": 136,
      "": 137,
      "": 138,
      "": 139,
      "": 140,
      "": 141,
      "": 142,
      "": 143,
      "": 144,
      "": 145,
      "": 146,
      "": 147,
      "": 148,
      "": 149,
      "": 150,
      "": 151,
      "": 152,
      "": 153,
      "": 154,
      "": 155,
      "": 156,
      "": 157,
      "": 158,
      "": 159,
      " ": 160,
      "¡": 161,
      "¢": 162,
      "£": 163,
      "¤": 164,
      "¥": 165,
      "¦": 166,
      "§": 167,
      "¨": 168,
      "©": 169,
      "ª": 170,
      "«": 171,
      "¬": 172,
      "­": 173,
      "®": 174,
      "¯": 175,
      "°": 176,
      "±": 177,
      "²": 178,
      "³": 179,
      "´": 180,
      "µ": 181,
      "¶": 182,
      "·": 183,
      "¸": 184,
      "¹": 185,
      "º": 186,
      "»": 187,
      "¼": 188,
      "½": 189,
      "¾": 190,
      "¿": 191,
      "À": 192,
      "Á": 193,
      "Â": 194,
      "Ã": 195,
      "Ä": 196,
      "Å": 197,
      "Æ": 198,
      "Ç": 199,
      "È": 200,
      "É": 201,
      "Ê": 202,
      "Ë": 203,
      "Ì": 204,
      "Í": 205,
      "Î": 206,
      "Ï": 207,
      "Ð": 208,
      "Ñ": 209,
      "Ò": 210,
      "Ó": 211,
      "Ô": 212,
      "Õ": 213,
      "Ö": 214,
      "×": 215,
      "Ø": 216,
      "Ù": 217,
      "Ú": 218,
      "Û": 219,
      "Ü": 220,
      "Ý": 221,
      "Þ": 222,
      "ß": 223,
      "à": 224,
      "á": 225,
      "â": 226,
      "ã": 227,
      "ä": 228,
      "å": 229,
      "æ": 230,
      "ç": 231,
      "è": 232,
      "é": 233,
      "ê": 234,
      "ë": 235,
      "ì": 236,
      "í": 237,
      "î": 238,
      "ï": 239,
      "ð": 240,
      "ñ": 241,
      "ò": 242,
      "ó": 243,
      "ô": 244,
      "õ": 245,
      "ö": 246,
      "÷": 247,
      "ø": 248,
      "ù": 249,
      "ú": 250,
      "û": 251,
      "ü": 252,
      "ý": 253,
      "þ": 254,
      "ÿ": 255,
      "Ā": 256,
      "ā": 257,
      "Ă": 258,
      "ă": 259,
      "Ą": 260,
      "ą": 261,
      "Ć": 262,
      "ć": 263,
      "Ĉ": 264,
      "ĉ": 265,
      "Ċ": 266,
      "ċ": 267,
      "Č": 268,
      "č": 269,
      "Ď": 270,
      "ď": 271,
      "Đ": 272,
      "đ": 273,
      "Ē": 274,
      "ē": 275,
      "Ĕ": 276,
      "ĕ": 277,
      "Ė": 278,
      "ė": 279,
      "Ę": 280,
      "ę": 281,
      "Ě": 282,
      "ě": 283,
      "Ĝ": 284,
      "ĝ": 285,
      "Ğ": 286,
      "ğ": 287,
      "Ġ": 288,
      "ġ": 289,
      "Ģ": 290,
      "ģ": 291,
      "Ĥ": 292,
      "ĥ": 293,
      "Ħ": 294,
      "ħ": 295,
      "Ĩ": 296,
      "ĩ": 297,
      "Ī": 298,
      "ī": 299,
      "Ĭ": 300,
      "ĭ": 301,
      "Į": 302,
      "į": 303,
      "İ": 304,
      "ı": 305,
      "Ĳ": 306,
      "ĳ": 307,
      "Ĵ": 308,
      "ĵ": 309,
      "Ķ": 310,
      "ķ": 311,
      "ĸ": 312,
      "Ĺ": 313,
      "ĺ": 314,
      "Ļ": 315,
      "ļ": 316,
      "Ľ": 317,
      "ľ": 318,
      "Ŀ": 319,
      "ŀ": 320,
      "Ł": 321,
      "ł": 322,
      "Ń": 323,
      "ń": 324,
      "Ņ": 325,
      "ņ": 326,
      "Ň": 327,
      "ň": 328,
      "ŉ": 329,
      "Ŋ": 330,
      "ŋ": 331,
      "Ō": 332,
      "ō": 333,
      "Ŏ": 334,
      "ŏ": 335,
      "Ő": 336,
      "ő": 337,
      "Œ": 338,
      "œ": 339,
      "Ŕ": 340,
      "ŕ": 341,
      "Ŗ": 342,
      "ŗ": 343,
      "Ř": 344,
      "ř": 345,
      "Ś": 346,
      "ś": 347,
      "Ŝ": 348,
      "ŝ": 349,
      "Ş": 350,
      "ş": 351,
      "Š": 352,
      "š": 353,
      "Ţ": 354,
      "ţ": 355,
      "Ť": 356,
      "ť": 357,
      "Ŧ": 358,
      "ŧ": 359,
      "Ũ": 360,
      "ũ": 361,
      "Ū": 362,
      "ū": 363,
      "Ŭ": 364,
      "ŭ": 365,
      "Ů": 366,
      "ů": 367,
      "Ű": 368,
      "ű": 369,
      "Ų": 370,
      "ų": 371,
      "Ŵ": 372,
      "ŵ": 373,
      "Ŷ": 374,
      "ŷ": 375,
      "Ÿ": 376,
      "Ź": 377,
      "ź": 378,
      "Ż": 379,
      "ż": 380,
      "Ž": 381,
      "ž": 382,
      "ſ": 383,
      "ƀ": 384,
      "Ɓ": 385,
      "Ƃ": 386,
      "ƃ": 387,
      "Ƅ": 388,
      "ƅ": 389,
      "Ɔ": 390,
      "Ƈ": 391,
      "ƈ": 392,
      "Ɖ": 393,
      "Ɗ": 394,
      "Ƌ": 395,
      "ƌ": 396,
      "ƍ": 397,
      "Ǝ": 398,
      "Ə": 399,
      "Ɛ": 400,
      "Ƒ": 401,
      "ƒ": 402,
      "Ɠ": 403,
      "Ɣ": 404,
      "ƕ": 405,
      "Ɩ": 406,
      "Ɨ": 407,
      "Ƙ": 408,
      "ƙ": 409,
      "ƚ": 410,
      "ƛ": 411,
      "Ɯ": 412,
      "Ɲ": 413,
      "ƞ": 414,
      "Ɵ": 415,
      "Ơ": 416,
      "ơ": 417,
      "Ƣ": 418,
      "ƣ": 419,
      "Ƥ": 420,
      "ƥ": 421,
      "Ʀ": 422,
      "Ƨ": 423,
      "ƨ": 424,
      "Ʃ": 425,
      "ƪ": 426,
      "ƫ": 427,
      "Ƭ": 428,
      "ƭ": 429,
      "Ʈ": 430,
      "Ư": 431,
      "ư": 432,
      "Ʊ": 433,
      "Ʋ": 434,
      "Ƴ": 435,
      "ƴ": 436,
      "Ƶ": 437,
      "ƶ": 438,
      "Ʒ": 439,
      "Ƹ": 440,
      "ƹ": 441,
      "ƺ": 442,
      "ƻ": 443,
      "Ƽ": 444,
      "ƽ": 445,
      "ƾ": 446,
      "ƿ": 447,
      "ǀ": 448,
      "ǁ": 449,
      "ǂ": 450,
      "ǃ": 451,
      "Ǆ": 452,
      "ǅ": 453,
      "ǆ": 454,
      "Ǉ": 455,
      "ǈ": 456,
      "ǉ": 457,
      "Ǌ": 458,
      "ǋ": 459,
      "ǌ": 460,
      "Ǎ": 461,
      "ǎ": 462,
      "Ǐ": 463,
      "ǐ": 464,
      "Ǒ": 465,
      "ǒ": 466,
      "Ǔ": 467,
      "ǔ": 468,
      "Ǖ": 469,
      "ǖ": 470,
      "Ǘ": 471,
      "ǘ": 472,
      "Ǚ": 473,
      "ǚ": 474,
      "Ǜ": 475,
      "ǜ": 476,
      "ǝ": 477,
      "Ǟ": 478,
      "ǟ": 479,
      "Ǡ": 480,
      "ǡ": 481,
      "Ǣ": 482,
      "ǣ": 483,
      "Ǥ": 484,
      "ǥ": 485,
      "Ǧ": 486,
      "ǧ": 487,
      "Ǩ": 488,
      "ǩ": 489,
      "Ǫ": 490,
      "ǫ": 491,
      "Ǭ": 492,
      "ǭ": 493,
      "Ǯ": 494,
      "ǯ": 495,
      "ǰ": 496,
      "Ǳ": 497,
      "ǲ": 498,
      "ǳ": 499,
      "Ǵ": 500,
      "ǵ": 501,
      "Ƕ": 502,
      "Ƿ": 503,
      "Ǹ": 504,
      "ǹ": 505,
      "Ǻ": 506,
      "ǻ": 507,
      "Ǽ": 508,
      "ǽ": 509,
      "Ǿ": 510,
      "ǿ": 511,
      "Ȁ": 512,
      "ȁ": 513,
      "Ȃ": 514,
      "ȃ": 515,
      "Ȅ": 516,
      "ȅ": 517,
      "Ȇ": 518,
      "ȇ": 519,
      "Ȉ": 520,
      "ȉ": 521,
      "Ȋ": 522,
      "ȋ": 523,
      "Ȍ": 524,
      "ȍ": 525,
      "Ȏ": 526,
      "ȏ": 527,
      "Ȑ": 528,
      "ȑ": 529,
      "Ȓ": 530,
      "ȓ": 531,
      "Ȕ": 532,
      "ȕ": 533,
      "Ȗ": 534,
      "ȗ": 535,
      "Ș": 536,
      "ș": 537,
      "Ț": 538,
      "ț": 539,
      "Ȝ": 540,
      "ȝ": 541,
      "Ȟ": 542,
      "ȟ": 543,
      "Ƞ": 544,
      "ȡ": 545,
      "Ȣ": 546,
      "ȣ": 547,
      "Ȥ": 548,
      "ȥ": 549,
      "Ȧ": 550,
      "ȧ": 551,
      "Ȩ": 552,
      "ȩ": 553,
      "Ȫ": 554,
      "ȫ": 555,
      "Ȭ": 556,
      "ȭ": 557,
      "Ȯ": 558,
      "ȯ": 559,
      "Ȱ": 560,
      "ȱ": 561,
      "Ȳ": 562,
      "ȳ": 563,
      "ȴ": 564,
      "ȵ": 565,
      "ȶ": 566,
      "ȷ": 567,
      "ȸ": 568,
      "ȹ": 569,
      "Ⱥ": 570,
      "Ȼ": 571,
      "ȼ": 572,
      "Ƚ": 573,
      "Ⱦ": 574,
      "ȿ": 575,
      "ɀ": 576,
      "Ɂ": 577,
      "ɂ": 578,
      "Ƀ": 579,
      "Ʉ": 580,
      "Ʌ": 581,
      "Ɇ": 582,
      "ɇ": 583,
      "Ɉ": 584,
      "ɉ": 585,
      "Ɋ": 586,
      "ɋ": 587,
      "Ɍ": 588,
      "ɍ": 589,
      "Ɏ": 590,
      "ɏ": 591,
      "ɐ": 592,
      "ɑ": 593,
      "ɒ": 594,
      "ɓ": 595,
      "ɔ": 596,
      "ɕ": 597,
      "ɖ": 598,
      "ɗ": 599,
      "ɘ": 600,
      "ə": 601,
      "ɚ": 602,
      "ɛ": 603,
      "ɜ": 604,
      "ɝ": 605,
      "ɞ": 606,
      "ɟ": 607,
      "ɠ": 608,
      "ɡ": 609,
      "ɢ": 610,
      "ɣ": 611,
      "ɤ": 612,
      "ɥ": 613,
      "ɦ": 614,
      "ɧ": 615,
      "ɨ": 616,
      "ɩ": 617,
      "ɪ": 618,
      "ɫ": 619,
      "ɬ": 620,
      "ɭ": 621,
      "ɮ": 622,
      "ɯ": 623,
      "ɰ": 624,
      "ɱ": 625,
      "ɲ": 626,
      "ɳ": 627,
      "ɴ": 628,
      "ɵ": 629,
      "ɶ": 630,
      "ɷ": 631,
      "ɸ": 632,
      "ɹ": 633,
      "ɺ": 634,
      "ɻ": 635,
      "ɼ": 636,
      "ɽ": 637,
      "ɾ": 638,
      "ɿ": 639,
      "ʀ": 640,
      "ʁ": 641,
      "ʂ": 642,
      "ʃ": 643,
      "ʄ": 644,
      "ʅ": 645,
      "ʆ": 646,
      "ʇ": 647,
      "ʈ": 648,
      "ʉ": 649,
      "ʊ": 650,
      "ʋ": 651,
      "ʌ": 652,
      "ʍ": 653,
      "ʎ": 654,
      "ʏ": 655,
      "ʐ": 656,
      "ʑ": 657,
      "ʒ": 658,
      "ʓ": 659,
      "ʔ": 660,
      "ʕ": 661,
      "ʖ": 662,
      "ʗ": 663,
      "ʘ": 664,
      "ʙ": 665,
      "ʚ": 666,
      "ʛ": 667,
      "ʜ": 668,
      "ʝ": 669,
      "ʞ": 670,
      "ʟ": 671,
      "ʠ": 672,
      "ʡ": 673,
      "ʢ": 674,
      "ʣ": 675,
      "ʤ": 676,
      "ʥ": 677,
      "ʦ": 678,
      "ʧ": 679,
      "ʨ": 680,
      "ʩ": 681,
      "ʪ": 682,
      "ʫ": 683,
      "ʬ": 684,
      "ʭ": 685,
      "ʮ": 686,
      "ʯ": 687,
      "ʰ": 688,
      "ʱ": 689,
      "ʲ": 690,
      "ʳ": 691,
      "ʴ": 692,
      "ʵ": 693,
      "ʶ": 694,
      "ʷ": 695,
      "ʸ": 696,
      "ʹ": 697,
      "ʺ": 698,
      "ʻ": 699,
      "ʼ": 700,
      "ʽ": 701,
      "ʾ": 702,
      "ʿ": 703,
      "ˀ": 704,
      "ˁ": 705,
      "˂": 706,
      "˃": 707,
      "˄": 708,
      "˅": 709,
      "ˆ": 710,
      "ˇ": 711,
      "ˈ": 712,
      "ˉ": 713,
      "ˊ": 714,
      "ˋ": 715,
      "ˌ": 716,
      "ˍ": 717,
      "ˎ": 718,
      "ˏ": 719,
      "ː": 720,
      "ˑ": 721,
      "˒": 722,
      "˓": 723,
      "˔": 724,
      "˕": 725,
      "˖": 726,
      "˗": 727,
      "˘": 728,
      "˙": 729,
      "˚": 730,
      "˛": 731,
      "˜": 732,
      "˝": 733,
      "˞": 734,
      "˟": 735,
      "ˠ": 736,
      "ˡ": 737,
      "ˢ": 738,
      "ˣ": 739,
      "ˤ": 740,
      "˥": 741,
      "˦": 742,
      "˧": 743,
      "˨": 744,
      "˩": 745,
      "˪": 746,
      "˫": 747,
      "ˬ": 748,
      "˭": 749,
      "ˮ": 750,
      "˯": 751,
      "˰": 752,
      "˱": 753,
      "˲": 754,
      "˳": 755,
      "˴": 756,
      "˵": 757,
      "˶": 758,
      "˷": 759,
      "˸": 760,
      "˹": 761,
      "˺": 762,
      "˻": 763,
      "˼": 764,
      "˽": 765,
      "˾": 766,
      "˿": 767,
      "̀": 768,
      "́": 769,
      "̂": 770,
      "̃": 771,
      "̄": 772,
      "̅": 773,
      "̆": 774,
      "̇": 775,
      "̈": 776,
      "̉": 777,
      "̊": 778,
      "̋": 779,
      "̌": 780,
      "̍": 781,
      "̎": 782,
      "̏": 783,
      "̐": 784,
      "̑": 785,
      "̒": 786,
      "̓": 787,
      "̔": 788,
      "̕": 789,
      "̖": 790,
      "̗": 791,
      "̘": 792,
      "̙": 793,
      "̚": 794,
      "̛": 795,
      "̜": 796,
      "̝": 797,
      "̞": 798,
      "̟": 799,
      "̠": 800,
      "̡": 801,
      "̢": 802,
      "̣": 803,
      "̤": 804,
      "̥": 805,
      "̦": 806,
      "̧": 807,
      "̨": 808,
      "̩": 809,
      "̪": 810,
      "̫": 811,
      "̬": 812,
      "̭": 813,
      "̮": 814,
      "̯": 815,
      "̰": 816,
      "̱": 817,
      "̲": 818,
      "̳": 819,
      "̴": 820,
      "̵": 821,
      "̶": 822,
      "̷": 823,
      "̸": 824,
      "̹": 825,
      "̺": 826,
      "̻": 827,
      "̼": 828,
      "̽": 829,
      "̾": 830,
      "̿": 831,
      "̀": 832,
      "́": 833,
      "͂": 834,
      "̓": 835,
      "̈́": 836,
      "ͅ": 837,
      "͆": 838,
      "͇": 839,
      "͈": 840,
      "͉": 841,
      "͊": 842,
      "͋": 843,
      "͌": 844,
      "͍": 845,
      "͎": 846,
      "͏": 847,
      "͐": 848,
      "͑": 849,
      "͒": 850,
      "͓": 851,
      "͔": 852,
      "͕": 853,
      "͖": 854,
      "͗": 855,
      "͘": 856,
      "͙": 857,
      "͚": 858,
      "͛": 859,
      "͜": 860,
      "͝": 861,
      "͞": 862,
      "͟": 863,
      "͠": 864,
      "͡": 865,
      "͢": 866,
      "ͣ": 867,
      "ͤ": 868,
      "ͥ": 869,
      "ͦ": 870,
      "ͧ": 871,
      "ͨ": 872,
      "ͩ": 873,
      "ͪ": 874,
      "ͫ": 875,
      "ͬ": 876,
      "ͭ": 877,
      "ͮ": 878,
      "ͯ": 879,
      "Ͱ": 880,
      "ͱ": 881,
      "Ͳ": 882,
      "ͳ": 883,
      "ʹ": 884,
      "͵": 885,
      "Ͷ": 886,
      "ͷ": 887,
      "͸": 888,
      "͹": 889,
      "ͺ": 890,
      "ͻ": 891,
      "ͼ": 892,
      "ͽ": 893,
      ";": 894,
      "Ϳ": 895,
      "΀": 896,
      "΁": 897,
      "΂": 898,
      "΃": 899,
      "΄": 900,
      "΅": 901,
      "Ά": 902,
      "·": 903,
      "Έ": 904,
      "Ή": 905,
      "Ί": 906,
      "΋": 907,
      "Ό": 908,
      "΍": 909,
      "Ύ": 910,
      "Ώ": 911,
      "ΐ": 912,
      "Α": 913,
      "Β": 914,
      "Γ": 915,
      "Δ": 916,
      "Ε": 917,
      "Ζ": 918,
      "Η": 919,
      "Θ": 920,
      "Ι": 921,
      "Κ": 922,
      "Λ": 923,
      "Μ": 924,
      "Ν": 925,
      "Ξ": 926,
      "Ο": 927,
      "Π": 928,
      "Ρ": 929,
      "΢": 930,
      "Σ": 931,
      "Τ": 932,
      "Υ": 933,
      "Φ": 934,
      "Χ": 935,
      "Ψ": 936,
      "Ω": 937,
      "Ϊ": 938,
      "Ϋ": 939,
      "ά": 940,
      "έ": 941,
      "ή": 942,
      "ί": 943,
      "ΰ": 944,
      "α": 945,
      "β": 946,
      "γ": 947,
      "δ": 948,
      "ε": 949,
      "ζ": 950,
      "η": 951,
      "θ": 952,
      "ι": 953,
      "κ": 954,
      "λ": 955,
      "μ": 956,
      "ν": 957,
      "ξ": 958,
      "Çľ": 959,
      "ÇľÇľ": 960,
      "ÇľÇľÇľÇľ": 961,
      "ÇľÇľÇľÇľÇľÇľÇľÇľ": 962,
      "ÇľÇľÇľÇľÇľÇľÇľÇľÇľÇľÇľÇľÇľÇľÇľÇľ": 963,
      "ÇľÇľÇľÇľÇľÇľÇľÇľÇľÇľÇľÇľÇľÇľÇľÇľÇľÇľÇľÇľÇľÇľÇľÇľÇľÇľÇľÇľÇľÇľÇľÇľ": 964,
      "ÇľÇľÇľÇľÇľÇľÇľÇľÇľÇľÇľÇľÇľÇľÇľÇľÇľÇľÇľÇľÇľÇľÇľÇľÇľÇľÇľÇľÇľÇľÇľÇľÇľÇľÇľÇľÇľÇľÇľÇľÇľÇľÇľÇľÇľÇľÇľÇľÇľÇľÇľÇľÇľÇľÇľÇľÇľÇľÇľÇľÇľÇľÇľÇľ": 965,
      "ÇľÇ": 966,
      "ÇľÇľÇľÇľÇľÇľÇľÇľÇľÇľÇľÇľÇľÇľÇľÇľÇľÇľÇľÇľÇľÇľÇľÇľÇľÇľÇľÇľÇľÇľÇľÇľÇľÇľÇľÇľÇľÇľÇľÇľÇľÇľÇľÇľÇľÇľÇľÇľÇľÇľÇľÇľÇľÇľÇľÇľÇľÇľÇľÇľÇľÇľÇľÇľÇľÇľÇľÇľÇľÇľÇľÇľÇľÇľÇľÇľÇľÇľÇľÇľÇľÇľÇľÇľÇľÇľÇľÇľÇľÇľÇľÇľÇľÇľÇľÇľÇľÇľÇľÇľÇľÇľÇľÇľÇľÇľÇľÇľÇľÇľÇľÇľÇľÇľÇľÇľÇľÇľÇľÇľÇľÇľÇľÇľÇľÇľÇľÇľ": 967,
      "ÇľÇľÇľÇľÇľÇľ": 968,
      "ÇĿ": 969,
      "ÇĽ": 970,
      "ÇľÇľÇľÇľÇľÇľÇľÇľÇľÇľÇľÇľÇľÇľÇľÇľÇľÇľÇľÇľÇľÇľÇľÇľ": 971,
      "ÇľÇľÇľÇľÇľÇľÇľÇľÇľÇľÇľÇľÇľÇľÇľÇľÇľÇľÇľÇľÇľÇľÇľÇľÇľÇľÇľÇľÇľÇľÇľÇľÇľÇľÇľÇľÇľÇľÇľÇľÇľÇľÇľÇľÇľÇľÇľÇľÇľÇľÇľÇľÇľÇľÇľÇľÇľÇľÇľÇľÇľÇľÇľÇľÇľÇľÇľÇľÇľÇľÇľÇľÇľÇľÇľÇľÇľÇľÇľÇľÇľÇľÇľÇľÇľÇľÇľÇľÇľÇľÇľÇľÇľÇľÇľÇľÇľÇľÇľÇľÇľÇľÇľÇľÇľÇľÇľÇľÇľÇľÇľÇľÇľÇľÇľÇľÇľÇľÇľÇľÇľÇľÇľÇľÇľÇľÇľÇľÇľÇľÇľÇľÇľÇľÇľÇľÇľÇľÇľÇľÇľÇľÇľÇľÇľÇľÇľÇľÇľÇľÇľÇľÇľÇľÇľÇľÇľÇľÇľÇľÇľÇľÇľÇľÇľÇľÇľÇľÇľÇľÇľÇľÇľÇľÇľÇľÇľÇľÇľÇľÇľÇľÇľÇľÇľÇľÇľÇľÇľÇľÇľÇľÇľÇľÇľÇľÇľÇľÇľÇľÇľÇľÇľÇľÇľÇľÇľÇľÇľÇľÇľÇľÇľÇľÇľÇľÇľÇľÇľÇľÇľÇľÇľÇľÇľÇľÇľÇľÇľÇľÇľÇľÇľÇľÇľÇľÇľÇľÇľÇľÇľÇľÇľÇľÇľÇľÇľÇľÇľÇľÇľÇľÇľÇľÇľÇľ": 972,
      "ÇľÇľÇľÇľÇľÇľÇľÇ": 973,
      "Çŀ": 974,
      "ÇľÇĿ": 975,
      "ÇľÇĽ": 976,
      "Çļ": 977,
      "ÇľÇľÇľÇľÇľÇľÇľÇľÇľÇľÇľÇľÇľÇľÇľÇľÇľÇľÇľÇľÇľÇľÇľÇľÇľÇľÇľÇľÇľÇľÇľÇ": 978,
      "ÇĹ": 979,
      "ÇľÇľÇľÇľÇľÇľÇľÇľÇľÇľÇľÇľ": 980,
      "ÇľÇľÇľÇľÇľÇľÇľÇľÇľÇľÇľÇľÇľÇľÇľÇľÇľÇľÇľÇľÇľÇľ": 981,
      "ÇľÇľÇľÇľÇľÇľÇľÇľÇľÇľÇľÇľÇľÇľÇľÇľÇľÇľÇľÇľÇľÇľÇľÇľÇľÇľÇľÇľÇľÇľÇľÇľÇľÇľÇľÇľÇľÇľÇľÇľÇľÇľÇľÇľÇľÇľÇľÇľÇľÇľÇľÇľÇľÇľÇľÇľÇľÇľÇľÇľÇľÇľÇľÇľÇľÇľÇľÇľÇľÇľÇľÇľÇľÇľÇľÇľÇľÇľÇľÇľÇľÇľÇľÇľÇľÇľÇľÇľÇľÇľÇľÇľÇľÇľÇľÇľÇľÇľÇľÇľÇľÇľÇľÇľÇľÇľÇľÇľÇľÇľÇľÇľÇľÇľÇľÇľÇľÇľÇľÇľÇľÇľÇľÇľÇľÇľÇľÇľÇľÇľÇľÇľÇľÇľÇľÇľÇľÇľÇľÇľÇľÇľÇľÇľÇľÇľÇľÇľÇľÇľÇľÇľÇľÇľÇľÇľÇľÇľÇľÇľÇľÇľÇľÇľÇľÇľÇľÇľÇľÇľÇľÇľÇľÇľÇľÇľÇľÇľÇľÇľÇľÇľÇľÇľÇľÇľÇľÇľÇľÇľÇľÇľÇľÇľÇľÇľÇľÇľÇľÇľÇľÇľÇľÇľÇľÇľÇľÇľÇľÇľÇľÇľÇľÇľÇľÇľÇľÇľÇľÇľÇľÇľÇľÇľÇľÇľÇľÇľÇľÇľÇľÇľÇľÇľÇľÇľÇľÇľÇľÇľÇľÇľÇľÇľÇľÇľÇľÇľÇľÇľÇľÇľÇľÇľÇľÇľÇľÇľÇľÇľÇľÇľÇľÇľÇľÇľÇľÇľÇľÇľÇľÇľÇľÇľÇľÇľÇľÇľÇľÇľÇľÇľÇľÇľÇľÇľÇľÇľÇľÇľÇľÇľÇľÇľÇľÇľÇľÇľÇľÇľÇľÇľÇľÇľÇľÇľÇľÇľÇľÇľÇľÇľÇľÇľÇľÇľÇľÇľÇľÇľÇľÇľÇľÇľÇľÇľÇľÇľÇľÇľÇľÇľÇľÇľÇľÇľÇľÇľÇľÇľÇľÇľÇľÇľÇľÇľÇľÇľÇľÇľÇľÇľÇľÇľÇľÇľÇľÇľÇľÇľÇľÇľÇľÇľÇľÇľÇľÇľÇľÇľÇľÇľÇľÇľÇľÇľÇľÇľÇľÇľÇľÇľÇľÇľÇľÇľÇľÇľÇľÇľÇľÇľÇľÇľÇľÇľÇľÇľÇľÇľÇľÇľÇľÇľÇľÇľÇľÇľÇľÇľÇľÇľÇľÇľÇľÇľÇľÇľÇľÇľÇľÇľÇľÇľÇľÇľÇľÇľÇľÇľÇľÇľÇľÇľÇľÇľÇľÇľÇľÇľÇľÇľÇľÇľÇľÇľÇľÇľÇľÇľÇľÇľÇľÇľÇľÇľÇľÇľÇľÇľÇľÇľÇľÇľÇľÇľÇľÇľÇľÇľÇľÇľÇľÇľÇľÇľÇľÇľÇľÇľÇľÇľÇľÇľÇľÇľÇľÇľÇľÇľÇľÇľÇľÇľÇľÇľÇľÇľÇľÇľÇľÇľÇľÇľÇľÇľÇľÇľÇľÇľÇľÇľ": 982,
      "ÇŁ": 983,
      "Èĩ": 984,
      "ÇĻ": 985,
      "ÇľÇľÇľÇľÇľÇľÇľÇľÇľÇľÇľÇľÇľÇľÇľÇľÇľÇľÇľÇľÇľÇľÇľÇ": 986,
      "ĦÇ": 987,
      "Çķ": 988,
      "Ç£": 989,
      "Æ©": 990,
      "Ç¥": 991,
      "ÈĴ": 992,
      "ÇĽÇĿ": 993,
      "Æ©È": 994,
      "Çĺ": 995,
      "Çł": 996,
      "ÈĴÈĩ": 997,
      "Æ©ÈĦÇ": 998,
      "ÇľÇľÇľÇľÇľÇľÇľÇľÇľÇľÇľÇľÇľÇľÇľÇľÇľÇľÇľÇľÇľÇľÇľÇľÇľÇľÇľÇľÇľÇľÇľÇĽ": 999,
      "ÇľÇľÇľÇľÇľÇľÇľÇľÇľÇľÇľÇľÇľÇľÇľÇľÇľÇľÇľÇľÇľÇľÇľÇľÇľÇľÇľÇľÇľÇľÇľÇĿ": 1000,
      "Ç¡": 1001,
      "Çĸ": 1002,
      "ÇľÇľÇľÇľÇľÇľÇľÇľÇľÇľÇľÇľÇľÇľÇľÇľÇľÇľÇľÇľÇľÇľÇľÇľÇľÇľÇľÇľ": 1003,
      "Ç¢": 1004,
      "ÇľÇľÇľÇľÇľÇľÇĿ": 1005,
      "ÇĿÇĽ": 1006,
      "Èİ": 1007,
      "ÇľÇľÇľÇľÇľÇľÇľÇľÇľÇľÇľÇľÇľÇľÇľÇľÇľÇľÇľÇľÇľÇľÇľÇľÇľÇľÇľÇľÇľÇľÇľÇľÇľÇľÇľÇľÇľÇľÇľÇľÇľÇľÇľÇľÇľÇľÇľÇľÇľÇľÇľÇľÇľÇľÇľÇľÇľÇľÇľÇľÇľÇľÇľÇľÇľÇľÇľÇľÇľÇľÇľÇľÇľÇľÇľÇľÇľÇľÇľÇľÇľÇľÇľÇľÇľÇľÇľÇľÇľÇľÇľÇľÇľÇľÇľÇľÇľÇľÇľÇľÇľÇľÇľÇľÇľÇľÇľÇľÇľÇľÇľÇľÇľÇľÇľÇľÇľÇľÇľÇľÇľÇľÇľÇľÇľÇľÇľÇľÇľÇľÇľÇľÇľÇľÇľÇľÇľÇľÇľÇľÇľÇľÇľÇľÇľÇľÇľÇľÇľÇľÇľÇľÇľÇľÇľÇľÇľÇľÇľÇľÇľÇľÇľÇľÇľÇľÇľÇľÇľÇľÇľÇľÇľÇľÇľÇľÇľÇľÇľÇľÇľÇľÇľÇľÇľÇľÇľÇľÇľÇľÇľÇľÇľÇľÇľÇľÇľÇľÇľÇľÇľÇľÇľÇľÇľÇľÇľÇľÇľÇľÇľÇľÇľÇľÇľÇľÇľÇľÇľÇľÇľÇľÇľÇľÇľÇľÇľÇľÇľÇľÇľÇľÇľÇľÇľÇľÇľÇľÇľÇľÇľÇľÇľÇľÇľÇľÇľÇľÇľÇľÇľÇľÇľÇľÇľÇľÇľÇľÇľÇľÇľÇľÇľÇľÇľÇľÇľÇľÇľÇľÇľÇľÇľÇľÇľÇľÇľÇľÇľÇľÇľÇľÇľÇľÇľÇľÇľÇľÇľÇľÇľÇľÇľÇľÇľÇľÇľÇľÇľÇľÇľÇľÇľÇľÇľÇľÇľÇľÇľÇľÇľÇľÇľÇľÇľÇľÇľÇľÇľÇľÇľÇľÇľÇľÇľÇľÇľÇľÇľÇľÇľÇľÇľÇľÇľÇľÇľÇľÇľÇľÇľÇľÇľÇľÇľÇľÇľÇľÇľÇľÇľÇľÇľÇľÇľÇľÇľÇľÇľÇľÇľÇľÇľÇľÇľÇľÇľÇľÇľÇľÇľÇľÇľÇľÇľÇľÇľÇľÇľÇľÇľÇľÇľÇľÇľÇľÇľÇľÇľÇľÇľÇľÇľÇľÇľÇľÇľÇľÇľÇľÇľÇľÇľÇľÇľÇľÇľÇľÇľÇľÇľÇľÇľÇľÇľÇľÇľÇľÇľÇľÇľÇľÇľÇľÇľÇľÇľÇľÇľÇľÇľÇľÇľÇľÇľÇľÇľÇľÇľÇľÇľÇľÇľÇľÇľÇľÇľÇľÇľÇľÇľÇľÇľÇľÇľÇľÇľÇľÇľÇľÇľÇľÇľÇľÇľÇľÇľÇľÇľÇľÇľÇľÇľÇľÇľÇľÇľÇľÇľÇľÇľÇľÇľÇľÇľÇľÇľÇľÇľÇľÇľÇľÇľÇľÇľÇľÇľÇľÇľÇľÇľÇľÇľÇľÇľÇľÇľÇľÇľÇľÇľÇľÇľÇľÇľÇľÇľÇľÇľÇľÇľÇľÇľÇľÇľÇľÇľÇľÇľÇľÇľÇľÇľÇľÇľÇľÇľÇľÇľÇľÇľÇľÇľÇľÇľÇľÇľÇľÇľÇľÇľÇľÇľÇľÇľÇľÇľÇľÇľÇľÇľÇľÇľÇľÇľÇľÇľÇľÇľÇľÇľÇľÇľÇľÇľÇľÇľÇľÇľÇľÇľÇľÇľÇľÇľÇľÇľÇľÇľÇľÇľÇľÇľÇľÇľÇľÇľÇľÇľÇľÇľÇľÇľÇľÇľÇľÇľÇľÇľÇľÇľÇľÇľÇľÇľÇľÇľÇľÇľÇľÇľÇľÇľÇľÇľÇľÇľÇľÇľÇľÇľÇľÇľÇľÇľÇľÇľÇľÇľÇľ": 1008,
      "ÇľÇľÇľÇľÇľÇľÇĽ": 1009,
      "Ç¤": 1010,
      "Èĳ": 1011,
      "ÇľÇļ": 1012,
      "Æį": 1013,
      "ÇľÇŀ": 1014,
      "Ç¥Çķ": 1015,
      "ÇĹÇĹ": 1016,
      "ÇĶ": 1017,
      "ÇľÇľÇľÇľÇľÇľÇľÇľÇľÇľÇľÇľÇľÇľÇľÇľÇľÇľÇľÇľÇľÇľÇľÇľÇľÇľÇľÇľÇľÇľÇľÇľÇľÇľÇľÇľÇľÇľÇľÇľÇľÇľÇľÇľÇľÇľÇľÇľÇľÇľÇľÇľÇľÇľÇľÇľÇľÇľÇľÇľÇľÇľÇľÇľÇľÇľÇľÇľÇľÇľÇľÇľÇľÇľÇľÇľÇľÇľÇľÇľÇľÇľÇľÇľÇľÇľÇľÇľÇľÇľÇľÇľÇľÇľÇľÇľ": 1018,
      "ÇľÇľÇľÇľÇľÇľÇľÇľÇľÇľÇľÇľÇľÇľÇľÇľÇľÇľÇľÇľ": 1019,
      "Ç¥ÇķÇŀ": 1020,
      "ÈĳÇĿ": 1021,
      "ÇĹÇĹÇľ": 1022,
      "ÈİÇ£": 1023,
      "ÇľÇľÇľÇľÇľÇľÇľÇľÇľÇľÇľÇľÇľÇľÇľÇľÇľÇľÇľÇľÇľÇľÇľÇľÇľÇľ": 1024,
      "ÇĿÇĿ": 1025,
      "ÈĳÇĿÆ©ÈĦÇ": 1026,
      "ÈİÇ£Æ©ÈĦÇ": 1027,
      "Ç¥ÇķÇŀÈĳÇĿÆ©ÈĦÇ": 1028,
      "ÇĹÇĹÇľÈİÇ£Æ©ÈĦÇ": 1029,
      "ÇĽÇĽ": 1030,
      "Çĵ": 1031,
      "ÇľÇľÇľÇľÇľÇľÇľÇľÇľÇľÇľÇľÇľÇľÇľÇľÇľÇľÇľÇľÇľÇľÇľÇľÇĿ": 1032,
      "ÇľÇľÇľÇĿ": 1033,
      "ÈŁ": 1034,
      "ÈĴÈĩÇľÇľÇľÇľÇľÇľÇľÇľÇľÇľÇľÇľ": 1035,
      "Ç¥ÇķÇŀÈĳÇĿÆ©ÈĦÇĨ": 1036,
      "Ç¦": 1037,
      "ÇľÇľÇľÇĽ": 1038,
      "ÇľÇľÇľÇľÇľÇľÇľÇľÇľÇľÇľÇľÇľÇľÇľÇľÇľÇľÇľÇľÇľÇľÇľÇľÇĽ": 1039,
      "ÇĴ": 1040,
      "µÈĴÈĩ": 1041,
      "Èł": 1042,
      "ÇĹÇĹÇľÈİÇ£Æ©ÈĦÇµÈĴÈĩ": 1043,
      "ÇľÇľÇľÇľÇľÇľÇľÇľÇľÇľÇľÇľÇľÇľÇľÇľÇľÇľÇľÇľÇľÇľÇľÇĽ": 1044,
      "Ç¥ÇķÇŀÈĳÇĿÆ©ÈĦÇĨÈĴÈĩÇľÇľÇľÇľÇľÇľÇľÇľÇľÇľÇľÇľ": 1045,
      "ÇľÇľÇľÇľÇľÇľÇ": 1046,
      "ÇľÇľÇľÇľÇľÇľÇľÇľÇľÇľÇľÇľÇľÇľÇľÇľÇľÇľÇľÇľÇľÇľÇľÇĿ": 1047,
      "Çĳ": 1048,
      "ÇľÇľÇĿ": 1049,
      "ÇľÇľÇľÇľÇĿ": 1050,
      "ÇľÇľÇľÇľÇľÇľÇľÇľÇľÇľÇľÇľÇľÇľÇľÇľÇľÇľ": 1051,
      "Ç§": 1052,
      "ÈŁÆ": 1053,
      "ÇľÇŁ": 1054,
      "ÇľÇĻ": 1055,
      "ÇľÇľÇľÇľÇĽ": 1056,
      "Ç¨": 1057,
      "ÇľÇľÇĽ": 1058,
      "ÇľÇľÇľÇľÇľÇľÇľÇľÇľÇľÇľÇľÇľÇľÇľÇľÇľÇľÇľÇľÇľÇľÇľÇľÇľÇľÇľÇľÇľÇľÇľÇľÇľÇľÇľÇľÇľÇľÇľÇľÇľÇľÇľÇľÇľÇľÇľÇľÇľÇľÇľÇľÇľÇľÇľÇľÇľÇľÇľÇľÇľÇľÇľÇľÇľÇľÇľÇľÇľÇľÇľÇľÇľÇľÇľÇľÇľÇľÇľÇľÇľÇľÇľÇľÇľÇľÇľÇľÇľÇľÇľÇľÇľÇľÇľÇľÇľÇľÇľÇľÇľÇľÇľÇľÇľÇľÇľÇľÇľÇľÇľÇľÇľÇľÇľÇľÇľÇľÇľÇľÇľÇľÇľÇľÇľÇľÇľÇľÇľÇľÇľÇľÇľÇľÇľÇľÇľÇľÇľÇľÇľÇľÇľÇľÇľÇľÇľÇľÇľÇľÇľÇľÇľÇľÇľÇľÇľÇľÇľÇľÇľÇľÇľÇľÇľÇľÇľÇľÇľÇľÇľÇľÇľÇľÇľÇľÇľÇľÇľÇľÇľÇľÇľÇľÇľÇľÇľÇľÇľÇľÇľÇľÇľÇľÇľÇľÇľÇľÇľÇľÇľÇľÇľÇľÇľÇľÇľÇľÇľÇľÇľÇľÇľÇľÇľÇľÇľÇľÇľÇľÇľÇľÇľÇľÇľÇľÇľÇľÇľÇľÇľÇľÇľÇľÇľÇľÇľÇľÇľÇľÇľÇľÇľÇľÇľÇľÇľÇľÇľÇľÇľÇľÇľÇľÇľÇľÇľÇľÇľÇľÇľÇľÇľÇľÇľÇľÇľÇľÇľÇľÇľÇľÇľÇľÇľÇľÇľÇľÇľÇľÇľÇľÇľÇľÇľÇľÇľÇľÇľÇľÇľÇľÇľÇľÇľÇľÇľÇľÇľÇľÇľÇľÇľÇľÇľÇľÇľÇľÇľÇľÇľÇľÇľÇľÇľÇľÇľÇľÇľÇľÇľÇľÇľÇľÇľÇľÇľÇľÇľÇľÇľÇľÇľÇľÇľÇľÇľÇľÇľÇľÇľÇľÇľÇľÇľÇľÇľÇľÇľÇľÇľÇľÇľÇľÇľÇľÇľÇľÇľÇľÇľÇľÇľÇľÇľÇľÇľÇľÇľÇľÇľÇľÇľÇľÇľÇľÇľÇľÇľÇľÇľÇľÇľÇľÇľÇľÇľÇľÇľÇľÇľÇľÇľÇľÇľÇľÇľÇľÇľÇľÇľÇľÇľÇľÇľÇľÇľÇľÇľÇľÇľÇľÇľÇľÇľÇľÇľÇľÇľÇľÇľÇľÇľÇľÇľÇľÇľÇľÇľÇľÇľÇľÇľÇľÇľÇľÇľÇľÇľÇľÇľÇľÇľÇľÇľÇľÇľÇľÇľÇľÇľÇľÇľÇľÇľÇľÇľÇľÇľÇľÇľÇľÇľÇľÇľÇľÇľÇľÇľÇľÇľÇľÇľÇľÇľÇľÇľÇľÇľÇľÇľÇľÇľÇľÇľÇľÇľÇľÇľÇľÇľÇľÇľÇľÇľÇľÇľÇľÇľÇľÇľÇľÇľÇľÇľÇľÇľÇľÇľÇľÇľÇľÇľÇľÇľÇľÇľÇľÇľÇľÇľÇľÇľÇľÇľÇľÇľÇľÇľÇľÇľÇľÇľÇľÇľÇľÇľÇľÇľÇľÇľÇľÇľÇľÇľÇľÇľÇľÇľÇľÇľÇľÇľÇľÇľÇľÇľÇľÇľÇľÇľÇľÇľÇľÇľÇľÇľÇľÇľÇľÇľÇľÇľÇľÇľÇľÇľÇľÇľÇľÇľÇľÇľÇľÇľÇľÇľÇľÇľÇľÇľÇľÇľÇľÇľÇľÇľÇľÇľÇľÇľÇľÇľÇľÇľÇľÇľÇľÇľÇľÇľÇľÇľÇľÇľÇľÇľÇľÇľÇľÇľÇľÇľÇľÇľÇľÇľÇľÇľÇľÇľÇľÇľÇľÇľÇľÇľÇľÇľÇľÇľÇľÇľÇľÇľÇľÇľÇľÇľÇľÇľÇľÇľÇľÇľÇľÇľÇľÇľÇľÇľÇľÇľÇľÇľÇľÇľÇľÇľÇľÇľÇľÇľÇľÇľÇľÇľÇľÇľÇľÇľÇľÇľÇľÇľÇľÇľÇľÇľÇľÇľÇľÇľÇľÇľÇľÇľÇľÇľÇľÇľÇľÇľÇľÇľÇľÇľÇľÇľÇľÇľÇľÇľÇľÇľÇľÇľÇľÇľÇľÇľÇľÇľÇľÇľÇľÇľÇľÇľÇľÇľÇľÇľÇľÇľÇľÇľÇľÇľÇľÇľÇľÇľÇľÇľÇľÇľÇľÇľÇľÇľÇľÇľÇľÇľÇľÇľÇľÇľÇľÇľÇľÇľÇľÇľÇľÇľÇľ": 1059,
      "ÇĲ": 1060,
      "ÇľÇľÇľÇľÇľÇľÇľÇľÇľÇľÇľÇľÇľÇľÇľÇľÇľÇľÇľÇľÇľÇľÇĿ": 1061,
      "ÇľÇľÇľÇľÇľÇľÇľÇľÇľÇľÇľÇľÇľÇľ": 1062,
      "ÇľÇľÇľÇľÇľÇľÇľÇľÇľÇľÇľÇľÇľÇľÇľÇľÇľÇľÇľÇľÇľÇľÇľÇľÇľÇľÇľÇľÇľÇľÇľÇľÇľÇľÇľÇľÇľÇľÇľÇľÇľÇľÇľÇľÇľÇľÇľÇľÇľÇľÇľÇľÇľÇľÇľÇľÇľÇľÇľÇľÇľÇľÇľÇľÇľÇľÇľÇľÇľÇľÇľÇľÇľÇľÇľÇľÇľÇľÇľÇľÇľÇľÇľÇľÇľÇľÇľÇľÇľÇľÇľÇľÇľÇľÇľÇľÇľÇľÇľÇľÇľÇľÇľÇľÇľÇľÇľÇľÇľÇľÇľÇľÇľÇľÇľÇľÇľÇľÇľÇľÇľÇľÇľÇľÇľÇľÇľÇľÇľÇľÇľÇľÇľÇľÇľÇľÇľÇľÇľÇľÇľÇľÇľÇľÇľÇľÇľÇľÇľÇľÇľÇľÇľÇľÇľÇľÇľÇľÇľÇľÇľÇľÇľÇľÇľÇľÇľÇľÇľÇľÇľÇľÇľÇľÇľÇľÇľÇľÇľÇľÇľÇľÇľÇľÇľÇľÇľÇľÇľÇľÇľÇľÇľÇľÇľÇľÇľÇľÇľÇľÇľÇľÇľÇľÇľÇľÇľÇľÇľÇľÇľÇľÇľÇľÇľÇľÇľÇľÇľÇľÇľÇľÇľÇľÇľÇľÇľÇľÇľÇľÇľÇľÇľÇľÇľÇľÇľÇľÇľÇľÇľÇľÇľÇľÇľÇľÇľÇľÇľÇľÇľÇľÇľÇľÇľÇľÇľÇľÇľÇľÇľÇľÇľÇľÇľÇľÇľÇľÇľÇľÇľÇľÇľÇľÇľÇľÇľÇľÇľÇľÇľÇľÇľÇľÇľÇľÇľÇľÇľÇľÇľÇľÇľÇľÇľÇľÇľÇľÇľÇľÇľÇľÇľÇľÇľÇľÇľÇľÇľÇľÇľÇľÇľÇľÇľÇľÇľÇľÇľÇľÇľÇľÇľÇľÇľÇľÇľÇľÇľÇľÇľÇľÇľÇľÇľÇľÇľÇľÇľÇľÇľÇľÇľÇľÇľÇľÇľÇľÇľÇľÇľÇľÇľÇľÇľÇľÇľÇľÇľÇľÇľÇľÇľÇľÇľÇľÇľÇľÇľÇľÇľÇľÇľÇľÇľÇľÇľÇľÇľÇľÇľÇľÇľÇľÇľÇľÇľÇľÇľÇľÇľÇľÇľÇľÇľÇľÇľÇľÇľÇľÇľÇľÇľÇľÇľÇľÇľÇľÇľÇľÇľÇľÇľÇľÇľÇľÇľÇľÇľÇľÇľÇľÇľÇľÇľÇľÇľÇľÇľÇľÇľÇľÇľÇľÇľÇľÇľÇľÇľÇľÇľÇľÇľÇľÇľÇľÇľÇľÇľÇľÇľÇľÇľÇľÇľÇľÇľÇľÇľÇľÇľÇľÇľÇľÇľÇľÇľÇľÇľÇľÇľÇľÇľÇľÇľÇľÇľÇľÇľÇľÇľÇľÇľÇľÇľÇľÇľÇľÇľÇľÇľÇľÇľÇľÇľÇľÇľÇľÇľÇľÇľÇľÇľÇľÇľÇľÇľÇľÇľÇľÇľÇľÇľÇľÇľÇľÇľÇľÇľÇľÇľÇľÇľÇľÇľÇľÇľÇľÇľÇľÇľÇľÇľÇľÇľÇľÇľÇľÇľÇľÇľÇľÇľÇľÇľÇľÇľÇľÇľÇľÇľÇľÇľÇľÇľÇľÇľÇľÇľÇľÇľÇľÇľÇľÇľÇľÇľÇľÇľÇľÇľÇľÇľÇľÇľÇľÇľÇľÇľÇľÇľÇľÇľÇľÇľÇľÇľÇľÇľÇľÇľÇľÇľÇľÇľÇľÇľÇľÇľÇľÇľÇľÇľÇľÇľÇľÇľÇľ": 1063,
      "Ç©": 1064,
      "ÈłÆ": 1065,
      "ÇľÇĽÇĿ": 1066,
      "Çı": 1067,
      "ÇľÇľÇľÇľÇľÇľÇľÇľÇľÇľÇľÇľÇľÇľÇľÇľÇľÇľÇľÇľÇľÇľÇľÇľÇľÇľÇľÇľÇľÇľÇľÇĽÇľÇľÇľÇľÇľÇľÇľÇľÇľÇľÇľÇľÇľÇľÇľÇľÇľÇľÇľÇľÇľÇľÇľÇľÇľÇľÇľÇľÇľÇľÇľÇĽ": 1068,
      "Çª": 1069,
      "ÇľÇľÇľÇľÇľÇľÇľÇľÇľÇľÇľÇľÇľÇľÇľÇľÇľÇľÇľÇľÇľÇľÇĽ": 1070,
      "Ç¬": 1071,
      "ÇľÇľÇľÇľÇľÇľÇľÇľÇľÇľÇľÇľÇľÇľÇľÇľÇľÇľÇľ": 1072,
      "Çİ": 1073,
      "Ç«": 1074,
      "Æķ": 1075,
      "ÆĶ": 1076,
      "ÇļÇŀ": 1077,
      "ÇŃ": 1078,
      "ÇľÇľÇľÇľÇľÇľÇŀ": 1079,
      "Æľ": 1080,
      "Çį": 1081,
      "ÇľÇľÇľÇľÇľÇľÇľÇľÇľÇľÇľÇľÇľÇľÇľÇľÇľÇľÇľÇľÇľÇľÇľÇľÇľÇľÇľÇľÇľ": 1082,
      "ÇĮ": 1083,
      "Çĭ": 1084,
      "ÆĻ": 1085,
      "Ç®": 1086,
      "ÇļÇĿ": 1087,
      "ÇľÇľÇľÇľÇľÇľÇľÇľÇľÇľÇľÇľÇľÇ": 1088,
      "ÇľÇĿÇĽ": 1089,
      "ÇľÇľÇľÇľÇľÇľÇľÇľÇľÇľÇľÇľÇľÇľÇľÇľÇľÇľÇľÇľÇľÇľÇľÇľÇŀ": 1090,
      "ÇľÇľÇľÇľÇľÇľÇľÇľÇľÇľÇľÇľÇľÇľÇľÇľÇľÇľÇľÇľÇľÇľÇľÇľÇľÇľÇľÇľÇľÇľÇľÇĿÇľÇľÇľÇľÇľÇľÇľÇľÇľÇľÇľÇľÇľÇľÇľÇľÇľÇľÇľÇľÇľÇľÇľÇľÇľÇľÇľÇľÇľÇľÇľÇľÇľÇľÇľÇľÇľÇľÇľÇľÇľÇľÇľÇľÇľÇľÇľÇľÇľÇľÇľÇľÇľÇľÇľÇľÇľÇľÇľÇľÇľÇľÇľÇľÇľÇľÇľÇľÇľÇľÇľÇľÇľÇľÇľÇľÇľÇľÇľÇľÇľÇľÇľÇľÇľÇľÇľÇľÇľÇľÇľÇľÇľÇľÇľÇľÇľÇľÇľÇľÇľÇľÇľÇľÇľÇľÇľÇľÇľÇľÇľÇľÇľÇľÇľÇľÇľÇľÇľÇľÇľÇľÇľÇľÇľÇľÇľÇľÇľÇľÇľÇľÇľÇľÇľÇľÇľÇľÇľÇľÇľÇľÇľÇľÇľÇľÇľÇľÇľÇľÇľÇľÇľÇľÇľÇľÇľÇľÇľÇľÇľÇľÇľÇľÇľÇľÇľÇľÇľÇľÇľÇľÇľÇľÇľÇľÇľÇľÇľÇľÇľÇľÇľÇľÇľÇľÇľÇľÇľÇľÇľÇľÇľÇľÇľÇľÇľÇľÇľÇľÇľÇľÇľÇľÇľÇľÇľÇľÇľÇľÇľÇľÇľÇľÇľÇľÇľÇľÇľÇľÇľÇľÇľÇľÇľÇľÇľÇľÇľÇľÇľÇľÇľÇľÇľÇľÇľÇľÇľÇľÇľÇľÇľÇľÇľÇľÇľÇľÇľÇľÇľÇľÇľÇľÇľÇľÇľÇľÇľÇľÇľÇľÇľÇľÇľÇľÇľÇľÇľÇľÇľÇľÇľÇľÇľÇľÇľÇľÇľÇľÇľÇľÇľÇľÇľÇľÇľÇľÇľÇľÇľÇľÇľÇľÇľÇľÇľÇľÇľÇľÇľÇľÇľÇľÇľÇľÇľÇľÇľÇľÇľÇľÇľÇľÇľÇľÇľÇľÇľÇľÇľÇľÇľÇľÇľÇľÇľÇľÇľÇľÇľÇľÇľÇľÇľÇľÇľÇľÇľÇľÇľÇľÇľÇľÇľÇľÇľÇľÇľÇľÇľÇľÇľÇľÇľÇľÇľÇľÇľÇľÇľÇľÇľÇľÇľÇľÇľÇľÇľÇľÇľÇľÇľÇľÇľÇľÇľÇľÇľÇľÇľÇľÇľÇľÇľÇľÇľÇľÇľÇľÇľÇľÇľÇľÇľÇľÇľÇľÇľÇľÇľÇľÇľÇľÇľÇľÇľÇľÇľÇľÇľÇľÇľÇľÇľÇľÇľÇľÇľÇľÇľÇľÇľÇľÇľÇľÇľÇľÇľÇľÇľÇľÇľÇľÇľÇľÇľÇľÇľÇľÇľÇľÇľÇľÇľÇľÇľÇľÇľÇľÇľÇľÇľÇľÇľÇľÇľÇľÇľÇľÇľÇľÇľÇľÇľÇľÇľÇľÇľÇľÇľÇľÇľÇľÇľÇľÇľÇľÇľÇľÇľÇľÇľÇľÇľÇľÇľÇľÇľÇľÇľÇľÇľÇľÇľÇľÇľÇľÇľÇľÇľÇľÇľÇľÇľÇľÇľÇľÇľÇľÇľÇľÇľÇľÇľÇľÇľÇľÇľÇľÇľÇľÇľÇľÇľÇľÇľÇľÇľÇľÇľÇľÇľÇľÇľÇľÇľÇľÇľÇľÇľÇľÇľÇľÇľÇľÇľÇľÇľÇľÇľÇľÇľÇľÇľÇľÇľÇľÇľÇľÇľÇľÇľÇľÇľÇľÇľÇľÇľÇľÇľÇľÇľÇľÇľÇľÇľÇľÇľÇľÇľÇľÇľÇľÇľÇľÇľÇľÇľÇľÇľÇľÇľÇľÇľÇľÇľÇľÇľÇľÇľÇľÇľÇľÇľÇľÇľÇľÇľÇľÇľÇľÇľÇľÇľÇľÇľÇľÇľÇľÇľÇľÇľÇľÇľÇľÇľÇľÇľÇľÇľÇľÇľÇľÇľÇľÇľÇľÇľÇľ": 1091,
      "ĥÇ": 1092,
      "ÇľÇľÇľÇľÇľÇľÇļ": 1093,
      "Æĸ": 1094,
      "ÆĽ": 1095,
      "ÇľÇľÇľÇľÇľÇľÇľÇľÇľÇľÇľÇľÇľÇľÇľÇľÇľÇľÇľÇľÇľÇľÇľÇľÇľÇľÇľÇľÇľÇĽ": 1096,
      "ÇľÇľÇĽÇĿ": 1097,
      "Ç°": 1098,
      "ÇľÇĺ": 1099,
      "ÇľÇł": 1100,
      "ÇĬ": 1101,
      "ÇĽÇŀ": 1102,
      "ÇľÇľÇľÇľÇľÇľÇľÇľÇľÇľÇľÇľÇľÇľÇľÇľÇľÇľÇľÇľÇľÇľÇľÇľÇľÇľÇľÇľÇľÇľ": 1103,
      "ÇľÇľÇľÇľÇľÇľÇľÇľÇľÇľÇľÇľÇľÇľÇľÇľÇľÇľÇľÇľÇľÇľÇľÇľÇľÇľÇľÇľÇľÇľÇľÇĽÇľÇľÇľÇľÇľÇľÇľÇľÇľÇľÇľÇľÇľÇľÇľÇľÇľÇľÇľÇľÇľÇľÇľÇľÇľÇľÇľÇľÇľÇľÇľÇľÇľÇľÇľÇľÇľÇľÇľÇľÇľÇľÇľÇľÇľÇľÇľÇľÇľÇľÇľÇľÇľÇľÇľÇľÇľÇľÇľÇľÇľÇľÇľÇľÇľÇľÇľÇľÇľÇľÇľÇľÇľÇľÇľÇľÇľÇľÇľÇľÇľÇľÇľÇľÇľÇľÇľÇľÇľÇľÇľÇľÇľÇľÇľÇľÇľÇľÇľÇľÇľÇľÇľÇľÇľÇľÇľÇľÇľÇľÇľÇľÇľÇľÇľÇľÇľÇľÇľÇľÇľÇľÇľÇľÇľÇľÇľÇľÇľÇľÇľÇľÇľÇľÇľÇľÇľÇľÇľÇľÇľÇľÇľÇľÇľÇľÇľÇľÇľÇľÇľÇľÇľÇľÇľÇľÇľÇľÇľÇľÇľÇľÇľÇľÇľÇľÇľÇľÇľÇľÇľÇľÇľÇľÇľÇľÇľÇľÇľÇľÇľÇľÇľÇľÇľÇľÇľÇľÇľÇľÇľÇľÇľÇľÇľÇľÇľÇľÇľÇľÇľÇľÇľÇľÇľÇľÇľÇľÇľÇľÇľÇľÇľÇľÇľÇľÇľÇľÇľÇľÇľÇľÇľÇľÇľÇľÇľÇľÇľÇľÇľÇľÇľÇľÇľÇľÇľÇľÇľÇľÇľÇľÇľÇľÇľÇľÇľÇľÇľÇľÇľÇľÇľÇľÇľÇľÇľÇľÇľÇľÇľÇľÇľÇľÇľÇľÇľÇľÇľÇľÇľÇľÇľÇľÇľÇľÇľÇľÇľÇľÇľÇľÇľÇľÇľÇľÇľÇľÇľÇľÇľÇľÇľÇľÇľÇľÇľÇľÇľÇľÇľÇľÇľÇľÇľÇľÇľÇľÇľÇľÇľÇľÇľÇľÇľÇľÇľÇľÇľÇľÇľÇľÇľÇľÇľÇľÇľÇľÇľÇľÇľÇľÇľÇľÇľÇľÇľÇľÇľÇľÇľÇľÇľÇľÇľÇľÇľÇľÇľÇľÇľÇľÇľÇľÇľÇľÇľÇľÇľÇľÇľÇľÇľÇľÇľÇľÇľÇľÇľÇľÇľÇľÇľÇľÇľÇľÇľÇľÇľÇľÇľÇľÇľÇľÇľÇľÇľÇľÇľÇľÇľÇľÇľÇľÇľÇľÇľÇľÇľÇľÇľÇľÇľÇľÇľÇľÇľÇľÇľÇľÇľÇľÇľÇľÇľÇľÇľÇľÇľÇľÇľÇľÇľÇľÇľÇľÇľÇľÇľÇľÇľÇľÇľÇľÇľÇľÇľÇľÇľÇľÇľÇľÇľÇľÇľÇľÇľÇľÇľÇľÇľÇľÇľÇľÇľÇľÇľÇľÇľÇľÇľÇľÇľÇľÇľÇľÇľÇľÇľÇľÇľÇľÇľÇľÇľÇľÇľÇľÇľÇľÇľÇľÇľÇľÇľÇľÇľÇľÇľÇľÇľÇľÇľÇľÇľÇľÇľÇľÇľÇľÇľÇľÇľÇľÇľÇľÇľÇľÇľÇľÇľÇľÇľÇľÇľÇľÇľÇľÇľÇľÇľÇľÇľÇľÇľÇľÇľÇľÇľÇľÇľÇľÇľÇľÇľÇľÇľÇľÇľÇľÇľÇľÇľÇľÇľÇľÇľÇľÇľÇľÇľÇľÇľÇľÇľÇľÇľÇľÇľÇľÇľÇľÇľÇľÇľÇľÇľÇľÇľÇľÇľÇľÇľÇľÇľÇľÇľÇľÇľÇľÇľÇľÇľÇľÇľÇľÇľÇľÇľÇľÇľÇľÇľÇľÇľÇľÇľÇľÇľÇľÇľÇľÇľÇľÇľÇľÇľÇľÇľÇľÇľÇľÇľÇľÇľÇľÇľÇľÇľÇľÇľÇľÇľÇľÇľÇľÇľÇľÇľÇľÇľÇľÇľÇľÇľÇľÇľÇľÇľÇľ": 1104,
      "Ç¯": 1105,
      "ÇľÇľÇľÇľÇľÇľÇľÇĽ": 1106,
      "ÇľÇľÇľÇľÇľÇľÇľÇľÇľÇľÇľÇľÇľÇľÇĿ": 1107,
      "Æļ": 1108,
      "ÇľÇĿÇĿ": 1109,
      "ÆįÇ¥ÇķÇŀÈĳÇĿÆ©ÈĦÇĨÈĴÈĩÇľÇľÇľÇľÇľÇľÇľÇľÇľÇľÇľÇľ": 1110,
      "ÇľÇľÇľÇľÇľÇľÇľÇľÇľÇľÇľÇľÇľÇľÇľÇľÇľÇľÇľÇľÇľÇľÇľÇľÇľÇľÇľÇľÇľÇľÇľÇļ": 1111,
      "ÇľÆ": 1112,
      "Ç±": 1113,
      "ÇľÇľÇľÇľÇľÇľÇľÇĿ": 1114,
      "¸ÈĴÈĩ": 1115,
      "ÇľÇľÇľÇľÇľÇľÇľÇľÇľÇĽ": 1116,
      "ÇĿÈŁÆ": 1117,
      "Çī": 1118,
      "ÇľÇľÇľÇľÇľÇľÇľÇľÇľÇľÇľÇľÇľÇľÇľÇľÇľÇľÇľÇľÇľÇľÇľÇľÇľÇľÇľÇľÇľÇľÇľÇŀ": 1119,
      "ÇŀÇĿ": 1120,
      "ÇĪ": 1121,
      "ÇľÇĽÇľÇľÇľÇľ": 1122,
      "ÇľÇľÇľÇľÇľÇľÇľÇľÇľÇľÇľÇľÇľÇľÇľÇľÇľÇľÇľÇľÇľÇľÇľÇľÇļ": 1123,
      "ÇŀÇĽ": 1124,
      "Ç²": 1125,
      "ÇľÇĿÇľÇľÇľÇľ": 1126,
      "ÇľÇľÇľÇľÇľÇľÇľÇľÇľÇľÇľÇľÇľÇľÇľÇľÇľÇľÇľÇľÇľÇľÇľÇľÇľÇľÇľÇľÇľÇĿ": 1127,
      "Çĩ": 1128,
      "Æĺ": 1129,
      "ÈĲ": 1130,
      "ÆĹ": 1131,
      "ÇľÇľÇľÇľÇľÇľÇľÇľÇľÇĿ": 1132,
      "ÇļÇĽ": 1133,
      "ÇľÇľÇľÇľÇľÇľÇľÇľÇľÇľÇľÇľÇľÇľÇľÇľÇľÇľÇľÇľÇľÇĿ": 1134,
      "ÇĨ": 1135,
      "ÇľÇľÇľÇľÇľÇľÇľÇľÇľÇľÇľÇľÇľÇľÇľÇľÇľÇľÇľÇľÇľÇľÇľÇľÇľÇľÇľÇľÇľÇľÇľÇĿÇľÇľÇľÇľÇľÇľÇľÇľÇľÇľÇľÇľÇľÇľÇľÇľÇľÇľÇľÇľÇľÇľÇľÇľÇľÇľÇľÇľÇľÇľÇľÇĿ": 1136,
      "ÆĿ": 1137,
      "ÇľÇľÇľÇľÇľÇľÇľÇľÇľÇľÇľÇľÇľÇľÇľÇľÇľÇľÇľÇľÇľÇĽ": 1138,
      "Ç³": 1139,
      "Ç´": 1140,
      "ÇĹÇĹÇľÈİÇ£Æ©ÈĦÇ¸ÈĴÈĩ": 1141,
      "Çħ": 1142,
      "ÇľÇľÇľÇľÇľÇľÇľÇľÇľÇľÇľÇľÇľÇľÇľÇľÇľÇľÇľÇľÇľÇľÇľÇľÇľÇľÇľÇľÇľÇľÇľÇľÇľÇľÇľÇľÇľÇľÇľÇľÇľÇľÇľÇľÇľÇľÇľÇľÇľÇľÇľÇľÇľÇľÇľÇľÇľÇľÇľÇľÇľÇľÇľÇĽ": 1143,
      "ÈĨ": 1144,
      "Èģ": 1145,
      "Çµ": 1146,
      "ÇľÇľÇľÇľÇľÇľÇľÇľÇľÇľÇľÇľÇľÇľÇĽ": 1147,
      "Æŀ": 1148,
      "ÆįÇľÇľÇľÇľÇľÇľÇľÇľÇľÇľÇľÇľ": 1149,
      "Èħ": 1150,
      "Çº": 1151,
      "Èĥ": 1152,
      "ÆįÇľÇľÇľÇľÇľÇľÇľÇľÇľÇľÇľÇľÇľÇľÇľÇľÇľÇľÇľÇľÇľÇľ": 1153,
      "ÇľÇ¡": 1154,
      "Èį": 1155,
      "Ç·": 1156,
      "Æĵ": 1157,
      "Ç¸": 1158,
      "ÇľÇľÇľÇľÇľÇľÇľÇľÇľÇľÇľÇľÇľÇĽ": 1159,
      "ÇľÇĹ": 1160,
      "Ç»": 1161,
      "Ç¶": 1162,
      "ÇľÇĽÇľÇĿ": 1163,
      "ÇŀÇļ": 1164,
      "ÈĤ": 1165,
      "ÈłÆĥÇ": 1166,
      "Ç½": 1167,
      "Ç¿": 1168,
      "Ç¼": 1169,
      "ÇĽÇĿÇĿ": 1170,
      "ÇľÇľÇľÇľÇľÇľÇľÇľÇľÇľÇľÇľÇľÇľÇľÇľÇľÇľÇľÇľÇľÇľÇľÇľÇľÇľÇľÇľÇľÇľÇĿ": 1171,
      "Æª": 1172,
      "Ç¹": 1173,
      "ÇľÇľÇľÇľÇľÇľÇľÇľÇľÇľÇľÇľÇľÇľÇľÇľÇľÇľÇľÇľÇľÇľÇľÇľÇŁ": 1174,
      "Æ´": 1175,
      "ÈĢ": 1176,
      "Æ¿": 1177,
      "ÇĤ": 1178,
      "ÇľÇľÇľÇľÇľÇľÇľÇľÇľÇľÇľÇľÇľÇľÇľÇľÇľÇľÇľÇľÇľÇľÇľÇľÇľÇľÇľÇľÇľÇľÇĽ": 1179,
      "ÈĩÇľÇľÇľÇľÇľÇľÇľÇľÇľÇľÇľÇľ": 1180,
      "Æµ": 1181,
      "ÇľÇľÇľÇľÇľÇľÇŁ": 1182,
      "ÇľÇľÇľÇľÇľÇľÇľÇľÇľÇľÇľÇľÇľÇľÇľÇľÇľÇľÇľÇľÇľÇľÇľÇļ": 1183,
      "ÇľÇľÇľÇľÇľÇľÇľÇľÇľÇľÇľÇľÇľÇľÇľÇľÇľÇľÇľÇľÇľÇľÇľÇŀ": 1184,
      "ÇĿÇļ": 1185,
      "ÇĽÇĿÇĽ": 1186,
      "Èī": 1187,
      "Çĥ": 1188,
      "Æ»": 1189,
      "Æ«": 1190,
      "ÇľÇľÇĿÇĽ": 1191,
      "Æ¸": 1192,
      "Èĭ": 1193,
      "Æ¼": 1194,
      "Æ¾": 1195,
      "ÇĻÇŁ": 1196,
      "ÇĢ": 1197,
      "ÈĮ": 1198,
      "ÇĽÇļ": 1199,
      "Èı": 1200,
      "ÇľÇľÇľÇľÇľÇľÇľÇľÇľÇľÇľÇľÇľÇľÇľÇľÇľÇľÇľÇľÇľÇľÇľÇľÇľÇľÇľÇľÇľÇľÇľÇľÇľÇľÇľÇľÇľÇľÇľÇľÇľÇľÇľÇľÇľÇľÇľÇľÇľÇľÇľÇľÇľÇľÇľÇľÇľÇľÇľÇľÇľÇľÇľÇľÇľÇľÇľÇľÇľÇľÇľÇľÇľÇľÇľÇľÇľÇľÇľÇľÇľÇľÇľÇľÇľÇľÇľÇľÇľÇľÇľÇľÇľÇľÇľÇľÇľÇľÇľÇľÇľÇľÇľÇľÇľÇľÇľÇľÇľÇľÇľÇľÇľÇľÇľÇľÇľÇľÇľÇľÇľÇľÇľÇľÇľÇľÇľÇľÇľÇľÇľÇľÇľÇľÇľÇľÇľÇľÇľÇľÇľÇľÇľÇľÇľÇľÇľÇľÇľÇľÇľÇľÇľÇľÇľÇľÇľÇľÇľÇľÇľÇľÇľÇľÇľÇľÇľÇľÇľÇľÇľÇľÇľÇľÇľÇľÇľÇľÇľÇľÇľÇľÇľÇľÇľÇľÇľÇľÇľÇľÇľÇľÇľÇľÇľÇľÇľÇľÇľÇľÇľÇľÇľÇľÇľÇľÇľÇľÇľÇľÇľÇľÇľÇľÇľÇľÇľÇľÇľÇľÇľÇľÇľÇľÇľÇľÇľÇľÇľÇľÇľÇľÇľÇľÇľÇľÇľÇľÇľÇľÇľÇľÇľÇľÇľÇľÇľÇľÇľÇľÇľÇľÇľÇľÇľÇľÇľÇľÇľÇľÇľÇľÇľÇľÇľÇľÇľÇľÇľÇľÇľÇľÇľÇľÇľÇľÇľÇľÇľÇľÇľÇľÇľÇľÇľÇľÇľÇľÇľÇľÇľÇľÇľÇľÇľÇľÇľÇľÇľÇľÇľÇľÇľÇľÇľÇľÇľÇľÇľÇľÇľÇľÇľÇľÇľÇľÇľÇľÇľÇľÇľÇľÇľÇľÇľÇľÇľÇľÇľÇľÇľÇľÇľÇľÇľÇľÇľÇľÇľÇľÇľÇľÇľÇľÇľÇľÇľÇľÇľÇľÇľÇľÇľÇľÇľÇľÇľÇľÇľÇľÇľÇľÇľÇľÇľÇľÇľÇľÇľÇľÇľÇľÇľÇľÇľÇľÇľÇľÇľÇľÇľÇľÇľÇľÇľÇľÇľÇľÇľÇľÇľÇľÇľÇľÇľÇľÇľÇľÇľÇľÇľÇľÇľÇľÇľÇľÇľÇľÇľÇľÇľÇľÇľÇľÇľÇľÇľÇľÇľÇľÇľÇľÇľÇľÇľÇľÇľÇľÇľÇľÇľÇľÇľÇľÇľÇľÇľÇľÇľÇľÇľÇľÇľÇľÇľÇľÇľÇľÇľÇľÇľÇľÇľÇľÇľÇľÇľÇľÇľÇľÇľÇľÇľÇľÇľÇľÇľÇľÇľÇľÇľÇľÇľÇľÇľÇľÇľÇľÇľÇľÇľÇľÇľÇľÇľÇľÇľÇľÇľÇľÇľÇľÇľÇľÇľÇľÇľÇľÇľÇľÇľÇľÇľÇľÇľÇľÇľÇľÇľÇľÇľÇľÇľÇľÇľÇľÇľÇľÇľÇľÇľÇľÇľÇľÇľÇľÇľÇľÇľÇľÇľÇľÇľÇľÇľÇľÇľÇľÇľÇľÇľÇľÇľÇľÇľÇľÇľÇľÇľÇľÇľÇľÇľÇľÇľÇľÇľÇľÇľÇľÇľÇľÇľÇľÇľÇľÇľÇľÇľÇľÇľÇľÇľÇľÇľÇľÇľÇľÇľÇľÇľÇľÇľÇľÇľÇľÇľÇľÇľÇľÇľÇľÇľÇľÇľÇľÇľÇľÇľÇľÇľÇľÇľÇľÇľÇľÇľÇľÇľÇľÇľÇľÇľÇľÇľÇľÇľÇľÇľÇľÇľÇľÇľÇľÇľÇľÇľÇľÇľÇľÇľÇľÇľÇľÇľÇľÇľÇľÇľÇľÇľÇľÇľÇľÇľÇľÇľÇľÇľÇľÇľÇľÇľÇľÇľÇľÇľÇľÇľÇľÇľÇľÇľÇľÇľÇľÇľÇľÇľÇľÇľÇľÇľÇľÇľÇľÇľÇľÇľÇľÇľÇľÇľÇľÇľÇľÇľÇľÇľÇľÇľÇľÇľÇľÇľÇľÇľÇľÇľÇľÇľÇľÇľÇľÇľÇľÇľÇľÇľÇľÇľÇľÇľÇľÇľÇľÇľÇľÇľÇľÇľÇľÇľÇľÇľÇľÇľÇľÇľÇľÇľÇľÇľÇľÇľÇľ": 1201,
      "ÇľÇĿÇľÇĽ": 1202,
      "Çģ": 1203,
      "Æ½": 1204,
      "ÇľÇľÇľÇľÇľÇľÇľÇľÇľÇľÇľÇľÇľÇľÇľÇľÇľÇľÇľÇľÇľÇľÇľÇľÇľÇľÇľÇľÇľÇľÇľÇľÇľÇľÇľÇľÇľÇľÇľÇľÇľÇľÇľÇľÇľÇľÇľÇľÇľÇľÇľÇľÇľÇľÇľÇľÇľÇľÇľÇľÇľÇľÇľÇľÇľÇľÇľÇľÇľÇľÇľÇľÇľÇľÇľÇľÇľÇľÇľÇľÇľÇľÇľÇľÇľÇľÇľÇľÇľÇľÇľÇľÇľÇľÇľÇľÇľÇľÇľÇľÇľÇľÇľÇľÇľÇľÇľÇľÇľÇľÇľÇľÇľÇľÇľÇľÇľÇľÇľÇľÇľÇľÇľÇľÇľÇľÇľÇľÇľÇľÇľÇľÇľÇľÇľÇľÇľÇľÇľÇľÇľÇľÇľÇľÇľÇľÇľÇľÇľÇľÇľÇľÇľÇľÇľÇľÇľÇľÇľÇľÇľÇľÇľÇľÇľÇľÇľÇľÇľÇľÇľÇľÇľÇľÇľÇľÇľÇľÇľÇľÇľÇľÇľÇľÇľÇľÇľÇľÇľÇľÇľÇľÇľÇľÇľÇľÇľÇľÇľÇľÇľÇľÇľÇľÇľÇľÇľÇľÇľÇľÇľÇľÇľÇľÇľÇľÇľÇľÇľÇľÇľÇľÇľÇľÇľÇľÇľÇľÇľÇľÇľÇľÇľÇľÇľÇľÇľÇľÇľÇľÇľÇľÇľÇľÇľÇľÇľÇľÇľÇľÇľÇľÇľÇľÇľÇľÇľÇľÇľÇľÇľÇľÇľÇľÇľÇľÇľÇľÇľÇľÇľÇľÇľÇľÇľÇľÇľÇľÇľÇľÇľÇľÇľÇľÇľÇľÇľÇľÇľÇľÇľÇľÇľÇľÇľÇľÇľÇľÇľÇľÇľÇľÇľÇľÇľÇľÇľÇľÇľÇľÇľÇľÇľÇľÇľÇľÇľÇľÇľÇľÇľÇľÇľÇľÇľÇľÇľÇľÇľÇľÇľÇľÇľÇľÇľÇľÇľÇľÇľÇľÇľÇľÇľÇľÇľÇľÇľÇľÇľÇľÇľÇľÇľÇľÇľÇľÇľÇľÇľÇľÇľÇľÇľÇľÇľÇľÇľÇľÇľÇľÇľÇľÇľÇľÇľÇľÇľÇľÇľÇľÇľÇľÇľÇľÇľÇľÇľÇľÇľÇľÇľÇľÇľÇľÇľÇľÇľÇľÇľÇľÇľÇľÇľÇľÇľÇľÇľÇľÇľÇľÇľÇľÇľÇľÇľÇľÇľÇľÇľÇľÇľÇľÇľÇľÇľÇľÇľÇľÇľÇľÇľÇľÇľÇľÇľÇľÇľÇľÇľÇľÇľÇľÇľÇľÇľÇľÇľÇľÇľÇľÇľÇľÇľÇľÇľÇľÇľÇľÇľÇľÇľÇľÇľÇľÇľÇľÇľÇľÇľÇľÇľÇľÇľÇľÇľÇľÇľÇľÇľÇľÇľÇľÇľÇľÇľÇľÇľÇľÇľÇľÇľÇľÇľÇľÇľÇľÇľÇľÇľÇľÇľÇľÇľÇľÇľÇľÇľÇľÇľÇľÇľÇľÇľÇľÇľÇľÇľÇľÇľÇľÇľÇľÇľÇľÇľÇľÇľÇľÇľÇľÇľÇľÇľÇľÇľÇľÇľÇľÇľÇľÇľÇľÇľÇľÇľÇľÇľÇľÇľÇľÇľÇľÇľÇľÇľÇľÇľÇľÇľÇľÇľÇľÇľÇľÇľÇľÇľÇľÇľÇľÇľÇľÇľÇľÇľÇľÇľÇľÇľÇľÇľÇľÇľÇľÇľÇľÇľÇľÇľÇľÇľÇľÇľÇľÇľÇľÇľÇľÇľÇľÇľÇľÇľÇľÇľÇľÇľÇľÇľÇľÇľÇľÇľÇľÇľÇľÇľÇľÇľÇľ": 1205,
      "Æ¨": 1206,
      "ÈĬ": 1207,
      "ÈĦ": 1208,
      "ÇľÇľÇľÇľÇľÇľÇľÇľÇľÇľÇľÇľÇľÇľÇľÇľÇľÇľÇľÇľÇľÇľÇľÇľÇľÇľÇľÇľÇľÇľÇľÇĿÇľÇľÇľÇľÇľÇľÇľÇľÇľÇľÇľÇľÇľÇľÇľÇľÇľÇľÇľÇľÇľÇľÇľÇľÇľÇľÇľÇľÇľÇľÇľÇĽ": 1209,
      "Æ·": 1210,
      "ÇľÇľÇŀ": 1211,
      "ÇļÇŁ": 1212,
      "Æ¬": 1213,
      "ÇľÇľÇľÇľÇľÇľÇľÇľÇľÇľÇľÇľÇľÇľÇľÇľÇľÇľÇľÇľÇľÇľÇľÇľÇľÇľÇľÇĽ": 1214,
      "Æ¯": 1215,
      "ÆĴ": 1216,
      "Æ°": 1217,
      "Æº": 1218,
      "Ç¾": 1219,
      "ÇĦ": 1220,
      "Æ³": 1221,
      "ÇĻÇĿ": 1222,
      "ÆŁ": 1223,
      "ÇľÇľÇľÇľÇľÇľÇľÇľÇĿ": 1224,
      "Æ²": 1225,
      "ÇľÇľÇľÇľÇľÇľÇĽÇľÇľÇľÇľÇľÇľÇľÇľÇľÇľÇľÇľÇľÇľÇľÇľÇľÇľÇľÇľÇľÇľÇľÇľÇĿ": 1226,
      "ÇľÇ¢": 1227,
      "ÈĪ": 1228,
      "ÇľÇĸ": 1229,
      "ÇľÇľÇľÇľÇľÇľÇľÇľÇľÇľÇľÇľÇľÇľÇľÇľÇľÇľÇľÇľÇľÇľÇľÇľÇł": 1230,
      "ÇľÇľÇľÇľÇľÇľÇľÇľÇľÇľÇľÇľÇľÇľÇľÇľÇľÇľÇľÇľÇľÇľÇľÇľÇľÇľÇľÇľÇľÇľÇľÇľÇľÇľÇľÇľÇľÇľÇľÇľÇľÇľÇľÇľÇľÇľÇľÇľÇľÇľÇľÇľÇľÇľÇľÇľÇľÇľÇľÇľÇľÇľÇľÇľÇľÇľÇľÇľÇľÇľÇľÇľÇľÇľÇľÇľÇľÇľÇľÇľÇľÇľÇľÇľÇľÇľÇľÇľÇľÇľÇľÇľÇľÇľÇľÇľÇľÇľÇľÇľÇľÇľÇľÇľÇľÇľÇľÇľÇľÇľÇľÇľÇľÇľÇľÇľÇľÇľÇľÇľÇľÇľÇľÇľÇľÇľÇľÇľÇľÇľÇľÇľÇľÇľÇľÇľÇľÇľÇľÇľÇľÇľÇľÇľÇľÇľÇľÇľÇľÇľÇľÇľÇľÇľÇľÇľÇľÇľÇľÇľÇľÇľÇľÇľÇľÇľÇľÇľÇľÇľÇľÇľÇľÇľÇľÇľÇľÇľÇľÇľÇľÇľÇľÇľÇľÇľÇľÇľÇľÇľÇľÇľÇľÇľÇľÇľÇľÇľÇľÇľÇľÇľÇľÇľÇľÇľÇľÇľÇľÇľÇľÇľÇľÇľÇľÇľÇľÇľÇľÇľÇľÇľÇľÇľÇľÇľÇľÇľÇľÇľÇľÇľÇľÇľÇľÇľÇľÇľÇľÇľÇľÇľÇľÇľÇľÇľÇľÇľÇľÇľÇľÇľÇľÇľÇľÇľÇľÇľÇľÇľÇľÇľÇľÇľÇľÇľÇľÇľÇľÇľÇľÇľÇľÇľÇľÇľÇľÇľÇľÇľÇľÇľÇľÇľÇľÇľÇľÇľÇľÇľÇľÇľÇľÇľÇľÇľÇľÇľÇľÇľÇľÇľÇľÇľÇľÇľÇľÇľÇľÇľÇľÇľÇľÇľÇľÇľÇľÇľÇľÇľÇľÇľÇľÇľÇľÇľÇľÇľÇľÇľÇľÇľÇľÇľÇľÇľÇľÇľÇľÇľÇľÇľÇľÇľÇľÇľÇľÇľÇľÇľÇľÇľÇľÇľÇľÇľÇľÇľÇľÇľÇľÇľÇľÇľÇľÇľÇľÇľÇľÇľÇľÇľÇľÇľÇľÇľÇľÇľÇľÇľÇľÇľÇľÇľÇľÇľÇľÇľÇľÇľÇľÇľÇľÇľÇľÇľÇľÇľÇľÇľÇľÇľÇľÇľÇľÇľÇľÇľÇľÇľÇľÇľÇľÇľÇľÇľÇľÇľÇľÇľÇľÇľÇľÇľÇľÇľÇľÇľÇľÇľÇľÇľÇľÇľÇľÇľÇľÇľÇľÇľÇľÇľÇľÇľÇľÇľÇľÇľÇľÇľÇľÇľÇľÇľÇľÇľÇľÇľÇľÇľÇľÇľÇľÇľÇľÇľÇľÇľÇľÇľÇľÇľÇľÇľÇľÇľÇľÇľÇľÇľÇľÇľÇľÇľÇľÇľÇľÇľÇľÇľÇľÇľÇľÇľÇľÇľÇľÇľÇľÇľÇľÇľÇľÇľÇľÇľÇľÇľÇľÇľÇľÇľÇľÇľÇľÇľÇľÇľÇľÇľÇľÇľÇľÇľÇľÇľÇľÇľÇľÇľÇľÇľÇľÇľÇľÇľÇľÇľÇľÇľÇľÇľÇľÇľÇľÇľÇľÇľÇľÇľÇľÇľÇľÇľÇľÇľÇľÇľÇľÇľÇľÇľÇľÇľÇľÇľÇľÇľÇľÇľÇľÇľÇľÇľÇľÇľÇľÇľÇľÇľÇľÇľÇľÇľÇľÇľÇľÇľÇľÇľÇľÇľÇľÇľÇľÇľÇľÇľÇľÇľÇľÇľÇľÇľÇľÇľÇľÇľÇľÇľÇľÇľÇľÇľÇľÇľÇľÇľÇľÇľÇľÇľÇľÇľÇľÇľÇľÇľÇľÇľÇľÇľÇľÇľÇľÇľÇľÇľÇľÇľÇľÇľÇľÇľÇľÇľÇľÇľÇľÇľÇľÇľÇľÇľÇľÇľÇľÇľÇľÇľÇľÇľÇľÇľÇľÇľÇľÇľÇľÇľÇľÇľ": 1231,
      "Æ¹": 1232,
      "Æ±": 1233,
      "ÇľÇľÇľÇľÇľÇľÇľÇľÇľÇľÇľÇľÇľÇľÇľÇľÇľÇľÇľÇľÇľÇľÇľÇľÇľÇĽ": 1234,
      "ÆŃ": 1235,
      "ÇľÇľÇľÇľÇľÇľÇľÇľÇľÇľÇľÇľÇľÇľÇľÇľÇľÇľÇľÇľÇľÇľÇľÇľÇľÇľÇľÇľÇľÇľÇľÇľÇľÇľÇľÇľÇľÇľÇľÇľÇľÇľÇľÇľÇľÇľÇľÇľÇľÇľÇľÇľÇľÇľÇľÇľÇľÇľÇľÇľÇľÇľÇľÇľÇľÇľÇľÇľÇľÇľÇľÇľÇľÇľÇľÇľÇľÇľÇľÇľÇľÇľÇľÇľÇľÇľÇľÇľÇľÇľÇľÇľÇľÇľÇľÇľÇľÇľÇľÇľÇľÇľÇľÇľÇľÇľÇľÇľÇľÇľÇľÇľÇľÇľÇľÇľÇľÇľÇľÇľÇľÇľÇľÇľÇľÇľÇľÇľÇľÇľÇľÇľÇľÇľÇľÇľÇľÇľÇľÇľÇľÇľÇľÇľÇľÇľÇľÇľÇľÇľÇľÇľÇľÇľÇľÇľÇľÇľÇľÇľÇľÇľÇľÇľÇľÇľÇľÇľÇľÇľÇľÇľÇľÇľÇľÇľÇľÇľÇľÇľÇľÇľÇľÇľÇľÇľÇľÇľÇľÇľÇľÇľÇľÇľÇľÇľÇľÇľÇľÇľÇľÇľÇľÇľÇľÇľÇľÇľÇľÇľÇľÇľÇľÇľÇľÇľÇľÇľÇľÇľÇľÇľÇľÇľÇľÇľÇľÇľÇľÇľÇľÇľÇľÇľÇľÇľÇľÇľÇľÇľÇľÇľÇľÇľÇľÇľÇľÇľÇľÇľÇľÇľÇľÇľÇľÇľÇľÇľÇľÇľÇľÇľÇľÇľÇľÇľÇľÇľÇľÇľÇľÇľÇľÇľÇľÇľÇľÇľÇľÇľÇľÇľÇľÇľÇľÇľÇľÇľÇľÇľÇľÇľÇľÇľÇľÇľÇľÇľÇľÇľÇľÇľÇľÇľÇľÇľÇľÇľÇľÇľÇľÇľÇľÇľÇľÇľÇľÇľÇľÇľÇľÇľÇľÇľÇľÇľÇľÇľÇľÇľÇľÇľÇľÇľÇľÇľÇľÇľÇľÇľÇľÇľÇľÇľÇľÇľÇľÇľÇľÇľÇľÇľÇľÇľÇľÇľÇľÇľÇľÇľÇľÇľÇľÇľÇľÇľÇľÇľÇľÇľÇľÇľÇľÇľÇľÇľÇľÇľÇľÇľÇľÇľÇľÇľÇľÇľÇľÇľÇľÇľÇľÇľÇľÇľÇľÇľÇľÇľÇľÇľÇľÇľÇľÇľÇľÇľÇľÇľÇľÇľÇľÇľÇľÇľÇľÇľÇľÇľÇľÇľÇľÇľÇľÇľÇľÇľÇľÇľÇľÇľÇľÇľÇľÇľÇľÇľÇľÇľÇľÇľÇľÇľÇľÇľÇľÇľÇľÇľÇľÇľÇľÇľÇľÇľÇľÇľÇľÇľÇľÇľÇľÇľÇľÇľÇľÇľÇľÇľÇľÇľÇľÇľÇľÇľÇľÇľÇľÇľÇľÇľÇľÇľÇľÇľÇľÇľÇľÇľÇľÇľÇľÇľÇľÇľÇľÇľÇľÇľÇľÇľÇľÇľÇľÇľÇľÇľÇľÇľÇľÇľÇľÇľÇľÇľÇľÇľÇľÇľÇľÇľÇľÇľÇľÇľÇľÇľÇľÇľÇľÇľÇľÇľÇľÇľÇľÇľÇľÇľÇľÇľÇľÇľÇľÇľÇľÇľÇľÇľÇľÇľÇľÇľÇľÇľÇľÇľÇľÇľÇľÇľÇľÇľÇľÇľÇľÇľÇľÇľÇľÇľÇľÇľÇľÇľÇľÇľ": 1236,
      "Æ¶": 1237,
      "Èŀ": 1238,
      "Æ®": 1239,
      "Æł": 1240,
      "Ç¥ÇķÇŀÈĳÇĿÆ©ÈĦÇĩ": 1241,
      "ÇľÇľÇľÇľÇľÇľÇľÇľÇľÇľÇľÇľÇľÇľÇľÇľÇľÇľÇľÇľÇľÇľÇľÇľÇľÇľÇľÇľÇľÇľÇľÇľÇľÇľÇľÇľÇľÇľÇľÇľÇľÇľÇľÇľÇľÇľÇľÇľÇľÇľÇľÇľÇľÇľÇľÇľÇľÇľÇľÇľÇľÇľÇľÇľÇľÇľÇľÇľÇľÇľÇľÇľÇľÇľÇľÇľÇľÇľÇľÇľÇľÇľÇľÇľÇľÇľÇľÇľÇľÇľÇľÇľÇľÇľÇľÇľÇľÇľÇľÇľÇľÇľÇľÇľÇľÇľÇľÇľÇľÇľÇľÇľÇľÇľÇľÇľÇľÇľÇľÇľÇľÇľÇľÇľÇľÇľÇľÇľÇľÇľÇľÇľÇľÇľÇľÇľÇľÇľÇľÇľÇľÇľÇľÇľÇľÇľÇľÇľÇľÇľÇľÇľÇľÇľÇľÇľÇľÇľÇľÇľÇľÇľÇľÇľÇľÇľÇľÇľÇľÇľÇľÇľÇľÇľÇľÇľÇľÇľÇľÇľÇľÇľÇľÇľÇľÇľÇľÇľÇľÇľÇľÇľÇľÇľÇľÇľÇľÇľÇľÇľÇľÇľÇľÇľÇľÇľÇľÇľÇľÇľÇľÇľÇľÇľÇľÇľÇľÇľÇľÇľÇľÇľÇľÇľÇľÇľÇľÇľÇľÇľÇľÇľÇľÇľÇľÇľÇľÇľÇľÇľÇľÇľÇľÇľÇľÇľÇľÇľÇľÇľÇľÇľÇľÇľÇľÇľÇľÇľÇľÇľÇľÇľÇľÇľÇľÇľÇľÇľÇľÇľÇľÇľÇľÇľÇľÇľÇľÇľÇľÇľÇľÇľÇľÇľÇľÇľÇľÇľÇľÇľÇľÇľÇľÇľÇľÇľÇľÇľÇľÇľÇľÇľÇľÇľÇľÇľÇľÇľÇľÇľÇľÇľÇľÇľÇľÇľÇľÇľÇľÇľÇľÇľÇľÇľÇľÇľÇľÇľÇľÇľÇľÇľÇľÇľÇľÇľÇľÇľÇľÇľÇľÇľÇľÇľÇľÇľÇľÇľÇľÇľÇľÇľÇľÇľÇľÇľÇľÇľÇľÇľÇľÇľÇľÇľÇľÇľÇľÇľÇľÇľÇľÇľÇľÇľÇľÇľÇľÇľÇľÇľÇľÇľÇľÇľÇľÇľÇľÇľÇľÇľÇľÇľÇľÇľÇľÇľÇľÇľÇľÇľÇľÇľÇľÇľÇľÇľÇľÇľÇľÇľÇľÇľÇľÇľÇľÇľÇľÇľÇľÇľÇľÇľÇľÇľÇľÇľÇľÇľÇľÇľÇľÇľÇľÇľÇľÇľÇľÇľÇľÇľÇľÇľÇľÇľÇľÇľÇľÇľÇľÇľÇľÇľÇľÇľÇľÇľÇľÇľÇľÇľÇľÇľÇľÇľÇľÇľÇľÇľÇľÇľÇľÇľÇľÇľÇľÇľÇľÇľÇľÇľÇľÇľÇľÇľÇľÇľÇľÇľÇľÇľÇľÇľÇľÇľÇľÇľÇľÇľÇľÇľÇľÇľÇľÇľÇľÇľÇľÇľÇľÇľÇľÇľÇľÇľÇľÇľÇľÇľÇľÇľÇľÇľÇľÇľÇľÇľÇľÇľÇľÇľÇľÇľÇľÇľÇľÇľÇľÇľÇľÇľÇľÇľÇľÇľÇľÇľÇľÇľÇľÇľÇľÇľÇľÇľÇľÇľÇľÇľÇľÇľÇľÇľÇľÇľÇľÇľÇľÇľÇľÇľÇľÇľÇľÇľÇľÇľÇľÇľÇľÇľÇľÇľÇľÇľÇľÇľÇľÇľÇľÇľÇľÇľÇľÇľÇľÇľÇľÇľÇľÇľÇľÇľÇľÇľÇľÇľÇľÇľÇľÇľÇľÇľÇľÇľÇľÇľÇľÇľÇľÇľÇľÇľÇľÇľÇľÇľÇľÇľÇľÇľÇľÇľÇľÇľÇľÇľÇľÇľÇľÇľÇľÇľÇľÇľÇľÇľÇľÇľÇľÇľÇľÇľÇľÇľÇľÇľÇľÇľÇľÇľÇľÇľÇľÇľÇľÇľÇľÇľÇľÇľÇľÇľÇľÇľÇľÇľÇľÇľÇľÇľÇľÇľÇľÇľÇľÇľÇľÇľÇľÇľÇľÇľÇľÇľÇľÇľÇľÇľÇľÇľÇľÇľÇľÇľ": 1242,
      "Æ¡": 1243,
      "ÇľÇľÇľÇľÇľÇľÇľÇľÇľÇľÇľÇľÇľÇľÇľÇľÇľÇľÇľÇľÇľÇľÇľÇľÇĻ": 1244,
      "ÇľÇľÇľÇľÇľÇľÇľÇľÇľÇľÇľÇľÇľÇľÇľÇľÇľÇľÇľÇľÇľÇľÇľÇľÇľÇľÇľÇľÇľÇľÇľÇľÇľÇľÇľÇľÇľÇľÇľÇľÇľÇľÇľÇľÇľÇľÇľÇľÇľÇľÇľÇľÇľÇľÇľÇľÇľÇľÇľÇľÇľÇľÇľÇľÇľÇľÇľÇľÇľÇľÇľÇľÇľÇľÇľÇľÇľÇľÇľÇľÇľÇľÇľÇľÇľÇľÇľÇľÇľÇľÇľÇľÇľÇľÇľÇľÇľÇľÇľÇľÇľÇľÇľÇľÇľÇľÇľÇľÇľÇľÇľÇľÇľÇľÇľÇľÇľÇľÇľÇľÇľÇľÇľÇľÇľÇľÇľÇľÇľÇľÇľÇľÇľÇľÇľÇľÇľÇľÇľÇľÇľÇľÇľÇľÇľÇľÇľÇľÇľÇľÇľÇľÇľÇľÇľÇľÇľÇľÇľÇľÇľÇľÇľÇľÇľÇľÇľÇľÇľÇľÇľÇľÇľÇľÇľÇľÇľÇľÇľÇľÇľÇľÇľÇľÇľÇľÇľÇľÇľÇľÇľÇľÇľÇľÇľÇľÇľÇľÇľÇľÇľÇľÇľÇľÇľÇľÇľÇľÇľÇľÇľÇľÇľÇľÇľÇľÇľÇľÇľÇľÇľÇľÇľÇľÇľÇľÇľÇľÇľÇľÇľÇľÇľÇľÇľÇľÇľÇľÇľÇľÇľÇľÇľÇľÇľÇľÇľÇľÇľÇľÇľÇľÇľÇľÇľÇľÇľÇľÇľÇľÇľÇľÇľÇľÇľÇľÇľÇľÇľÇľÇľÇľÇľÇľÇľÇľÇľÇľÇľÇľÇľÇľÇľÇľÇľÇľÇľÇľÇľÇľÇľÇľÇľÇľÇľÇľÇľÇľÇľÇľÇľÇľÇľÇľÇľÇľÇľÇľÇľÇľÇľÇľÇľÇľÇľÇľÇľÇľÇľÇľÇľÇľÇľÇľÇľÇľÇľÇľÇľÇľÇľÇľÇľÇľÇľÇľÇľÇľÇľÇľÇľÇľÇľÇľÇľÇľÇľÇľÇľÇľÇľÇľÇľÇľÇľÇľÇľÇľÇľÇľÇľÇľÇľÇľÇľÇľÇľÇľÇľÇľÇľÇľÇľÇľÇľÇľÇľÇľÇľÇľÇľÇľÇľÇľÇľÇľÇľÇľÇľÇľÇľÇľÇľÇľÇľÇľÇľÇľÇľÇľÇľÇľÇľÇľÇľÇľÇľÇľÇľÇľÇľÇľÇľÇľÇľÇľÇľÇľÇľÇľÇľÇľÇľÇľÇľÇľÇľÇľÇľÇľÇľÇľÇľÇľÇľÇľÇľÇľÇľÇľÇľÇľÇľÇľÇľÇľÇľÇľÇľÇľÇľÇľÇľÇľÇľÇľÇľÇľÇľÇľÇľÇľÇľÇľÇľÇľÇľÇľÇľÇľÇľÇľÇľÇľÇľÇľÇľÇľÇľÇľÇľÇľÇľÇľÇľÇľÇľÇľÇľÇľÇľÇľÇľÇľÇľÇľÇľÇľÇľÇľÇľÇľÇľÇľÇľÇľÇľÇľÇľÇľÇľÇľÇľÇľÇľÇľÇľÇľÇľÇľÇľÇľÇľÇľÇľÇľÇľÇľÇľÇľÇľÇľÇľÇľÇľÇľÇľÇľÇľÇľÇľÇľÇľÇľÇľÇľÇľÇľÇľÇľÇľÇľÇľÇľÇľÇľÇľÇľÇľÇľÇľÇľÇľÇľÇľÇľÇľÇľÇľÇľÇľÇľÇľÇľÇľÇľÇľÇľÇľÇľÇľÇľÇľÇľÇľÇľÇľÇľÇľÇľÇľÇľÇľÇľÇľÇľÇľÇľÇľÇľÇľÇľÇľÇľÇľÇľÇľÇľÇľÇľÇľÇľÇľÇľÇľÇľÇľÇľÇľÇľÇľÇľÇľÇľÇľÇľÇľÇľÇľÇľ": 1245,
      "ÇľÇľÇľÇľÇľÇľÇĻ": 1246,
      "ÇľÇľÇľÇľÇľÇľÇľÇľÇľÇľÇľÇľÇľÇĿ": 1247,
      "ÈĩÇľÇľÇľÇľÇľÇľÇľÇľÇľÇľÇľÇľÇľÇľÇľÇľÇľÇľÇľÇľÇľÇľ": 1248,
      "ÇľÇľÇľÇľÇľÇľÇĿÇľÇľÇľÇľÇľÇľÇľÇľÇľÇľÇľÇľÇľÇľÇľÇľÇľÇľÇľÇľÇľÇľÇľÇľÇĿ": 1249,
      "Ç¥ÇķÇŀÈĳÇĿÆ©ÈĦÇĨÈĴÈĩ": 1250,
      "ÇľÇľÇļ": 1251,
      "ÇĽÇľÇĿ": 1252,
      "ÇľÇľÇľÇľÇľÇľÇľÇľÇľÇľÇľÇľÇľÇľÇľÇľÇľÇľÇľÇľÇľÇľÇľÇľÇľÇľÇľÇľÇľÇľÇľÇľÇľÇľÇľÇľÇľÇľÇľÇľÇľÇľÇľÇľÇľÇľÇľÇľÇľÇľÇľÇľÇľÇľÇľÇľÇľÇľÇľÇľÇľÇľÇľÇľÇľÇľÇľÇľÇľÇľÇľÇľÇľÇľÇľÇľÇľÇľÇľÇľÇľÇľÇľÇľÇľÇľÇľÇľÇľÇľÇľÇľÇľÇľÇľÇľÇľÇľÇľÇľÇľÇľÇľÇľÇľÇľÇľÇľ": 1253,
      "ÇľÇľÇľÇľÇľÇĽ": 1254,
      "ÇĿÈŁÆĦÇ": 1255,
      "ÇŁÇĿ": 1256,
      "ÇľÇľÇľÇľÇľÇľÇľÇľÇľÇľÇľÇľÇľÇľÇľÇľÇľÇľÇľÇľÇľÇľÇľÇľÇľÇľÇľ": 1257,
      "ÇľÇľÇľÇľÇľÇľÇľÇľÇľÇľÇľÇľÇľÇľÇľÇľÇľÇľÇľÇľÇľÇĿÇľÇľÇľÇľÇľÇľÇľÇľÇľÇĿ": 1258,
      "Æ§": 1259,
      "ÈĿ": 1260,
      "Æ¤": 1261,
      "ÇŀÇŀ": 1262,
      "ÇľÇľÇľÇľÇľÇĿ": 1263,
      "ÇľÇ£": 1264,
      "ÇľÇľÇľÇľÇľÇľÇľÇľÇľÇľÇľÇľÇľÇľÇľÇľÇľÇľÇľÇĿ": 1265,
      "ÇĽÇľÇľÇľÇľÇĽ": 1266,
      "ÇľÇľÇľÇľÇľÇľÇľÇľÇľÇľÇľÇľÇľÇľÇľÇľÇľÇľÇľÇľÇľÇľÇľÇľÇľÇľÇľÇľÇľÇľÇľ": 1267,
      "ÈŁÆĦÇ": 1268,
      "ÇľÇľÇľÇľÇľÇľÇľÇľÇľÇľÇľÇľÇľÇľÇľÇľÇľÇľÇľÇľÇľÇĽÇľÇľÇľÇľÇľÇľÇľÇľÇľÇĽ": 1269,
      "ÇľÇĽÇĿÇľÇĿ": 1270,
      "ÇľÇľÇľÇľÇľÇľÇľÇľÇľÇľÇľÇľÇľÇľÇľÇľÇľÇľÇľÇľÇľÇľÇľÇľÇľÇľÇľÇľÇľÇľÇľÇľÇľÇľÇľÇľÇľÇľÇľÇľÇľÇľÇľÇľÇľÇľÇľÇľÇľÇľÇľÇľÇľÇľÇľÇľÇľÇľÇľÇľÇľÇľÇľÇľÇľÇľÇľÇľÇľÇľÇľÇľÇľÇľÇľÇľÇľÇľÇľÇľÇľÇľÇľÇľÇľÇľÇľÇľÇľÇľÇľÇľÇľÇľÇľÇľÇľÇľÇľÇľÇľÇľÇľÇľÇľÇľÇľÇľÇľÇľÇľÇľÇľÇľÇľÇľÇľÇľÇľÇľÇľÇľÇľÇľÇľÇľÇľÇľÇľÇľÇľÇľÇľÇľÇľÇľÇľÇľÇľÇľÇľÇľÇľÇľÇľÇľÇľÇľÇľÇľÇľÇľÇľÇľÇľÇľÇľÇľÇľÇľÇľÇľÇľÇľÇľÇľÇľÇľÇľÇľÇľÇľÇľÇľÇľÇľÇľÇľÇľÇľÇľÇľÇľÇľÇľÇľÇľÇľÇľÇľÇľÇľÇľÇľÇľÇľÇľÇľÇľÇľÇľÇľÇľÇľÇľÇľÇľÇľÇľÇľÇľÇľÇľÇľÇľÇľÇľÇľÇľÇľÇľÇľÇľÇľÇľÇľÇľÇľÇľÇľÇľÇľÇľÇľÇľÇľÇľÇľÇľÇľÇľÇľÇľÇľÇľÇľÇľÇľÇľÇľÇľÇľÇľÇľÇľÇľÇľÇľÇľÇľÇľÇľÇľÇľÇľÇľÇľÇľÇľÇľÇľÇľÇľÇľÇľÇľÇľÇľÇľÇľÇľÇľÇľÇľÇľÇľÇľÇľÇľÇľÇľÇľÇľÇľÇľÇľÇľÇľÇľÇľÇľÇľÇľÇľÇľÇľÇľÇľÇľÇľÇľÇľÇľÇľÇľÇľÇľÇľÇľÇľÇľÇľÇľÇľÇľÇľÇľÇľÇľÇľÇľÇľÇľÇľÇľÇľÇľÇľÇľÇľÇľÇľÇľÇľÇľÇľÇľÇľÇľÇľÇľÇľÇľÇľÇľÇľÇľÇľÇľÇľÇľÇľÇľÇľÇľÇľÇľÇľÇľÇľÇľÇľÇľÇľÇľÇľÇľÇľÇľÇľÇľÇľÇľÇľÇľÇľÇľÇľÇľÇľÇľÇľÇľÇľÇľÇľÇľÇľÇľÇľÇľÇľÇľÇľÇľÇľÇľÇľÇľÇľÇľÇľÇľÇľÇľÇľÇľÇľÇľÇľÇľÇľÇľÇľÇľÇľÇľÇľÇľÇľÇľÇľÇľÇľÇľÇľÇľÇľÇľÇľÇľÇľÇľÇľÇľÇľÇľÇľÇľÇľÇľÇľÇľÇľÇľÇľÇľÇľÇľÇľÇľÇľÇľÇľÇľÇľÇľÇľÇľÇľÇľÇľÇľÇľÇľÇľÇľÇľÇľÇľÇľÇľÇľÇľÇľÇľÇľÇľÇľÇľÇľÇľÇľÇľÇľÇľÇľÇľÇľÇľÇľÇľÇľÇľÇľÇľÇľÇľÇľÇľÇľÇľÇľÇľÇľÇľÇľÇľÇľÇľÇľÇľÇľÇľÇľÇľÇľÇľÇľÇľÇľÇľÇľÇľÇľÇľÇľÇľÇľÇľÇľÇľÇľÇľÇľÇľÇľÇľÇľÇľÇľÇľÇľÇľÇľÇľÇľÇľÇľÇľÇľÇľÇľÇľÇľÇľÇľÇľÇľÇľÇľÇľÇľÇľÇľÇľÇľÇľÇľÇľÇľÇľÇľÇľÇľÇľÇľÇľÇľÇľÇľÇľÇľÇľÇľÇľÇľÇľÇľÇľÇľÇľÇľÇľÇľÇľÇľÇľÇľÇľÇľÇľÇľÇľÇľÇľÇľÇľÇľÇľÇľÇľÇľÇľÇľÇľÇľÇľÇľÇľÇľÇľÇľÇľÇľÇľÇľÇľÇľÇľÇľÇľÇľÇľÇľÇľÇľÇľÇľÇľÇľÇľÇľÇľÇľÇľÇľÇľÇľÇľÇľÇľÇľÇľÇľÇľÇľÇľÇľÇľÇľÇľÇľÇľÇľÇľÇľÇľÇľÇľÇľÇľÇľÇľÇľÇľÇľÇľÇľÇľÇľÇľÇľÇľÇľÇľÇľÇľÇľÇľÇľÇľÇľÇľÇľÇľÇľÇľÇľÇľÇľÇľÇľÇľÇľÇľÇľÇľÇľÇľÇľÇľÇľÇľÇľÇľÇľÇľÇľÇľÇľÇľÇľÇľÇľÇľÇľÇľÇľÇľÇľÇľÇľÇľÇľÇľÇľÇľÇľÇľÇľÇľÇľÇľÇľÇľÇľÇľÇľÇľÇľÇľÇľÇľÇľÇľÇľÇľÇľÇľÇľÇľÇľÇľÇľÇľÇľÇľÇľÇľÇľÇľÇľÇľÇľÇľÇľÇľÇľÇľÇľÇľÇľÇľÇľÇľÇľÇľÇľÇľÇľÇľÇľÇľÇľÇľÇľÇľÇľÇľÇľÇľÇľÇľÇľÇľÇľÇľÇľÇľÇľÇľÇľÇľÇľÇľÇľÇľÇľÇľÇľÇľÇľÇľÇľÇľÇľÇľÇľÇľÇľÇľÇľÇľÇľÇľÇľÇľÇľÇľÇľÇľÇľÇľÇľÇľÇľÇľÇľÇľÇľÇľÇľÇľÇľÇľÇľÇľÇľÇľÇľÇľÇľÇľÇľÇľÇľÇľÇľÇľÇľÇľÇľÇľÇľÇľÇľÇľÇľÇľÇľÇľÇľÇľÇľÇľ": 1271,
      "ÈĩÇ¥ÇķÇŀÈĳÇĿÆ©ÈĦÇĨÈĴÈĩÇľÇľÇľÇľÇľÇľÇľÇľÇľÇľÇľÇľ": 1272,
      "ÇĻÇĽ": 1273,
      "ÇľÇľÇľÇľÇľÇľÇľÇľÇľÇľÇľÇľÇľÇľÇľÇľÇľÇľÇľÇľÇľÇľÇľÇľÇĺ": 1274,
      "ÇŁÇĽ": 1275,
      "ÇľÇľÇľÇľÇľÇľÇľÇľÇľÇľÇľÇľÇľÇľÇľÇľÇľÇľÇľÇľÇľÇľÇľÇľÇľÇľÇľÇľÇľÇľÇľÇŁ": 1276,
      "Æ¥": 1277,
      "ÇľÇľÇľÇľÇľÇľÇľÇľÇľÇľÇľÇľÇľÇľÇľÇľÇľÇľÇľÇľÇľÇľÇľÇľÇľÇľÇľÇľÇľÇľÇľÇľÇľÇľÇľÇľÇľÇľÇľÇľÇľÇľÇľÇľÇľÇľÇľÇľÇľÇľÇľÇľÇľÇľÇľÇľÇľÇľÇľÇľÇľÇľÇľÇľÇľÇľÇľÇľÇľÇľÇľÇľÇľÇľÇľÇľÇľÇľÇľÇľÇľÇľÇľÇľÇľÇľÇľÇľÇľÇľÇľÇľÇľÇľÇľÇľÇľÇľÇľÇľÇľÇľÇľÇľÇľÇľÇľÇľÇľÇľÇľÇľÇľÇľÇľÇľÇľÇľÇľÇľÇľÇľÇľÇľÇľÇľÇľÇľÇľÇľÇľÇľÇľÇľÇľÇľÇľÇľÇľÇľÇľÇľÇľÇľÇľÇľÇľÇľÇľÇľÇľÇľÇľÇľÇľÇľÇľÇľÇľÇľÇľÇľÇľÇľÇľÇľÇľÇľÇľÇľÇľÇľÇľÇľÇľÇľÇľÇľÇľÇľÇľÇľÇľÇľÇľÇľÇľÇľÇľÇľÇľÇľÇľÇľÇľÇľÇľÇľÇľÇľÇľÇľÇľÇľÇľÇľÇľÇľÇľÇľÇľÇľÇľÇľÇľÇľÇľÇľÇľÇľÇľÇľÇľÇľÇľÇľÇľÇľÇľÇľÇľÇľÇľÇľÇľÇľÇľÇľÇľÇľÇľÇľÇľÇľÇľÇľÇľÇľÇľÇľÇľÇľÇľÇľÇľÇľÇľÇľÇľÇľÇľÇľÇľÇľÇľÇľÇľÇľÇľÇľÇľÇľÇľÇľÇľÇľÇľÇľÇľÇľÇľÇľÇľÇľÇľÇľÇľÇľÇľÇľÇľÇľÇľÇľÇľÇľÇľÇľÇľÇľÇľÇľÇľÇľÇľÇľÇľÇľÇľÇľÇľÇľÇľÇľÇľÇľÇľÇľÇľÇľÇľÇľÇľÇľÇľÇľÇľÇľÇľÇľÇľÇľÇľÇľÇľÇľÇľÇľÇľÇľÇľÇľÇľÇľÇľÇľÇľÇľÇľÇľÇľÇľÇľÇľÇľÇľÇľÇľÇľÇľÇľÇľÇľÇľÇľÇľÇľÇľÇľÇľÇľÇľÇľÇľÇľÇľÇľÇľÇľÇľÇľÇľÇľÇľÇľÇľÇľÇľÇľÇľÇľÇľÇľÇľÇľÇľÇľÇľÇľÇľÇľÇľÇľÇľÇľÇľÇľÇľÇľÇľÇľÇľÇľÇľÇľÇľÇľÇľÇľÇľÇľÇľÇľÇľÇľÇľÇľÇľÇľÇľÇľÇľÇľÇľÇľÇľÇľÇľÇľÇľÇľÇľÇľÇľÇľÇľÇľÇľÇľÇľÇľÇľÇľÇľÇľÇľÇľÇľÇľÇľÇľÇľÇľÇľÇľÇľÇľÇľÇľÇľÇľÇľÇľÇľÇľÇľÇľÇľÇľÇľÇľÇľÇľÇľÇľÇľÇľÇľÇľÇľÇľÇľÇľÇľÇľÇľÇľÇľÇľÇľÇľÇľÇľÇľÇľÇľÇľÇľÇľÇľÇľÇľÇľÇľÇľÇľÇľÇľÇľÇľÇľÇľÇľÇľÇľÇľÇľÇľÇľÇľÇľÇľÇľÇľÇľÇľÇľÇľÇľÇľÇľÇľÇľÇľÇľÇľÇľÇľÇľÇľÇľÇľÇľÇľÇľÇľÇľÇľÇľÇľÇľÇľÇľÇľÇľÇľÇľÇľÇľÇľÇľÇľÇľÇľÇľÇľÇľÇľÇľÇľÇľÇľÇľÇľÇľÇľÇľÇľÇľÇľÇľÇľÇľÇľÇľÇľÇľÇľÇľÇľÇľÇľÇľÇľÇľÇľÇľÇľÇľÇľÇľÇľÇľÇľÇľÇľÇľÇľÇľÇľÇľÇľÇľÇľÇľÇľÇľÇľÇľÇľÇľÇľÇľÇľÇľÇľÇľÇľÇľÇľÇľÇľÇľÇľÇľÇľÇľÇľÇľÇľÇľÇľÇľÇľÇľÇľÇľÇľÇľÇľÇľÇľÇľÇľÇľÇľÇľÇľÇľÇľÇľÇľÇľÇľÇľÇľÇľÇľÇľÇľÇľÇľÇľÇľÇľÇľÇľÇľÇľÇľÇľÇľÇľÇľÇľÇľÇľÇľÇľÇľÇľÇľÇľÇľÇľÇľÇľÇľÇľÇľÇľÇľÇľÇľÇľÇľÇľÇľÇľÇľÇľÇľÇľÇľÇľÇľÇľÇľÇľÇľÇľÇľÇľÇľÇľÇľÇľÇľÇľÇľÇľÇľÇľÇľÇľÇľÇľÇľÇľÇľÇľÇľÇľÇľÇľÇľÇľÇľÇľÇľÇľÇľÇľÇľÇľÇľÇľÇľÇľÇľÇľÇľÇľÇľÇľÇľÇľÇľÇľÇľÇľÇľÇľÇľÇľÇľÇľÇľÇľÇľÇľÇľÇľÇľÇľÇľÇľÇľÇľÇľ": 1278,
      "ÇľÇľÇľÇľÇľÇľÇľÇľÇľÇľÇľÇľÇľÇľÇľÇľÇľÇľÇľÇľÇľÇľÇľÇľÇ¡": 1279,
      "ÇľÇķ": 1280,
      "ÇľÇľÇľÇľÇľÇľÇ¥": 1281,
      "ÇľÇľÇľÇľÇľÇľÇľÇľÇľÇľÇľÇľÇľÇľÇľÇľÇľÇľÇľÇľÇľÇľÇļ": 1282,
      "Æ¢": 1283,
      "ÇĿÇŀ": 1284,
      "Ç¥ÇķÇŀÈĳÇĿÆ©ÈĦÇĩÈĴÈĩÇľÇľÇľÇľÇľÇľÇľÇľÇľÇľÇľÇľ": 1285,
      "Èľ": 1286,
      "ÇľÇľÇľÇľÇľÇľÇľÇľÇľÇľÇľÇľÇľÇľÇľÇľÇľÇľÇľÇľÇľÇľÇľÇľÇľÇľÇľÇĿ": 1287,
      "Æ£": 1288,
      "Æİ": 1289,
      "ÇľÇľÇľÇľÇľÇľÇľÇľÇľÇľÇľÇľÇľÇľÇľÇľÇľÇľÇľÇľÇľÇľÇľÇľÇľÇľÇĽ": 1290,
      "Æ¦": 1291,
      "ÇľÇ¤": 1292,
      "ÇľÇľÇľÇľÇľÇľÇľÇľÇľÇľÇľÇľÇľÇľÇľÇľÇľÇľÇľÇľÇľÇľÇľÇľÇľÇľÇľÇľÇľÇľÇľÇľÇľÇľÇľÇľÇľÇľÇľÇľÇľÇľÇľÇľÇľÇľÇľÇľÇľÇľÇľÇľÇľÇľÇľÇľÇľÇľÇľÇľÇľÇľÇľÇľÇľÇľÇľÇľÇľÇľÇľÇľÇľÇľÇľÇľÇľÇľÇľÇľÇľÇľÇľÇľÇľÇľÇľÇľÇľÇľÇľÇľÇľÇľÇľÇľÇľÇľÇľÇľÇľÇľÇľÇľÇľÇľÇľÇľÇľÇľÇľÇľÇľÇľÇľÇľÇľÇľÇľÇľÇľÇľÇľÇľÇľÇľÇľÇľÇľÇľÇľÇľÇľÇľÇľÇľÇľÇľÇľÇľÇľÇľÇľÇľÇľÇľÇľÇľÇľÇľÇľÇľÇľÇľÇľÇľÇľÇľÇľÇľÇľÇľÇľÇľÇľÇľÇľÇľÇľÇľÇľÇľÇľÇľÇľÇľÇľÇľÇľÇľÇľÇľÇľÇľÇľÇľÇľÇľÇľÇľÇľÇľÇľÇľÇľÇľÇľÇľÇľÇľÇľÇľÇľÇľÇľÇľÇľÇľÇľÇľÇľÇľÇľÇľÇľÇľÇľÇľÇľÇľÇľÇľÇľÇľÇľÇľÇľÇľÇľÇľÇľÇľÇľÇľÇľÇľÇľÇľÇľÇľÇľÇľÇľÇľÇľÇľÇľÇľÇľÇľÇľÇľÇľÇľÇľÇľÇľÇľÇľÇľÇľÇľÇľÇľÇľÇľÇľÇľÇľÇľÇľÇľÇľÇľÇľÇľÇľÇľÇľÇľÇľÇľÇľÇľÇľÇľÇľÇľÇľÇľÇľÇľÇľÇľÇľÇľÇľÇľÇľÇľÇľÇľÇľÇľÇľÇľÇľÇľÇľÇľÇľÇľÇľÇľÇľÇľÇľÇľÇľÇľÇľÇľÇľÇľÇľÇľÇľÇľÇľÇľÇľÇľÇľÇľÇľÇľÇľÇľÇľÇľÇľÇľÇľÇľÇľÇľÇľÇľÇľÇľÇľÇľÇľÇľÇľÇľÇľÇľÇľÇľÇľÇľÇľÇľÇľÇľÇľÇľÇľÇľÇľÇľÇľÇľÇľÇľÇľÇľÇľÇľÇľÇľÇľÇľÇľÇľÇľÇľÇľÇľÇľÇľÇľÇľÇľÇľÇľÇľÇľÇľÇľÇľÇľÇľÇľÇľÇľÇľÇľÇľÇľÇľÇľÇľÇľÇľÇľÇľÇľÇľÇľÇľÇľÇľÇľÇľÇľÇľÇľÇľÇľÇľÇľÇľÇľÇľÇľÇľÇľÇľÇľÇľÇľÇľÇľÇľÇľÇľÇľÇľÇľÇľÇľÇľÇľÇľÇľÇľÇľÇľÇľÇľÇľÇľÇľÇľÇľÇľÇľÇľÇľÇľÇľÇľÇľÇľÇľÇľÇľÇľÇľÇľÇľÇľÇľÇľÇľÇľÇľÇľÇľÇľÇľÇľÇľÇľÇľÇľÇľÇľÇľÇľÇľÇľÇľÇľÇľÇľÇľÇľÇľÇľÇľÇľÇľÇľÇľÇľÇľÇľÇľÇľÇľÇľÇľÇľÇľÇľÇľÇľÇľÇľÇľÇľÇľÇľÇľÇľÇľÇľÇľÇľÇľÇľ": 1293,
      "Æĳ": 1294,
      "ÇľÇľÇľÇľÇľÇľÇľÇľÇľÇľÇľÇľÇľÇľÇľÇľÇľÇľÇľÇľÇľÇľÇĿÇĽ": 1295,
      "ÇľÇľÇľÇľÇľÇľÇľÇľÇľÇľÇľÇľÇľÇľÇľÇľÇľÇľÇľÇľÇľÇľÇľÇľÇľÇľÇľÇľÇľÇľÇľÇľÇľÇľÇľÇľÇľÇľÇľÇľÇľÇľÇľÇľÇľÇľÇľÇľÇľÇľÇľÇľÇľÇľÇľÇľÇľÇľÇľÇľÇľÇľÇľÇĿ": 1296,
      "ÇľÇľÇľÇľÇľÇľÇľÇľÇľÇľÇľÇľÇľÇľÇľÇľÇľÇľÇľÇľÇľÇľÇŀ": 1297,
      "ÇľÇľÇľÇľÇľÇľÇľÇľÇľÇľÇľÇľÇľÇľÇľÇľÇľÇľÇľÇľÇľÇľÇľÇĻ": 1298,
      "ÇľÇľÇľÇŀ": 1299,
      "ÇłÇĿ": 1300,
      "ÇĻÇŀ": 1301,
      "ÇľÇľÇľÇľÇľÇľÇľÇľÇľÇľÇľÇľÇľÇľÇľÇľÇľÇľÇľÇľÇľÇľÇľÇŁ": 1302,
      "ÇľÇľÇľÇľÇľÇľÇľÇľÇĽ": 1303,
      "ÇľÇľÇľÇľÇľÇľÇľÇľÇľÇľÇľÇľÇľÇľÇľÇľÇľÇľÇľÇľÇľÇľÇľÇľÇľÇľÇľÇľÇľÇľÇľÇĻ": 1304,
      "Æı": 1305,
      "ÇĺÇĿ": 1306,
      "ÇľÇĽÇľÇĽ": 1307,
      "ÇľÇľÇľÇľÇľÇľÇľÇľÇľÇľÇľÇľÇľÇľÇľÇľÇľÇľÇľÇľÇľÇľÇĽÇĽ": 1308,
      "ÇľÇľÇľÇľÇľÇľÇľÇľÇľÇľÇľÇľÇľÇľÇľÇľÇľÇľÇľÇľÇľÇľÇľÇľÇ¢": 1309,
      "ÆĲ": 1310,
      "ÇľÇľÇľÇľÇľÇľÇ¤": 1311,
      "ÇľÇľÇľÇľÇľÇľÇľÇľÇľÇľÇľÇľÇľÇľÇľÇĽ": 1312,
      "ÇľÇľÇľÇľÇľÇľÇľÇľÇľÇľÇľÇľÇľÇľÇľÇľÇľÇľÇľÇľÇľÇľÇľÇľÇľÇľÇľÇľÇľÇľÇľÇľÇľÇľÇľÇľÇľÇľÇľÇľÇľÇľÇľÇľÇľÇľÇľÇľÇľÇľÇľÇľÇľÇľÇľÇľÇľÇľÇľÇľÇľÇľÇľÇľÇľÇľÇľÇľÇľÇľÇľÇľÇľÇľÇľÇľÇľÇľÇľÇľÇľÇľÇľÇľÇľÇľÇľÇľÇľÇľÇľÇľÇľÇľÇľÇľÇľÇľÇľÇľÇľÇľÇľÇľÇľÇľÇľÇľÇľÇľÇľÇľÇľÇľÇľÇľÇľÇľÇľÇľÇľÇľÇľÇľÇľÇľÇľÇľÇľÇľÇľÇľÇľÇľÇľÇľÇľÇľÇľÇľÇľÇľÇľÇľÇľÇľÇľÇľÇľÇľÇľÇľÇľÇľÇľÇľÇľÇľÇľÇľÇľÇľÇľÇľÇľÇľÇľÇľÇľÇľÇľÇľÇľÇľÇľÇľÇľÇľÇľÇľÇľÇľÇľÇľÇľÇľÇľÇľÇľÇľÇľÇľÇľÇľÇľÇľÇľÇľÇľÇľÇľÇľÇľÇľÇľÇľÇľÇľÇľÇľÇľÇľÇľÇľÇľÇľÇľÇľÇľÇľÇľÇľÇľÇľÇľÇľÇľÇľÇľÇľÇľÇľÇľÇľÇľÇľÇľÇľÇľÇľÇľÇľÇľÇľÇľÇľÇľÇľÇľÇľÇľÇľÇľÇľÇľÇľÇľÇľÇľÇľÇľÇľÇľÇľÇľÇľÇľÇľÇľÇľÇľÇľÇľÇľÇľÇľÇľÇľÇľÇľÇľÇľÇľÇľÇľÇľÇľÇľÇľÇľÇľÇľÇľÇľÇľÇľÇľÇľÇľÇľÇľÇľÇľÇľÇľÇľÇľÇľÇľÇľÇľÇľÇľÇľÇľÇľÇľÇľÇľÇľÇľÇľÇľÇľÇľÇľÇľÇľÇľÇľÇľÇľÇľÇľÇľÇľÇľÇľÇľÇľÇľÇľÇľÇľÇľÇľÇľÇľÇľÇľÇľÇľÇľÇľÇľÇľÇľÇľÇľÇľÇľÇľÇľÇľÇľÇľÇľÇľÇľÇľÇľÇľÇľÇľÇľÇľÇľÇľÇľÇľÇľÇľÇľÇľÇľÇľÇľÇľÇľÇľÇľÇľÇľÇľÇľÇľÇľÇľÇľÇľÇľÇľÇľÇľÇľÇľÇľÇľÇľÇľÇľÇľÇľÇľÇľÇľÇľÇľÇľÇľÇľÇľÇľÇľÇľÇľÇľÇľÇľÇľÇľÇľÇľÇľÇľÇľÇľÇľÇľÇľÇľÇľÇľÇľÇľÇľÇľÇľÇľÇľÇľÇľÇľÇľÇľÇľÇľÇľÇľÇľÇľÇľÇľÇľÇľÇľÇľÇľÇľÇľÇľÇľÇľÇľÇľÇľÇľÇľÇľÇľÇľÇľÇľÇľÇľÇľÇľÇľÇľÇľÇľÇľÇľÇľÇľÇľÇľÇľÇľÇľÇľÇľÇľÇľÇľÇľÇľÇľÇľÇľÇľÇľÇľÇľÇľÇľÇľÇľÇľÇľÇľÇľÇľÇľÇľÇľÇľÇľÇľÇľÇľÇľÇľÇľÇľÇľÇľÇľÇľÇľÇľÇľÇľÇľÇľÇľÇľÇľÇľÇľÇľÇľÇľÇľÇľÇľÇľÇľÇľÇľÇľÇľÇľÇľÇľÇľÇľÇľÇľÇľÇľÇľÇľÇľÇľÇľÇľÇľÇľÇľÇľÇľÇľÇľÇľÇľÇľÇľÇľÇľÇľÇľÇľÇľÇľÇľÇľÇľÇľÇľÇľÇľÇľÇľÇľÇľÇľÇľÇľÇľÇľÇľÇľÇľÇľÇľÇľÇľÇľÇľÇľÇľÇľÇľÇľÇľÇľÇľÇľÇľÇľÇľÇľÇľÇľÇľÇľÇľÇľÇľÇľÇľÇľÇľÇľÇľÇľÇľÇľÇľÇľÇľÇľÇľÇľÇľÇľÇľÇľÇľÇľÇľÇľÇľÇľÇľÇľÇľÇľÇľÇľÇľÇľÇľÇľÇľÇľÇľÇľÇľÇľÇľÇľÇľÇľÇľÇľÇľÇľÇľÇľÇľÇľÇľÇľÇľÇľÇľÇľÇľÇľÇľÇľÇľÇľÇľÇľÇľÇľÇľÇľÇľÇľÇľÇľÇľÇľÇľÇľÇľÇľÇľÇľÇľÇľÇľÇľÇľÇľÇľÇľÇľÇľÇľÇľÇľÇľÇľÇľÇľÇľÇľÇľÇľÇľÇľÇľÇľÇľÇľÇľÇľÇľÇľÇľÇľÇľÇľÇľÇľÇľÇľÇľÇľÇľÇľÇľÇľÇľÇľÇľÇľÇľÇľÇľÇľÇľÇľÇľÇľÇľÇľÇľÇľÇľÇľÇľÇľÇľÇľÇľÇľÇľÇľÇľÇľÇľÇľÇľÇľÇľÇľÇľÇľÇľÇľÇľÇľÇľÇľÇľÇľÇľÇľÇľÇľÇľÇľÇľÇľÇľÇľÇľÇľÇľÇľÇľÇľÇľÇľÇľÇľÇľÇľÇľÇľÇľÇľÇľÇľÇľÇľÇľÇľÇľÇľÇľÇľÇľÇľÇľÇľÇľÇľÇľÇľÇľÇľÇľÇľÇľÇľÇľÇľÇľÇľÇľÇľÇľÇľÇľÇľÇľÇľÇľÇľÇľÇľÇľÇľÇľÇľÇľÇľÇľÇľÇľÇľÇľÇľÇľÇľÇľÇľÇľÇľÇľÇľÇľÇľÇľÇľÇľÇľÇľÇľÇľÇľÇľÇľÇľÇľÇľÇľÇľÇľÇľÇľÇľÇľÇľÇľÇľÇľÇľÇľÇľÇľÇľÇľÇľÇľÇľÇľÇľÇľÇľÇľÇľÇľÇľÇľÇľÇľÇľÇľÇľÇľÇľÇľÇľÇľÇľÇľÇľÇľÇľÇľÇľÇľÇľÇľÇľÇľÇľÇľÇľÇľÇľÇľÇľÇľÇľÇľÇľÇľÇľÇľÇľÇľÇľÇľÇľÇľÇľÇľÇľÇľÇľÇľÇľÇľÇľÇľÇľÇľÇľÇľÇľÇľÇľÇľÇľÇľ": 1313,
      "ÇľÇľÇľÇļ": 1314,
      "ÇľÇĿÇľÇĿ": 1315,
      "ÇľÇľÇĿÇĿ": 1316,
      "ÇľÇľÇľÇľÇľÇľÇľÇľÇľÇľÇľÇľÇľÇľÇľÇľÇľÇľÇľÇľÇľ": 1317,
      "ÇľÇľÇľÇľÇľÇľÇĿÇľÇľÇľÇľÇľÇľÇľÇľÇľÇľÇľÇľÇľÇľÇľÇľÇľÇľÇľÇľÇľÇľÇľÇľÇĽ": 1318,
      "ÇľÇľÇľÇĽÇĿ": 1319,
      "ÇļÇļ": 1320,
      "Ç£ÈłÆ": 1321,
      "ÇľÇĽÇĽÇĿ": 1322,
      "ÇĽÇŁ": 1323,
      "Ç¥ÇĶ": 1324,
      "ÇľÇľÇľÇľÇľÇľÇľÇľÇľÇľÇľÇľÇľÇľÇľÇľÇľÇľÇľÇľÇľÇľÇľÇľÇĽÇĽ": 1325,
      "ÇľÇľÇĽÇĽ": 1326,
      "ÇĹÇĹÇľÈİÇ£Æ©ÈĦÇµÈĴÈĩÇ¤": 1327,
      "ÇĿÇĽÇľÇľÇľÇĿ": 1328,
      "ÇľÇľÇľÇľÇľÇľÇľÇľÇľÇľÇľÇľÇľÇľÇľÇľÇľÇľÇľÇľÇľÇľÇľÇľÇľÇľÇĿ": 1329,
      "ÇľÇľÇľÇľÇľÇľÇľÇľÇľÇľÇľÇľÇľÇľÇľÇĿ": 1330,
      "ÈĽ": 1331,
      "Èª": 1332,
      "ÇĻÇł": 1333,
      "ÇĺÇł": 1334,
      "ÇľÇľÇľÇľÇľÇľÇĽÇľÇľÇľÇľÇľÇľÇľÇľÇľÇľÇľÇľÇľÇľÇľÇľÇľÇľÇľÇľÇľÇľÇľÇľÇĽ": 1335,
      "ÇľÇľÇľÇľÇľÇľÇ¡": 1336,
      "ÇľÇĶ": 1337,
      "ÇľÇľÇľÇľÇľÇľÇł": 1338,
      "ÇľÇľÇľÇľÇľÇľÇľÇľÇľÇľÇľÇľÇľÇľÇľÇľÇľÇľÇľÇľÇľÇľÇľÇľÇľÇľÇľÇľÇľÇľÇľÇĽÇľÇľÇľÇľÇľÇľÇľÇľÇľÇľÇľÇľÇľÇľÇľÇľÇľÇľÇľÇľÇľÇľÇľÇľÇľÇľÇľÇľÇľÇľÇľÇľÇľÇľÇľÇľÇľÇľÇľÇľÇľÇľÇľÇľÇľÇľÇľÇľÇľÇľÇľÇľÇľÇľÇľÇľÇľÇľÇľÇľÇľÇľÇľÇľÇľÇľÇľÇľÇľÇľÇľÇľÇľÇľÇľÇľÇľÇľÇľÇľÇľÇľÇľÇľÇľÇľÇľÇľÇľÇľÇľÇľÇľÇľÇľÇľÇľÇľÇľÇľÇľÇľÇľÇľÇľÇľÇľÇľÇľÇľÇľÇľÇľÇľÇľÇľÇľÇľÇľÇľÇľÇľÇľÇľÇľÇľÇľÇľÇľÇľÇľÇľÇľÇľÇľÇľÇľÇľÇľÇľÇľÇľÇľÇľÇľÇľÇľÇľÇľÇľÇľÇľÇľÇľÇľÇľÇľÇľÇľÇľÇľÇľÇľÇľÇľÇľÇľÇľÇľÇľÇľÇľÇľÇľÇľÇľÇľÇľÇľÇľÇľÇľÇľÇľÇľÇľÇľÇľÇľÇľÇľÇľÇľÇľÇľÇľÇľÇľÇľÇľÇľÇľÇľÇľÇľÇľÇľÇľÇľÇľÇľÇľÇľÇľÇľÇľÇľÇľÇľÇľÇľÇľÇľÇľÇľÇľÇľÇľÇľÇľÇľÇľÇľÇľÇľÇľÇľÇľÇľÇľÇľÇľÇľÇľÇľÇľÇľÇľÇľÇľÇľÇľÇľÇľÇľÇľÇľÇľÇľÇľÇľÇľÇľÇľÇľÇľÇľÇľÇľÇľÇľÇľÇľÇľÇľÇľÇľÇľÇľÇľÇľÇľÇľÇľÇľÇľÇľÇľÇľÇľÇľÇľÇľÇľÇľÇľÇľÇľÇľÇľÇľÇľÇľÇľÇľÇľÇľÇľÇľÇľÇľÇľÇľÇľÇľÇľÇľÇľÇľÇľÇľÇľÇľÇľÇľÇľÇľÇľÇľÇľÇľÇľÇľÇľÇľÇľÇľÇľÇľÇľÇľÇľÇľÇľÇľÇľÇľÇľÇľÇľÇľÇľÇľÇľÇľÇľÇľÇľÇľÇľÇľÇľÇľÇľÇľÇľÇľÇľÇľÇľÇľÇľÇľÇľÇľÇľÇľÇľÇľÇľÇľÇľÇľÇľÇľÇľÇľÇľÇľÇľÇľÇľÇľÇľÇľÇľÇľÇľÇľÇľÇľÇľÇľÇľÇľÇľÇľÇľÇľÇľÇľÇľÇľÇľÇľÇľÇľÇľÇľÇľÇľÇľÇľÇľÇľÇľÇľÇľÇľÇľÇľÇľÇľÇľÇľÇľÇľÇľÇľÇľÇľÇľÇľÇľÇľÇľÇľÇľÇľÇľÇľÇľÇľÇľÇľÇľÇľÇľÇľÇľÇľÇľÇľÇľÇľÇľÇľÇľÇľÇľÇľÇľÇľÇľÇľÇľÇľÇľÇľÇľÇľÇľÇľÇľÇľÇľÇľÇľÇľÇľÇľÇľÇľÇľÇľÇľÇľÇľÇľÇľÇľÇľÇľÇľÇľÇľÇľÇľÇľÇľÇľÇľÇľÇľÇľÇľÇľÇľÇľÇľÇľÇľÇľÇľÇľÇľÇľÇľÇľÇľÇľÇľÇľÇľÇľÇľÇľÇľÇľÇľÇľÇľÇľÇľÇľÇľÇľÇľÇľÇľÇľÇľÇľÇľÇľÇľÇľÇľÇľÇľÇľÇľÇľÇľÇľÇľÇľÇľÇľÇľÇľÇľÇľÇľÇľÇľÇľÇľÇľÇľÇľÇľÇľÇľÇľÇľÇľÇľÇľÇľÇľÇľÇľÇľÇľÇľÇľÇľÇľÇľÇľÇľÇľÇľÇľÇľÇľÇľÇľÇľÇľÇľÇľÇľÇľÇľÇľÇľÇľÇľÇľÇľÇľÇľÇľÇľÇľÇľÇľÇľÇľÇľÇľÇľÇľÇľÇľÇľÇľÇľÇľÇľÇľÇľÇľÇľÇľÇľÇľÇľÇľÇľÇľÇľÇľÇľÇľÇľÇľÇľÇľÇľÇľÇľÇľÇľÇľÇľÇľÇľÇľÇľ": 1339,
      "ÇľÇľÇľÇľÇľÇľÇľÇľÇľÇľÇľÇľÇľÇľÇľÇľÇľÇľÇľÇľÇľÇľÇľÇľÇľÇľÇľÇľÇľÇľÇľÇĽÇľÇľÇľÇľÇľÇľÇľÇľÇľÇľÇľÇľÇľÇľÇľÇľÇľÇľÇľÇľÇľÇľÇľÇľÇľÇľÇľÇľÇľÇľÇľÇĽÇľÇľÇľÇľÇľÇľÇľÇľÇľÇľÇľÇľÇľÇľÇľÇľÇľÇľÇľÇľÇľÇľÇľÇľÇľÇľÇľÇľÇľÇľÇľÇĽÇľÇľÇľÇľÇľÇľÇľÇľÇľÇľÇľÇľÇľÇľÇľÇľÇľÇľÇľÇľÇľÇľÇľÇľÇľÇľÇľÇľÇľÇľÇľÇĽ": 1340,
      "ÇľÇľÇľÇľÇľÇľÇľÇľÇľÇľÇľÇľÇľÇľÇľÇľÇľÇľÇľÇľÇľÇľÇľÇľÇľÇľÇľÇľÇľÇľÇľÇľÇľÇľÇľÇľÇľÇľÇľÇľÇľÇľÇľÇľÇľÇľÇľÇľÇľÇľÇľÇľÇľÇľÇľÇľÇľÇľÇľÇľÇľÇľÇľÇľÇľÇľÇľÇľÇľÇľÇľÇľÇľÇľÇľÇľÇľÇľÇľÇľÇľÇľÇľÇľÇľÇľÇľÇľÇľÇľÇľÇľÇľÇľÇľÇľÇľÇľÇľÇľÇľÇľÇľÇľÇľÇľÇľÇľÇľÇľÇľÇľÇľÇľÇľÇľÇľÇľÇľÇľÇľÇľÇľÇľÇľÇľÇľÇľÇľÇľÇľÇľÇľÇľÇľÇľÇľÇľÇľÇľÇľÇľÇľÇľÇľÇľÇľÇľÇľÇľÇľÇľÇľÇľÇľÇľÇľÇľÇľÇľÇľÇľÇľÇľÇľÇľÇľÇľÇľÇľÇľÇľÇľÇľÇľÇľÇľÇľÇľÇľÇľÇľÇľÇľÇľÇľÇľÇľÇľÇľÇľÇľÇľÇľÇľÇľÇľÇľÇľÇľÇľÇľÇľÇľÇľÇľÇľÇľÇľÇľÇľÇľÇľÇľÇľÇľÇľÇľÇľÇľÇľÇľÇľÇľÇľÇľÇľÇľÇľÇľÇľÇľÇľÇľÇľÇľÇľÇľÇľÇľÇľÇľÇľÇľÇľÇľÇľÇľÇľÇľÇľÇľÇľÇľÇľÇľÇľÇľÇľÇľÇľÇľÇľÇľÇľÇľÇľÇľÇľÇľÇľÇľÇľÇľÇľÇľÇľÇľÇľÇľÇľÇľÇľÇľÇľÇľÇľÇľÇľÇľÇľÇľÇľÇľÇľÇľÇľÇľÇľÇľÇľÇľÇľÇľÇľÇľÇľÇľÇľÇľÇľÇľÇľÇľÇľÇľÇľÇľÇľÇľÇľÇľÇľÇľÇľÇľÇľÇľÇľÇľÇľÇľÇľÇľÇľÇľÇľÇľÇľÇľÇľÇľÇľÇľÇľÇľÇľÇľÇľÇľÇľÇľÇľÇľÇľÇľÇľÇľÇľÇľÇľÇľÇľÇľÇľÇľÇľÇľÇľÇľÇľÇľÇľÇľÇľÇľÇľÇľÇľÇľÇľÇľÇľÇľÇľÇľÇľÇľÇľÇľÇľÇľÇľÇľÇľÇľÇľÇľÇľÇľÇľÇľÇľÇľÇľÇľÇľÇľÇľÇľÇľÇľÇľÇľÇľÇľÇľÇľÇľÇľÇľÇľÇľÇľÇľÇľÇľÇľÇľÇľÇľÇľÇľÇľÇľÇľÇľÇľÇľÇľÇľÇľÇľÇľÇľÇľÇľÇľÇľÇľÇľÇľÇľÇľÇľÇľÇľÇľÇľÇľÇľÇľÇľÇľÇľÇľÇľÇľÇľÇľÇľÇľÇľÇľÇľÇľÇľÇľÇľÇľÇľÇľÇľÇľÇľÇľÇľÇľÇľÇľÇľÇľÇľÇľÇľÇľÇľÇľÇľÇľÇľÇľÇľÇľÇľÇľÇľÇľÇľÇľÇľÇľÇľÇľÇľÇľÇľÇľÇľÇľÇľÇľÇľÇľÇľÇľÇľÇľÇľÇľÇľÇľÇľÇľÇľÇľÇľÇľÇľÇľÇľÇľÇľÇľÇľÇľÇľÇľÇľÇľÇľÇľÇľÇľÇľÇľÇľÇľÇľÇľÇľÇľÇľÇľÇľÇľÇľÇľÇľÇľÇľÇľÇľÇľÇľÇľÇľÇľÇľÇľÇľÇľÇľÇľÇľÇľÇľÇľÇľÇľÇľÇľÇľÇľÇľÇľÇľÇľÇľÇľÇľÇľÇľÇľÇľÇľÇľÇľÇľÇľÇľÇľÇľÇľÇľÇľÇľÇľÇľÇľÇľÇľÇľÇľÇľÇľÇľÇľÇľÇľÇľÇľÇľÇľÇľÇľÇľÇľÇľÇľÇľÇľÇľÇľÇľÇľÇľÇľÇľÇľÇľÇľÇľÇľÇľÇľÇľÇľÇľÇľÇľÇľÇľÇľÇľÇľÇľÇľÇľÇľÇľÇľÇľÇľÇľÇľÇľÇľÇľÇľÇľÇľÇľÇľÇľÇľÇľÇľÇľÇľÇľÇľÇľÇľÇľÇľÇľÇľÇľÇľÇľÇľÇľÇľÇľÇľÇľÇľÇľÇľÇľÇľÇľÇľÇľÇľÇľÇľÇľÇľÇľÇľÇľÇľÇľÇľÇľÇľÇľÇľÇľÇľÇľÇľÇľÇľÇľÇľÇľÇľÇľÇľÇľÇľÇľÇľÇľÇľÇľÇľÇľÇľÇľÇľÇľÇľÇľÇľÇľÇľÇľÇľÇľÇľÇľÇľÇľÇľÇľÇľÇľÇľÇľÇľÇľÇľÇľÇľÇľÇľÇľÇľÇľÇľÇľÇľÇľÇľÇľÇľÇľÇľÇľÇľÇľÇľÇľÇľÇľÇľÇľÇľÇľÇľÇľÇľÇľÇľÇľÇľÇľÇľÇľÇľÇľÇľÇľÇľÇľÇľÇľÇľÇľÇľÇľÇľÇľÇľÇľÇľÇľÇľ": 1341,
      "Èļ": 1342,
      "ÇľÇľÇľÇľÇľÇľÇľÇľÇľÇľÇľÇľÇľÇľÇľÇ": 1343,
      "ÇľÇľÇľÇľÇľÇľÇľÇľÇľÇľÇľÇľÇľÇľÇľÇľÇľ": 1344,
      "ÇŁÇĻ": 1345,
      "ÇľÇľÇľÇľÇľÇľÇľÇľÇľÇľÇľÇľÇľÇľÇľÇľÇľÇľÇľÇľÇľÇľÇľÇľÇľÇĿ": 1346,
      "ÇľÇ¥": 1347,
      "ÇĺÇĹ": 1348,
      "ÇľÇľÇľÇľÇľÇľÇľÇľÇľÇľÇľÇľÇľÇľÇľÇľÇľÇľÇľÇĽ": 1349,
      "ÇľÇľÇľÇľÇľÇľÇľÇľÇľÇľÇľÇľÇľÇľÇľÇľÇľÇľÇľÇľÇľÇľÇľÇľÇ£": 1350,
      "ÇĦÇ": 1351,
      "ÇľÇĵ": 1352,
      "ÇŁÇŀ": 1353,
      "ÇľÇľÇľÇľÇľÇľÇľÇľÇľÇľÇľÇľÇľÇľÇ": 1354,
      "ÇĹÇĸ": 1355,
      "ÇĽÇĻ": 1356,
      "ÇľÇľÇľÇľÇľÇľÇľÇľÇľÇľÇľÇľÇľÇŀ": 1357,
      "Ç¡ÇĿ": 1358,
      "ÇľÇľÇľÇľÇľÇľÇľÇľÇľÇľÇľÇľÇľÇľÇľÇľÇľÇľÇľÇľÇľÇľÇľÇľÇľÇľÇľÇľÇľÇľÇľÇĿÇľÇľÇľÇľÇľÇľÇľÇľÇľÇľÇľÇľÇľÇľÇľÇľÇľÇľÇľÇľÇľÇľÇľÇľÇľÇľÇľÇľÇľÇľÇľÇľÇľÇľÇľÇľÇľÇľÇľÇľÇľÇľÇľÇľÇľÇľÇľÇľÇľÇľÇľÇľÇľÇľÇľÇľÇľÇľÇľÇľÇľÇľÇľÇľÇľÇľÇľÇľÇľÇľÇľÇľÇľÇľÇľÇľÇľÇľÇľÇľÇľÇľÇľÇľÇľÇľÇľÇľÇľÇľÇľÇľÇľÇľÇľÇľÇľÇľÇľÇľÇľÇľÇľÇľÇľÇľÇľÇľÇľÇľÇľÇľÇľÇľÇľÇľÇľÇľÇľÇľÇľÇľÇľÇľÇľÇľÇľÇľÇľÇľÇľÇľÇľÇľÇľÇľÇľÇľÇľÇľÇľÇľÇľÇľÇľÇľÇľÇľÇľÇľÇľÇľÇľÇľÇľÇľÇľÇľÇľÇľÇľÇľÇľÇľÇľÇľÇľÇľÇľÇľÇľÇľÇľÇľÇľÇľÇľÇľÇľÇľÇľÇľÇľÇľÇľÇľÇľÇľÇľÇľÇľÇľÇľÇľÇľÇľÇľÇľÇľÇľÇľÇľÇľÇľÇľÇľÇľÇľÇľÇľÇľÇľÇľÇľÇľÇľÇľÇľÇľÇľÇľÇľÇľÇľÇľÇľÇľÇľÇľÇľÇľÇľÇľÇľÇľÇľÇľÇľÇľÇľÇľÇľÇľÇľÇľÇľÇľÇľÇľÇľÇľÇľÇľÇľÇľÇľÇľÇľÇľÇľÇľÇľÇľÇľÇľÇľÇľÇľÇľÇľÇľÇľÇľÇľÇľÇľÇľÇľÇľÇľÇľÇľÇľÇľÇľÇľÇľÇľÇľÇľÇľÇľÇľÇľÇľÇľÇľÇľÇľÇľÇľÇľÇľÇľÇľÇľÇľÇľÇľÇľÇľÇľÇľÇľÇľÇľÇľÇľÇľÇľÇľÇľÇľÇľÇľÇľÇľÇľÇľÇľÇľÇľÇľÇľÇľÇľÇľÇľÇľÇľÇľÇľÇľÇľÇľÇľÇľÇľÇľÇľÇľÇľÇľÇľÇľÇľÇľÇľÇľÇľÇľÇľÇľÇľÇľÇľÇľÇľÇľÇľÇľÇľÇľÇľÇľÇľÇľÇľÇľÇľÇľÇľÇľÇľÇľÇľÇľÇľÇľÇľÇľÇľÇľÇľÇľÇľÇľÇľÇľÇľÇľÇľÇľÇľÇľÇľÇľÇľÇľÇľÇľÇľÇľÇľÇľÇľÇľÇľÇľÇľÇľÇľÇľÇľÇľÇľÇľÇľÇľÇľÇľÇľÇľÇľÇľÇľÇľÇľÇľÇľÇľÇľÇľÇľÇľÇľÇľÇľÇľÇľÇľÇľÇľÇľÇľÇľÇľÇľÇľÇľÇľÇľÇľÇľÇľÇľÇľÇľÇľÇľÇľÇľÇľÇľÇľÇľÇľÇľÇľÇľÇľÇľÇľÇľÇľÇľÇľÇľÇľÇľÇľÇľÇľÇľÇľÇľÇľÇľÇľÇľÇľÇľÇľÇľÇľÇľÇľÇľÇľÇľÇľÇľÇľÇľÇľÇľÇľÇľÇľÇľÇľÇľÇľÇľÇľÇľÇľÇľÇľÇľÇľÇľÇľÇľÇľÇľÇľÇľÇľÇľÇľÇľÇľÇľÇľÇľÇľÇľÇľÇľÇľÇľÇľÇľÇľÇľÇľÇľÇľÇľÇľÇľÇľÇľÇľÇľÇľÇľÇľÇľÇľÇľÇľÇľÇľÇľÇľÇľÇľÇľÇľÇľÇľÇľÇľÇľÇľÇľÇľÇľÇľÇľÇľÇľÇľÇľÇľÇľÇľÇľÇľÇľÇľÇľÇľÇľÇľÇľÇľÇľÇľÇľÇľÇľÇľÇľÇľÇľÇľÇľÇľÇľÇľÇľÇľÇľÇľÇľÇľÇľÇľÇľÇľÇľÇľÇľÇľÇľÇľÇľÇľÇľÇľÇľÇľÇľÇľÇľÇľÇľÇľÇľÇľÇľÇľÇľÇľÇľÇľÇľÇľÇľÇľÇľÇľÇľÇľÇľÇľÇľÇľÇľ": 1359,
      "ÇľÇļÇŀ": 1360,
      "Ç£ÈłÆĥÇ": 1361,
      "ÇľÇĿÇĽÇĿ": 1362,
      "ÇŁÇļ": 1363,
      "ÇľÇľÇľÇľÇľÇľÇľÇľÇľÇľÇľÇľÇľÇľÇľÇľÇľÇľÇľÇľÇľÇľÇľÇĽÇĿ": 1364,
      "ÇľÇľÇľÇľÇľÇľÇľÇľÇľÇľÇľÇľÇľÇľÇľÇľÇľÇľÇľÇľÇľÇľÇĿÇĿ": 1365,
      "ÇŀÇĻ": 1366,
      "ÇľÇľÇľÇľÇľÇľÇĶ": 1367,
      "ÇľÇľÇľÇľÇľÇľÇľÇľÇľÇľÇľÇľÇľÇľÇľÇľÇľÇľÇľÇľÇľÇľÇĽÇĿ": 1368,
      "Èĵ": 1369,
      "Æħ": 1370,
      "ÇľÇľÇľÇľÇľÇľÇĹ": 1371,
      "ÇľÇľÇľÇľÇľÇľÇľÇľÇľÇľÇľÇľÇľÇľÇľÇľÇľÇľÇľÇľÇľÇľÇľÇľÇĿÇĿ": 1372,
      "ÇľÇľÇľÇľÇľÇľÇľÇľÇľÇľÇľÇľÇľÇľÇŀ": 1373,
      "ÇĹÇĿ": 1374,
      "ÇľÇľÇľÇľÇľÇľÇľÇľÇľÇľÇľÇľÇľÇļ": 1375,
      "ÇľÇĳ": 1376,
      "ÇľÇĿÇľÇľÇľÇľÇĿ": 1377,
      "ÇľÇĽÇĽ": 1378,
      "ÇľÇľÇľÇľÇľÇľÇľÇľÇľÇľÇľÇľÇľÇľÇľÇľÇľÇľÇľÇľÇľÇľÇľÇľÇľÇľÇľÇľÇľÇľÇľÇľÇľÇľÇľÇľÇľÇľÇľÇľÇľÇľÇľÇľÇľÇľÇľÇľÇľÇľÇľÇľÇľÇľÇľÇľÇľÇľÇľÇľÇľÇľÇľÇĽÇľÇľÇľÇľÇľÇľÇľÇľÇľÇľÇľÇľÇľÇľÇľÇľÇľÇľÇľÇľÇľÇľÇľÇľÇľÇľÇľÇľÇľÇľÇľÇľÇľÇľÇľÇľÇľÇľÇľÇľÇľÇľÇľÇľÇľÇľÇľÇľÇľÇľÇľÇľÇľÇľÇľÇľÇľÇľÇľÇľÇľÇľÇľÇĽ": 1379,
      "ÈĹ": 1380,
      "Å§": 1381,
      "ÇľÇľÇľÇľÇľÇľÇľÇľÇľÇľÇľÇľÇľÇľÇľÇľÇľÇľÇľÇľÇľÇľÇľÇĺ": 1382,
      "ÇľÇľÇŁ": 1383,
      "ÇľÇ¦": 1384,
      "ÇĿÈŁ": 1385,
      "ÇľÇľÇľÇľÇľÇľÇĵ": 1386,
      "ÈĶ": 1387,
      "ÇĿÇľÇľÇľÇľÇĿ": 1388,
      "ÇľÇľÇľÇľÇľÇľÇľÇľÇľÇľÇľÇľÇľÇľÇľÇľÇľÇľÇľÇľÇľÇľÇľÇľÇľÇľÇľÇľÇľÇľÇĽÇĿ": 1389,
      "ÇĽÇĺ": 1390,
      "Èķ": 1391,
      "ÇľÇĽÇĿÇĽ": 1392,
      "Èĺ": 1393,
      "ÈĻ": 1394,
      "ÇľÇľÇľÇľÇľÇľÇľÇľÇľÇľÇľÇľÇľÇľÇľÇľÇľÇľÇľÇľÇľÇľÇľÇľÇľÇľÇľÇľÇĽ": 1395,
      "ÇľÇľÇľÇľÇľÇľÇĺ": 1396,
      "È«": 1397,
      "ÇľÇľÇľÇľÇľÇľÇľÇľÇľÇľÇľÇľÇľÇľÇľÇľÇľÇľÇľÇľÇľÇľÇľÇľÇĹ": 1398,
      "ÇľÇľÇľÇľÇľÇľÇľÇľÇľÇľÇľÇľÇľÇľÇľÇľÇľÇľÇľÇľÇľÇľÇľÇľÇľÇľÇľÇľÇľÇľÇľÇľÇľÇľÇľÇľÇľÇľÇľÇľÇľÇľÇľÇľÇľÇľÇľÇľÇľÇľÇľÇľÇľÇľÇľÇľÇľÇľÇľÇľÇľÇľÇľÇľÇľÇľÇľÇľÇľÇľÇľÇľÇľÇľÇľÇľÇľÇľÇľÇľÇľÇľÇľÇľÇľÇľÇľÇľÇľÇľÇľÇľÇľÇľÇľÇľÇľÇľÇľÇľÇľÇľÇľÇľÇľÇľÇľÇľÇľÇľÇľÇľÇľÇľÇľÇľÇľÇľÇľÇľÇľÇľÇľÇľÇľÇľÇľÇľÇľÇľÇľÇľÇľÇľÇľÇľÇľÇľÇľÇľÇľÇľÇľÇľÇľÇľÇľÇľÇľÇľÇľÇľÇľÇľÇľÇľÇľÇľÇľÇľÇľÇľÇľÇľÇľÇľÇľÇľÇľÇľÇľÇľÇľÇľÇľÇľÇľÇľÇľÇľÇľÇľÇľÇľÇľÇľÇľÇľÇľÇľÇľÇľÇľÇľÇľÇľÇľÇľÇľÇľÇľÇľÇľÇľÇľÇľÇľÇľÇľÇľÇľÇľÇľÇľÇľÇľÇľÇľÇľÇľÇľÇľÇľÇľÇľÇľÇľÇľÇľÇľÇľÇľÇľÇľÇľÇľÇľÇľÇľÇľÇľÇľÇľÇľÇľÇľÇľÇľÇľÇľÇľÇľÇľÇľÇľÇľÇľÇľÇľÇľÇľÇľÇľÇľÇľÇľÇľÇľÇľÇľÇľÇľÇľÇľÇľÇľÇľÇľÇľÇľÇľÇľÇľÇľÇľÇľÇľÇľÇľÇľÇľÇľÇľÇľÇľÇľÇľÇľÇľÇľÇľÇľÇľÇľÇľÇľÇľÇľÇľÇľÇľÇľÇľÇľÇľÇľÇľÇľÇľÇľÇľÇľÇľÇľÇľÇľÇľÇľÇľÇľÇľÇľÇľÇľÇľÇľÇľÇľÇľÇľÇľÇľÇľÇľÇľÇľÇľÇľÇľÇľÇľÇľÇľÇľÇľÇľÇľÇľÇľÇľÇľÇľÇľÇľÇľÇľÇľÇľÇľÇľÇľÇľÇľÇľÇľÇľÇľÇľÇľÇľÇľÇľÇľÇľÇľÇľÇľÇľÇľÇľÇľÇľÇľÇľÇľÇľÇľÇľÇľÇľÇľÇľÇľÇľÇľÇľÇľÇľÇľÇľÇľÇľÇľÇľÇľÇľÇľÇľÇľÇľÇľÇľÇľÇľÇľÇľÇľÇľÇľÇľÇľÇľÇľÇľÇľÇľÇľÇľÇľÇľÇľÇľÇľÇľÇľÇľÇľÇľÇľÇľÇľÇľÇľÇľÇľÇľÇľÇľÇľÇľÇľÇľÇľÇľÇľÇľÇľÇľÇľÇľÇľÇľÇľÇľÇľÇľÇľÇľÇľÇľÇľÇľÇľÇľÇľÇľÇľÇľÇľÇľÇľÇľÇľÇľÇľÇľÇľÇľÇľÇľÇľÇľÇľÇľÇľÇľÇľÇľÇľÇľÇľÇľÇľÇľÇľÇľÇľÇľÇľÇľÇľÇľÇľÇľÇľÇľÇľÇľÇľÇľÇľÇľÇľÇľÇľÇľÇľÇľÇľÇľÇľÇľÇľÇľÇľÇľÇľÇľÇľÇľÇľÇľÇľÇľÇľÇľÇľÇľÇľÇľÇľÇľÇľÇľÇľÇľÇľÇľÇľÇľÇľÇľÇľÇľÇľÇľÇľÇľÇľÇľÇľÇľÇľÇľÇľÇľÇľÇľÇľÇľÇľÇľÇľÇľÇľÇľÇľÇľÇľÇľÇľÇľÇľÇľÇľÇľÇľÇľÇľÇľÇľÇľÇľÇľÇľÇľÇľÇľÇľÇľÇľÇľÇľÇľÇľÇľÇľ": 1399,
      "Èĸ": 1400,
      "ÇŀÇŁ": 1401,
      "ÇľÇľÇľÇľÇľÇľÇľÇľÇľÇľÇľÇľÇľÇľÇľÇľÇľÇľÇľÇľÇľÇľÇľÇł": 1402,
      "Æ©ÈĦ": 1403,
      "ÇĿÇĿÇľÇľÇľÇĿ": 1404,
      "ÆĦÇ": 1405,
      "ÇĻÇļ": 1406,
      "ÉĴ": 1407,
      "ÇľÇľÇľÇľÇľÇľÇľÇľÇľÇľÇľÇľÇľÇľÇľÇľÇľÇľÇľÇľÇľÇľÇľÇľÇľÇľÇľÇľÇľÇľÇľÇĿÇľÇľÇľÇľÇľÇľÇľÇľÇľÇľÇľÇľÇľÇľÇľÇľÇľÇľÇľÇľÇľÇľÇľÇľÇľÇľÇľÇľÇľÇľÇľÇľÇľÇľÇľÇľÇľÇľÇľÇľÇľÇľÇľÇľÇľÇľÇľÇľÇľÇľÇľÇľÇľÇľÇľÇľÇľÇľÇľÇľÇľÇľÇľÇľÇľÇľÇľÇľÇľÇľÇľÇľÇľÇľÇľÇľÇľÇľÇľÇľÇľÇľÇľÇľÇľÇľÇľÇľÇľÇľÇľÇľÇľÇľÇľÇľÇľÇľÇľÇľÇľÇľÇľÇľÇľÇľÇľÇľÇľÇľÇľÇľÇľÇľÇľÇľÇľÇľÇľÇľÇľÇľÇľÇľÇľÇľÇľÇľÇľÇľÇľÇľÇľÇľÇľÇľÇľÇľÇľÇľÇľÇľÇľÇľÇľÇľÇľÇľÇľÇľÇľÇľÇľÇľÇľÇľÇľÇľÇľÇľÇľÇľÇľÇľÇľÇľÇľÇľÇľÇľÇľÇľÇľÇľÇľÇľÇľÇľÇľÇľÇľÇľÇľÇľÇľÇľÇľÇľÇľÇľÇľÇľÇľÇľÇľÇľÇľÇľÇľÇľÇľÇľÇľÇľÇľÇľÇľÇľÇľÇľÇľÇľÇľÇľÇľÇľÇľÇľÇľÇľÇľÇľÇľÇľÇľÇľÇľÇľÇľÇľÇľÇľÇľÇľÇľÇľÇľÇľÇľÇľÇľÇľÇľÇľÇľÇľÇľÇľÇľÇľÇľÇľÇľÇľÇľÇľÇľÇľÇľÇľÇľÇľÇľÇľÇľÇľÇľÇľÇľÇľÇľÇľÇľÇľÇľÇľÇľÇľÇľÇľÇľÇľÇľÇľÇľÇľÇľÇľÇľÇľÇľÇľÇľÇľÇľÇľÇľÇľÇľÇľÇľÇľÇľÇľÇľÇľÇľÇľÇľÇľÇľÇľÇľÇľÇľÇľÇľÇľÇľÇľÇľÇľÇľÇľÇľÇľÇľÇľÇľÇľÇľÇľÇľÇľÇľÇľÇľÇľÇľÇľÇľÇľÇľÇľÇľÇľÇľÇľÇľÇľÇľÇľÇľÇľÇľÇľÇľÇľÇľÇľÇľÇľÇľÇľÇľÇľÇľÇľÇľÇľÇľÇľÇľÇľÇľÇľÇľÇľÇľÇľÇľÇľÇľÇľÇľÇľÇľÇľÇľÇľÇľÇľÇľÇľÇľÇľÇľÇľÇľÇľÇľÇľÇľÇľÇľÇľÇľÇľÇľÇľÇľÇľÇľÇľÇľÇľÇľÇľÇľÇľÇľÇľÇľÇľÇľÇľÇľÇľÇľÇľÇľÇľÇľÇľÇľÇľÇľÇľÇľÇľÇľÇľÇľÇľÇľÇľÇľÇľÇľÇľÇľÇľÇľÇľÇľÇľÇľÇľÇľÇľÇľÇľÇľÇľÇľÇľÇľÇľÇľÇľÇľÇľÇľÇľÇľÇľÇľÇľÇľÇľÇľÇľÇľÇľÇľÇľÇľÇľÇľÇľÇľÇľÇľÇľÇľÇľÇľÇľÇľÇľÇľÇľÇľÇľÇľÇľÇľÇľÇľÇľÇľÇľÇľÇľÇľÇľÇľÇľÇľÇľÇľÇľÇľÇľÇľÇľÇľÇľÇľÇľÇľÇľÇľÇľÇľÇľÇľÇľÇľÇľÇľÇľÇľÇľÇľÇľÇľÇľÇľÇľÇľÇľÇľÇľÇľÇľÇľÇľÇľÇľÇľÇľÇľÇľÇľÇľÇľÇľÇľÇľÇľÇľÇľÇľÇľÇľÇľÇľÇľÇľÇľÇľÇľÇľÇľÇľÇľÇľÇľÇľÇľÇľÇľÇľÇľÇľÇľÇľÇľÇľÇľÇľÇľÇľÇľÇľÇľÇľÇľÇľÇľÇľÇľÇľÇľÇľÇľÇľÇľÇľÇľÇľÇľÇľÇľÇľÇľÇľÇľÇľÇľÇľÇľÇľÇľÇľÇľÇľÇľÇľÇľÇľÇľÇľÇľÇľÇľÇľÇľÇľÇľÇľÇľÇľÇľÇľÇľÇľÇľÇľÇľÇľÇľÇľÇľÇľÇľÇľÇľÇľÇľÇľÇľÇľÇľÇľÇľÇľÇľÇľÇľÇľÇľÇľÇľÇľÇľÇľÇľÇľÇľÇľÇľÇľÇľÇľÇľÇľÇľÇľÇľÇľÇľÇľ": 1408,
      "ÇľÇľÇľÇľÇŀ": 1409,
      "ÇľÇĴ": 1410,
      "ÇľÇľÇľÇľÇľÇľÇ°": 1411,
      "ÇľÇľÇľÇľÇľÇľÇľÇľÇľÇľÇľÇľÇľÇľÇľÇľÇľÇľÇľÇľÇľÇľÇŁ": 1412,
      "ÇľÇľÇľÇľÇľÇľÇľÇľÇľÇľÇľÇľÇľÇľÇľÇľÇľÇľÇľÇľÇľÇľÇľÇľÇľÇľÇľÇľÇľÇľÇľÇĿÇľÇľÇľÇľÇľÇľÇľÇľÇľÇľÇľÇľÇľÇľÇľÇľÇľÇľÇľÇľÇľÇľÇľÇľÇľÇľÇľÇľÇľÇľÇľÇľ": 1413,
      "ÇľÇľÇľÇľÇľÇľÇľÇľÇľÇľÇľÇľÇĽ": 1414,
      "ÇľÇľÇľÇľÇľÇľÇŀÇľÇľÇľÇľÇľÇľÇľÇľÇľÇľÇľÇľÇľÇľÇľÇľÇľÇľÇľÇľÇľÇľÇľÇľÇĿ": 1415,
      "ÇľÇľÇľÇľÇľÇľÇľÇľÇľÇľÇľÇľÇľÇľÇľÇľÇľÇľÇľÇľÇľÇľÇľÇľÇľÇľÇľÇľÇľÇľÇľÇĺ": 1416,
      "ÇĿÇĻ": 1417,
      "ÇłÇĽ": 1418,
      "ÇļÇĻ": 1419,
      "ÇľÇľÇľÇľÇľÇľÇľÇľÇľÇľÇľÇľÇľÇľÇľÇľÇľÇľÇľÇľÇľÇľÇľÇľÇľÇľÇľÇľÇľÇľÇľÇľÇľÇľÇľÇľÇľÇľÇľÇľÇľÇľÇľÇľÇľÇľÇľÇľÇľÇľÇľÇľÇľÇľÇľÇľÇľÇľÇľÇľÇľÇľÇľÇľÇľÇľÇľÇľÇľÇľÇľÇľÇľÇľÇľÇľÇľÇľÇľÇľÇľÇľÇľÇľÇľÇľÇľÇľÇľÇľÇľÇľÇľÇľÇľÇľÇľÇľÇľÇľÇľÇľÇľÇľÇľÇľÇľÇľÇľÇľÇľÇľÇľÇľÇľÇľÇľÇľÇľÇľÇľÇľÇľÇľÇľÇľÇľÇľÇľÇľÇľÇľÇľÇľÇľÇľÇľÇľÇľÇľÇľÇľÇľÇľÇľÇľÇľÇľÇľÇľÇľÇľÇľÇľÇľÇľÇľÇľÇľÇľÇľÇľÇľÇľÇľÇľÇľÇľÇľÇľÇľÇľÇľÇľÇľÇľÇľÇľÇľÇľÇľÇľÇľÇľÇľÇľÇľÇľÇľÇľÇľÇľÇľÇľÇľÇľÇľÇľÇľÇľÇľÇľÇľÇľÇľÇľÇľÇľÇľÇľÇľÇľÇľÇľÇľÇľÇľÇľÇľÇľÇľÇľÇľÇľÇľÇľÇľÇľÇľÇľÇľÇľÇľÇľÇľÇľÇľÇľÇľÇľÇľÇľÇľÇľÇľÇľÇľÇľÇľÇľÇľÇľÇľÇľÇľÇľÇľÇľÇľÇľÇľÇľÇľÇľÇľÇľÇľÇľÇľÇľÇľÇľÇľÇľÇľÇľÇľÇľÇľÇľÇľÇľÇľÇľÇľÇľÇľÇľÇľÇľÇľÇľÇľÇľÇľÇľÇľÇľÇľÇľÇľÇľÇľÇľÇľÇľÇľÇľÇľÇľÇľÇľÇľÇľÇľÇľÇľÇľÇľÇľÇľÇľÇľÇľÇľÇľÇľÇľÇľÇľÇľÇľÇľÇľÇľÇľÇľÇľÇľÇľÇľÇľÇľÇľÇľÇľÇľÇľÇľÇľÇľÇľÇľÇľÇľÇľÇľÇľÇľÇľÇľÇľÇľÇľÇľÇľÇľÇľÇľÇľÇľÇľÇľÇľÇľÇľÇľÇľÇľÇľÇľÇľÇľÇľÇľÇľÇľÇľÇľÇľÇľÇľÇľÇľÇľÇľÇľÇľÇľÇľÇľÇľÇľÇľÇľÇľÇľÇľÇľÇľÇľÇľÇľÇľÇľÇľÇľÇľÇľÇľÇľÇľÇľÇľÇľÇľÇľÇľÇľÇľÇľÇľÇľÇľÇľÇľÇľÇľÇľÇľÇľÇľÇľÇľÇľÇľÇľÇľÇľÇľÇľÇľÇľÇľÇľÇľÇľÇľÇľÇľÇľÇľÇľÇľÇľÇľÇľÇľÇľÇľÇľÇľÇľÇľÇľÇľÇľÇľÇľÇľÇľÇľÇľÇľÇľÇľÇľÇľÇľÇľÇľÇľÇľÇľÇľÇľÇľÇľÇľÇľÇľÇľÇľÇľÇľÇľÇľÇľÇľÇľÇľÇľÇľÇľÇľÇľÇľÇľÇľÇľÇľÇľÇľÇľÇľÇľÇľÇľÇľÇľÇľÇľÇľÇľÇľÇľÇľÇľÇľÇľÇľÇľÇľÇľÇľÇľÇľÇľÇľÇľÇľÇľÇľÇľÇľÇľÇľÇľÇľÇľÇľÇľÇľÇľÇľÇľÇľÇľÇľÇľÇľÇľÇľÇľÇľÇľÇľÇľÇľÇľÇľÇľÇľÇľÇľÇľÇľÇľÇľÇľÇľÇľÇľÇľÇľÇľÇľÇľÇľÇľÇľÇľÇľÇľÇľÇľÇľÇľÇľÇľÇľÇľÇľÇľÇľÇľÇľÇľÇľÇľÇľÇľÇľÇľÇľÇľÇľÇľÇľÇľÇľÇľÇľÇľÇľÇľÇľ": 1420,
      "ÇľÇľÇľÇľÇľÇľÇľÇľÇľÇľÇľÇľÇľÇľÇľÇľÇľÇľÇľÇľÇľÇľÇľÇľÇľÇľÇľÇľÇĿ": 1421,
      "ÇľÇľÇľÇľÇļ": 1422,
      "ÇĺÇĽ": 1423,
      "ÇľÇļÇĿ": 1424,
      "ÇľÇľÇľÇľÇľÇľÇľÇľÇľÇľÇľÇľÇľÇľÇľÇľÇľÇľÇľÇľÇľÇľÇľÇľÇľÇľÇľÇľÇľÇľÇľÇľÇľÇľÇľÇľÇľÇľÇľÇľÇľÇľÇľÇľÇľÇľÇľÇľÇľÇľÇľÇľÇľÇľÇľÇľÇľÇľÇľÇľÇľÇľÇľÇľÇľÇľÇľÇľÇľÇľÇľÇľÇľÇľÇľÇľÇľÇľÇľÇľÇľÇľÇľÇľÇľÇľÇľÇľÇľÇľÇľÇľÇľÇľÇľÇľÇľÇľÇľÇľÇľÇľÇľÇľÇľÇľÇľÇľÇľÇľÇľÇľÇľÇľÇľÇľÇľÇľÇľÇľÇľÇľÇľÇľÇľÇľÇľÇľÇľÇľÇľÇľÇľÇľÇľÇľÇľÇľÇľÇľÇľÇľÇľÇľÇľÇľÇľÇľÇľÇľÇľÇľÇľÇľÇľÇľÇľÇľÇľÇľÇľÇľÇľÇľÇľÇľÇľÇľÇľÇľÇľÇľÇľÇľÇľÇľÇľÇľÇľÇľÇľÇľÇľÇľÇľÇľÇľÇľÇľÇľÇľÇľÇľÇľÇľÇľÇľÇľÇľÇľÇľÇľÇľÇľÇľÇľÇľÇľÇľÇľÇľÇľÇľÇľÇľÇľÇľÇľÇľÇľÇľÇľÇľÇľÇľÇľÇľÇľÇľÇľÇľÇľÇľÇľÇľÇľÇľÇľÇľÇľÇľÇľÇľÇľÇľÇľÇľÇľÇľÇľÇľÇľÇľÇľÇľÇľÇľÇľÇľÇľÇľÇľÇľÇľÇľÇľÇľÇľÇľÇľÇľÇľÇľÇľÇľÇľÇľÇľÇľÇľÇľÇľÇľÇľÇľÇľÇľÇľÇľÇľÇľÇľÇľÇľÇľÇľÇľÇľÇľÇľÇľÇľÇľÇľÇľÇľÇľÇľÇľÇľÇľÇľÇľÇľÇľÇľÇľÇľÇľÇľÇľÇľÇľÇľÇľÇľÇľÇľÇľÇľÇľÇľÇľÇľÇľÇľÇľÇľÇľÇľÇľÇľÇľÇľÇľÇľÇľÇľÇľÇľÇľÇľÇľÇľÇľÇľÇľÇľÇľÇľÇľÇľÇľÇľÇľÇľÇľÇľÇľÇľÇľÇľÇľÇľÇľÇľÇľÇľÇľÇľÇľÇľÇľÇľÇľÇľÇľÇľÇľÇľÇľÇľÇľÇľÇľÇľÇľÇľÇľÇľÇľÇľÇľÇľÇľÇľÇľÇľÇľÇľÇľÇľÇľÇľÇľÇľÇľÇľÇľÇľÇľÇľÇľÇľÇľÇľÇľÇľÇľÇľÇľÇľÇľÇľÇľÇľÇľÇľÇľÇľÇľÇľÇľÇľÇľÇľÇľÇľÇľÇľÇľÇľÇľÇľÇľÇľÇľÇľÇľÇľÇľÇľÇľÇľÇľÇľÇľÇľÇľÇľÇľÇľÇľÇľÇľÇľÇľÇľÇľÇľÇľÇľÇľÇľÇľÇľÇľÇľÇľÇľÇľÇľÇľÇľÇľÇľÇľÇľÇľÇľÇľÇľÇľÇľÇľÇľÇľÇľÇľÇľÇľÇľÇľÇľÇľÇľÇľÇľÇľÇľÇľÇľÇľÇľÇľÇľÇľÇľÇľÇľÇľÇľÇľÇľÇľÇľÇľÇľÇľÇľÇľÇľÇľÇľÇľÇľÇľÇľÇľÇľÇľÇľÇľÇľÇľÇľÇľÇľÇľÇľÇľÇľÇľÇľÇľÇľÇľÇľÇľÇľÇľÇľÇľÇľÇľÇľÇľÇľÇľÇľÇľÇľÇľÇľÇľÇľÇľÇľÇľÇľÇľÇľÇľÇľÇľÇľÇľÇľÇľÇľÇľÇľÇľÇľÇľÇľÇľÇľÇľÇľÇľÇľÇľÇľÇľÇľÇľÇľÇľÇľÇľÇľÇľÇľÇľÇľÇľÇľÇľÇľÇľÇľÇľÇľÇľÇľÇľÇľÇľÇľÇľÇľÇľÇľÇľÇľÇľÇľÇľÇľÇľÇľ": 1425,
      "ÇĽÇĿÇľÇĿ": 1426,
      "ÇľÈŁÆ": 1427,
      "ÇľÇľÇľÇľÇľÇľÇľÇľÇľÇľÇľÇľÇľÇľÇľÇľÇľÇľÇľÇľÇľÇľÇľÇľÇľÇľÇľÇľÇľÇľÇľÇĽÇľÇľÇľÇľÇľÇľÇľÇľÇľÇľÇľÇľÇľÇľÇľÇľÇľÇľÇľÇľÇľÇľÇľÇľÇľÇľÇľÇľÇľÇľÇľÇĿ": 1428,
      "ÇľÇĽÇĿÇĿ": 1429,
      "Ç¤ÈłÆ": 1430,
      "ÇľÇľÇľÇľÇľÇľÇľÇľÇľÇľÇľÇľÇľÇľÇľÇľÇľÇľÇľÇľÇľÇľÇĿÇľÇ": 1431,
      "ÇľÇľÇľÇľÇľÇľÇľÇľÇľÇľÇľÇľÇľÇľÇľÇľÇľÇľÇľÇľÇľÇľÇľÇľÇĸ": 1432,
      "ÇľÇľÇľÇľÇľÇľÇľÇľÇľÇľÇľÇľÇľÇľÇļ": 1433,
      "ÇĺÇ¡": 1434,
      "ÇľÇĽÇľÇľÇĽ": 1435,
      "ÈĴÆį": 1436,
      "ÆĨ": 1437,
      "ÇľÇľÇľÇľÇľÇľÇľÇľÇľÇľÇľÇľÇľÇľÇľÇľÇľÇľÇľÇľÇľÇľÇł": 1438,
      "ÇĽÇĿÇľÇľÇľÇĽ": 1439,
      "ÇķÇĿ": 1440,
      "ÈĦÇ": 1441,
      "ÇľÇľÇľÇľÇľÇľÇĪ": 1442,
      "ÇĺÇŀ": 1443,
      "ÇĸÇĿ": 1444,
      "ÇļÇł": 1445,
      "ÇľÇ¨": 1446,
      "ÇĸÇĹ": 1447,
      "È©": 1448,
      "ÇľÇľÇľÇľÇľÇľÇ£": 1449,
      "ÇľÇľÇľÇľÇľÇľÇľÇľÇľÇľÇľÇľÇľÇľÇľÇľÇľÇľÇľÇľÇľÇľÇĻ": 1450,
      "ÇľÇľÇľÇľÇľÇľÇľÇľÇľÇľÇľÇľÇľÇľÇľÇľÇľÇľÇľÇľÇľÇľÇľÇľÇľÇľÇľÇľÇľÇļ": 1451,
      "ÇľÇľÇľÇľÇľÇľÇľÇľÇľÇľÇľÇľÇľÇľÇľÇľÇľÇľÇľÇľÇľÇľÇľÇĿÇĽ": 1452,
      "ÇľÇ§": 1453,
      "ÇľÇľÇľÇĿÇĽ": 1454,
      "ÇľÇľÇĻ": 1455,
      "ÇľÇĿÇĿÇĽ": 1456,
      "Ç¢ÇĿ": 1457,
      "ÇľÇľÇľÇľÇľÇľÇļÇľÇľÇľÇľÇľÇľÇľÇľÇľÇľÇľÇľÇľÇľÇľÇľÇľÇľÇľÇľÇľÇľÇľÇľÇĿ": 1458,
      "ÇľÇĽÇŀ": 1459,
      "ÆĦ": 1460,
      "ÇľÇľÇľÇĿÇĿ": 1461,
      "ÇľÇľÇľÇľÇľÇľÇľÇŀ": 1462,
      "ÇĹÇĹÇľÈİÇ£Æ©ÈĦÇµÈĴÈĩÇ¥Çķ": 1463,
      "ÇĿÈŁÆĦÇħ": 1464,
      "ÇĺÇĸ": 1465,
      "Ç¡ÇĽ": 1466,
      "ÇľÇľÇľÇľÇľÇľÇľÇľÇľÇľÇľÇľÇĿ": 1467,
      "ÇľÇľÇľÇľÇľÇľÇľÇľÇľÇľÇľÇľÇľÇľÇľÇľÇľÇľÇľÇľÇľÇľÇľÇľÇľÇľÇľÇļ": 1468,
      "ÇļÇľÇĿ": 1469,
      "ÆĮ": 1470,
      "ÇľÇľÇľÇľÇľÇľÇľÇľÇľÇľÇľÇľÇľÇľÇľÇľÇľÇľÇľÇľÇľÇľÇľÇĽÇĽ": 1471,
      "ÇŁÇĺ": 1472,
      "ÇľÇľÇľÇľÇľÇľÇľÇľÇľÇľÇľÇľÇľÇľÇľÇľÇľÇľÇľÇľÇľÇľÇľÇľÇľÇľÇľÇľÇľÇľÇľÇľÇľÇľÇľÇľÇľÇľÇľÇľÇľÇľÇľÇľÇľÇľÇľÇľÇľÇľÇľÇľÇľÇľÇľÇľÇĿ": 1473,
      "ÇľÇľÇľÇľÇľÇľÇ¢": 1474,
      "ÇľÇŀÇĿ": 1475,
      "Æĩ": 1476,
      "Ç£Èł": 1477,
      "ÇľÇľÇľÇľÇľÇľÇľÇľÇľÇľÇľÇľÇľÇľÇľÇľÇľÇľÇľÇľÇľÇľÇľÇĹ": 1478,
      "ÇľÇľÇľÇľÇľÇľÇľÇľÇľÇľÇľÇľÇľÇľÇľÇľÇľÇľÇľÇľÇľÇľÇľÇľÇľÇľÇľÇľÇľÇľÇľÇĽÇľÇľÇľÇľÇľÇľÇľÇľÇľÇľÇľÇľÇľÇľÇľÇľÇľÇľÇľÇľÇľÇľÇľÇľÇľÇľÇľÇľÇľÇľÇľÇľÇľÇľÇľÇľÇľÇľÇľÇľÇľÇľÇľÇľÇľÇľÇľÇľÇľÇľÇľÇľÇľÇľÇľÇľÇľÇľÇľÇľÇľÇľÇľÇľÇľÇľÇľÇľÇľÇľÇľÇľÇľÇľÇľÇľÇľÇľÇľÇľÇľÇľÇľÇľÇľÇľÇľÇľÇľÇľÇľÇľÇľÇľÇľÇľÇľÇľÇľÇľÇľÇľÇľÇľÇľÇľÇľÇľÇľÇľÇľÇľÇľÇľÇľÇľÇľÇľÇľÇľÇľÇľÇľÇľÇľÇľÇľÇľÇľÇľÇľÇľÇľÇľÇľÇľÇľÇľÇľÇľÇľÇľÇľÇľÇľÇľÇľÇľÇľÇľÇľÇľÇľÇľÇľÇľÇľÇľÇľÇľÇľÇľÇľÇľÇľÇľÇľÇľÇľÇľÇľÇľÇľÇľÇľÇľÇľÇľÇľÇľÇľÇľÇľÇľÇľÇľÇľÇľÇľÇľÇľÇľÇľÇľÇľÇľÇľÇľÇľÇľÇľÇľÇľÇľÇľÇľÇľÇľÇľÇľÇľÇľÇľÇľÇľÇľÇľÇľÇľÇľÇľÇľÇľÇľÇľÇľÇľÇľÇľÇľÇľÇľÇľÇľÇľÇľÇľÇľÇľÇľÇľÇľÇľÇľÇľÇľÇľÇľÇľÇľÇľÇľÇľÇľÇľÇľÇľÇľÇľÇľÇľÇľÇľÇľÇľÇľÇľÇľÇľÇľÇľÇľÇľÇľÇľÇľÇľÇľÇľÇľÇľÇľÇľÇľÇľÇľÇľÇľÇľÇľÇľÇľÇľÇľÇľÇľÇľÇľÇľÇľÇľÇľÇľÇľÇľÇľÇľÇľÇľÇľÇľÇľÇľÇľÇľÇľÇľÇľÇľÇľÇľÇľÇľÇľÇľÇľÇľÇľÇľÇľÇľÇľÇľÇľÇľÇľÇľÇľÇľÇľÇľÇľÇľÇľÇľÇľÇľÇľÇľÇľÇľÇľÇľÇľÇľÇľÇľÇľÇľÇľÇľÇľÇľÇľÇľÇľÇľÇľÇľÇľÇľÇľÇľÇľÇľÇľÇľÇľÇľÇľÇľÇľÇľÇľÇľÇľÇľÇľÇľÇľÇľÇľÇľÇľÇľÇľÇľÇľÇľÇľÇľÇľÇľÇľÇľÇľÇľÇľÇľÇľÇľÇľÇľÇľÇľÇľÇľÇľÇľÇľÇľÇľÇľÇľÇľÇľÇľÇľÇľÇľÇľÇľÇľÇľÇľÇľÇľÇľÇľÇľÇľÇľÇľÇľÇľÇľÇľÇľÇľÇľÇľÇľÇľÇľÇľÇľÇľÇľÇľÇľÇľÇľÇľÇľÇľÇľÇľÇľÇľÇľÇľÇľÇľÇľÇľÇľÇľÇľÇľÇľÇľÇľÇľÇľÇľÇľÇľÇľÇľÇľÇľÇľÇľÇľÇľÇľÇľÇľÇľÇľÇľÇľÇľÇľÇľÇľÇľÇľÇľÇľÇľÇľÇľÇľÇľÇľÇľÇľÇľÇľÇľÇľÇľÇľÇľÇľÇľÇľÇľÇľÇľÇľÇľÇľÇľÇľÇľÇľÇľÇľÇľÇľÇľÇľÇľÇľÇľÇľÇľÇľÇľÇľÇľÇľÇľÇľÇľÇľÇľÇľÇľÇľÇľÇľÇľÇľÇľÇľÇľÇľÇľÇľÇľÇľÇľÇľÇľÇľÇľÇľÇľÇľÇľÇľÇľÇľÇľÇľÇľÇľÇľÇľÇľÇľÇľÇľÇľÇľÇľÇľÇľÇľÇľÇľÇľÇľÇľÇľÇľÇľÇľÇľÇľÇľÇľÇľÇľÇľÇľÇľÇľÇľÇľÇľÇľÇľÇľÇľÇľÇľÇľÇľÇľÇľÇľÇľÇľÇľÇľÇľÇľÇľÇľÇľÇľÇľÇľÇľÇľÇľÇľÇľÇľÇľÇľÇľÇľÇľÇľÇľÇľÇľÇľÇľÇľÇľÇľÇľÇľÇľÇľÇľÇľÇľÇľÇľÇľÇľÇľÇľÇľÇľÇľÇľÇľÇľÇľÇľÇľÇľÇľÇľÇľÇľÇľÇľÇľÇľÇľÇľÇľÇľÇľÇľÇľÇľÇľÇľÇľÇľÇľÇľÇľÇľÇľÇľÇľÇľÇľÇľÇľÇľÇľÇľÇľÇľÇľÇľÇľÇľÇľÇľÇľÇľÇľÇľ": 1479,
      "ÆĬ": 1480,
      "ÇĽÇĽÇľÇľÇľÇĽ": 1481,
      "ÇłÇŀ": 1482,
      "ÇľÇľÇľÇľÇľÇľÇľÇľÇľÇľÇľÇľÇľÇľÇľÇľÇľÇľÇľÇľÇľÇľÇľÇľÇľÇľÇľÇľÇľÇľÇĽÇĽ": 1483,
      "ÇľÇľÇľÇľÇľÇľÇľÇľÇľÇľÇľÇľÇľÇľÇľÇľÇľÇľÇľÇľÇľÇľÇľÇľÇľÇľÇľÇľÇľÇľÇľÇĽÇľÇľÇľÇľÇľÇľÇľÇľÇľÇľÇľÇľÇľÇľÇľÇľÇľÇľÇľÇľÇľÇľÇľÇľÇľÇľÇľÇľÇľÇľÇľÇľÇľÇľÇľÇľÇľÇľÇľÇľÇľÇľÇľÇľÇľÇľÇľÇľÇľÇľÇľÇľÇľÇľÇľÇľÇľÇľÇľÇľÇľÇľÇľÇľÇľÇľÇľÇľÇľÇľÇľÇľÇľÇľÇľÇľÇľÇľÇľÇľÇľÇľÇľÇľÇľÇľÇľÇľÇľÇľÇľÇľÇľÇľÇľÇľÇľÇľÇľÇľÇľÇľÇľÇľÇľÇľÇľÇľÇľÇľÇľÇľÇľÇľÇľÇľÇľÇľÇľÇľÇľÇľÇľÇľÇľÇľÇľÇľÇľÇľÇľÇľÇľÇľÇľÇľÇľÇľÇľÇľÇľÇľÇľÇľÇľÇľÇľÇľÇľÇľÇľÇľÇľÇľÇľÇľÇľÇľÇľÇľÇľÇľÇľÇľÇľÇľÇľÇľÇľÇľÇľÇľÇľÇľÇľÇľÇľÇľÇľÇľÇľÇľÇľÇľÇľÇľÇľÇľÇľÇľÇľÇľÇľÇľÇľÇľÇľÇľÇľÇľÇľÇľÇľÇľÇľÇľÇľÇľÇľÇľÇľÇľÇľÇľÇľÇľÇľÇľÇľÇľÇľÇľÇľÇľÇľÇľÇľÇľÇľÇľÇľÇľÇľÇľÇľÇľÇľÇľÇľÇľÇľÇľÇľÇľÇľÇľÇľÇľÇľÇľÇľÇľÇľÇľÇľÇľÇľÇľÇľÇľÇľÇľÇľÇľÇľÇľÇľÇľÇľÇľÇľÇľÇľÇľÇľÇľÇľÇľÇľÇľÇľÇľÇľÇľÇľÇľÇľÇľÇľÇľÇľÇľÇľÇľÇľÇľÇľÇľÇľÇľÇľÇľÇľÇľÇľÇľÇľÇľÇľÇľÇľÇľÇľÇľÇľÇľÇľÇľÇľÇľÇľÇľÇľÇľÇľÇľÇľÇľÇľÇľÇľÇľÇľÇľÇľÇľÇľÇľÇľÇľÇľÇľÇľÇľÇľÇľÇľÇľÇľÇľÇľÇľÇľÇľÇľÇľÇľÇľÇľÇľÇľÇľÇľÇľÇľÇľÇľÇľÇľÇľÇľÇľÇľÇľÇľÇľÇľÇľÇľÇľÇľÇľÇľÇľÇľÇľÇľÇľÇľÇľÇľÇľÇľÇľÇľÇľÇľÇľÇľÇľÇľÇľÇľÇľÇľÇľÇľÇľÇľÇľÇľÇľÇľÇľÇľÇľÇľÇľÇľÇľÇľÇľÇľÇľÇľÇľÇľÇľÇľÇľÇľÇľÇľÇľÇľÇľÇľÇľÇľÇľÇľÇľÇľÇľÇľÇľÇľÇľÇľÇľÇľÇľÇľÇľÇľÇľÇľÇľÇľÇľÇľÇľÇľÇľÇľÇľÇľÇľÇľÇľÇľÇľÇľÇľÇľÇľÇľÇľÇľÇľÇľÇľÇľÇľÇľÇľÇľÇľÇľÇľÇľÇľÇľÇľÇľÇľÇľÇľÇľÇľÇľÇľÇľÇľÇľÇľÇľÇľÇľÇľÇľÇľÇľÇľÇľÇľÇľÇľÇľÇľÇľÇľÇľÇľÇľÇľÇľÇľÇľÇľÇľÇľÇľÇľÇľÇľÇľÇľÇľÇľÇľÇľÇľÇľÇľÇľÇľÇľÇľÇľÇľÇľÇľÇľÇľÇľÇľÇľÇľÇľÇľÇľÇľÇľÇľÇľÇľÇľÇľÇľÇľÇľÇľÇľÇľÇľÇľÇľÇľÇľÇľÇľÇľÇľÇľÇľÇľÇľÇľÇľÇľÇľÇľÇľÇľÇľÇľÇľÇľÇľÇľÇľÇľÇľÇľÇľÇľÇľÇľÇľÇľÇľÇľÇľÇľÇľÇľÇľÇľÇľÇľÇľÇľÇľÇľÇľÇľÇľÇľÇľÇľÇľÇľÇľÇľÇľÇľÇľÇľÇľÇľÇľÇľÇľÇľÇľÇľÇľÇľÇľÇľÇľÇľÇľÇľÇľÇľÇľÇľÇľÇľÇľÇľÇľÇľÇľÇľÇľÇľÇľÇľÇľÇľÇľÇľÇľÇľÇľÇľÇľÇľÇľÇľÇľÇľÇľÇľÇľÇľÇľÇľÇľÇľÇľÇľÇľÇľÇľÇľÇľÇľÇľÇľÇľ": 1484,
      "ÇľÇľÇľÇľÇľÇľÇľÇľÇľÇľÇľÇľÇľÇľÇľÇľÇľÇľÇľÇľÇľÇľÇľÇľÇľÇľÇľÇľÇľÇľÇĿÇĽ": 1485,
      "ÇľÇľÇľÇľÇľÇľÇľÇľÇľÇľÇľÇľÇľÇľÇľÇľÇľÇľÇľÇľÇľÇľÇľÇľÇľÇľÇľÇľÇľÇĽÇľÇĿ": 1486,
      "È¬": 1487,
      "ÇľÇľÇľÇľÇľÇľÇĽÇľÇľÇľÇľÇľÇľÇľÇľÇľÇľÇľÇľÇľÇľÇľÇľÇľÇľÇľÇľÇľÇľÇľÇľÇľÇľÇľÇľÇľÇľÇľÇĿ": 1488,
      "ÆľÇĿÈŁÆ": 1489,
      "ÈŁÆĦÇħ": 1490,
      "ÇľÇľÇľÇľÇľÇľÇľÇľÇľÇľÇľÇľÇľÇľÇľÇľÇľÇľÇľÇľÇľÇľÇľÇľÇľÇľÇľÇľÇľÇľÇľÇĿÇľÇľÇľÇľÇľÇľÇľÇľÇľÇľÇľÇľÇľÇľÇľÇľÇľÇľÇľÇľÇľÇľÇľÇľÇľÇľÇľÇľÇľÇľÇľÇľÇľÇľÇľÇľÇľÇľÇľÇľÇľÇľÇľÇľÇľÇľÇľÇľÇľÇľÇľÇľÇľÇľÇľÇľÇľÇľÇľÇľÇľÇľÇľÇľÇľÇľÇľÇľÇľÇľÇľÇľÇľÇľÇľÇľÇľÇľÇľÇľÇľÇľÇľÇľÇľÇľÇľÇľÇľÇľÇľÇľÇľÇľÇľÇľÇľÇľÇľÇľÇľÇľÇľÇľÇľÇľÇľÇľÇľÇľÇľÇľÇľÇľÇľÇľÇľÇľÇľÇľÇľÇľÇľÇľÇľÇľÇľÇľÇľÇľÇľÇľÇľÇľÇľÇľÇľÇľÇľÇľÇľÇľÇľÇľÇľÇľÇľÇľÇľÇľÇľÇľÇľÇľÇľÇľÇľÇľÇľÇľÇľÇľÇľÇľÇľÇľÇľÇľÇľÇľÇľÇľÇľÇľÇľÇľÇľÇľÇľÇľÇľÇľÇľÇľÇľÇľÇľÇľÇľÇľÇľÇľÇľÇľÇľÇľÇľÇľÇľÇľÇľÇľÇľÇľÇľÇľÇľÇľÇľÇľÇľÇľÇľÇľÇľÇľÇľÇľÇľÇľÇľÇľÇľÇľÇľÇľÇľÇľÇľÇľÇľÇľÇľÇľÇľÇľÇľÇľÇľÇľÇľÇľÇľÇľÇľÇľÇľÇľÇľÇľÇľÇľÇľÇľÇľÇľÇľÇľÇľÇľÇľÇľÇľÇľÇľÇľÇľÇľÇľÇľÇľÇľÇľÇľÇľÇľÇľÇľÇľÇľÇľÇľÇľÇľÇľÇľÇľÇľÇľÇľÇľÇľÇľÇľÇľÇľÇľÇľÇľÇľÇľÇľÇľÇľÇľÇľÇľÇľÇľÇľÇľÇľÇľÇľÇľÇľÇľÇľÇľÇľÇľÇľÇľÇľÇľÇľÇľÇľÇľÇľÇľÇľÇľÇľÇľÇľÇľÇľÇľÇľÇľÇľÇľÇľÇľÇľÇľÇľÇľÇľÇľÇľÇľÇľÇľÇľÇľÇľÇľÇľÇľÇľÇľÇľÇľÇľÇľÇľÇľÇľÇľÇľÇľÇľÇľÇľÇľÇľÇľÇľÇľÇľÇľÇľÇľÇľÇľÇľÇľÇľÇľÇľÇľÇľÇľÇľÇľÇľÇľÇľÇľÇľÇľÇľÇľÇľÇľÇľÇľÇľÇľÇľÇľÇľÇľÇľÇľÇľÇľÇľÇľÇľÇľÇľÇľÇľÇľÇľÇľÇľÇľÇľÇľÇľÇľÇľÇľÇľÇľÇľÇľÇľÇľÇľÇľÇľÇľÇľÇľÇľÇľÇľÇľÇľÇľÇľÇľÇľÇľÇľÇľÇľÇľÇľÇľÇľÇľÇľÇľÇľÇľÇľÇľÇľÇľÇľÇľÇľÇľÇľÇľÇľÇľÇľÇľÇľÇľÇľÇľÇľÇľÇľÇľÇľÇľÇľÇľÇľÇľÇľÇľÇľÇľÇľÇľÇľÇľÇľÇľÇľÇľÇľÇľÇľÇľÇľÇľÇľÇľÇľÇľÇľÇľÇľÇľÇľÇľÇľÇľÇľÇľÇľÇľÇľÇľÇľÇľÇľÇľÇľÇľÇľÇľÇľÇľÇľÇľÇľÇľÇľÇľÇľÇľÇľÇľÇľÇľÇľÇľÇľÇľÇľÇľÇľÇľÇľÇľÇľÇľÇľÇľÇľÇľÇľÇľÇľÇľÇľÇľÇľÇľÇľÇľÇľÇľÇľÇľÇľÇľÇľÇľÇľÇľÇľÇľÇľÇľÇľÇľÇľÇľÇľÇľÇľÇľÇľÇľÇľÇľÇľÇľÇľÇľÇľÇľÇľÇľÇľÇľÇľÇľÇľÇľÇľÇľÇľÇľÇľÇľÇľÇľÇľÇľÇľÇľÇľÇľÇľÇľÇľÇľÇľÇľÇľÇľÇľÇľÇľÇľÇľÇľÇľÇľÇľÇľÇľÇľÇľÇľÇľÇľÇľÇľÇľÇľÇľÇľÇľÇľÇľÇľÇľÇľÇľÇľÇľÇľÇľÇľÇľÇľÇľÇľÇľÇľÇľÇľÇľÇľÇľÇľÇľÇľÇľÇľÇľÇľÇľÇľÇľÇľÇľÇľÇľÇľÇľÇľÇľÇľÇľÇľÇľÇľÇľÇľÇľÇľÇľÇľÇľÇľÇľÇľÇľÇľÇľÇľÇľÇľÇľÇľÇľÇľÇľÇľÇľ": 1491,
      "ÇŁÇŁ": 1492,
      "ÇľÇľÇľÇľÇľÇľÇľÇľÇľÇľÇľÇľÇľÇľÇľÇľÇľÇľÇľÇľÇľÇľÇľÇľÇľÇľÇľÇľÇľÇľÇľÇľÇľÇľÇľÇľÇľÇľÇľÇľÇľÇľÇľÇľÇľÇľÇľÇľÇľÇľÇľÇľÇľÇľÇľÇľÇľÇľÇľÇľÇľÇľÇľÇľÇľÇľÇľÇľÇľÇľÇľÇľÇľÇľÇľÇľÇľÇľÇľÇľÇľÇľÇľÇľÇľÇľÇľÇľÇľÇľÇľÇľÇľÇľÇľÇľÇľÇľÇľÇľÇľÇľÇľÇľÇľÇľÇľÇľÇľÇľÇľÇľÇľÇľÇľÇľÇľÇľÇľÇľÇľÇľÇľÇľÇľÇľÇľÇľÇľÇľÇľÇľÇľÇľÇľÇľÇľÇľÇľÇľÇľÇľÇľÇľÇľÇľÇľÇľÇľÇľÇľÇľÇľÇľÇľÇľÇľÇľÇľÇľÇľÇľÇľÇľÇľÇľÇľÇľÇľÇľÇľÇľÇľÇľÇľÇľÇľÇľÇľÇľÇľÇľÇľÇľÇľÇľÇľÇľÇľÇľÇľÇľÇľÇľÇľÇľÇľÇľÇľÇľÇľÇľÇľÇľÇľÇľÇľÇľÇľÇľÇľÇľÇľÇľÇľÇľÇľÇľÇľÇľÇľÇľÇľÇľÇľÇľÇľÇľÇľÇľÇľÇľÇľÇľÇľÇľÇľÇľÇľÇľÇľÇľÇľÇľÇľÇľÇľÇľÇľÇľÇľÇľÇľÇľÇľÇľÇľÇľÇľÇľÇľÇľÇľÇľÇľÇľÇľÇľÇľÇľÇľÇľÇľÇľÇľÇľÇľÇľÇľÇľÇľÇľÇľÇľÇľÇľÇľÇľÇľÇľÇľÇľÇľÇľÇľÇľÇľÇľÇľÇľÇľÇľÇľÇľÇľÇľÇľÇľÇľÇľÇľÇľÇľÇľÇľÇľÇľÇľÇľÇľÇľÇľÇľÇľÇľÇľÇľÇľÇľÇľÇľÇľÇľÇľÇľÇľÇľÇľÇľÇľÇľÇľÇľÇľÇľÇľÇľÇľÇľÇľÇľÇľÇľÇľÇľÇľÇľÇľÇľÇľÇľÇľÇľÇľÇľÇľÇľÇľÇľÇľÇľÇľÇľÇľÇľÇľÇľÇľÇľÇľÇľÇľÇľÇľÇľÇľÇľÇľÇľÇľÇľÇľÇľÇľÇľÇľÇľÇľÇľÇľÇľÇľÇľÇľÇľÇľÇľÇľÇľÇľÇľÇľÇľÇľÇľÇľÇľÇľÇľÇľÇľÇľÇľÇľÇľÇľÇľÇľÇľÇľÇľÇľÇľÇľÇľÇľÇľÇľÇľÇľÇľÇľÇľÇľÇľÇľÇľÇľÇľÇľÇľÇľÇľÇľÇľÇľÇľÇľÇľÇľÇľÇľÇľÇľÇľÇľÇľÇľÇľÇľÇľÇľÇľÇľÇľÇľÇľÇľÇľÇľÇľÇľÇľÇľÇľÇľÇľÇľÇľÇľÇľÇľÇľÇľÇľÇľÇľÇľÇľÇľÇľÇľÇľÇľÇľÇľÇľÇľÇľÇľÇľÇľÇľÇľÇľÇľÇľÇľÇľÇľÇľÇľÇľÇľÇľÇľÇľÇľÇľÇľÇľÇľÇľÇľÇľÇľÇľÇľÇľÇľÇľÇľÇľÇľÇľÇľÇľÇľÇľÇľÇľÇľÇľÇľÇľÇľÇľÇľÇľÇľÇľÇľÇľÇľÇľÇľÇľÇľÇľÇľÇľÇľÇľ": 1493,
      "ÇľÇľÇľÇľÇľÇľÇľÇľÇľÇľÇľÇľÇľÇľÇľÇľÇľÇľÇľÇľÇľÇľÇľÇľÇķ": 1494,
      "ÇľÇľÇľÇľÇľÇľÇľÇľÇľÇļ": 1495,
      "ÇľÇľÇľÇľÇľÇľÇľÇľÇľÇľÇľÇľÇľÇľÇľÇľÇľÇľÇľÇľÇľÇľÇľÇ¡": 1496,
      "ÇĹÇĹÇľÈİÇ£Æ©ÈĦÇµÈĴÈĩÇ¦": 1497,
      "ÇľÇľÇľÇľÇľÇľÇľÇľÇľÇľÇľÇľÇľÇľÇľÇľÇľÇľÇľÇľÇľÇľÇľÇľÇľÇľÇľÇľÇľÇľÇľÇľÇľÇľÇľÇľÇľÇľÇľÇľÇľÇľÇľÇľÇľÇľÇľÇľÇľÇľÇľÇľÇľÇľÇľÇľÇľÇľÇľÇľÇľÇľÇľÇľÇľÇľÇľÇľÇľÇľÇľÇľÇľÇľÇľÇľÇľÇľÇľÇľÇľÇľÇľÇľÇľÇľÇľÇľÇľÇľÇľÇľÇľÇľÇľÇľÇľÇľÇľÇľÇľÇľÇľÇľÇľÇľÇľÇľÇľÇľÇľÇľÇľÇľÇľÇľÇľÇľÇľÇľÇľÇľÇľÇľÇľÇľÇľÇľÇľÇľÇľÇľÇľÇľÇľÇľÇľÇľÇľÇľÇľÇľÇľÇľÇľÇľÇľÇľÇľÇľÇľÇľÇľÇľÇľÇľÇľÇľÇľÇľÇľÇľÇľÇľÇľÇľÇľÇľÇľÇľÇľÇľÇľÇľÇľÇľÇľÇľÇľÇľÇľÇľÇľÇľÇľÇľÇľÇľÇľÇľÇľÇľÇľÇľÇľÇľÇľÇľÇľÇľÇľÇľÇľÇľÇľÇľÇľÇľÇľÇľÇľÇľÇľÇľÇľÇľÇľÇľÇľÇľÇľÇľÇľÇľÇľÇľÇľÇľÇľÇľÇľÇľÇľÇľÇľÇľÇľÇľÇľÇľÇľÇľÇľÇľÇľÇľÇľÇľÇľÇľÇľÇľÇľÇľÇľÇľÇľÇľÇľÇľÇľÇľÇľÇľÇľÇľÇľÇľÇľÇľÇľÇľÇľÇľÇľÇľÇľÇľÇľÇľÇľÇľÇľÇľÇľÇľÇľÇľÇľÇľÇľÇľÇľÇľÇľÇľÇľÇľÇľÇľÇľÇľÇľÇľÇľÇľÇľÇľÇľÇľÇľÇľÇľÇľÇľÇľÇľÇľÇľÇľÇľÇľÇľÇľÇľÇľÇľÇľÇľÇľÇľÇľÇľÇľÇľÇľÇľÇľÇľÇľÇľÇľÇľÇľÇľÇľÇľÇľÇľÇľÇľÇľÇľÇľÇľÇľÇľÇľÇľÇľÇľÇľÇľÇľÇľÇľÇľÇľÇľÇľÇľÇľÇľÇľÇľÇľÇľÇľÇľÇľÇľÇľÇľÇľÇľÇľÇľÇľÇľÇľÇľÇľÇľÇľÇľÇľÇľÇľÇľÇľÇľÇľÇľÇľÇľÇľÇľÇľÇľÇľÇľÇľÇľÇľÇľÇľÇľÇľÇľÇľÇľÇľÇľÇľÇľÇľÇľÇľÇľÇľÇľÇľÇľÇľÇľÇľÇľÇľÇľÇľÇľÇľÇľÇľÇľÇľÇľÇľÇľÇľÇľÇľÇľÇľÇľÇľÇľÇľÇľÇľÇľÇľÇľÇľÇľÇľÇľÇľÇľÇľÇľÇľÇľÇľÇľÇľÇľÇľÇľÇľÇľÇľÇľÇľÇľÇľÇľÇľÇľÇľÇľÇľÇľÇľÇľÇľÇľÇľÇľÇľÇľÇľÇľÇľÇľÇľÇľÇľÇľÇľÇľÇľÇľÇľÇľÇľÇľÇľÇľÇľÇľÇľÇľÇľÇľÇľÇľÇľÇľÇľÇľÇľÇľÇľÇľÇľÇľÇľÇľÇľÇľÇľÇľÇľÇľÇľÇľÇľÇľÇľÇľÇľÇľÇľÇľÇľÇľÇľÇľÇľÇľÇľÇľÇľÇľÇľÇľÇľÇľÇľÇľÇľÇľÇľÇľÇľÇľÇľÇľÇľÇľÇľÇľÇľÇľÇľÇľÇľ": 1498,
      "Ç¤Çķ": 1499,
      "ÇľÇľÇľÇľÇľÇľÇľÇľÇľÇľÇľÇľÇľÇľÇľÇľÇľÇľÇľÇľÇľÇľÇľÇľÇľÇľÇľÇľÇľÇľÇľÇĿÇľÇľÇľÇľÇľÇľÇľÇľÇľÇľÇľÇľÇľÇľÇľÇľÇľÇľÇľÇľÇľÇľÇľÇľÇľÇľÇľÇľÇľÇľÇľÇĿÇľÇľÇľÇľÇľÇľÇľÇľÇľÇľÇľÇľÇľÇľÇľÇľÇľÇľÇľÇľÇľÇľÇľÇľÇľÇľÇľÇľÇľÇľÇľÇĿ": 1500,
      "ÇļÇĺ": 1501,
      "ÇľÇľÇľÇľÇľÇľÇľÇľÇľÇľÇľÇľÇľÇľÇľÇľÇĽ": 1502,
      "ÇĽÇĿÇľÇĽ": 1503,
      "ÇľÇľÇľÇľÇľÇľÇĿÇľÇľÇľÇľÇľÇľÇľÇľÇľÇľÇľÇľÇľÇľÇľÇľÇľÇľÇľÇľÇľÇľÇľÇľÇľÇľÇľÇľÇľÇľÇľÇĽ": 1504,
      "ÇļÇŀÇĿ": 1505,
      "ÇĹÇĺ": 1506,
      "ÇĿÇĽÇĽ": 1507,
      "ÇłÇĺ": 1508,
      "ÇľÇĿÇĽÇľÇĽ": 1509,
      "ÇľÇľÇľÇľÇľÇľÇľÇľÇľÇľÇľÇľÇľÇľÇľÇľÇľÇľÇľÇľÇľÇľÇĽÇľÇ": 1510,
      "ÇľÇľÇľÇľÇľÇľÇķ": 1511,
      "ÇľÇľÇľÇľÇľÇľÇľÇľÇľÇľÇľÇľÇľÇľÇľÇľÇľÇľÇľÇľÇľÇľÇľÇľÇľÇľÇľÇľÇľÇŀ": 1512,
      "ÆįÇ¥ÇķÇŀÈĳÇĿÆ©ÈĦÇĩÈĴÈĩÇľÇľÇľÇľÇľÇľÇľÇľÇľÇľÇľÇľ": 1513,
      "ÇĹÇĹÇĿ": 1514,
      "Ç¡ÇĹ": 1515,
      "ÈĥÇ": 1516,
      "ÇŀÇĺ": 1517,
      "ÇĸÇĺ": 1518,
      "Ã¢": 1519,
      "ÇľÇľÇľÇľÇľÇľÇľÇľÇľÇľÇľÇľÇľÇľÇľÇľÇľÇľÇľÇľÇľÇľÇľÇľÇľÇľÇľÇľÇľÇľÇľÇľÇľÇľÇľÇľÇľÇľÇľÇľÇľÇľÇľÇľÇľÇľÇľÇľÇľÇľÇľÇľÇľÇľÇľÇľÇľÇľÇľÇľÇľÇľÇľÇľÇľÇľÇľÇľÇľÇľÇľÇľÇľÇľÇľÇľÇľÇľÇľÇľÇľÇľÇľÇľÇľÇľÇľÇľÇľÇľÇľÇľÇľÇľÇľÇľÇľÇľÇľÇľÇľÇľÇľÇľÇľÇľÇľÇľÇľÇľÇľÇľÇľÇľÇľÇľÇľÇľÇľÇľÇľÇľÇľÇľÇľÇľÇľÇľÇľÇľÇľÇľÇľÇľÇľÇľÇľÇľÇľÇľÇľÇľÇľÇľÇľÇľÇľÇľÇľÇľÇľÇľÇľÇľÇľÇľÇľÇľÇľÇľÇľÇľÇľÇľÇľÇľÇľÇľÇľÇľÇľÇľÇľÇľÇľÇľÇľÇľÇľÇľÇľÇľÇľÇľÇľÇľÇľÇľÇľÇľÇľÇľÇľÇľÇľÇľÇľÇľÇľÇľÇľÇľÇľÇľÇľÇľÇľÇľÇľÇľÇľÇľÇľÇľÇľÇľÇľÇľÇľÇľÇľÇľÇľÇľÇľÇľÇľÇľÇľÇľÇľÇľÇľÇľÇľÇľÇľÇľÇľÇľÇľÇľÇľÇľÇľÇľÇľÇľÇľÇľÇľÇľÇľÇľÇľÇľÇľÇľÇľÇľÇľÇľÇľÇľÇľÇľÇľÇľÇľÇľÇľÇľÇľÇľÇľÇľÇľÇľÇľÇľÇľÇľÇľÇľÇľÇľÇľÇľÇľÇľÇľÇľÇľÇľÇľÇľÇľÇľÇľÇľÇľÇľÇľÇľÇľÇľÇľÇľÇľÇľÇľÇľÇľÇľÇľÇľÇľÇľÇľÇľÇľÇľÇľÇľÇľÇľÇľÇľÇľÇľÇľÇľÇľÇľÇľÇľÇľÇľÇľÇľÇľÇľÇľÇľÇľÇľÇľÇľÇľÇľÇľÇľÇľÇľÇľÇľÇľÇľÇľÇľÇľÇľÇľÇľÇľÇľÇľÇľÇľÇľÇľÇľÇľÇľÇľÇľÇľÇľÇľÇľÇľÇľÇľÇľÇľÇľÇľÇľÇľÇľÇľÇľÇľÇľÇľÇľÇľÇľÇľÇľÇľÇľÇľÇľÇľÇľÇľÇľÇľÇľÇľÇľÇľÇľÇľÇľÇľÇľÇľÇľÇľÇľÇľÇľÇľÇľÇľÇľÇľÇľÇľÇľÇľÇľÇľÇľÇľÇľÇľÇľÇľÇľÇľÇľÇľÇľÇľÇľÇľÇľÇľÇľÇľÇľÇľÇľÇľÇľÇľÇľÇľÇľÇľÇľÇľÇľÇľÇľÇľÇľÇľÇľÇľÇľÇľÇľÇľÇľÇľÇľÇľÇľÇľÇľÇľÇľÇľÇľÇľÇľÇľÇľÇľÇľÇľÇľÇľÇľÇľÇľÇľÇľÇľÇľÇľÇľÇľÇľÇľÇľÇľÇľÇľÇľÇľÇľÇľÇľÇľÇľÇľÇľÇľÇľÇľÇľÇľÇľÇľÇľÇľÇľÇľÇľÇľÇľÇľÇľÇľÇľÇľÇľÇľÇľÇľÇľÇľÇľÇľÇľÇľÇľÇľÇľÇľÇľÇľÇľÇľÇľÇľÇľÇľ": 1520,
      "ÇľÇľÇľÇľÇľÇľÇľÇľÇľÇľÇľÇľÇľÇľÇľÇľÇľÇľÇľÇľÇĿ": 1521,
      "Æĭ": 1522,
      "Æī": 1523,
      "Ç¢ÇĽ": 1524,
      "ÇľÇľÇľÇľÇľÇľÇľÇľÇľÇľÇľÇľÇľÇľÇľÇľÇľÇľÇľÇľÇľÇľÇľÇľÇľÇľÇľÇľÇľÇľÇľÇľÇľÇľÇľÇľÇľÇľÇľÇľÇľÇľÇľÇľÇľÇľÇľÇľÇľÇľÇľÇľÇľÇľÇľÇľÇľÇľÇľÇľÇľÇľÇľÇľÇľÇľÇľÇľÇľÇľÇľÇľÇľÇľÇľÇľÇľÇľÇľÇľÇľÇľÇľÇľÇľÇľÇľÇľÇľÇľÇľÇľÇľÇľÇľÇľÇľÇľÇľÇľÇľÇľÇľÇľÇľÇľÇľÇľÇľÇľÇľÇľÇľÇľÇľÇľÇľÇľÇľÇľÇľÇľÇľÇľÇľÇľÇľÇľÇľÇľÇľÇľÇľÇľÇľÇľÇľÇľÇľÇľÇľÇľÇľÇľÇľÇľÇľÇľÇľÇľÇľÇľÇľÇľÇľÇľÇľÇľÇľÇľÇľÇľÇľÇľÇľÇľÇľÇľÇľÇľÇľÇľÇľÇľÇľÇľÇľÇľÇľÇľÇľÇľÇľÇľÇľÇľÇľÇľÇľÇľÇľÇľÇľÇľÇľÇľÇľÇľÇľÇľÇľÇľÇľÇľÇľÇľÇľÇľÇľÇľÇľÇľÇľÇľÇľÇľÇľÇľÇľÇľÇľÇľÇľÇľÇľÇľÇľÇľÇľÇľÇľÇľÇľÇľÇľÇľÇľÇľÇľÇľÇľÇľÇľÇľÇľÇľÇľÇľÇľÇľÇľÇľÇľÇľÇľÇľÇľÇľÇľÇľÇľÇľÇľÇľÇľÇľÇľÇľÇľÇľÇľÇľÇľÇľÇľÇľÇľÇľÇľÇľÇľÇľÇľÇľÇľÇľÇľÇľÇľÇľÇľÇľÇľÇľÇľÇľÇľÇľÇľÇľÇľÇľÇľÇľÇľÇľÇľÇľÇľÇľÇľÇľÇľÇľÇľÇľÇľÇľÇľÇľÇľÇľÇľÇľÇľÇľÇľÇľÇľÇľÇľÇľÇľÇľÇľÇľÇľÇľÇľÇľÇľÇľÇľÇľÇľÇľÇľÇľÇľÇľÇľÇľÇľÇľÇľÇľÇľÇľÇľÇľÇľÇľÇľÇľÇľÇľÇľÇľÇľÇľÇľÇľÇľÇľÇľÇľÇľÇľÇľÇľÇľÇľÇľÇľÇľÇľÇľÇľÇľÇľÇľÇľÇľÇľÇľÇľÇľÇľÇľÇľÇľÇľÇľÇľÇľÇľÇľÇľÇľÇľÇľÇľÇľÇľÇľÇľÇľÇľÇľÇľÇľÇľÇľÇľÇľÇľÇľÇľÇľÇľÇľÇľÇľÇľÇľÇľÇľÇľÇľÇľÇľÇľÇľÇľÇľÇľÇľÇľÇľÇľÇľÇľÇľÇľÇľÇľÇľÇľÇľÇľÇľÇľÇľÇľÇľÇľÇľÇľÇľÇľÇľÇľÇľÇľÇľÇľÇľÇľÇľÇľÇľÇľÇľÇľÇľÇľÇľÇľÇľÇľÇľÇľÇľÇľÇľÇľÇľÇľÇľÇľÇľÇľÇľÇľÇľÇľÇľÇľÇľÇľÇľÇľÇľÇľÇľÇľÇľÇľÇľÇľÇľÇľÇľÇľÇľÇľÇľÇľÇľÇľÇľÇľÇľÇľÇľÇľÇľÇľÇľÇľÇľÇľÇľÇľÇľÇľÇľÇľÇľÇľÇľÇľÇľÇľÇľÇľÇľÇľÇľÇľÇľÇľÇľÇľÇľÇľÇľÇľÇľÇľÇľÇľÇľÇľÇľÇľÇľÇľÇľÇľÇľÇľÇľÇľÇľÇľÇľÇľÇľÇľÇľÇľÇľÇľÇľÇľÇľÇľÇľÇľÇľÇľÇľÇľÇľÇľÇľÇľÇľÇľÇľÇľÇľÇľÇľÇľÇľÇľÇľÇľÇľÇľÇľÇľÇľÇľÇľÇľÇľÇľÇľÇľÇľÇľÇľÇľÇľÇľÇľÇľÇľÇľÇľÇľÇľÇľÇľÇľÇľÇľÇľÇľÇľÇľÇľÇľÇľÇľÇľÇľÇľÇľÇľÇľÇľÇľÇľÇľÇľÇľÇľÇľÇľÇľÇľÇľÇľÇľÇľÇľÇľÇľÇľÇľÇľÇľÇľÇľÇľÇľÇľÇľÇľÇľÇľÇľÇľÇľÇľÇľÇľÇľÇľÇľÇľÇľÇľÇľÇľÇľÇľÇľÇľÇľÇľÇľÇľÇľÇľÇľÇľÇľÇľÇľÇľÇľÇľÇľÇľÇľÇľÇľÇľÇľÇľÇľÇľÇľÇľÇľÇľÇľÇľÇľÇľÇľÇľÇľÇľÇľÇľÇľÇľÇľÇľÇľÇľÇľÇľÇľÇľÇľÇľÇľÇľÇľÇľÇľÇľÇľÇľÇľÇľÇľÇľÇľÇľÇľÇľÇľÇľÇľÇľÇľÇľÇľÇľ": 1525,
      "ÇľÇľÇľÇľÇľÇľÇľÇľÇľÇľÇľÇľÇľÇľÇľÇľÇľÇľÇľÇľÇľÇľÇľÇľÇľÇľÇľÇľÇľÇľÇľÇľÇľÇľÇľÇľÇľÇľÇľÇľÇľÇľÇľÇľÇľÇľÇľÇľÇľÇľÇľÇľÇľÇľÇľÇľÇľÇľÇľÇľÇľÇľÇľÇľÇľÇľÇľÇľÇľÇľÇľÇľÇľÇľÇľÇľÇľÇľÇľÇľÇľÇľÇľÇľÇľÇľÇľÇľÇľÇľÇľÇľÇľÇľÇľÇľÇľÇľÇľÇľÇľÇľÇľÇľÇľÇľÇľÇľÇľÇľÇľÇľÇľÇľÇľÇľÇľÇľÇľÇľÇľÇľÇľÇľÇľÇľÇľÇĽ": 1526,
      "ÇľÇľÇľÇľÇľÇľÇľÇľÇľÇľÇľÇľÇľÇľÇľÇľÇľÇľÇľÇľÇľÇľÇĺ": 1527,
      "Ç¡ÈĲ": 1528,
      "ÇľÇľÇľÇľÇľÇľÇľÇľÇľÇľÇľÇľÇľÇĻ": 1529,
      "ÈłÆĥÇ¶": 1530,
      "ÇľÇľÇľÇľÇľÇľÇľÇľÇľÇľÇľÇľÇľÇľÇľÇľÇľÇľÇľÇľÇľÇľÇľÇľÇľÇľÇľÇľÇľÇĽÇľÇĽ": 1531,
      "ÇľÇĲ": 1532,
      "ÇľÇĽÇľÇľÇľÇľÇĽ": 1533,
      "ÇĶÇĿ": 1534,
      "ÇĽÇł": 1535,
      "ÇľÇľÇľÇľÇľÇľÇľÇľÇľÇľÇľÇľÇľÇľÇľÇľÇľÇľÇľÇľÇľÇľÇľÇľÇľÇľÇľÇľÇľÇľÇľÇĹ": 1536,
      "ÇľÇĽÇľÇľÇľÇľÇľÇľÇľÇľÇľÇľÇľÇľÇľÇľÇľÇľÇľÇľÇľÇľÇľÇľÇľÇľÇľÇľ": 1537,
      "ÇľÇľÇľÇľÇľÇľÇľÇľÇľÇľÇľÇľÇľÇľÇľÇľÇľÇľÇľÇľÇľÇľÇľÇľÇľÇľÇľÇľÇľÇľÇľÇľÇľÇľÇľÇľÇľÇľÇľÇľÇľÇľÇľÇľÇľÇľÇľÇľÇľÇľÇľÇľÇľÇľÇľÇľÇľÇľÇľÇľÇľÇľÇľÇľÇľÇľÇľÇľÇľÇľÇľÇľÇľÇľÇľÇľÇľÇľÇľÇľÇľÇľÇľÇľÇľÇľÇľÇľÇľÇľÇľÇľÇľÇľÇľÇľÇľÇľÇľÇľÇľÇľÇľÇľÇľÇľÇľÇľÇľÇľÇľÇľÇľÇľÇľÇľÇľÇľÇľÇľÇľÇľÇľÇľÇľÇľÇľÇľÇľÇľÇľÇľÇľÇľÇľÇľÇľÇľÇľÇľÇľÇľÇľÇľÇľÇľÇľÇľÇľÇľÇľÇľÇľÇľÇľÇľÇľÇľÇľÇľÇľÇľÇľÇľÇľÇľÇľÇľÇľÇľÇľÇľÇľÇľÇľÇľÇľÇľÇľÇľÇľÇľÇľÇľÇľÇľÇľÇľÇľÇľÇľÇľÇľÇľÇľÇľÇľÇľÇľÇľÇľÇľÇľÇľÇľÇľÇľÇľÇľÇľÇľÇľÇľÇľÇľÇľÇľÇľÇľÇľÇľÇľÇľÇľÇľÇľÇľÇľÇľÇľÇľÇľÇľÇľÇľÇľÇľÇľÇľÇľÇľÇľÇľÇľÇľÇľÇľÇľÇľÇľÇľÇľÇľÇľÇľÇľÇľÇľÇľÇľÇľÇľÇľÇľÇľÇľÇľÇľÇľÇľÇľÇľÇľÇľÇľÇľÇľÇľÇľÇľÇľÇľÇľÇľÇľÇľÇľÇľÇľÇľÇľÇľÇľÇľÇľÇľÇľÇľÇľÇľÇľÇľÇľÇľÇľÇľÇľÇľÇľÇľÇľÇľÇľÇľÇľÇľÇľÇľÇľÇľÇľÇľÇľÇľÇľÇľÇľÇľÇľÇľÇľÇľÇľÇľÇľÇľÇľÇľÇľÇľÇľÇľÇľÇľÇľÇľÇľÇľÇľÇľÇľÇľÇľÇľÇľÇľÇľÇľÇľÇľÇľÇľÇľÇľÇľÇľÇľÇľÇľÇľÇľÇľÇľÇľÇľÇľÇľÇľÇľÇľÇľÇľÇľÇľÇľÇľÇľÇľÇľÇľÇľÇľÇľÇľÇľÇľÇľÇľÇľÇľÇľÇľÇľÇľÇľÇľÇľÇľÇľÇľÇľÇľÇľÇľÇľÇľÇľÇľÇľÇľÇľÇľÇľÇľÇľÇľÇľÇľÇľÇľÇľÇľÇľÇľÇľÇľÇľÇľÇľÇľÇľÇľÇľÇľÇľÇľÇľÇľÇľÇľÇľÇľÇľÇľÇľÇľÇľÇľÇľÇľÇľÇľÇľÇľÇľÇľÇľÇľÇľÇľÇľÇľÇľÇľÇľÇľÇľÇľÇľÇľÇľÇľÇľÇľÇľÇľÇľÇľÇľÇľÇľÇľÇľÇľÇľÇľÇľÇľÇľÇľÇľÇľÇľÇľÇľÇľÇľÇľÇľÇľÇľÇľÇľÇľÇľÇľÇľÇľÇľÇľÇľÇľÇľÇľÇľÇľÇľÇľÇľÇľÇľÇľÇľÇľÇľÇľÇľÇľÇľÇľÇľÇľÇľÇľÇľÇľÇľÇľÇľÇľÇľÇľÇľÇľÇľÇľÇľÇľÇľÇľÇľÇľÇľÇľÇľÇľÇľÇľÇľÇľÇľÇľÇľÇľÇľÇľÇľÇľÇľÇľÇľÇľÇľÇľÇľÇľÇľÇľÇľÇľÇľÇľÇľÇľÇľÇľÇľÇľÇľÇľÇľÇľÇľÇľÇľÇľÇľÇľÇľÇľÇľÇľÇľÇľÇľÇľÇľÇľÇľÇľÇľÇľÇľÇľÇľÇľÇľÇľÇľÇľÇľÇľÇľÇľÇľÇľÇľÇľÇľÇľÇľÇľÇľÇľÇľÇľÇľÇľÇľÇľÇľÇľÇľÇľÇľÇľÇľÇľÇľÇľÇľÇľ": 1538,
      "ÇľÇľÇľÇľÇľÇľÇľÇľÇľÇľÇľÇľÇľÇľÇľÇľÇľÇľÇľÇľÇľÇľÇľÇľÇľÇľÇľÇľÇľÇľÇľÇľÇľÇľÇľÇľÇľÇľÇľÇľÇľÇľÇľÇľÇľÇľÇľÇľÇľÇľÇľÇľÇľÇľÇľÇľÇľÇľÇľÇľÇľÇľÇľÇľÇľÇľÇľÇľÇľÇľÇľÇľÇľÇľÇľÇľÇľÇľÇľÇľÇľÇľÇľÇľÇľÇľÇľÇľÇľÇľÇľÇľÇľÇľÇľÇľÇľÇľÇľÇľÇľÇľÇľÇľÇľÇľÇľÇľÇľÇľÇľÇľÇľÇľÇľÇľÇľÇľÇľÇľÇľÇľÇľÇľÇľÇľÇľÇĿ": 1539,
      "ÇľÇľÇľÇŁ": 1540,
      "ÇľÇľÇľÇľÇľÇľÇľÇľÇľÇľÇľÇľÇľÇľÇľÇľÇľÇľÇľÇľÇľÇľÇľÇľÇ¥": 1541,
      "ÇľÇľÇľÇľÇľÇľÇľÇľÇľÇľÇľÇľÇľÇľÇľÇľÇľÇľÇľÇľÇľÇľÇľÇľÇľÇľÇľÇľÇľÇľÇľÇĿÇľÇľÇľÇľÇľÇľÇľÇľÇľÇľÇľÇľÇľÇľÇľÇľÇľÇľÇľÇľÇľÇľÇľÇľÇľÇľÇľÇľÇľÇľÇľÇľÇľÇľÇľÇľÇľÇľÇľÇľÇľÇľÇľÇľÇľÇľÇľÇľÇľÇľÇľÇľÇľÇľÇľÇľÇľÇľÇľÇľÇľÇľÇľÇľÇľÇľÇľÇľÇľÇľÇľÇľÇľÇľÇľÇľÇľÇľÇľÇľÇľÇľÇľÇľÇľÇľÇľÇľÇľÇľÇľÇľÇľÇľÇľÇľÇľÇľÇľÇľÇľÇľÇľÇľÇľÇľÇľÇľÇľÇľÇľÇľÇľÇľÇľÇľÇľÇľÇľÇľÇľÇľÇľÇľÇľÇľÇľÇľÇľÇľÇľÇľÇľÇľÇľÇľÇľÇľÇľÇľÇľÇľÇľÇľÇľÇľÇľÇľÇľÇľÇľÇľÇľÇľÇľÇľÇľÇľÇľÇľÇľÇľÇľÇľÇľÇľÇľÇľÇľÇľÇľÇľÇľÇľÇľÇľÇľÇľÇľÇľÇľÇľÇľÇľÇľÇľÇľÇľÇľÇľÇľÇľÇľÇľÇľÇľÇľÇľÇľÇľÇľÇľÇľÇľÇľÇľÇľÇľÇľÇľÇľÇľÇľÇľÇľÇľÇľÇľÇľÇľÇľÇľÇľÇľÇľÇľÇľÇľÇľÇľÇľÇľÇľÇľÇľÇľÇľÇľÇľÇľÇľÇľÇľÇľÇľÇľÇľÇľÇľÇľÇľÇľÇľÇľÇľÇľÇľÇľÇľÇľÇľÇľÇľÇľÇľÇľÇľÇľÇľÇľÇľÇľÇľÇľÇľÇľÇľÇľÇľÇľÇľÇľÇľÇľÇľÇľÇľÇľÇľÇľÇľÇľÇľÇľÇľÇľÇľÇľÇľÇľÇľÇľÇľÇľÇľÇľÇľÇľÇľÇľÇľÇľÇľÇľÇľÇľÇľÇľÇľÇľÇľÇľÇľÇľÇľÇľÇľÇľÇľÇľÇľÇľÇľÇľÇľÇľÇľÇľÇľÇľÇľÇľÇľÇľÇľÇľÇľÇľÇľÇľÇľÇľÇľÇľÇľÇľÇľÇľÇľÇľÇľÇľÇľÇľÇľÇľÇľÇľÇľÇľÇľÇľÇľÇľÇľÇľÇľÇľÇľÇľÇľÇľÇľÇľÇľÇľÇľÇľÇľÇľÇľÇľÇľÇľÇľÇľÇľÇľÇľÇľÇľÇľÇľÇľÇľÇľÇľÇľÇľÇľÇľÇľÇľÇľÇľÇľÇľÇľÇľÇľÇľÇľÇľÇľÇľÇľÇľÇľÇľÇľÇľÇľÇľÇľÇľÇľÇľÇľÇľÇľÇľÇľÇľÇľÇľÇľÇľÇľÇľÇľÇľÇľÇľÇľÇľÇľÇľÇľÇľÇľÇľÇľÇľÇľÇľÇľÇľÇľÇľÇľÇľÇľÇľÇľÇľÇľÇľÇľÇľÇľÇľÇľÇľÇľÇľÇľÇľÇľÇľÇľÇľÇľÇľÇľÇľÇľÇľÇľÇľÇľÇľÇľÇľÇľÇľÇľÇľÇľÇľÇľÇľÇľÇľÇľÇľÇľÇľÇľÇľÇľÇľÇľÇľÇľÇľÇľÇľÇľÇľÇľÇľÇľÇľÇľÇľÇľÇľÇľÇľÇľÇľÇľÇľÇľÇľÇľÇľÇľÇľÇľÇľÇľÇľÇľÇľÇľÇľÇľÇľÇľÇľÇľÇľÇľÇľÇľÇľÇľÇľÇľÇľÇľÇľÇľÇľÇľÇľÇľÇľÇľÇľÇľÇľÇľÇľÇľÇľÇľÇľÇľÇľÇľÇľÇľÇľÇľÇľÇľÇľÇľÇľÇľÇľÇľÇľÇľÇľÇľÇľÇľÇľÇľÇľÇľÇľÇľÇľÇľÇľÇľÇľÇľÇľÇľÇľÇľÇľÇľÇľÇľÇľÇľÇľÇľÇľÇľÇľÇľÇľÇľÇľÇľÇľÇľÇľÇľÇľÇľÇľÇľÇľÇľ": 1542,
      "ÇŀÇł": 1543,
      "ÇľÇľÇľÇľÇľÇľÇľÇľÇľÇľÇľÇľÇľÇľÇľÇľÇľÇľÇľÇľÇľÇľÇĽÇľÇľÇľÇľÇľÇľÇľÇľÇĿ": 1544,
      "ÇľÇľÇľÇľÇľÇľÇľÇľÇľÇľÇľÇľÇľÇŁ": 1545,
      "ÇľÇľÇľÇĽÇĽ": 1546,
      "Æ©Èħ": 1547,
      "ÇľÈŁ": 1548,
      "ÇĻÇ¡": 1549,
      "ÇĹÇ¡": 1550,
      "ÇľÇľÇł": 1551,
      "ÇľÇľÇľÇľÇľÇľÇĿÇľÇľÇľÇľÇľÇľÇľÇľÇľÇľÇľÇľÇľÇľÇľÇľÇľÇľÇľÇľÇľÇľÇľÇľÇŀ": 1552,
      "ÇŁÇł": 1553,
      "ÆĪ": 1554,
      "ÆĽÃ¢": 1555,
      "ÇľÇľÇľÇľÇľÇľÇľÇľÇľÇľÇľÇľÇľÇľÇľÇľÇľÇľÇľÇľÇľÇľÇľÇľÇĽÇĿ": 1556,
      "ÇľÇľÇľÇľÇľÇľÇľÇľÇľÇľÇľÇľÇľÇľÇľÇľÇľÇľÇľÇľÇľÇľÇľÇľÇľÇľÇľÇľÇľÇľÇľÇļÇľÇľÇľÇľÇľÇľÇľÇľÇľÇľÇľÇľÇľÇľÇľÇľÇľÇľÇľÇľÇľÇľÇľÇľÇľÇľÇľÇľÇľÇľÇľÇļ": 1557,
      "ÇľÇľÇľÇľÇľÇľÇľÇľÇľÇľÇľÇľÇľÇľÇľÇľÇľÇľÇľÇľÇľÇľÇľÇľÇ§": 1558,
      "ÇľÇľÇľÇľÇľÇľÇľÇľÇľÇľÇľÇľÇľÇľÇľÇľÇľÇľÇľÇľÇľÇľÇľÇľÇĿÇĽ": 1559,
      "ÇĹÇĹÇľÈİÇ£Æ©ÈĦÇµÈĴÈĩÇ¥ÇĶ": 1560,
      "ÇľÇľÇľÇľÇľÇľÇľÇľÇľÇľÇľÇľÇľÇĿÇĿ": 1561,
      "ÈĴÆįÇ¥ÇķÇŀÈĳÇĿÆ©ÈĦÇĨÈĴÈĩÇľÇľÇľÇľÇľÇľÇľÇľÇľÇľÇľÇľ": 1562,
      "ÇĹÇĹÇľÈİÇ£Æ©ÈĦÇµÈĴÈĩÇ¤Çķ": 1563,
      "ÇľÇľÇľÇľÇľÇľÇļÇľÇľÇľÇľÇľÇľÇľÇľÇľÇľÇľÇľÇľÇľÇľÇľÇľÇľÇľÇľÇľÇľÇľÇľÇĽ": 1564,
      "ÇľÇľÇľÇľÇľÇľÇľÇľÇľÇľÇľÇľÇľÇľÇľÇľÇľÇľÇľÇľÇľÇŀ": 1565,
      "ÇľÇľÇľÇĻ": 1566,
      "ÇľÇľÇľÇľÇľÇľÇľÇľÇľÇľÇľÇľÇľÇľÇľÇľÇľÇľÇľÇľÇľÇļ": 1567,
      "ÇľÇĽÇĿÇĽÇĿ": 1568,
      "ÆĻÆįÇľÇľÇľÇľÇľÇľÇľÇľÇľÇľÇľÇľ": 1569,
      "È¡": 1570,
      "ÇľÇľÇľÇľÇľÇľÇľÇľÇľÇľÇľÇľÇľÇľÇľÇľÇľÇľÇľÇľÇľÇľÇľÇľÇ¤": 1571,
      "ÇľÇľÇľÇľÇľÇľÇľÇľÇľÇľÇľÇľÇľÇľÇľÇľÇľÇľÇľÇľÇĽ": 1572,
      "È¦": 1573,
      "ÇľÇľÇľÇľÇľÇľÇľÇľÇľÇľÇľÇľÇľÇľÇľÇľÇľÇľÇľÇľÇľÇľÇľÇľÇľÇľÇľÇľÇľÇľÇľÇĿÇľÇľÇľÇľÇľÇľÇľÇľÇľÇľÇľÇľÇľÇľÇľÇľÇľÇľÇľÇľÇľÇľÇľÇľÇľÇľÇľÇľÇľÇľÇľÇľÇľÇľÇľÇľÇľÇľÇľÇľÇľÇľÇľÇľÇľÇľÇľÇľÇľÇľÇľÇľÇľÇľÇľÇľÇľÇľÇľÇľÇľÇľÇľÇľ": 1574,
      "ÇľÇľÇľÇľÇľÇľÇľÇľÇľÇľÇľÇľÇľÇľÇľÇľÇľÇľÇľÇľÇľÇľÇľÇľÇľÇľÇľÇľÇľÇľÇľÇľÇľÇľÇľÇľÇľÇľÇľÇľÇľÇľÇľÇľÇľÇľÇľÇľÇľÇľÇľÇľÇľÇľÇľÇľÇľÇľÇľÇľÇľÇľÇľÇľÇľÇľÇľÇľÇľÇľÇľÇľÇľÇľÇľÇľÇľÇľÇľÇľÇľÇľÇľÇľÇľÇľÇľÇľÇľÇľÇľÇľÇľÇľÇľÇľÇľÇľÇľÇľÇľÇľÇľÇľÇľÇľÇľÇľÇľÇľÇľÇľÇľÇľÇľÇľÇľÇľÇľÇľÇľÇľÇľÇľÇľÇľÇľÇľÇľÇľÇľÇľÇľÇľÇľÇľÇľÇľÇľÇľÇľÇľÇľÇľÇľÇľÇľÇľÇľÇľÇľÇľÇľÇľÇľÇľÇľÇľÇľÇľÇľÇľÇľÇľÇľÇľÇľÇľÇľÇľÇľÇľÇľÇľÇľÇľÇľÇľÇľÇľÇľÇľÇľÇľÇľÇľÇľÇľÇľÇľÇľÇľÇľÇľÇľÇľÇľÇľÇľÇľÇľÇľÇľÇľÇľÇľÇľÇľÇľÇľÇľÇľÇľÇľÇľÇľÇľÇľÇľÇľÇľÇľÇľÇľÇľÇľÇľÇľÇľÇľÇľÇľÇľÇľÇľÇľÇľÇľÇľÇľÇľÇľÇľÇľÇľÇľÇľÇľÇľÇľÇľÇľÇľÇľÇľÇľÇľÇľÇľÇľÇľÇľÇľÇľÇľÇľÇľÇľÇľÇľÇľÇľÇľÇľÇľÇľÇľÇľÇľÇľÇľÇľÇľÇľÇľÇľÇľÇľÇľÇľÇľÇľÇľÇľÇľÇľÇľÇľÇľÇľÇľÇľÇľÇľÇľÇľÇľÇľÇľÇľÇľÇľÇľÇľÇľÇľÇľÇľÇľÇľÇľÇľÇľÇľÇľÇľÇľÇľÇľÇľÇľÇľÇľÇľÇľÇľÇľÇľÇľÇľÇľÇľÇľÇľÇľÇľÇľÇľÇľÇľÇľÇľÇľÇľÇľÇľÇľÇľÇľÇľÇľÇľÇľÇľÇľÇľÇľÇľÇľÇľÇľÇľÇľÇľÇľÇľÇľÇľÇľÇľÇľÇľÇľÇľÇľÇľÇľÇľÇľÇľÇľÇľÇľÇľÇľÇľÇľÇľÇľÇľÇľÇľÇľÇľÇľÇľÇľÇľÇľÇľÇľÇľÇľÇľÇľÇľÇľÇľÇľÇľÇľÇľÇľÇľÇľÇľÇľÇľÇľÇľÇľÇľÇľÇľÇľÇľÇľÇľÇľÇľÇľÇľÇľÇľÇľÇľÇľÇľÇľÇľÇľÇľÇľÇľÇľÇľÇľÇľÇľÇľÇľÇľÇľÇľÇľÇľÇľÇľÇľÇľÇľÇľÇľÇľÇľÇľÇľÇľÇľÇľÇľÇľÇľÇľÇľÇľÇľÇľÇľÇľÇľÇľÇľÇľÇľÇľÇľÇľÇľÇľÇľÇľÇľÇľÇľÇľÇľÇľÇľÇľÇľÇľÇľÇľÇľÇľÇľÇľÇľÇľÇľÇľÇľÇľÇľÇľÇľÇľÇľÇľÇľÇľÇľÇľÇľÇľÇľÇľÇľÇľÇľÇľÇľÇľÇľÇľÇľÇľÇľÇľÇľÇľÇľÇľÇľÇľÇľÇľÇľÇľÇľÇľÇľÇľÇľÇľÇľÇľÇľÇľÇľÇľÇľÇľÇľÇľÇľÇľÇľÇľÇľÇľÇľÇľÇľÇľÇľÇľÇľÇľÇľÇľÇľÇľÇľÇľÇľÇľ": 1575,
      "ÇļÇĹ": 1576,
      "Ç£ÇĿ": 1577,
      "ÇľÇľÇľÇľÇľÇľÇľÇľÇľÇľÇľÇľÇľÇľÇľÇľÇľÇľÇľÇľÇľÇľÇľÇĿÇĿ": 1578,
      "ÇķÇ¤": 1579,
      "ÇľÇľÇľÇľÇľÇľÇľÇľÇľÇľÇľÇľÇľÇľÇľÇľÇľÇľÇľÇľÇľÇľÇľÇľÇľÇľÇľÇľÇľÇĿÇľÇĽ": 1580,
      "Ç¡Çĸ": 1581,
      "ÇľÇľÇľÇľÇľÇľÇ¯": 1582,
      "ÇľÇľÇľÇľÇľÇľÇľÇľÇľÇľÇľÇľÇľÇľÇľÇľÇľÇľÇľÇľÇľÇľÇĿÇľÇľÇľÇľÇľÇľÇľÇľÇĿ": 1583,
      "ÇľÇľÇľÇľÇľÇľÇľÇľÇľÇľÇľÇľÇľÇľÇľÇľÇľÇľÇľÇľÇľÇľÇľÇľÇ¦": 1584,
      "ÇľÇĿÇľÇľÇľÇľÇľÇľÇľÇľÇľÇľÇľÇľÇľÇľÇľÇľÇľÇľÇľÇľÇľÇľÇľÇľÇľÇľ": 1585,
      "ÇĻÇĻ": 1586,
      "ÇľÇª": 1587,
      "ÇĹÇĽ": 1588,
      "ÇľÇŀÇĽ": 1589,
      "ÇľÇľÇľÇľÇĽÇĿ": 1590,
      "ÇľÇľÇľÇľÇĿÇĽ": 1591,
      "ÇľÇľÇľÇľÇľÇľÇľÇļ": 1592,
      "ÇļÇ¡": 1593,
      "ÇľÇľÇľÇľÇľÇľÇľÇľÇľÇľÇľÇľÇľÇľÇľÇľÇľÇľÇľÇľÇľÇľÇľÇĸ": 1594,
      "ÇĻÇĺ": 1595,
      "È£": 1596,
      "ÇľÇľÇľÇľÇľÇľÇľÇľÇľÇľÇľÇľÇľÇľÇľÇľÇľÇľÇľÇľÇľÇľÇĿÇľÇĿ": 1597,
      "ÆĥÇ": 1598,
      "ÇľÇľÇľÇľÇľÇľÇľÇľÇľÇľÇľÇľÇľÇľÇľÇľÇľÇľÇľÇľÇľÇľÇľÇľÇľÇľÇľÇľÇľÇľÇľÇľÇľÇľÇľÇľÇľÇľÇľÇľÇľÇľÇľÇľÇľÇľÇľÇľÇľÇľÇľÇľÇľÇľÇľÇľÇľÇľÇľÇľÇľÇľÇľÇľÇľÇľÇľÇľÇľÇľÇľÇľÇľÇľÇľÇľÇľÇľÇľÇľÇľÇľÇľÇľÇľÇľÇľÇľÇľÇľÇľÇľÇľÇľÇľÇľÇľÇľÇľÇľÇľÇľÇľÇľÇľÇľÇľÇľÇľÇľÇľÇľÇľÇľÇľÇľÇľÇľÇľÇľÇľÇľÇľÇľÇľÇľÇľÇľÇľÇľÇľÇľÇľÇľÇľÇľÇľÇľÇľÇľÇľÇľÇľÇľÇľÇľÇľÇľÇľÇľÇľÇľÇľÇľÇľÇľÇľÇľÇľÇľÇľÇľÇľÇľÇľÇľÇľÇľÇľÇľÇľÇľÇľÇľÇľÇľÇľÇľÇľÇľÇľÇľÇľÇľÇľÇľÇľÇľÇľÇľÇľÇľÇľÇľÇľÇľÇľÇľÇľÇľÇľÇľÇľÇľÇľÇľÇľÇľÇľÇľÇľÇľÇľÇľÇľÇľÇľÇľÇľÇľÇľÇľÇľÇľÇľÇľÇľÇľÇľÇľÇľÇľÇľÇľÇľÇľÇľÇľÇľÇľÇľÇľÇľÇľÇľÇľÇľÇľÇľÇľÇľÇľÇľÇľÇľÇľÇľÇľÇľÇľÇľÇľÇľÇľÇľÇľÇľÇľÇľÇľÇľÇľÇľÇľÇľÇľÇľÇľÇľÇľÇľÇľÇľÇľÇľÇľÇľÇľÇľÇľÇľÇľÇľÇľÇľÇľÇľÇľÇľÇľÇľÇľÇľÇľÇľÇľÇľÇľÇľÇľÇľÇľÇľÇľÇľÇľÇľÇľÇľÇľÇľÇľÇľÇľÇľÇľÇľÇľÇľÇľÇľÇľÇľÇľÇľÇľÇľÇľÇľÇľÇľÇľÇľÇľÇľÇľÇľÇľÇľÇľÇľÇľÇľÇľÇľÇľÇľÇľÇľÇľÇľÇľÇľÇľÇľÇľÇľÇľÇľÇľÇľÇľÇľÇľÇľÇľÇľÇľÇľÇľÇľÇľÇľÇľÇľÇľÇľÇľÇľÇľÇľÇľÇľÇľÇľÇľÇľÇľÇľÇľÇľÇľÇľÇľÇľÇľÇľÇľÇľÇľÇľÇľÇľÇľÇľÇľÇľÇľÇľÇľÇľÇľÇľÇľÇľÇľÇľÇľÇľÇľÇľÇľÇľÇľÇľÇľÇľÇľÇľÇľÇľÇľÇľÇľÇľÇľÇľÇľÇľÇľÇľÇľÇľÇľÇľÇľÇľÇľÇľÇľÇľÇľÇľÇľÇľÇľÇľÇľÇľÇľÇľÇľÇľÇľÇľÇľÇľÇľÇľÇľÇľÇľÇľÇľÇľÇľÇľÇľÇľÇľÇľÇľÇľÇľÇľÇľÇľÇľÇľÇľÇľÇľÇľÇľÇľÇľÇľÇľÇľÇľÇľÇľÇľÇľÇľÇľÇľÇľÇľÇľÇľÇľÇľÇľÇľÇľÇľÇľÇľÇľÇľÇľÇľÇľÇľÇľÇľÇľÇľÇľÇľÇľÇľÇľÇľÇľÇľÇľÇľÇľÇľÇľÇľÇľÇľÇľÇľÇľÇľÇľÇľÇľÇľÇľÇľÇľÇľÇľÇľÇľÇľÇľÇľÇľÇľÇľÇľÇľÇľÇľÇľÇľÇľÇľÇľÇľÇľÇľÇľÇľÇľÇľÇľÇľÇľÇľÇľÇľÇľÇľÇľÇľÇľÇľÇľÇľÇľÇľÇľÇľÇľÇľÇľÇľÇľÇľÇľÇľÇľÇľÇľÇľÇľÇľÇľÇľÇľÇľÇľÇľÇľÇľÇľÇľÇľÇľÇľÇľÇľÇľÇľÇľÇľÇľÇľÇľÇľÇľÇľÇľÇľÇľÇľÇľÇľÇľÇľÇľÇľÇľÇľÇľÇľÇľÇľÇľÇľÇľÇľÇľÇľÇľÇľÇľÇľÇľÇľÇľÇľÇľÇľÇľÇľÇľÇľÇľÇľÇľÇľÇľÇľÇľÇľÇľÇľÇľÇľÇľÇľÇľÇľÇľÇľÇľÇľÇľÇľÇľÇľÇľÇľÇľÇľÇľÇľÇľÇľÇľÇľÇľÇľÇľÇľÇľÇľÇľÇľÇľÇľÇľÇľÇľÇľÇľÇľÇľÇľÇľÇľÇľÇľÇľÇľÇľÇľÇľÇľÇľ": 1599,
      "ÇľÇľÇľÇľÇľÇľÇľÇľÇľÇľÇľÇľÇĿÇĿ": 1600,
      "ÇľÇľÇľÇľÇľÇľÇľÇľÇľÇŀ": 1601,
      "È¥": 1602,
      "ÇľÇľÇľÇľÇľÇľÇľÇľÇľÇľÇľÇľÇľÇľÇľÇľÇľÇľÇľÇľÇľÇľÇľÇľÇľÇļ": 1603,
      "ÇľÇľÇľÇľÇľÇľÇľÇľÇľÇľÇľÇľÇľÇľÇľÇľÇľÇľÇľÇľÇľÇľÇľÇ¢": 1604,
      "È¤": 1605,
      "ÇľÇľÇľÇľÇľÇľÇľÇľÇľÇľÇľÇľÇľÇľÇľÇľÇľÇľÇľÇľÇľÇľÇĽÇľÇĿ": 1606,
      "ÆľÇĿÈŁ": 1607,
      "ÇľÇľÇľÇľÇľÇľÇľÇľÇľÇľÇľÇľÇľÇľÇľÇľÇľÇľÇľÇľÇľÇľÇľÇľÇľÇľÇľÇľÇľÇľÇĿÇĿ": 1608,
      "È¢": 1609,
      "ÇľÇľÇľÇľÇľÇľÇī": 1610,
      "ÇľÇľÇľÇľÇľÇľÇľÇľÇľÇľÇľÇľÇľÇľÇľÇľÇľÇľÇľÇľÇľÇľÇ¡": 1611,
      "ÈŃ": 1612,
      "ÇĿÇĽÇľÇĿ": 1613,
      "ÇľÇ©": 1614,
      "ÇķÇŀ": 1615,
      "Æ©ÈĨ": 1616,
      "È§": 1617,
      "Æĥ": 1618,
      "È¨": 1619,
      "Ç¤ÇĶ": 1620,
      "ÇĹÇĹÇľÈİÇ£Æ©ÈĦÇµÈĴÈĩÇ¥": 1621,
      "ÇľÇľÇľÇľÇľÇľÇľÇľÇľÇľÇľÇľÇľÇľÇľÇľÇľÇľÇľÇľÇľÇľÇľÇľÇľÇľÇľÇľÇľÇľÇľÇĿÇľÇľÇľÇľÇľÇľÇľÇľÇľÇľÇľÇľÇľÇľÇľÇľÇľÇľÇľÇľÇľÇľÇľÇľÇľÇľÇľÇľÇľÇľÇľÇľÇľÇľÇľÇľÇľÇľÇľÇľÇľÇľÇľÇľÇľÇľÇľÇľÇľÇľÇľÇľÇľÇľÇľÇľÇľÇľÇľÇľÇľÇľÇľÇľÇľÇľÇľÇľÇľÇľÇľÇľÇľÇľÇľÇľÇľÇľÇľÇľÇľÇľÇľÇľÇľÇľÇľÇľÇľÇľÇľÇľÇľÇľÇľÇľÇľÇľÇľÇľÇľÇľÇľÇľÇľÇľÇľÇľÇľÇľÇľÇľÇľÇľÇľÇľÇľÇľÇľÇľÇľÇľÇľÇľÇľÇľÇľÇľÇľÇľÇľÇľÇľÇľÇľÇľÇľÇľÇľÇľÇľÇľÇľÇľÇľÇľÇľÇľÇľÇľÇľÇľÇľÇľÇľÇľÇľÇľÇľÇľÇľÇľÇľÇľÇľÇľÇľÇľÇľÇľÇľÇľÇľÇľÇľÇľÇľÇľÇľÇľÇľÇľÇľÇľÇľÇľÇľÇľÇľÇľÇľÇľÇľÇľÇľÇľÇľÇľÇľÇľÇľÇľÇľÇľÇľÇľÇľÇľÇľÇľÇľÇľÇľÇľÇľÇľÇľÇľÇľÇľÇľÇľÇľÇľÇľÇľÇľÇľÇľÇľÇľÇľÇľÇľÇľÇľÇľÇľÇľÇľÇľÇľÇľÇľÇľÇľÇľÇľÇľÇľÇľÇľÇľÇľÇľÇľÇľÇľÇľÇľÇľÇľÇľÇľÇľÇľÇľÇľÇľÇľÇľÇľÇľÇľÇľÇľÇľÇľÇľÇľÇľÇľÇľÇľÇľÇľÇľÇľÇľÇľÇľÇľÇľÇľÇľÇľÇľÇľÇľÇľÇľÇľÇľÇľÇľÇľÇľÇľÇľÇľÇľÇľÇľÇľÇľÇľÇľÇľÇľÇľÇľÇľÇľÇľÇľÇľÇľÇľÇľÇľÇľÇľÇľÇľÇľÇľÇľÇľÇľÇľÇľÇľÇľÇľÇľÇľÇľÇľÇľÇľÇľÇľÇľÇľÇľÇľÇľÇľÇľÇľÇľÇľÇľÇľÇľÇľÇľÇľÇľÇľÇľÇľÇľÇľÇľÇľÇľÇľÇľÇľÇľÇľÇľÇľÇľÇľÇľÇľÇľÇľÇľÇľÇľÇľÇľÇľÇľÇľÇľÇľÇľÇľÇľÇľÇľÇľÇľÇľÇľÇľÇľÇľÇľÇľÇľÇľÇľÇľÇľÇľÇľÇľÇľÇľÇľÇľÇľÇľÇľÇľÇľÇľÇľÇľÇľÇľÇľÇľÇľÇľÇľÇľÇľÇľÇľÇľÇľÇľÇľÇľÇľÇľÇľÇľÇľÇľÇľÇľÇľÇľÇľÇľÇľÇľÇľÇľÇľÇľÇľÇľÇľÇľÇľÇľÇľÇľÇľÇľÇľÇľÇľÇľÇľÇľÇľÇľÇľÇľÇľÇľÇľÇľÇľÇľÇľÇľÇľÇľÇľÇľÇľÇľÇľÇľÇľÇľÇľÇľÇľÇľÇľÇľÇľÇľÇľÇľÇľÇľÇľÇľÇľÇľÇľÇľÇľÇľÇľÇľÇľÇľÇľÇľÇľÇľÇľÇľÇľÇľÇľÇľÇľÇľÇľÇľÇľÇľÇľÇľÇľÇľÇľÇľÇľÇľÇľÇľÇľÇľÇľÇľÇľÇľÇľÇľÇľÇľÇľÇľÇľÇľÇľÇľÇľÇľÇľÇľÇľÇľÇľÇľÇľÇľÇľÇľÇľÇľÇľÇľÇľÇľÇľÇľÇľÇľÇľÇľÇľÇľÇľÇľÇľÇľÇľÇľÇľÇľÇľÇľÇľÇľÇľÇľÇľÇľÇľÇľÇľÇľÇľÇľÇľÇľÇľÇľÇľÇľÇľÇľÇľÇľÇľÇľÇľÇľÇľÇľÇľÇľÇľÇľÇľÇľÇľÇľÇľÇľÇľÇľÇľÇľÇľÇľÇľÇľÇľÇľÇľÇľÇľÇľÇľÇľ": 1622,
      "ÇľÇľÇľÇľÇľÇľÇľÇľÇľÇľÇľÇľÇľÇľÇľÇľÇľÇľÇľÇľÇľÇľÇľÇľÇľÇľÇľÇľÇľÇĿÇľÇĿ": 1623,
      "ÇľÇľÇľÇľÇľÇľÇŃ": 1624,
      "ÇľÇľÇľÇľÇľÇľÇĭ": 1625,
      "ÇĸÇ¢": 1626,
      "ÇľÇľÇľÇľÇľÇľÇľÇľÇľÇľÇľÇľÇľÇľÇľÇľÇľÇľÇľÇľÇľÇľÇľÇľÇľÇľÇľÇľÇľÇľÇľÇľÇľÇľÇľÇľÇľÇľÇľÇľÇľÇľÇľÇľÇľÇľÇľÇľÇľÇľÇľÇľÇľÇľÇľÇľÇľÇľÇľÇľÇľÇľÇľÇľÇľÇľÇľÇľÇľÇľÇľÇľÇľÇľÇľÇľÇľÇľÇľÇľÇľÇľÇľÇľÇľÇľÇľÇľÇľÇľÇľÇľÇľÇľÇľÇľÇľÇľÇľÇľÇľÇľÇľÇľÇľÇľÇľÇľÇľÇľÇľÇľÇľÇľÇľÇľÇľÇľÇľÇľÇľÇľÇľÇľÇľÇľÇľÇľÇľÇľÇľÇľÇľÇľÇľÇľÇľÇľÇľÇľÇľÇľÇľÇľÇľÇľÇľÇľÇľÇľÇľÇľÇľÇľÇľÇľÇľÇľÇľÇľÇľÇľÇľÇľÇľÇľÇľÇľÇľÇľÇľÇľÇľÇľÇľÇľÇľÇľÇľÇľÇľÇľÇľÇľÇľÇľÇľÇľÇľÇľÇľÇľÇľÇľÇľÇľÇľÇľÇľÇľÇľÇľÇľÇľÇľÇľÇľÇľÇľÇľÇľÇľÇľÇľÇľÇľÇľÇľÇľÇľÇľÇľÇľÇľÇľÇľÇľÇľÇľÇľÇľÇľÇľÇľÇľÇľÇľÇľÇľÇľÇľÇľÇľÇľÇľÇľÇľÇľÇľÇľÇľÇľÇľÇľÇľÇľÇľÇľÇľÇľÇľÇľÇľÇľÇľÇľÇľÇľÇľÇľÇľÇľÇľÇľÇľÇľÇľÇľÇľÇľÇľÇľÇľÇľÇľÇľÇľÇľÇľÇľÇľÇľÇľÇľÇľÇľÇľÇľÇľÇľÇľÇľÇľÇľÇľÇľÇľÇľÇľÇľÇľÇľÇľÇľÇľÇľÇľÇľÇľÇľÇľÇľÇľÇľÇľÇľÇľÇľÇľÇľÇľÇľÇľÇľÇľÇľÇľÇľÇľÇľÇľÇľÇľÇľÇľÇľÇľÇľÇľÇľÇľÇľÇľÇľÇľÇľÇľÇľÇľÇľÇľÇľÇľÇľÇľÇľÇľÇľÇľÇľÇľÇľÇľÇľÇľÇľÇľÇľÇľÇľÇľÇľÇľÇľÇľÇľÇľÇľÇľÇľÇľÇľÇľÇľÇľÇľÇľÇľÇľÇľÇľÇľÇľÇľÇľÇľÇľÇľÇľÇľÇľÇľÇľÇľÇľÇľÇľÇľÇľÇľÇľÇľÇľÇľÇľÇľÇľÇľÇľÇľÇľÇľÇľÇľÇľÇľÇľÇľÇľÇľÇľÇľÇľÇľÇľÇľÇľÇľÇľÇľÇľÇľÇľÇľÇľÇľÇľÇľÇľÇľÇľÇľÇľÇľÇľÇľÇľÇľÇľÇľÇľÇľÇľÇľÇľÇľÇľÇľÇľÇľÇľÇľÇľÇľÇľÇľÇľÇľÇľÇľÇľÇľÇľÇľÇľÇľÇľÇľÇľÇľÇľÇľÇľÇľÇľÇľÇľÇľÇľÇľÇľÇľÇľÇľÇľÇľÇľÇľÇľÇľÇľÇľÇľÇľÇľÇľÇľÇľÇľÇľÇľÇľÇľÇľÇľÇľÇľÇľÇľÇľÇľÇľÇľÇľÇľÇľÇľÇľÇľÇľÇľÇľÇľÇľÇľÇľÇľÇľÇľÇľÇľÇľÇľÇľÇľÇľÇľÇľÇľÇľÇľÇľÇľÇľÇľÇľÇľÇľÇľÇľÇľÇľÇľÇľÇľÇľÇľÇľÇľÇľÇľÇľÇľÇľÇľÇľÇľÇľÇľÇľÇľÇľÇľÇľÇľÇľÇľÇľÇľÇľÇľÇľÇľÇľÇľÇľÇľÇľÇľÇľÇľÇľÇľÇľÇľÇľÇľÇľÇľÇľÇľÇľÇľÇľÇľÇľÇľÇľÇľÇľÇľÇľÇľÇľÇľÇľÇľÇľÇľÇľÇľÇľÇľÇľÇľÇľÇľÇľÇľÇľÇľÇľÇľÇľÇľÇľÇľÇľÇľÇľÇľÇľÇľÇľÇľÇľÇľÇľÇľÇľÇľÇľÇľÇľÇľÇľÇľÇľÇľÇľÇľÇľÇľÇľÇľÇľÇľÇľÇľÇľÇľÇľÇľÇľÇľÇľÇľÇľÇľÇľÇľÇľÇľÇľÇľÇľÇľÇľÇľÇľÇľÇľÇľÇľÇľÇľÇľÇľÇľÇľÇľÇľÇľÇľÇľÇľÇľÇľÇľÇľÇľÇľÇľÇľÇľÇľÇľÇľÇľÇľÇľÇľÇľÇľÇľ": 1627,
      "ÇľÇľÇľÇľÇĿÇĿ": 1628,
      "ÇĺÇĺ": 1629,
      "ÆĻÆįÇľÇľÇľÇľÇľÇľÇľÇľÇľÇľÇľÇľÇľÇľÇľÇľÇľÇľÇľÇľÇľÇľ": 1630,
      "ÇľÇĽÇľÇľÇĿ": 1631,
      "Ç¥ÇķÇŀÈĳÇĿÆ©ÈĦÇĩÈĴÈĩ": 1632,
      "ÇłÇļ": 1633,
      "ÇĸÇ£": 1634,
      "ÇľÇį": 1635,
      "ÆķÆį": 1636,
      "ÇĻÇĹ": 1637,
      "ÇŀÇĹ": 1638,
      "ÇľÇĽÇľÇľ": 1639,
      "ÇĿÇŁ": 1640,
      "ÇľÇľÇľÇľÇľÇľÇľÇľÇľÇľÇľÇľÇľÇľÇľÇľÇľÇľÇľÇľÇľÇľÇľÇ£": 1641,
      "ÇľÇ«": 1642,
      "Ç¥ÇķÇŀÈĳÇĿÆ©ÈĦÇĨÈĴÈĩÇľÇľÇľÇľÇľÇľÇľÇľÇľÇľÇľÇľÇľÇľÇľÇľÇľÇľÇľÇľÇľÇľÇľÇľÇľÇľÇľÇľÇľÇľÇľÇľÇľÇľÇľÇľÇľÇľÇľÇľÇľÇľÇľÇľÇľÇľÇľÇľÇľÇľÇľÇľÇľÇľÇľÇľÇľÇľÇľÇľÇľÇľÇľÇľÇľÇľÇľÇľÇľÇľÇľÇľÇľÇľÇľÇľÇľÇľÇľÇľÇľÇľÇľÇľÇľÇľÇľÇľÇľÇľÇľÇľÇľÇľÇľÇľÇľÇľÇľÇľÇľÇľÇľÇľÇľÇľÇľÇľÇľÇľÇľÇľÇľÇľÇľÇľÇľÇľÇľÇľÇľÇľÇľÇľÇľÇľÇľÇľÇľÇľÇľÇľÇľÇľÇľÇľÇľÇľÇľÇľÇľÇľÇľÇľÇľÇľÇľÇľÇľÇľÇľÇľÇľÇľÇľÇľÇľÇľÇľÇľÇľÇľÇľÇľÇľÇľÇľÇľÇľÇľÇľÇľÇľÇľÇľÇľÇľÇľÇľÇľÇľÇľÇľÇľÇľÇľÇľÇľÇľÇľÇľÇľÇľÇľÇľÇľÇľÇľÇľÇľÇľÇľÇľÇľÇľÇľÇľÇľÇľÇľÇľÇľÇľÇľÇľÇľÇľÇľÇľÇľÇľÇľÇľÇľÇľÇľÇľÇľÇľÇľÇľÇľÇľÇľÇľÇľÇľÇľÇľÇľÇľÇľÇľÇľÇľÇľÇľÇľÇľÇľÇľÇľÇľÇľÇľÇľÇľÇľÇľÇľÇľÇľÇľÇľÇľÇľÇľÇľÇľÇľÇľÇľÇľÇľÇľÇľÇľÇľÇľÇľÇľÇľÇľÇľÇľÇľÇľÇľÇľÇľÇľÇľÇľÇľÇľÇľÇľÇľÇľÇľÇľÇľÇľÇľÇľÇľÇľÇľÇľÇľÇľÇľÇľÇľÇľÇľÇľÇľÇľÇľÇľÇľÇľÇľÇľÇľÇľÇľÇľÇľÇľÇľÇľÇľÇľÇľÇľÇľÇľÇľÇľÇľÇľÇľÇľÇľÇľÇľÇľÇľÇľÇľÇľÇľÇľÇľÇľÇľÇľÇľÇľÇľÇľÇľÇľÇľÇľÇľÇľÇľÇľÇľÇľÇľÇľÇľÇľÇľÇľÇľÇľÇľÇľÇľÇľÇľÇľÇľÇľÇľÇľÇľÇľÇľÇľÇľÇľÇľÇľÇľÇľÇľÇľÇľÇľÇľÇľÇľÇľÇľÇľÇľÇľÇľÇľÇľÇľÇľÇľÇľÇľÇľÇľÇľÇľÇľÇľÇľÇľÇľÇľÇľÇľÇľÇľÇľÇľÇľÇľÇľÇľÇľÇľÇľÇľÇľÇľÇľÇľÇľÇľÇľÇľÇľÇľÇľÇľÇľÇľÇľÇľÇľÇľÇľÇľÇľÇľÇľÇľÇľÇľÇľÇľÇľÇľÇľÇľÇľÇľÇľÇľÇľÇľÇľÇľÇľÇľÇľÇľÇľÇľÇľÇľÇľÇľÇľÇľÇľÇľÇľÇľÇľÇľÇľÇľÇľÇľÇľÇľÇľÇľÇľÇľÇľÇľÇľÇľÇľÇľÇľÇľÇľÇľÇľÇľÇľÇľÇľÇľÇľÇľÇľÇľÇľÇľÇľÇľÇľÇľÇľÇľÇľÇľÇľÇľÇľÇľÇľÇľÇľÇľÇľÇľÇľÇľÇľÇľÇľÇľÇľÇľÇľÇľÇľÇľÇľÇľÇľÇľÇľÇľÇľÇľÇľÇľÇľÇľÇľÇľÇľÇľÇľÇľÇľÇľÇľÇľÇľÇľÇľÇľÇľÇľÇľÇľÇľÇľÇľÇľÇľÇľÇľÇľÇľÇľÇľÇľÇľÇľÇľÇľÇľÇľÇľÇľÇľÇľÇľÇľÇľÇľÇľÇľÇľÇľÇľÇľÇľÇľÇľÇľÇľÇľÇľÇľÇľÇľÇľÇľÇľÇľÇľÇľÇľÇľÇľÇľÇľÇľÇľÇľÇľÇľÇľÇľÇľÇľÇľÇľÇľÇľÇľÇľÇľÇľÇľÇľÇľÇľÇľÇľÇľÇľÇľÇľÇľÇľÇľÇľÇľÇľÇľÇľÇľÇľÇľÇľÇľÇľÇľÇľÇľÇľÇľÇľÇľÇľÇľÇľÇľÇľÇľÇľÇľÇľÇľÇľÇľÇľÇľÇľÇľÇľÇľÇľÇľÇľÇľÇľÇľÇľÇľÇľÇľÇľÇľÇľÇľÇľÇľÇľÇľÇľÇľÇľÇľÇľÇľÇľÇľÇľÇľÇľÇľÇľÇľÇľÇľÇľÇľÇľÇľÇľÇľÇľÇľÇľÇľÇľÇľÇľÇľÇľÇľÇľÇľÇľÇľÇľÇľÇľÇľÇľÇľÇľÇľÇľÇľÇľÇľÇľÇľÇľÇľÇľÇľÇľÇľÇľÇľÇľÇľÇľÇľÇľÇľÇľÇľÇľÇľÇľÇľÇľÇľÇľÇľÇľÇľÇľÇľÇľÇľÇľÇľÇľÇľÇľÇľÇľÇľÇľÇľÇľÇľÇľÇľÇľÇľÇľÇľÇľÇľÇľÇľÇľÇľÇľÇľÇľÇľÇľÇľÇľÇľÇľÇľÇľÇľÇľÇľÇľÇľÇľÇľÇľÇľÇľÇľÇľÇľÇľÇľÇľÇľÇľÇľÇľÇľÇľÇľÇľÇľÇľÇľÇľÇľÇľÇľÇľÇľÇľÇľÇľÇľÇľÇľÇľÇľÇľÇľÇľÇľÇľÇľÇľÇľÇľÇľÇľÇľÇľÇľÇľÇľÇľÇľÇľÇľÇľÇľÇľÇľÇľÇľÇľÇľÇľÇľÇľÇľÇľÇľÇľÇľÇľÇľÇľÇľÇľÇľÇľÇľÇľÇľÇľÇľÇľÇľÇľÇľÇľÇľÇľÇľÇľÇľÇľÇľÇľÇľÇľÇľÇľÇľÇľÇľÇľÇľÇľÇľÇľÇľÇľÇľÇľÇľÇľÇľÇľÇľÇľÇľÇľÇľÇľÇľÇľÇľÇľÇľÇľÇľÇľÇľÇľÇľÇľÇľÇľÇľÇľÇľÇľÇľÇľÇľÇľÇľÇľÇľÇľÇľÇľÇľ": 1643,
      "ÇľÇľÇľÇľÇľÇľÇĽÇľÇľÇľÇľÇľÇľÇľÇľÇľÇľÇľÇľÇľÇľÇľÇľÇľÇľÇľÇľÇľÇľÇľÇľÇŀ": 1644,
      "ÇľÇľÇľÇľÇľÇľÇľÇľÇľÇľÇľÇľÇľÇľÇľÇľÇľÇľÇľÇľÇľÇĽÇľÇľÇľÇľÇľÇľÇľÇľÇľÇĽÇľÇľÇľÇľÇľÇľÇľÇľÇľÇľÇľÇľÇľÇľÇľÇľÇľÇľÇľÇľÇľÇĽÇľÇľÇľÇľÇľÇľÇľÇľÇľÇĽ": 1645,
      "ÇľÇľÇľÇľÇľÇľÇľÇľÇľÇľÇľÇľÇľÇľÇľÇľÇľÇľÇľÇľÇľÇľÇľÇľÇľÇľÇľÇľÇľÇľÇľÇĿÇľÇľÇľÇľÇľÇľÇľÇľÇľÇľÇľÇľÇľÇľÇľÇľÇľÇľÇľÇľÇľÇľÇľÇľÇľÇľÇľÇľÇľÇľÇľÇĽÇľÇľÇľÇľÇľÇľÇľÇľÇľÇľÇľÇľÇľÇľÇľÇľÇľÇľÇľÇľÇľÇľÇľÇľÇľÇľÇľÇľÇľÇľÇľÇĿ": 1646,
      "ÇķÇ£": 1647,
      "ÈİÇ¤": 1648,
      "ÇľÇľÇľÇľÇľÇľÇľÇľÇľÇľÇľÇľÇľÇľÇľÇľÇľÇľÇľÇľÇľÇľÇľÇľÇľÇľÇľÇľÇľÇľÇľÇľÇľÇľÇľÇľÇľÇľÇľÇľÇľÇľÇľÇľÇľÇľÇľÇľÇľÇľÇľÇľÇľÇľÇľÇľÇľÇľÇľÇľÇľÇľÇľÇľÇľÇľÇľÇľÇľÇľÇľÇľÇľÇľÇľÇľÇľÇľÇľÇľÇľÇľÇľÇľÇľÇľÇľÇľÇľÇľÇľÇľÇľÇľÇľÇľÇľÇľÇľÇľÇľÇľÇľÇľÇľÇľÇľÇľÇľÇľÇľÇľÇľÇľÇľÇľÇľÇľÇľÇľÇľÇľÇľÇľÇľÇľÇľÇľÇľÇľÇľÇľÇľÇľÇľÇľÇľÇľÇľÇľÇľÇľÇľÇľÇľÇľÇľÇľÇľÇľÇľÇľÇľÇľÇľÇľÇľÇľÇľÇľÇľÇľÇľÇľÇľÇľÇľÇľÇľÇľÇľÇľÇľÇľÇľÇľÇľÇľÇľÇľÇľÇľÇľÇľÇľÇľÇľÇľÇľÇľÇľÇľÇľÇľÇľÇľÇľÇľÇľÇľÇľÇľÇľÇľÇľÇľÇľÇľÇľÇľÇľÇľÇľÇľÇľÇľÇľÇľÇľÇľÇľÇľÇľÇľÇľÇľÇľÇľÇľÇľÇľÇľÇľÇľÇľÇľÇľÇľÇľÇľÇľÇľÇľÇľÇľÇľÇľÇľÇľÇľÇľÇľÇľÇľÇľÇľÇľÇľÇľÇľÇľÇľÇľÇľÇľÇľÇľÇľÇľÇľÇľÇľÇľÇľÇľÇľÇľÇľÇľÇľÇľÇľÇľÇľÇľÇľÇľÇľÇľÇľÇľÇľÇľÇľÇľÇľÇľÇľÇľÇľÇľÇľÇľÇľÇľÇľÇľÇľÇľÇľÇľÇľÇľÇľÇľÇľÇľÇľÇľÇľÇľÇľÇľÇľÇľÇľÇľÇľÇľÇľÇľÇľÇľÇľÇľÇľÇľÇľÇľÇľÇľÇľÇľÇľÇľÇľÇľÇľÇľÇľÇľÇľÇľÇľÇľÇľÇľÇľÇľÇľÇľÇľÇľÇľÇľÇľÇľÇľÇľÇľÇľÇľÇľÇľÇľÇľÇľÇľÇľÇľÇľÇľÇľÇľÇľÇľÇľÇľÇľÇľÇľÇľÇľÇľÇľÇľÇľÇľÇľÇľÇľÇľÇľÇľÇľÇľÇľÇľÇľÇľÇľÇľÇľÇľÇľÇľÇľÇľÇľÇľÇľÇľÇľÇľÇľÇľÇľÇľÇľÇľÇľÇľÇľÇľÇľÇľÇľÇľÇľÇľÇľÇľÇľÇľÇľÇľÇľÇľÇľÇľÇľÇľÇľÇľÇľÇľÇľÇľÇľÇľÇľÇľÇľÇľÇľÇľÇľÇľÇľÇľÇľÇľÇľÇľÇľÇľÇľÇľÇľÇľÇľÇľÇľÇľÇľÇľÇľÇľÇľÇľÇľÇľÇľÇľÇľÇľÇľÇľÇľÇľÇľÇľÇľÇľÇľÇľÇľÇľÇľÇľÇľÇľÇľÇľÇľÇľÇľÇľÇľÇľÇľÇľÇľÇľÇľÇľÇľÇľÇľÇľÇľÇľÇľÇľÇľÇľÇľÇľÇľÇľÇľÇľÇľÇľÇľÇľÇľÇľÇľÇľÇľÇľÇľÇľÇľÇľÇľÇľÇľÇľÇľÇľÇľÇľÇľÇľÇľÇľÇľÇľÇľÇľÇľÇľÇľÇľÇľÇľÇľÇľÇľÇľÇľÇľÇľÇľÇľÇľÇľÇľÇľÇľÇľÇľÇľÇľÇľÇľÇľÇľÇľÇľÇľÇľÇľÇľÇľÇľÇľÇľÇľÇľÇľÇľÇľÇľÇľÇľÇľÇľÇľÇľÇľÇľÇľÇľÇľÇľÇľÇľÇľÇľÇľÇľÇľÇľÇľÇľÇľÇľÇľÇľÇľÇľÇľÇľÇľÇľÇľÇľÇľÇľÇľÇľÇľÇľÇľÇľÇľÇľÇľÇľÇľÇľÇľÇľÇľÇľÇľÇľÇľÇľÇľÇľÇľÇľÇľÇľÇľÇľÇľÇľÇľÇľÇľÇľÇľÇľÇľÇľÇľÇľÇľÇľÇľÇľÇľÇľÇľÇľÇľÇľÇľÇľÇľÇľÇľÇľÇľÇľÇľÇľÇľÇľÇľÇľÇľÇľÇľÇľÇľÇľÇľÇľÇľÇľÇľÇľÇľÇľÇľÇľÇľÇľÇľÇľÇľÇľÇľÇľÇľÇľÇľÇľÇľÇľÇľÇľÇľÇľÇľÇľÇľÇľÇľÇľÇľÇľÇľÇľÇľÇľÇľÇľÇľÇľÇľÇľÇľÇľÇľÇľÇľÇľÇľÇľÇľÇľÇľÇľÇľÇľÇľÇľÇľÇľÇľÇľÇľÇľÇľÇľÇľÇľÇľÇľÇľ": 1649,
      "Ç¢ÈłÆ": 1650,
      "ÇľÇİ": 1651,
      "ÇľÇľÇľÇľÇľÇľÇľÇľÇľÇľÇľÇľÇľÇľÇľÇľÇľÇľÇľÇľÇľÇľÇľÇľÇľÇľÇľÇľÇľÇľÇľÇľÇľÇľÇľÇľÇľÇľÇľÇľÇľÇľÇľÇľÇľÇľÇľÇľÇľÇľÇľÇľÇľÇľÇľÇľÇľÇľÇľÇľÇľÇľÇľÇľÇľÇľÇľÇľÇľÇľÇľÇľÇľÇľÇľÇľÇľÇľÇľÇľÇľÇľÇľÇľÇľÇľÇľÇľÇľÇľÇľÇľÇľÇľÇľÇľÇľÇľÇľÇľÇľÇľÇľÇľÇľÇľÇľÇľÇľÇľÇľÇľÇľÇľÇľÇľÇľÇľÇľÇľÇľÇľÇľÇľÇľÇľÇľÇľÇľÇľÇľÇľÇľÇľÇľÇľÇľÇľÇľÇľÇľÇľÇľÇľÇľÇľÇľÇľÇľÇľÇľÇľÇľÇľÇľÇľÇľÇľÇľÇľÇľÇľÇľÇľÇľÇľÇľÇľÇľÇľÇľÇľÇľÇľÇľÇľÇľÇľÇľÇľÇľÇľÇľÇľÇľÇľÇľÇľÇľÇľÇľÇľÇľÇľÇľÇľÇľÇľÇľÇľÇľÇľÇľÇľÇľÇľÇľÇľÇľÇľÇľÇľÇľÇľÇľÇľÇľÇľÇľÇľÇľÇľÇľÇľÇľÇľÇľÇľÇľÇľÇľÇľÇľÇľÇľÇľÇľÇľÇľÇľÇľÇľÇľÇľÇľÇľÇľÇľÇľÇľÇľÇľÇľÇľÇľÇľÇľÇľÇľÇľÇľÇľÇľÇľÇľÇľÇľÇľÇľÇľÇľÇľÇľÇľÇľÇľÇľÇľÇľÇľÇľÇľÇľÇľÇľÇľÇľÇľÇľÇľÇľÇľÇľÇľÇľÇľÇľÇľÇľÇľÇľÇľÇľÇľÇľÇľÇľÇľÇľÇľÇľÇľÇľÇľÇľÇľÇľÇľÇľÇľÇľÇľÇľÇľÇľÇľÇľÇľÇľÇľÇľÇľÇľÇľÇľÇľÇľÇľÇľÇľÇľÇľÇľÇľÇľÇľÇľÇľÇľÇľÇľÇľÇľÇľÇľÇľÇľÇľÇľÇľÇľÇľÇľÇľÇľÇľÇľÇľÇľÇľÇľÇľÇľÇľÇľÇľÇľÇľÇľÇľÇľÇľÇľÇľÇľÇľÇľÇľÇľÇľÇľÇľÇľÇľÇľÇľÇľÇľÇľÇľÇľÇľÇľÇľÇľÇľÇľÇľÇľÇľÇľÇľÇľÇľÇľÇľÇľÇľÇľÇľÇľÇľÇľÇľÇľÇľÇľÇľÇľÇľÇľÇľÇľÇľÇľÇľÇľÇľÇľÇľÇľÇľÇľÇľÇľÇľÇľÇľÇľÇľÇľÇľÇľÇľÇľÇľÇľÇľÇľÇľÇľÇľÇľÇľÇľÇľÇľÇľÇľÇľÇľÇľÇľÇľÇľÇľÇľÇľÇľÇľÇľÇľÇľÇľÇľÇľÇľÇľÇľÇľÇľÇľÇľÇľÇľÇľÇľÇľÇľÇľÇľÇľÇľÇľÇľÇľÇľÇľÇľÇľÇľÇľÇľÇľÇľÇľÇľÇľÇľÇľÇľÇľÇľÇľÇľÇľÇľÇľÇľÇľÇľÇľÇľÇľÇľÇľÇľÇľÇľÇľÇľÇľÇľÇľÇľÇľÇľÇľÇľÇľÇľÇľÇľÇľÇľÇľÇľÇľÇľÇľÇľÇľÇľÇľÇľÇľÇľÇľÇľÇľÇľÇľÇľÇľÇľÇľÇľÇľÇľÇľÇľÇľÇľÇľÇľÇľÇľÇľÇľÇľÇľÇľÇľÇľÇľÇľÇľÇľÇľÇľÇľÇľÇľÇľÇľÇľÇľÇľÇľÇľÇľÇľÇľÇľÇľÇľÇľÇľÇľÇľÇľÇľÇľÇľÇľÇľÇľÇľÇľÇľÇľÇľÇľÇľÇľÇľÇľÇľÇľÇľÇľÇľÇľÇľÇľÇľÇľÇľÇľÇľÇľÇľÇľÇľÇľÇľÇľÇľÇľÇľÇľÇľÇľÇľÇľÇľÇľÇľÇľÇľÇľÇľÇľÇľÇľÇľÇľÇľÇľÇľÇľÇľÇľÇľÇľÇľÇľÇľÇľÇľÇľ": 1652,
      "ÇĹÇĹÇľÈİÇ£Æ©ÈĦÇµÈĴÈĩÅ": 1653,
      "ÇĿÈŁÆĦÇĨ": 1654,
      "ÇľÇľÇľÇľÇľÇľÇľÇľÇľÇľÇľÇľÇľÇľÇŁ": 1655,
      "ÇŀÈŁ": 1656,
      "ÇľÇľÇľÇľÇľÇľÇľÇľÇľÇľÇľÇľÇľÇł": 1657,
      "ÇŀÈŁÆ": 1658,
      "ÇĵÇĿ": 1659,
      "ÇľÇľÇľÇľÇľÇľÇľÇľÇľÇľÇľÇľÇľÇľÇľÇľÇľÇľÇľÇľÇľÇľÇľÇľÇľÇľÇľÇľÇľÇľÇľÇļÇľÇľÇľÇľÇľÇľÇľÇľÇľÇľÇľÇľÇľÇľÇľÇľÇľÇľÇľÇľÇľÇľÇľÇľÇľÇľÇľÇľÇľÇľÇľÇĽ": 1660,
      "ÆĶÇ£ÈłÆĥÇ": 1661,
      "ÇľÇı": 1662,
      "ÇĹÇ¢": 1663,
      "ÇľÇľÇľÇľÇľÇľÇľÇľÇľÇľÇľÇľÇľÇľÇľÇľÇľÇľÇľÇľÇľÇľÇľÇľÇĿÇĿÇľÇľÇľÇľÇľÇĿ": 1664,
      "ÆĽÃ¢Æ©È": 1665,
      "ÇĿÇĽÇľÇĽ": 1666,
      "ÇľÇľÇľÇľÇľÇľÈı": 1667,
      "ÇľÇľÇľÇľÇľÇľÇľÇľÇľÇľÇľÇľÇľÇľÇľÇľÇľÇľÇľÇľÇľÇľÇľÇľÇľÇľÇľÇľÇľÇľÇľÇľÇľÇľÇľÇľÇľÇľÇĿ": 1668,
      "ÇľÇľÇľÇľÇľÇľÇľÇľÇľÇľÇľÇľÇľÇľÇľÇľÇľÇľÇľÇľÇľÇľÇľÇĿÇļ": 1669,
      "ÇĽÇĽÇľÇĿ": 1670,
      "ÇľÇĽÇľÇľÇľÇĿ": 1671,
      "ÇľÇľÇľÇľÇľÇľÇľÇľÇľÇľÇľÇľÇľÇľÇľÇľÇľÇľÇľÇľÇľÇľÇľÇķ": 1672,
      "ÇľÇľÇľÇľÇľÇľÇľÇľÇľÇľÇľÇľÇľÇĺ": 1673,
      "ÇľÇľÇľÇľÇľÇľÇª": 1674,
      "ÇľÇľÇľÇľÇľÇľÇŀÇľÇľÇľÇľÇľÇľÇľÇľÇľÇľÇľÇľÇľÇľÇľÇľÇľÇľÇľÇľÇľÇľÇľÇľÇĽ": 1675,
      "ÇľÇľÇ¡": 1676,
      "ÇľÇľÇľÇľÇľÇľÇĸ": 1677,
      "ÇľÇĽÇľÇľÇľÇľÇĿ": 1678,
      "ÇľÇ¬": 1679,
      "Ç£Çķ": 1680,
      "ÇľÇĿÇľÇľÇĽ": 1681,
      "ÇĸÇĽ": 1682,
      "ÇĺÇŁ": 1683,
      "Å¿": 1684,
      "ÇļÇ¢": 1685,
      "ÇĽÇĿÇĿÇľÇľÇľÇľÇĿ": 1686,
      "Æģ": 1687,
      "ÇłÇĹ": 1688,
      "ÇľÇľÇľÇľÇľÇľÇľÇľÇľÇľÇľÇľÇľÇľÇľÇľÇľÇľÇľÇľÇľÇľÇľÇľÇľÇľÇľÇľÇľÇľÇľÇł": 1689,
      "ÇĻÇ¢": 1690,
      "ÆľÇĿÈŁÆĦÇħ": 1691,
      "ÇľÇľÇľÇľÇľÇľÇľÇľÇľÇľÇľÇľÇľÇľÇľÇľÇľÇľÇľÇľÇľÇľÇľÇľÇľÇľÇľÇľÇľÇľÇľÇľÇľÇľÇľÇľÇľÇľÇľÇľÇľÇľÇľÇľÇľÇľÇľÇľÇľÇľÇľÇľÇľÇľÇľÇľÇľÇľÇľÇľÇľÇľÇľÇľÇľÇľÇľÇľÇľÇľÇľÇľÇľÇľÇľÇľÇľÇľÇľÇľÇľÇľÇľÇľÇľÇľÇľÇľÇľÇľÇľÇľÇľÇľÇľÇľÇľÇľÇľÇľÇľÇľÇľÇľÇľÇľÇľÇľÇľÇľÇľÇľÇľÇľÇľÇľÇľÇľÇľÇľÇľÇľÇľÇľÇľÇľÇľÇľÇľÇľÇľÇľÇľÇľÇľÇľÇľÇľÇľÇľÇľÇľÇľÇľÇľÇľÇľÇľÇľÇľÇľÇľÇľÇľÇľÇľÇľÇľÇľÇľÇľÇľÇľÇľÇľÇľÇľÇľÇľÇľÇľÇľÇľÇľÇľÇľÇľÇľÇľÇľÇľÇľÇľÇľÇľÇľÇľÇľÇľÇľÇľÇľÇľÇľÇľÇľÇľÇľÇľÇľÇľÇľÇľÇľÇľÇľÇľÇľÇľÇľÇľÇľÇľÇľÇľÇľÇľÇľÇľÇľÇľÇľÇľÇľÇľÇľÇľÇľÇľÇľÇľÇľÇľÇľÇľÇľÇľÇľÇľÇľÇľÇľÇľÇľÇľÇľÇľÇľÇľÇľÇľÇľÇľÇľÇľÇľÇľÇľÇľÇľÇľÇľÇľÇľÇľÇľÇľÇľÇľÇľÇľÇľÇľÇľÇľÇľÇľÇľÇľÇľÇľÇľÇľÇľÇľÇľÇľÇľÇľÇľÇľÇľÇľÇľÇľÇľÇľÇľÇľÇľÇľÇľÇľÇľÇľÇľÇľÇľÇľÇľÇľÇľÇľÇľÇľÇľÇľÇľÇľÇľÇľÇľÇľÇľÇľÇľÇľÇľÇľÇľÇľÇľÇľÇľÇľÇľÇľÇľÇľÇľÇľÇľÇľÇľÇľÇľÇľÇľÇľÇľÇľÇľÇľÇľÇľÇľÇľÇľÇľÇľÇľÇľÇľÇľÇľÇľÇľÇľÇľÇľÇľÇľÇľÇľÇľÇľÇľÇľÇľÇľÇľÇľÇľÇľÇľÇľÇľÇľÇľÇľÇľÇľÇľÇľÇľÇľÇľÇľÇľÇľÇľÇľÇľÇľÇľÇľÇľÇľÇľÇľÇľÇľÇľÇľÇľÇľÇľÇľÇľÇľÇľÇľÇľÇľÇľÇľÇľÇľÇľÇľÇľÇľÇľÇľÇľÇľÇľÇľÇľÇľÇľÇľÇľÇľÇľÇľÇľÇľÇľÇľÇľÇľÇľÇľÇľÇľÇľÇľÇľÇľÇľÇľÇľÇľÇľÇľÇľÇľÇľÇľÇľÇľÇľÇľÇľÇľÇľÇľÇľÇľÇľÇľÇľÇľÇľÇľÇľÇľÇľÇľÇľÇľÇľÇľÇľÇľÇľÇľÇľÇľÇľÇľÇľÇľÇľÇľÇľÇľÇľÇľÇľÇľÇľÇľÇľÇľÇľÇľÇľÇľÇľÇľÇľÇľÇľÇľÇľÇľÇľÇľÇľÇľÇľÇľÇľÇľÇľÇľÇľÇľÇľÇľÇľÇľÇľÇľÇľÇľÇľÇľÇľÇľÇľÇľÇľÇľÇľÇľÇľÇľÇľÇľÇľÇľÇľÇľÇľÇľÇľÇľÇľÇľÇľÇľÇľÇľÇľÇľÇľÇľÇľÇľÇľÇľÇľÇľÇľÇľÇľÇľÇľÇľÇľÇľÇľÇľÇľÇľÇľÇľÇľÇľÇľÇľÇľÇľÇľÇľÇľÇľÇľÇľÇľÇľÇľÇľÇľÇľÇľÇľÇľÇľÇľÇľÇľÇľÇľÇľÇľÇľÇľÇľÇľÇľÇľÇľÇľÇľÇľÇľÇľÇľÇľÇľÇľÇľÇľÇľÇľÇľÇľÇľÇľÇľÇľÇľÇľÇľÇľÇľÇľÇľÇľÇľÇľÇľÇľÇľÇľÇľÇľÇľÇľÇľÇľÇľÇľÇľÇľÇľÇľÇľÇľÇľÇľÇľÇľÇľÇľÇľÇľÇľÇľÇľÇľÇľÇľÇľÇľÇľÇľÇľÇľÇľÇľÇľÇľÇľÇľÇľÇľÇľÇľÇľÇľÇľÇľÇľÇľÇľÇľÇľÇľÇľÇľÇľÇľÇľÇľÇľÇľÇľÇľÇľÇľÇľÇľÇľÇľÇľÇľÇľÇľÇľÇľÇľÇľÇľÇľÇľÇľÇľÇľÇľÇľÇľÇľÇľÇľÇľÇľÇľÇľÇľÇľÇľÇľÇľÇľÇľÇľÇľÇľÇľÇľÇľÇľÇľÇľÇľÇľÇľÇľÇľÇľÇľÇľÇľÇľÇľÇľÇľÇľÇľÇľÇľÇľÇľÇľÇľÇľÇľÇľÇľÇľÇľÇľÇľÇľÇľÇľÇľÇľÇľÇľÇľÇľÇľÇľÇľÇľÇľÇľÇľÇľÇľÇľÇľÇľÇľÇľÇľÇľÇľÇľÇľÇľÇľÇľÇľÇľÇľÇľÇľÇľÇľÇľÇľÇľÇľÇľÇľÇľÇľÇľÇľÇľÇľÇľÇľÇľÇľÇľÇľ": 1692,
      "ÇľÇľÇľÇľÇľÇľÇľÇľÇľÇľÇľÇľÇľÇľÇľÇľÇľÇľÇľÇľÇľÇľÇľÇľÇľÇľÇľÇľÇľÇľÇľÇľÇľÇľÇľÇľÇľÇľÇľÇľÇľÇľÇľÇľÇľÇľÇľÇľÇľÇľÇľÇľÇľÇľÇľÇľÇľÇľÇľÇľÇľÇľÇľÇľÇľÇľÇľÇľÇľÇľÇľÇľÇľÇľÇľÇľÇľÇľÇľÇľÇľÇľÇľÇľÇľÇľÇľÇľÇľÇľÇľÇľÇľÇľÇľÇľÇľÇľÇľÇľÇľÇľÇľÇľÇľÇľÇľÇľÇľÇľÇľÇľÇľÇľÇľÇľÇľÇľÇľÇľÇľÇľÇľÇľÇľÇľÇľÇľÇľÇľÇľÇľÇľÇľÇľÇľÇľÇľÇľÇľÇľÇľÇľÇľÇľÇľÇľÇľÇľÇľÇľÇľÇľÇľÇľÇľÇľÇľÇľÇľÇľÇľÇľÇľÇľÇľÇľÇľÇľÇľÇľÇľÇľÇľÇľÇľÇľÇľÇľÇľÇľÇľÇľÇľÇľÇľÇľÇľÇľÇľÇľÇľÇľÇľÇľÇľÇľÇľÇľÇľÇľÇľÇľÇľÇľÇľÇľÇľÇľÇľÇľÇľÇľÇľÇľÇľÇľÇľÇľÇľÇľÇľÇľÇľÇľÇľÇľÇľÇľÇľÇľÇľÇľÇľÇľÇľÇľÇľÇľÇľÇľÇľÇľÇľÇľÇľÇľÇľÇľÇľÇľÇľÇľÇľÇľÇľÇľÇľÇľÇľÇľÇľÇľÇľÇľÇľÇľÇľÇľÇľÇľÇľÇľÇľÇľÇľÇľÇľÇľÇľÇľÇľÇľÇľÇľÇľÇľÇľÇľÇľÇľÇľÇľÇľÇľÇľÇľÇľÇľÇľÇľÇľÇľÇľÇľÇľÇľÇľÇľÇľÇľÇľÇľÇľÇľÇľÇľÇľÇľÇľÇľÇľÇľÇľÇľÇľÇľÇľÇľÇľÇľÇľÇľÇľÇľÇľÇľÇľÇľÇľÇľÇľÇľÇľÇľÇľÇľÇľÇľÇľÇľÇľÇľÇľÇľÇľÇľÇľÇľÇľÇľÇľÇľÇľÇľÇľÇľÇľÇľÇľÇľÇľÇľÇľÇľÇľÇľÇľÇľÇľÇľÇľÇľÇľÇľÇľÇľÇľÇľÇľÇľÇľÇľÇľÇľÇľÇľÇľÇľÇľÇľÇľÇľÇľÇľÇľÇľÇľÇľÇľÇľÇľÇľÇľÇľÇľÇľÇľÇľÇľÇľÇľÇľÇľÇľÇľÇľÇľÇľÇľÇľÇľÇľÇľÇľÇľÇľÇľÇľÇľÇľÇľÇľÇľÇľÇľÇľÇľÇľÇľÇľÇľÇľÇľÇľÇľÇľÇľÇľÇľÇľÇľÇľÇľÇľÇľÇľÇľÇľÇľÇľÇľÇľÇľÇľÇľÇľÇľÇľÇľÇľÇľÇľÇľÇľÇľÇľÇľÇľÇľÇľÇľÇľÇľÇľÇľÇľÇľÇľÇľÇľÇľÇľÇľÇľÇľÇľÇľÇľÇľÇľÇľÇľÇľÇľÇľÇľÇľÇľÇľÇľÇľÇľÇľÇľÇľÇľÇľÇľÇľÇľÇľÇľÇľÇľÇľÇľÇľÇľÇľÇľÇľÇľÇľÇľÇľÇľÇľÇľÇľÇľÇľÇľÇľÇľÇľÇľÇľÇľÇľÇľÇľÇľÇľÇľÇľÇľÇľÇľÇľÇľÇľÇľÇľÇľÇľÇľÇľÇľÇľÇľÇľÇľÇľÇľÇľÇľÇľÇľÇľÇľÇľÇľÇľÇľÇľÇľÇľÇľÇľÇľÇľÇľÇľÇľÇľÇľÇľÇľÇľÇľÇľÇľÇľÇľÇľÇľÇľÇľÇľÇľÇľÇľÇľÇľÇľÇľÇľÇľÇľÇľÇľÇľÇľÇľÇľÇľÇľÇľÇľÇľÇľÇľÇľÇľÇľÇľÇľÇľÇľÇľÇľÇľÇľÇľÇľÇľÇľÇľÇľÇľÇľÇľÇľÇľÇľÇľÇľÇľÇľÇľÇľÇľÇľÇľÇľÇľÇľÇľÇľÇľÇľÇľÇľÇľÇľÇľÇľÇľÇľÇľÇľÇľÇľÇľÇľÇľÇľÇľÇľÇľÇľÇľÇľÇľÇľÇľÇľÇľÇľÇľÇľÇľÇľÇľÇľÇľÇľÇľÇľÇľÇľÇľÇľÇľÇľÇľÇľÇľÇľÇľÇľÇľÇľÇľÇľÇľÇľÇľÇľÇľÇľÇľÇľÇľÇľÇľÇľÇľÇľÇľÇľÇľÇľÇľÇľÇľÇľÇľÇľÇľÇľÇľÇľÇľÇľÇľÇľÇľÇľÇľÇľÇľÇľÇľÇľÇľÇľÇľÇľÇľÇľÇľÇľÇľÇľÇľÇľÇľÇľÇľÇľÇľÇľÇľÇľÇľÇľÇľÇľÇľÇľÇľÇľÇľÇľÇľÇľÇľÇľÇľÇľÇľÇľÇľÇľÇľÇľÇľ": 1693,
      "ÇľÇľÇľÇľÇľÇľÇľÇľÇľÇľÇľÇľÇľÇľÇĻ": 1694,
      "ÇľÇŃ": 1695,
      "ÇľÇľÇľÇľÇľÇľÇ¨": 1696,
      "ÇľÇľÇľÇľÇľÇľÇľÇľÇľÇľÇľÇľÇľÇľÇľÇľÇľÇľÇľÇľÇľÇľÇľÇľÇľÇľÇľÇľÇľÇľÇľÇĵ": 1697,
      "Éģ": 1698,
      "Ç¢Èł": 1699,
      "È¯": 1700,
      "ÇľÇľÇľÇľÇľÇľÇĲ": 1701,
      "ÇľÇľÇľÇľÇľÇľÇľÇľÇľÇľÇľÇľÇľÇľÇľÇľÇľÇľÇľÇľÇľÇľÇĹ": 1702,
      "ÇŁÇĹ": 1703,
      "ÇľÇľÇľÇľÇľÇľÇľÇľÇľÇľÇľÇľÇľÇľÇľÇľÇľÇľÇľÇľÇľÇľÇľÇľÇľÇľÇľÇľÇľÇľÇľÇľÇľÇľÇľÇľÇľÇľÇľÇľÇľÇľÇľÇľÇľÇľÇľÇľÇľÇľÇľÇľÇľÇľÇľÇľÇľÇľÇľÇľÇľÇľÇľÇľÇľÇľÇľÇľÇľÇľÇľÇľÇľÇľÇľÇľÇľÇľÇľÇľÇľÇľÇľÇľÇľÇľÇľÇľÇľÇľÇľÇľÇľÇľÇľÇľÇľÇľÇľÇľÇľÇľÇľÇľÇľÇľÇľÇľÇľÇľÇľÇľÇľÇľÇľÇľÇľÇľÇľÇľÇľÇľÇľÇľÇľÇľÇľÇľÇľÇľÇľÇľÇľÇľÇľÇľÇľÇľÇľÇľÇľÇľÇľÇľÇľÇľÇľÇľÇľÇľÇľÇľÇľÇľÇľÇľÇľÇľÇľÇľÇľÇľÇľÇľÇľÇľÇľÇľÇľÇľÇľÇľÇľÇľÇľÇľÇľÇľÇľÇľÇľÇľÇľÇľÇľÇľÇľÇľÇľÇľÇľÇľÇľÇľÇľÇľÇľÇľÇľÇľÇľÇľÇľÇľÇľÇľÇľÇľÇľÇľÇľÇľÇľÇľÇľÇľÇľÇľÇľÇľÇľÇľÇľÇľÇľÇľÇľÇľÇľÇľÇľÇľÇľÇľÇľÇľÇľÇľÇľÇľÇľÇľÇľÇľÇľÇľÇľÇľÇľÇľÇľÇľÇľÇľÇľÇľÇľÇľÇľÇľÇľÇľÇľÇľÇľÇľÇľÇľÇľÇľÇľÇľÇľÇľÇľÇľÇľÇľÇľÇľÇľÇľÇľÇľÇľÇľÇľÇľÇľÇľÇľÇľÇľÇľÇľÇľÇľÇľÇľÇľÇľÇľÇľÇľÇľÇľÇľÇľÇľÇľÇľÇľÇľÇľÇľÇľÇľÇľÇľÇľÇľÇľÇľÇľÇľÇľÇľÇľÇľÇľÇľÇľÇľÇľÇľÇľÇľÇľÇľÇľÇľÇľÇľÇľÇľÇľÇľÇľÇľÇľÇľÇľÇľÇľÇľÇľÇľÇľÇľÇľÇľÇľÇľÇľÇľÇľÇľÇľÇľÇľÇľÇľÇľÇľÇľÇľÇľÇľÇľÇľÇľÇľÇľÇľÇľÇľÇľÇľÇľÇľÇľÇľÇľÇľÇľÇľÇľÇľÇľÇľÇľÇľÇľÇľÇľÇľÇľÇľÇľÇľÇľÇľÇľÇľÇľÇľÇľÇľÇľÇľÇľÇľÇľÇľÇľÇľÇľÇľÇľÇľÇľÇľÇľÇľÇľÇľÇľÇľÇľÇľÇľÇľÇľÇľÇľÇľÇľÇľÇľÇľÇľÇľÇľÇľÇľÇľÇľÇľÇľÇľÇľÇľÇľÇľÇľÇľÇľÇľÇľÇľÇľÇľÇľÇľÇľÇľÇľÇľÇľÇľÇľÇľÇľÇľÇľÇľÇľÇľÇľÇľÇľÇľÇľÇľÇľÇľÇľÇľÇľÇľÇľÇľÇľÇľÇľÇľÇľÇľÇľÇľÇľÇľÇľÇľÇľÇľÇľÇľÇľÇľÇľÇľÇľÇľÇľÇľÇľÇľÇľÇľÇľÇľÇľÇľÇľÇľÇľÇľÇľÇľÇľÇľÇľÇľÇľÇľÇľÇľÇľÇľÇľÇľÇľÇľÇľÇľÇľÇľÇľÇľÇľÇľÇľÇľÇľÇľÇľÇľÇľÇľÇľÇľÇľÇľÇľÇľÇľÇľÇľÇľÇľÇľÇľÇľÇľÇľÇľÇľÇľÇľÇľÇľÇľÇľÇľÇľÇľÇľÇľÇľÇľÇľÇľÇľÇľÇľÇľÇľÇľÇľÇľÇľÇľÇľÇľÇľÇľÇľÇľÇľÇľÇľÇľÇľÇľÇľÇľÇľÇľÇľÇľÇľÇľÇľÇľÇľÇľÇľÇľÇľÇľÇľÇľÇľÇľÇľÇľÇľÇľÇľÇľÇľÇľÇľÇľÇľÇľÇľÇľ": 1704,
      "ÆĢ": 1705,
      "ÇľÇľÇľÇľÇľÇľÇľÇľÇľÇľÇľÇľÇľÇľÇľÇľÇľÇľÇľÇľÇľÇľÇ¢": 1706,
      "ÇľÇľÇľÇľÇľÇľÇľÇľÇľÇľÇľÇľÇľÇľÇľÇľÇĿ": 1707,
      "ÈĩÇľÇľÇľÇľÇľÇľÇľÇľÇľÇľÇľÇľÇľÇľÇľÇľÇľÇľÇľÇľÇľÇľÇľÇľÇľÇľÇľÇľÇľÇľÇľÇľÇľÇľÇľÇľÇľÇľÇľÇľÇľÇľÇľÇľÇľÇľÇľÇľÇľÇľÇľÇľÇľÇľÇľÇľÇľÇľÇľÇľÇľÇľÇľÇľÇľÇľÇľÇľÇľÇľÇľÇľÇľÇľÇľÇľÇľÇľÇľÇľÇľÇľÇľÇľÇľÇľÇľÇľÇľÇľÇľÇľÇľÇľÇľÇľÇľÇľÇľÇľÇľÇľÇľÇľÇľÇľÇľÇľÇľÇľÇľÇľÇľÇľÇľÇľÇľÇľÇľÇľÇľÇľÇľÇľÇľÇľÇľÇľÇľÇľÇľÇľÇľÇľÇľÇľÇľÇľÇľÇľÇľÇľÇľÇľÇľÇľÇľÇľÇľÇľÇľÇľÇľÇľÇľÇľÇľÇľÇľÇľÇľÇľÇľÇľÇľÇľÇľÇľÇľÇľÇľÇľÇľÇľÇľÇľÇľÇľÇľÇľÇľÇľÇľÇľÇľÇľÇľÇľÇľÇľÇľÇľÇľÇľÇľÇľÇľÇľÇľÇľÇľÇľÇľÇľÇľÇľÇľÇľÇľÇľÇľÇľÇľÇľÇľÇľÇľÇľÇľÇľÇľÇľÇľÇľÇľÇľÇľÇľÇľÇľÇľÇľÇľÇľÇľÇľÇľÇľÇľÇľÇľÇľÇľÇľÇľÇľÇľÇľÇľÇľÇľÇľÇľÇľÇľÇľÇľÇľÇľÇľÇľÇľÇľÇľÇľÇľÇľÇľÇľÇľÇľÇľÇľÇľÇľÇľÇľÇľÇľÇľÇľÇľÇľÇľÇľÇľÇľÇľÇľÇľÇľÇľÇľÇľÇľÇľÇľÇľÇľÇľÇľÇľÇľÇľÇľÇľÇľÇľÇľÇľÇľÇľÇľÇľÇľÇľÇľÇľÇľÇľÇľÇľÇľÇľÇľÇľÇľÇľÇľÇľÇľÇľÇľÇľÇľÇľÇľÇľÇľÇľÇľÇľÇľÇľÇľÇľÇľÇľÇľÇľÇľÇľÇľÇľÇľÇľÇľÇľÇľÇľÇľÇľÇľÇľÇľÇľÇľÇľÇľÇľÇľÇľÇľÇľÇľÇľÇľÇľÇľÇľÇľÇľÇľÇľÇľÇľÇľÇľÇľÇľÇľÇľÇľÇľÇľÇľÇľÇľÇľÇľÇľÇľÇľÇľÇľÇľÇľÇľÇľÇľÇľÇľÇľÇľÇľÇľÇľÇľÇľÇľÇľÇľÇľÇľÇľÇľÇľÇľÇľÇľÇľÇľÇľÇľÇľÇľÇľÇľÇľÇľÇľÇľÇľÇľÇľÇľÇľÇľÇľÇľÇľÇľÇľÇľÇľÇľÇľÇľÇľÇľÇľÇľÇľÇľÇľÇľÇľÇľÇľÇľÇľÇľÇľÇľÇľÇľÇľÇľÇľÇľÇľÇľÇľÇľÇľÇľÇľÇľÇľÇľÇľÇľÇľÇľÇľÇľÇľÇľÇľÇľÇľÇľÇľÇľÇľÇľÇľÇľÇľÇľÇľÇľÇľÇľÇľÇľÇľÇľÇľÇľÇľÇľÇľÇľÇľÇľÇľÇľÇľÇľÇľÇľÇľÇľÇľÇľÇľÇľÇľÇľÇľÇľÇľÇľÇľÇľÇľÇľÇľÇľÇľÇľÇľÇľÇľÇľÇľÇľÇľÇľÇľÇľÇľÇľÇľÇľÇľÇľÇľÇľÇľÇľÇľÇľÇľÇľÇľÇľÇľÇľÇľÇľÇľÇľÇľÇľÇľÇľÇľÇľÇľÇľÇľÇľÇľÇľÇľÇľÇľÇľÇľÇľÇľÇľÇľÇľÇľÇľÇľÇľÇľÇľÇľÇľÇľÇľÇľÇľÇľÇľÇľÇľÇľÇľÇľÇľÇľÇľÇľÇľÇľÇľÇľÇľÇľÇľÇľÇľÇľÇľÇľÇľÇľÇľÇľÇľÇľÇľÇľÇľÇľÇľÇľÇľÇľÇľÇľÇľÇľÇľÇľÇľÇľÇľÇľÇľÇľÇľÇľÇľÇľÇľÇľÇľÇľÇľÇľÇľÇľÇľÇľÇľÇľÇľÇľÇľÇľÇľÇľÇľÇľÇľÇľÇľÇľÇľÇľÇľÇľÇľÇľÇľÇľÇľÇľÇľÇľÇľÇľÇľÇľÇľÇľÇľÇľÇľÇľÇľÇľÇľÇľÇľÇľÇľÇľÇľÇľÇľÇľÇľÇľÇľÇľÇľÇľÇľÇľÇľÇľÇľÇľÇľÇľÇľÇľÇľÇľÇľÇľÇľÇľÇľÇľÇľÇľÇľÇľÇľÇľÇľÇľÇľÇľÇľÇľÇľÇľÇľÇľÇľÇľÇľÇľÇľÇľÇľÇľÇľÇľÇľÇľÇľÇľÇľÇľÇľÇľÇľÇľÇľÇľÇľÇľÇľÇľÇľÇľÇľÇľÇľÇľÇľÇľÇľÇľÇľÇľÇľÇľÇľÇľÇľÇľÇľÇľÇľÇľÇľÇľÇľÇľÇľÇľÇľÇľÇľÇľÇľÇľÇľÇľÇľÇľÇľÇľÇľÇľÇľÇľÇľÇľÇľÇľÇľÇľÇľÇľÇľÇľÇľÇľÇľÇľÇľÇľÇľÇľÇľÇľÇľÇľÇľÇľÇľÇľÇľÇľÇľÇľÇľÇľÇľÇľÇľÇľÇľÇľÇľÇľÇľÇľÇľÇľÇľÇľÇľÇľÇľÇľÇľÇľÇľÇľÇľÇľÇľÇľÇľÇľÇľÇľÇľÇľÇľÇľÇľÇľÇľÇľÇľÇľÇľÇľÇľÇľÇľÇľÇľÇľÇľÇľÇľÇľÇľÇľÇľÇľÇľÇľÇľÇľÇľÇľÇľÇľÇľÇľÇľÇľÇľÇľÇľÇľÇľÇľÇľÇľÇľÇľÇľÇľÇľÇľÇľÇľÇľÇľÇľÇľÇľÇľÇľÇľÇľÇľÇľÇľÇľÇľÇľÇľÇľÇľÇľÇľÇľÇľÇľÇľÇľÇľÇľÇľÇľÇľÇľÇľÇľÇľÇľÇľÇľÇľÇľÇľÇľÇľÇľÇľÇľÇľÇľÇľÇľ": 1708,
      "ÆĤ": 1709,
      "ÇŀÇ¡": 1710,
      "ÇľÇľÇľÇľÇľÇľÇľÇľÇľÇľÇľÇľÇľÇľÇľÇľÇľÇľÇľÇľÇľÇľÇľÇľÇľÇľÇľÇľÇľÇĽÇĿ": 1711,
      "ÇļÇĽÇĿ": 1712,
      "ÇļÇľÇĽ": 1713,
      "ÇľÇľÇľÇľÇľÇľÇľÇľÇľÇľÇľÇľÇľÇľÇľÇľÇľÇľÇľÇľÇľÇľÇľÇľÇľÇľÇľÇľÇľÇĿÇĽ": 1714,
      "ÇľÇľÇľÇľÇľÇľÇľÇľÇľÇľÇľÇľÇĽÇĽ": 1715,
      "ÇľÇľÇľÇľÇľÇľÇľÇľÇľÇľÇľÇľÇľÇľÇľÇľÇľÇľÇľÇľÇľÇľÇľÇľÇľÇľÇľÇľÇľÇľÇľÇľÇľÇľÇľÇľÇľÇľÇľÇľÇľÇľÇľÇľÇľÇľÇľÇľÇľÇľÇľÇľÇľÇľÇľÇľÇľÇľÇľÇľÇľÇľÇľÇľÇľÇľÇľÇľÇľÇľÇľÇľÇľÇľÇľÇľÇľÇľÇľÇľÇľÇľÇľÇľÇľÇľÇľÇľÇľÇľÇľÇľÇľÇľÇľÇľÇľÇľÇľÇľÇľÇľÇľÇľÇľÇľÇľÇľÇľÇľÇľÇľÇľÇľÇľÇľÇľÇľÇľÇľÇľÇľÇľÇľÇľÇľÇľÇľÇľÇľÇľÇľÇľÇľÇľÇľÇľÇľÇľÇľÇľÇľÇľÇľÇľÇľÇľÇľÇľÇľÇľÇľÇľÇľÇľÇľÇľÇľÇľÇľÇľÇľÇľÇľÇľÇľÇľÇľÇľÇľÇľÇľÇľÇľÇľÇľÇľÇľÇľÇľÇľÇľÇľÇľÇľÇľÇľÇľÇľÇľÇľÇľÇľÇľÇľÇľÇľÇľÇľÇľÇľÇľÇľÇľÇľÇľÇľÇľÇľÇľÇľÇľÇľÇľÇľÇľÇľÇľÇľÇľÇľÇľÇľÇľÇľÇľÇľÇľÇľÇľÇľÇľÇľÇľÇľÇľÇľÇľÇľÇľÇľÇľÇľÇľÇľÇľÇľÇľÇľÇľÇľÇľÇľÇľÇľÇľÇľÇľÇľÇľÇľÇľÇľÇľÇľÇľÇľÇľÇľÇľÇľÇľÇľÇľÇľÇľÇľÇľÇľÇľÇľÇľÇľÇľÇľÇľÇľÇľÇľÇľÇľÇľÇľÇľÇľÇľÇľÇľÇľÇľÇľÇľÇľÇľÇľÇľÇľÇľÇľÇľÇľÇľÇľÇľÇľÇľÇľÇľÇľÇľÇľÇľÇľÇľÇľÇľÇľÇľÇľÇľÇľÇľÇľÇľÇľÇľÇľÇľÇľÇľÇľÇľÇľÇľÇľÇľÇľÇľÇľÇľÇľÇľÇľÇľÇľÇľÇľÇľÇľÇľÇľÇľÇľÇľÇľÇľÇľÇľÇľÇľÇľÇľÇľÇľÇľÇľÇľÇľÇľÇľÇľÇľÇľÇľÇľÇľÇľÇľÇľÇľÇľÇľÇľÇľÇľÇľÇľÇľÇľÇľÇľÇľÇľÇľÇľÇľÇľÇľÇľÇľÇľÇľÇľÇľÇľÇľÇľÇľÇľÇľÇľÇľÇľÇľÇľÇľÇľÇľÇľÇľÇľÇľÇľÇľÇľÇľÇľÇľÇľÇľÇľÇľÇľÇľÇľÇľÇľÇľÇľÇľÇľÇľÇľÇľÇľÇľÇľÇľÇľÇľÇľÇľÇľÇľÇľÇľÇľÇľÇľÇľÇľÇľÇľÇľÇľÇľÇľÇľÇľÇľÇľÇľÇľÇľÇľÇľÇľÇľÇľÇľÇľÇľÇľÇľÇľÇľÇľÇľÇľÇľÇľÇľÇľÇľÇľÇľÇľÇľÇľÇľÇľÇľÇľÇľÇľÇľÇľÇľÇľÇľÇľÇľÇľÇľÇľÇľÇľÇľÇľÇľÇľÇľÇľÇľÇľÇľÇľÇľÇľÇľÇľÇľÇľÇľÇľÇľÇľÇľÇľÇľÇľÇľÇľÇľÇľÇľÇľÇľÇľÇľÇľÇľÇľÇľÇľÇľÇľÇľÇľÇľÇľÇľÇľÇľÇľÇľÇľÇľÇľÇľÇľÇľÇľÇľÇľÇľÇľÇľÇľÇľÇľÇľÇľÇľÇľÇľÇľÇľÇľÇľÇľÇľÇľÇľÇľÇľÇľÇľÇľÇľÇľÇľÇľÇľÇľÇľÇľÇľÇľÇľÇľÇľÇľÇľÇľÇľÇľÇľÇľÇľÇľÇľÇľÇľÇľÇľÇľÇľÇľÇľÇľÇľÇľÇľÇľÇľÇľÇľÇľÇľÇľÇľÇľÇľÇľÇľÇľÇľÇľÇľÇľÇľÇľÇľÇľÇľÇľÇľÇľÇľÇľÇľÇľÇľÇľÇľÇľÇľÇľÇľÇľÇľÇľÇľÇľÇľÇľÇľÇľÇľÇľÇľÇľÇľÇľÇľÇľÇľÇľÇľÇľÇľÇľÇľÇľÇľÇľÇľÇľÇľÇľÇľÇľÇľÇľÇľÇľÇľÇľÇľÇľÇľÇľÇľÇľÇľÇľÇľÇľÇľÇľÇľÇľÇľÇľÇľÇľÇľÇľÇľÇľÇľÇľÇľÇľÇľÇľÇľÇľÇľÇľÇľÇľÇľÇľÇľÇľÇľÇľÇľÇľÇľÇľÇľÇľÇľÇľÇľÇľÇľÇľÇľÇľÇľÇľÇľÇľÇľÇľÇľ": 1716,
      "ÇŁÇ¡": 1717,
      "ÇĽÇĹ": 1718,
      "ÇľÇĿÇŀ": 1719,
      "ÇľÇľÇľÇľÇľÇľÇľÇľÇľÇľÇľÇľÇľÇľÇľÇľÇľÇľÇľÇľÇľÇľÇľÇĽÇŀ": 1720,
      "È°": 1721,
      "È®": 1722,
      "ÈİÇ£Æ©ÈĦÇ¸ÈĴÈĩ": 1723,
      "ÇĸÇĸ": 1724,
      "ÇľÇľÇľÇľÇľÇľÇİ": 1725,
      "Æ¨Èħ": 1726,
      "ÉĴÆĻ": 1727,
      "ÇĿÇĿÇĿ": 1728,
      "ÇľÇľÇľÇľÇľÇľÇľÇľÇľÇľÇľÇľÇľÇľÇľÇľÇľÇľÇľÇľÇľÇľÇľÇľÇľÇľÇľÇľÇľÇľÇľÇľÇľÇľÇľÇľÇľÇľÇľÇľÇľÇľÇľÇľÇľÇľÇľÇľÇľÇľÇľÇľÇľÇľÇľÇľÇľÇľÇľÇľÇľÇľÇľÇľÇľÇľÇľÇľÇľÇľÇľÇľÇľÇľÇľÇľÇľÇľÇľÇľÇľÇľÇľÇľÇľÇľÇľÇľÇľÇľÇľÇľÇľÇľÇľÇľÇľÇľÇľÇľÇľÇľÇľÇľÇľÇľÇľÇľÇľÇľÇľÇľÇľÇľÇľÇľÇľÇľÇľÇľÇľÇľÇľÇľÇľÇľÇľÇľÇľÇľÇľÇľÇľÇľÇľÇľÇľÇľÇľÇľÇľÇľÇľÇľÇľÇľÇľÇľÇľÇľÇľÇľÇľÇľÇľÇľÇľÇľÇľÇľÇľÇľÇľÇľÇľÇľÇľÇľÇľÇľÇľÇľÇľÇľÇľÇľÇľÇľÇľÇľÇľÇľÇľÇľÇľÇľÇľÇľÇľÇľÇľÇľÇľÇľÇľÇľÇľÇľÇľÇľÇľÇľÇľÇľÇľÇľÇľÇľÇľÇľÇľÇľÇľÇľÇľÇľÇľÇľÇľÇľÇľÇľÇľÇľÇľÇľÇľÇľÇľÇľÇľÇľÇľÇľÇľÇľÇľÇľÇľÇľÇľÇľÇľÇľÇľÇľÇľÇľÇľÇľÇľÇľÇľÇľÇľÇľÇľÇľÇľÇľÇľÇľÇľÇľÇľÇľÇľÇľÇľÇľÇľÇľÇľÇľÇľÇľÇľÇľÇľÇľÇľÇľÇľÇľÇľÇľÇľÇľÇľÇľÇľÇľÇľÇľÇľÇľÇľÇľÇľÇľÇľÇľÇľÇľÇľÇľÇľÇľÇľÇľÇľÇľÇľÇľÇľÇľÇľÇľÇľÇľÇľÇľÇľÇľÇľÇľÇľÇľÇľÇľÇľÇľÇľÇľÇľÇľÇľÇľÇľÇľÇľÇľÇľÇľÇľÇľÇľÇľÇľÇľÇľÇľÇľÇľÇľÇľÇľÇľÇľÇľÇľÇľÇľÇľÇľÇľÇľÇľÇľÇľÇľÇľÇľÇľÇľÇľÇľÇľÇľÇľÇľÇľÇľÇľÇľÇľÇľÇľÇľÇľÇľÇľÇľÇľÇľÇľÇľÇľÇľÇľÇľÇľÇľÇľÇľÇľÇľÇľÇľÇľÇľÇľÇľÇľÇľÇľÇľÇľÇľÇľÇľÇľÇľÇľÇľÇľÇľÇľÇľÇľÇľÇľÇľÇľÇľÇľÇľÇľÇľÇľÇľÇľÇľÇľÇľÇľÇľÇľÇľÇľÇľÇľÇľÇľÇľÇľÇľÇľÇľÇľÇľÇľÇľÇľÇľÇľÇľÇľÇľÇľÇľÇľÇľÇľÇľÇľÇľÇľÇľÇľÇľÇľÇľÇľÇľÇľÇľÇľÇľÇľÇľÇľÇľÇľÇľÇľÇľÇľÇľÇľÇľÇľÇľÇľÇľÇľÇľÇľÇľÇľÇľÇľÇľÇľÇľÇľÇľÇľÇľÇľÇľÇľÇľÇľÇľÇľÇľÇľÇľÇľÇľÇľÇľÇľÇľÇľÇľÇľÇľÇľÇľÇľÇľÇľÇľÇľÇľÇľÇľÇľÇľÇľÇľÇľÇľÇľÇľÇľÇľÇľÇľÇľÇľÇľÇľÇľÇľÇľÇľÇľÇľÇľÇľÇľÇľÇľÇľÇľÇľÇľÇľÇľÇľÇľÇľÇľÇľÇľÇľÇľÇľÇľÇľÇľÇľÇľÇľÇľÇľÇľÇľÇľÇľÇľÇľÇľÇľÇľÇľÇľÇľÇľÇľÇľÇľÇľÇľÇľÇľÇľÇľÇľÇľÇľÇľÇľÇľÇľÇľÇľÇľÇľÇľÇľÇľÇľÇľÇľÇľÇľÇľÇľÇľÇľÇľÇľÇľÇľÇľÇľÇľÇľÇľÇľÇľÇľÇľÇľÇľÇľÇľÇľÇľÇľÇľÇľÇľÇľÇľÇľÇľÇľÇľÇľÇľÇľÇľÇľÇľÇľÇľÇľÇľÇľÇľÇľÇľÇľÇľÇľÇľÇľÇľÇľÇľÇľÇľÇľÇľÇľÇľÇľÇľÇľÇľÇľÇľÇľÇľÇľÇľÇľÇľÇľÇľÇľÇľÇľÇľÇľÇľÇľÇľÇľÇľÇľÇľÇľÇľÇľÇľÇľÇľÇľÇľÇľÇľÇľÇľÇľÇľÇľÇľÇľÇľÇľÇľÇľÇľÇľÇľÇľÇľÇľÇľÇľÇľÇľÇľÇľÇľÇľÇľÇľÇľ": 1729,
      "È·": 1730,
      "ÇłÇŁ": 1731,
      "ÇľÇľÇľÇľÇľÇľÇľÇľÇľÇľÇľÇľÇľÇľÇľÇľÇľÇľÇľÇľÇľÇľÇľÇ¤": 1732,
      "ÇłÇĻ": 1733,
      "Å¾": 1734,
      "ÇľÇľÇľÇľÇľÇľÇľÇľÇľÇľÇľÇľÇľÇľÇľÇľÇľÇľÇľÇľÇľÇľÇľÇľÇľÇľÇľÇľÇľÇľÇľÇĽÇľÇľÇľÇľÇľÇľÇľÇľÇľÇľÇľÇľÇľÇľÇľÇľÇľÇľÇľÇľÇľÇľÇľÇľÇľÇľÇľÇľÇľÇľÇľÇľÇľÇľÇľÇľÇľÇľÇľÇľÇľÇľÇľÇľÇľÇľÇľÇľÇľÇľÇľÇľÇľÇľÇľÇľÇľÇľÇľÇľÇľÇľÇľÇľÇľÇľÇľÇľÇľÇľÇľÇľÇľÇľÇľÇľÇľÇľÇľÇľÇľÇľÇľÇľÇľÇľÇľÇľÇľÇľÇľÇľÇľÇľÇľÇľÇľÇľÇľÇľÇľÇľÇľÇľÇľÇľÇľÇľÇľÇľÇľÇľÇľÇľÇľÇľÇľÇľÇľÇľÇľÇľÇľÇľÇľÇľÇľÇľÇľÇľÇľÇľÇľÇľÇľÇľÇľÇľÇľÇľÇľÇľÇľÇľÇľÇľÇľÇľÇľÇľÇľÇľÇľÇľÇľÇľÇľÇľÇľÇľÇľÇľÇľÇľÇľÇľÇľÇľÇľÇľÇľÇľÇľÇľÇľÇľÇľÇľÇľÇľÇľÇľÇľÇľÇľÇľÇľÇľÇľÇľÇľÇľÇľÇľÇľÇľÇľÇľÇľÇľÇľÇľÇľÇľÇľÇľÇľÇľÇľÇľÇľÇľÇľÇľÇľÇľÇľÇľÇľÇľÇľÇľÇľÇľÇľÇľÇľÇľÇľÇľÇľÇľÇľÇľÇľÇľÇľÇľÇľÇľÇľÇľÇľÇľÇľÇľÇľÇľÇľÇľÇľÇľÇľÇľÇľÇľÇľÇľÇľÇľÇľÇľÇľÇľÇľÇľÇľÇľÇľÇľÇľÇľÇľÇľÇľÇľÇľÇľÇľÇľÇľÇľÇľÇľÇľÇľÇľÇľÇľÇľÇľÇľÇľÇľÇľÇľÇľÇľÇľÇľÇľÇľÇľÇľÇľÇľÇľÇľÇľÇľÇľÇľÇľÇľÇľÇľÇľÇľÇľÇľÇľÇľÇľÇľÇľÇľÇľÇľÇľÇľÇľÇľÇľÇľÇľÇľÇľÇľÇľÇľÇľÇľÇľÇľÇľÇľÇľÇľÇľÇľÇľÇľÇľÇľÇľÇľÇľÇľÇľÇľÇľÇľÇľÇľÇľÇľÇľÇľÇľÇľÇľÇľÇľÇľÇľÇľÇľÇľÇľÇľÇľÇľÇľÇľÇľÇľÇľÇľÇľÇľÇľÇľÇľÇľÇľÇľÇľÇľÇľÇľÇľÇľÇľÇľÇľÇľÇľÇľÇľÇľÇľÇľÇľÇľÇľÇľÇľÇľÇľÇľÇľÇľÇľÇľÇľÇľÇľÇľÇľÇľÇľÇľÇľÇľÇľÇľÇľÇľÇľÇľÇľÇľÇľÇľÇľÇľÇľÇľÇľÇľÇľÇľÇľÇľÇľÇľÇľÇľÇľÇľÇľÇľÇľÇľÇľÇľÇľÇľÇľÇľÇľÇľÇľÇľÇľÇľÇľÇľÇľÇľÇľÇľÇľÇľÇľÇľÇľÇľÇľÇľÇľÇľÇľÇľÇľÇľÇľÇľÇľÇľÇľÇľÇľÇľÇľÇľÇľÇľÇľÇľÇľÇľÇľÇľÇľÇľÇľÇľÇľÇľÇľÇľÇľÇľÇľÇľÇľÇľÇľÇľÇľÇľÇľÇľÇľÇľÇľÇľÇľÇľÇľÇľÇľÇľÇľÇľÇľÇľÇľÇľÇľÇľÇľÇľÇľÇľÇľÇľÇľÇľÇľÇľÇľÇľÇľÇľÇľÇľÇľÇľÇľÇľÇľÇľÇľÇľÇľÇľÇľÇľÇľÇľÇľÇľÇľÇľÇľÇľÇľÇľÇľÇľÇľÇľÇľÇľÇľÇľÇľÇľÇľÇľÇľÇľÇľÇľÇľÇľÇľÇľÇľÇľÇľÇľÇľÇľÇľÇľÇľÇľÇľÇľÇľÇľÇľÇľÇľÇľÇľÇľÇľÇľÇľÇľÇľÇľÇľÇľÇľÇľÇľÇľÇľÇľÇľÇľÇľÇľÇľÇľÇľÇľ": 1735,
      "ÇľÇľÇľÇľÇľÇľÇľÇľÇľÇľÇľÇľÇľÇľÇľÇľÇľÇľÇľÇľÇľÇĿÇľÇľÇľÇľÇľÇľÇľÇľÇľÇĿÇľÇľÇľÇľÇľÇľÇľÇľÇľÇľÇľÇľÇľÇľÇľÇľÇľÇľÇľÇľÇľÇĿÇľÇľÇľÇľÇľÇľÇľÇľÇľÇĿ": 1736,
      "ÇĥÇ": 1737,
      "ÇľÇŀÇĽÇĿ": 1738,
      "ÇľÇľÇľÇľÇľÇľÇŀÇľÇľÇľÇľÇľÇľÇľÇľÇľÇľÇľÇľÇľÇľÇľÇľÇľÇľÇľÇľÇľÇľÇľÇľÇŀ": 1739,
      "ÇľÇľÇľÇľÇľÇľÇľÇľÇľÇľÇľÇľÇľÇľÇľÇľÇľÇľÇľÇľÇľÇľÇľÇľÇľÇľÇľÇľÇľÇľÇľÇľÇľÇľÇľÇľÇľÇľÇľÇľÇľÇľÇľÇľÇľÇľÇľÇľÇľÇľÇľÇľÇľÇľÇľÇľÇľÇľÇľÇľÇľÇľÇľÇľÇľÇľÇľÇľÇľÇľÇľÇľÇľÇľÇľÇľÇľÇľÇľÇľÇľÇľÇľÇľÇľÇľÇľÇľÇľÇľÇľÇľÇľÇľÇľÇĽÇľÇľÇľÇľÇľÇľÇľÇľÇľÇľÇľÇľÇľÇľÇľÇľÇľÇľÇľÇľÇľÇľÇľÇľÇľÇľÇľÇľÇľÇľÇľÇĽ": 1740,
      "ÇĹÇĹÇľÈİÇ£Æ©ÈĦÇµÈĴÈĩÇ¥ÇķÇŀ": 1741,
      "ÇľÇľÇľÇľÇľÇľÇľÇľÇľÇľÇľÇľÇľÇľÇĿÇĿ": 1742,
      "Èµ": 1743,
      "ÇľÇľÇľÇľÇľÇľÇľÇľÇľÇľÇľÇľÇľÇľÇľÇľÇľÇľÇľÇľÇľÇľÇľÇľÇľÇľÇľÇľÇľÇľÇľÇĸ": 1744,
      "ÇľÇľÇľÇľÇľÇŀ": 1745,
      "ÇĺÇ¢": 1746,
      "ÇľÇľÇľÇľÇľÇľÇľÇľÇľÇľÇľÇľÇľÇľÇľÇľÇľÇľÇľÇľÇľÇľÇľÇľÇĿÇľÇľÇľÇľÇľÇľÇĿ": 1747,
      "ÇĺÇļ": 1748,
      "Ç¤ÈłÆĥÇ": 1749,
      "Ç£ÇĽ": 1750,
      "ÇľÇļÇĽ": 1751,
      "Ç¤Çĸ": 1752,
      "ÇļÇŀÇĽ": 1753,
      "ÇľÇľÇľÇľÇľÇľÇľÇľÇľÇľÇľÇľÇľÇľÇľÇļ": 1754,
      "ÇĹÇķ": 1755,
      "ÇľÇľÇľÇľÇľÇľÇľÇľÇľÇľÇľÇľÇľÇľÇľÇľÇľÇľÇľÇľÇľÇľÇľÇľÇľÇľÇľÇľÇľÇľÇľÇľÇľÇľÇľÇľÇľÇľÇľÇľÇľÇľÇľÇľÇľÇľÇľÇľÇľÇľÇľÇľÇľÇľÇľÇľÇľÇľÇľÇľÇľÇľÇľÇľÇľÇľÇľÇľÇľÇľÇľÇľÇľÇľÇľÇľÇľÇľÇľÇľÇľÇľÇľÇľÇľÇľÇľÇľÇľÇľÇľÇľÇľÇľÇľÇľÇľÇľÇľÇľÇľÇľÇľÇľÇľÇľÇľÇľÇľÇľÇľÇľÇľÇľÇľÇľÇľÇľÇľÇľÇľÇľÇľÇľÇľÇľÇľÇľÇľÇľÇľÇľÇľÇľÇľÇľÇľÇľÇľÇľÇľÇľÇľÇľÇľÇľÇľÇľÇľÇľÇľÇľÇľÇľÇľÇľÇľÇľÇľÇľÇľÇľÇľÇľÇľÇľÇľÇľÇľÇľÇľÇľÇľÇľÇľÇľÇľÇľÇľÇľÇľÇľÇľÇľÇľÇľÇľÇľÇľÇľÇľÇľÇľÇľÇľÇľÇľÇľÇľÇľÇľÇľÇľÇľÇľÇľÇľÇľÇľÇľÇľÇľÇľÇľÇľÇľÇľÇľÇľÇľÇľÇľÇľÇľÇľÇľÇľÇľÇľÇľÇľÇľÇľÇľÇľÇľÇľÇľÇľÇľÇľÇľÇľÇľÇľÇľÇľÇľÇľÇľÇľÇľÇľÇľÇľÇľÇľÇľÇľÇľÇľÇľÇľÇľÇľÇľÇľÇľÇľÇľÇľÇľÇľÇľÇľÇľÇľÇľÇľÇľÇľÇľÇľÇľÇľÇľÇľÇľÇľÇľÇľÇľÇľÇľÇľÇľÇľÇľÇľÇľÇľÇľÇľÇľÇľÇľÇľÇľÇľÇľÇľÇľÇľÇľÇľÇľÇľÇľÇľÇľÇľÇľÇľÇľÇľÇľÇľÇľÇľÇľÇľÇľÇľÇľÇľÇľÇľÇľÇľÇľÇľÇľÇľÇľÇľÇľÇľÇľÇľÇľÇľÇľÇľÇľÇľÇľÇľÇľÇľÇľÇľÇľÇľÇľÇľÇľÇľÇľÇľÇľÇľÇľÇľÇľÇľÇľÇľÇľÇľÇľÇľÇľÇľÇľÇľÇľÇľÇľÇľÇľÇľÇľÇľÇľÇľÇľÇľÇľÇľÇľÇľÇľÇľÇľÇľÇľÇľÇľÇľÇľÇľÇľÇľÇľÇľÇľÇľÇľÇľÇľÇľÇľÇľÇľÇľÇľÇľÇľÇľÇľÇľÇľÇľÇľÇľÇľÇľÇľÇľÇľÇľÇľÇľÇľÇľÇľÇľÇľÇľÇľÇľÇľÇľÇľÇľÇľÇľÇľÇľÇľÇľÇľÇľÇľÇľÇľÇľÇľÇľÇľÇľÇľÇľÇľÇľÇľÇľÇľÇľÇľÇľÇľÇľÇľÇľÇľÇľÇľÇľÇľÇľÇľÇľÇľÇľÇľÇľÇľÇľÇľÇľÇľÇľÇľÇľÇľÇľÇľÇľÇľÇľÇľÇľÇľÇľÇľÇľÇľÇľÇľÇľÇľÇľÇľÇľÇľÇľÇľÇľÇľÇľÇľÇľÇľÇľÇľÇľÇľÇľÇľÇľÇľÇľÇľÇľÇľÇľÇľÇľÇľÇľÇľÇľÇľÇľÇľÇľÇľÇľÇľÇľÇľÇľÇľÇľÇľÇľÇľÇľÇľÇľÇľÇľÇľÇľÇľÇľÇľÇľÇľÇľÇľÇľÇľÇľÇľÇľÇľÇľÇľÇľÇľÇľÇľÇľÇľÇľÇľÇľÇľÇľÇľÇľÇľÇľÇľÇľÇľÇľÇľÇľÇľÇľÇľÇľÇľÇľÇľÇľÇľÇľÇľÇľÇľÇľÇľÇľÇľÇľÇľÇľÇľÇľÇľÇľÇľÇľÇľÇľÇľÇľÇľÇľÇľÇľÇľÇľÇľÇľÇľÇľÇľÇľÇľÇľÇľÇľÇľÇľÇľÇľÇľÇľÇľÇľÇľÇľÇľÇľÇľÇľÇľÇľÇľÇľÇľÇľÇľÇľÇľÇľÇľÇľÇľÇľÇľÇľÇľÇľÇľÇľÇľÇľÇľÇľÇľÇľÇľÇľÇľÇľÇľÇľÇľÇľÇľÇľÇľÇľÇľÇľÇľÇľÇľÇľÇľÇľÇľÇľÇľÇľÇľÇľ": 1756,
      "È´": 1757,
      "ÇľÇľÇľÇľÇľÇľÇľÇľÇľÇľÇľÇľÇľÇľÇľÇľÇľÇľÇľÇľÇľÇľÇľÇľÇĶ": 1758,
      "ÈŁÆĦÇĨ": 1759,
      "ÆŀÇĿÈŁÆ": 1760,
      "ÇľÇľÇľÇľÇľÇľÇľÇľÇľÇľÇľÇľÇľÇľÇľÇľÇľÇľÇľÇľÇľÇľÇļÇĽ": 1761,
      "ÇľÇľÇľÇľÇľÇľÇľÇľÇľÇľÇľÇľÇľÇľÇľÇľÇľÇľÇľÇľÇľÇľÇľÇĶ": 1762,
      "ÉĤ": 1763,
      "È³": 1764,
      "Å¼": 1765,
      "ÇľÇľÇľÇľÇľÇľÇľÇľÇľÇľÇľÇľÇľÇľÇľÇľÇľÇľÇľÇľÇľÇľÇľÇĽÇļ": 1766,
      "È¶": 1767,
      "ÇĴÇĿ": 1768,
      "Å°": 1769,
      "ÇľÇľÇľÇľÇľÇľÇľÇľÇľÇľÇľÇľÇľÇľÇľÇľÇľÇľÇľÇľÇľÇľÇľÇľÇ¨": 1770,
      "ÇľÇľÇľÇľÇľÇľÇĿÇľÇľÇĿ": 1771,
      "ÇľÇľÇľÇľÇľÇľÇľÇľÇľÇľÇľÇľÇľÇľÇľÇľÇľÇľÇľÇľÇľÇľÇľÇľÇĵ": 1772,
      "Ç¤Èł": 1773,
      "ÇľÇľÇĿÇľÇľÇľÇľÇľÇľÇĽ": 1774,
      "ÇľÇľÇľÇľÇľÇľÇľÇľÇľÇľÇľÇľÇľÇľÇľÇľÇľÇľÇľÇľÇľÇľÇ£": 1775,
      "È²": 1776,
      "ÇľÇľÇľÇľÇľÇļ": 1777,
      "ÇľÇľÇľÇľÇľÇĿÇĽ": 1778,
      "Ç¥ÇķÇŀÈĳÇĿÆ©ÈĦÇĨÈĴÈĩÇľÇľÇľÇľÇľÇľÇľÇľÇľÇľÇľÇľÇľÇľ": 1779,
      "Å±": 1780,
      "È±": 1781,
      "ÇĽÇĿÇľÇľÇľÇľÇĿ": 1782,
      "Å®": 1783,
      "È¸": 1784,
      "ÇĽÇĽÇĽ": 1785,
      "ÇľÇĿÇľÇľÇĿ": 1786,
      "Ç¡Çŀ": 1787,
      "ÇľÇľÇľÇľÇľÇľÇľÇľÇľÇľÇľÇľÇľÇľÇľÇľÇľÇľÇľÇľÇľÇľÇľÇľÇľÇľÇľÇľÇľÇľÇľÇľÇľÇľÇľÇľÇľÇľÇľÇľÇľÇľÇľÇľÇľÇľÇľÇľÇľÇľÇľÇľÇľÇľÇľÇľÇľÇľÇľÇľÇľÇľÇľÇľÇľÇľÇľÇľÇľÇľÇľÇľÇľÇľÇľÇľÇľÇľÇľÇľÇľÇľÇľÇľÇľÇľÇľÇľÇľÇľÇľÇľÇľÇľÇľÇľÇľÇľÇľÇľÇľÇľÇľÇľÇľÇľÇľÇľÇľÇľÇľÇľÇľÇľÇľÇľÇľÇľÇľÇľÇľÇľÇľÇľÇľÇľÇľÇľÇľÇľÇľÇľÇľÇľÇľÇľÇľÇľÇľÇľÇľÇľÇľÇľÇľÇľÇľÇľÇľÇľÇľÇľÇľÇľÇľÇľÇľÇľÇľÇľÇľÇľÇľÇľÇľÇľÇľÇľÇľÇľÇľÇľÇľÇľÇľÇľÇľÇľÇľÇľÇľÇľÇľÇľÇľÇľÇľÇľÇľÇľÇľÇľÇľÇľÇľÇľÇľÇľÇľÇľÇľÇľÇľÇľÇľÇľÇľÇľÇľÇľÇľÇľÇľÇľÇľÇľÇľÇľÇľÇľÇľÇľÇľÇľÇľÇľÇľÇľÇľÇľÇľÇľÇľÇľÇľÇľÇľÇľÇľÇľÇľÇľÇľÇľÇľÇľÇľÇľÇľÇľÇľÇľÇľÇľÇľÇľÇľÇľÇľÇľÇľÇľÇľÇľÇľÇľÇľÇľÇľÇľÇľÇľÇľÇľÇľÇľÇľÇľÇľÇľÇľÇľÇľÇľÇľÇľÇľÇľÇľÇľÇľÇľÇľÇľÇľÇľÇľÇľÇľÇľÇľÇľÇľÇľÇľÇľÇľÇľÇľÇľÇľÇľÇľÇľÇľÇľÇľÇľÇľÇľÇľÇľÇľÇľÇľÇľÇľÇľÇľÇľÇľÇľÇľÇľÇľÇľÇľÇľÇľÇľÇľÇľÇľÇľÇľÇľÇľÇľÇľÇľÇľÇľÇľÇľÇľÇľÇľÇľÇľÇľÇľÇľÇľÇľÇľÇľÇľÇľÇľÇľÇľÇľÇľÇľÇľÇľÇľÇľÇľÇľÇľÇľÇľÇľÇľÇľÇľÇľÇľÇľÇľÇľÇľÇľÇľÇľÇľÇľÇľÇľÇľÇľÇľÇľÇľÇľÇľÇľÇľÇľÇľÇľÇľÇľÇľÇľÇľÇľÇľÇľÇľÇľÇľÇľÇľÇľÇľÇľÇľÇľÇľÇľÇľÇľÇľÇľÇľÇľÇľÇľÇľÇľÇľÇľÇľÇľÇľÇľÇľÇľÇľÇľÇľÇľÇľÇľÇľÇľÇľÇľÇľÇľÇľÇľÇľÇľÇľÇľÇľÇľÇľÇľÇľÇľÇľÇľÇľÇľÇľÇľÇľÇľÇľÇľÇľÇľÇľÇľÇľÇľÇľÇľÇľÇľÇľÇľÇľÇľÇľÇľÇľÇľÇľÇľÇľÇľÇľÇľÇľÇľÇľÇľÇľÇľÇľÇľÇľÇľÇľÇľÇľÇľÇľÇľÇľÇľÇľÇľÇľÇľÇľÇľÇľÇľÇľÇľÇľÇľÇľÇľÇľÇľÇľÇľÇľÇľÇľÇľÇľÇľÇľÇľÇľÇľÇľÇľÇľÇľÇľÇľÇľÇľÇľÇľÇľÇľÇľÇľÇľÇľÇľÇľÇľÇľÇľÇľÇľÇľÇľÇľÇľÇľÇľÇľÇľÇľÇľÇľÇľÇľÇľÇľÇľÇľÇľÇľÇľÇľÇľÇľÇľÇľÇľÇľÇľÇľÇľÇľÇľÇľÇľÇľÇľÇľÇľÇľÇľÇľÇľÇľÇľÇľÇľÇľÇľÇľÇľÇľÇľÇľÇľÇľÇľÇľÇľÇľÇľÇľÇľÇľÇľÇľÇľÇľÇľÇľÇľÇľÇľÇľÇľÇľÇľÇľÇľÇľÇľÇľÇľÇľÇľÇľÇľÇľÇľÇľÇľÇľÇľÇľÇľÇľÇľÇľÇľÇľÇľÇľÇľÇľÇľÇľÇľÇľÇľÇľÇľÇľÇľÇľÇľÇľÇľÇľÇľÇľÇľÇľÇľÇľÇľ": 1788,
      "ÇľÇľÇľÇľÇľÇľÇĿÇľÇľÇľÇľÇľÇľÇľÇľÇľÇľÇľÇľÇľÇľÇľÇľÇľÇľÇľÇľÇľÇľÇľÇľÇľÇľÇľÇľÇľÇľÇľÇĿ": 1789,
      "Å½": 1790,
      "È¹": 1791,
      "ÇļÇľÇŀ": 1792,
      "ÇľÇľÇľÇľÇľÇľÇľÇľÇľÇľÇľÇľÇľÇľÇľÇľÇľÇľÇľÇľÇľÇľÇľÇľÇľÇľÇľÇľÇľÇľÇľÇĿÇľÇľÇľÇľÇľÇľÇľÇľÇľÇľÇľÇľÇľÇľÇľÇľÇľÇľÇľÇľÇľÇľÇľÇľÇľÇľÇľÇľÇľÇľÇľÇĽÇľÇľÇľÇľÇľÇľÇľÇľÇľÇľÇľÇľÇľÇľÇľÇľÇľÇľÇľÇľÇľÇľÇľÇľÇľÇľÇľÇľÇľÇľÇľÇĿÇľÇľÇľÇľÇľÇľÇľÇľÇľÇľÇľÇľÇľÇľÇľÇľÇľÇľÇľÇľÇľÇľÇľÇľÇľÇľÇľÇľÇľÇľÇľÇĽ": 1793,
      "ÇľÇĮ": 1794,
      "ÇķÇĽ": 1795,
      "Ç¥ÈłÆ": 1796,
      "Ç£ÇĶ": 1797,
      "ÇľÇľÇĽÇĿÇĽ": 1798,
      "ÈŀÆĦÇ": 1799,
      "ÇľÇľÇľÇľÇľÇĽÇĿ": 1800,
      "ÇľÇļÇľÇĿ": 1801,
      "ÇĹÇĹÇľÈİÇ£Æ©ÈĦÇ¸ÈĴÈĩÇ¥Çķ": 1802,
      "ÇľÇľÇľÇľÇľÇľÇľÇľÇľÇľÇľÇľÇľÇľÇĿÇľÇľÇľÇľÇľÇľÇľÇľÇľÇĿ": 1803,
      "ÇłÇł": 1804,
      "ÇľÇľÇľÇľÇľÇľÇľÇľÇľÇľÇľÇľÇľÇľÇľÇľÇľÇľÇľÇľÇľÇľÇŀÇĿ": 1805,
      "ÇľÇ¯": 1806,
      "ÇľÇľÇľÇľÇľÇľÇľÇľÇĽÇĿ": 1807,
      "ÇľÇľÇľÇľÇľÇľÇľÇľÇľÇľÇľÇľÇľÇľÇľÇľÇľÇľÇľÇľÇľÇľÇľÇľÇľÇľÇľÇľÇľÇľÇľÇĽÇľÇľÇľÇľÇľÇľÇľÇľÇľÇľÇľÇľÇľÇľÇľÇľÇľÇľÇľÇľÇľÇľÇľÇľÇľÇľÇľÇľÇľÇľÇľÇľÇľÇľÇľÇľÇľÇľÇľÇľÇľÇľÇľÇľÇľÇľÇľÇľÇľÇľÇľÇľÇľÇľÇľÇľÇľÇľÇľÇľÇľÇľÇľÇľÇľÇľÇľÇľÇľÇľÇľÇľÇľÇľÇľÇľÇľÇľÇľÇľÇľÇľÇľÇľÇľÇľÇľÇľÇľÇľÇľÇľÇľÇľÇľÇľÇľÇľÇľÇľÇľÇľÇľÇľÇľÇľÇľÇľÇľÇľÇľÇľÇľÇľÇľÇľÇľÇľÇľÇľÇľÇľÇľÇľÇľÇľÇľÇľÇľÇľÇľÇľÇľÇľÇľÇľÇľÇľÇľÇľÇľÇľÇľÇľÇľÇľÇľÇľÇľÇľÇľÇľÇľÇľÇľÇľÇľÇľÇľÇľÇľÇľÇľÇľÇľÇľÇľÇľÇľÇľÇľÇľÇľÇľÇľÇľÇľÇľÇľÇľÇľÇľÇľÇľÇľÇľÇľÇľÇľÇľÇľÇľÇľÇľÇľÇľÇľÇľÇľÇľÇľÇľÇľÇľÇľÇľÇľÇľÇľÇľÇľÇľÇľÇľÇľÇľÇľÇľÇľÇľÇľÇľÇľÇľÇľÇľÇľÇľÇľÇľÇľÇľÇľÇľÇľÇľÇľÇľÇľÇľÇľÇľÇľÇľÇľÇľÇľÇľÇľÇľÇľÇľÇľÇľÇľÇľÇľÇľÇľÇľÇľÇľÇľÇľÇľÇľÇľÇľÇľÇľÇľÇľÇľÇľÇľÇľÇľÇľÇľÇľÇľÇľÇľÇľÇľÇľÇľÇľÇľÇľÇľÇľÇľÇľÇľÇľÇľÇľÇľÇľÇľÇľÇľÇľÇľÇľÇľÇľÇľÇľÇľÇľÇľÇľÇľÇľÇľÇľÇľÇľÇľÇľÇľÇľÇľÇľÇľÇľÇľÇľÇľÇľÇľÇľÇľÇľÇľÇľÇľÇľÇľÇľÇľÇľÇľÇľÇľÇľÇľÇľÇľÇľÇľÇľÇľÇľÇľÇľÇľÇľÇľÇľÇľÇľÇľÇľÇľÇľÇľÇľÇľÇľÇľÇľÇľÇľÇľÇľÇľÇľÇľÇľÇľÇľÇľÇľÇľÇľÇľÇľÇľÇľÇľÇľÇľÇľÇľÇľÇľÇľÇľÇľÇľÇľÇľÇľÇľÇľÇľÇľÇľÇľÇľÇľÇľÇľÇľÇľÇľÇľÇľÇľÇľÇľÇľÇľÇľÇľÇľÇľÇľÇľÇľÇľÇľÇľÇľÇľÇľÇľÇľÇľÇľÇľÇľÇľÇľÇľÇľÇľÇľÇľÇľÇľÇľÇľÇľÇľÇľÇľÇľÇľÇľÇľÇľÇľÇľÇľÇľÇľÇľÇľÇľÇľÇľÇľÇľÇľÇľÇľÇľÇľÇľÇľÇľÇľÇľÇľÇľÇľÇľÇľÇľÇľÇľÇľÇľÇľÇľÇľÇľÇľÇľÇľÇľÇľÇľÇľÇľÇľÇľÇľÇľÇľÇľÇľÇľÇľÇľÇľÇľÇľÇľÇľÇľÇľÇľÇľÇľÇľÇľÇľÇľÇľÇľÇľÇľÇľÇľÇľÇľÇľÇľÇľÇľÇľÇľÇľÇľÇľÇľÇľÇľÇľÇľÇľÇľÇľÇľÇľÇľÇľÇľÇľÇľÇľÇľÇľÇľÇľÇľÇľÇľÇľÇľÇľÇľÇľÇľÇľÇľÇľÇľÇľÇľÇľÇľÇľÇľÇľÇľÇľÇľÇľÇľÇľÇľÇľÇľÇľÇľÇľÇľÇľÇľÇľÇľÇľÇľÇľÇľÇľÇľÇľÇľÇľÇľÇľÇľÇľÇľÇľÇľÇľÇľÇľÇľÇľÇľÇľÇľÇľÇľÇľÇľÇľÇľÇľÇľÇľÇľÇľÇľÇľÇľÇľÇľÇľÇľÇľÇľÇľÇľÇľÇľÇľÇľÇľÇľÇľÇľÇľ": 1808,
      "ÇľÇľÇľÇľÇľÇľÇľÇľÇľÇľÇľÇľÇľÇľÇľ": 1809,
      "ÈĳÇŀ": 1810,
      "Ä¶": 1811,
      "ÇľÇľÇľÇľÇľÇľÇľÇľÇľÇľÇľÇľÇľÇľÇľÇľÇľÇľÇľÇľÇľÇľÇľÇľÇľÇľÇľÇľÇľÇľÇľÇľÇľÇľÇľÇľÇľÇľÇľÇľÇľÇľÇľÇľÇľÇľÇľÇľÇľÇľÇľÇľÇľÇľÇľÇľÇľÇľÇľÇľÇľÇľÇľÇľÇľÇľÇľÇľÇľÇľÇľÇľÇľÇľÇľÇľÇľÇľÇľÇľÇľÇľÇľÇľÇľÇľÇľÇľÇľÇľÇľÇľÇľÇľÇľÇľÇľÇľÇľÇľÇľÇľÇľÇľÇľÇľÇľÇľÇľÇľÇľÇľÇľÇľÇľÇľÇľÇľÇľÇľÇľÇľÇľÇľÇľÇľÇľÇľÇľÇľÇľÇľÇľÇľÇľÇľÇľÇľÇľÇľÇľÇľÇľÇľÇľÇľÇľÇľÇľÇľÇľÇľÇľÇľÇľÇľÇľÇľÇľÇľÇľÇľÇľÇľÇľÇľÇľÇľÇľÇľÇľÇľÇľÇľÇľÇľÇľÇľÇľÇľÇľÇľÇľÇľÇľÇľÇľÇľÇľÇľÇľÇľÇľÇľÇľÇľÇľÇľÇľÇľÇľÇľÇľÇľÇľÇľÇľÇľÇľÇľÇľÇľÇľÇľÇľÇľÇľÇľÇľÇľÇľÇľÇľÇľÇľÇľÇľÇľÇľÇľÇľÇľÇľÇľÇľÇľÇľÇľÇľÇľÇľÇľÇľÇľÇľÇľÇľÇľÇľÇľÇľÇľÇľÇľÇľÇľÇľÇľÇľÇľÇľÇľÇľÇľÇľÇľÇľÇľÇľÇľÇľÇľÇľÇľÇľÇľÇľÇľÇľÇľÇľÇľÇľÇľÇľÇľÇľÇľÇľÇľÇľÇľÇľÇľÇľÇľÇľÇľÇľÇľÇľÇľÇľÇľÇľÇľÇľÇľÇľÇľÇľÇľÇľÇľÇľÇľÇľÇľÇľÇľÇľÇľÇľÇľÇľÇľÇľÇľÇľÇľÇľÇľÇľÇľÇľÇľÇľÇľÇľÇľÇľÇľÇľÇľÇľÇľÇľÇľÇľÇľÇľÇľÇľÇľÇľÇľÇľÇľÇľÇľÇľÇľÇľÇľÇľÇľÇľÇľÇľÇľÇľÇľÇľÇľÇľÇľÇľÇľÇľÇľÇľÇľÇľÇľÇľÇľÇľÇľÇľÇľÇľÇľÇľÇľÇľÇľÇľÇľÇľÇľÇľÇľÇľÇľÇľÇľÇľÇľÇľÇľÇľÇľÇľÇľÇľÇľÇľÇľÇľÇľÇľÇľÇľÇľÇľÇľÇľÇľÇľÇľÇľÇľÇľÇľÇľÇľÇľÇľÇľÇľÇľÇľÇľÇľÇľÇľÇľÇľÇľÇľÇľÇľÇľÇľÇľÇľÇľÇľÇľÇľÇľÇľÇľÇľÇľÇľÇľÇľÇľÇľÇľÇľÇľÇľÇľÇľÇľÇľÇľÇľÇľÇľÇľÇľÇľÇľÇľÇľÇľÇľÇľÇľÇľÇľÇľÇľÇľÇľÇľÇľÇľÇľÇľÇľÇľÇľÇľÇľÇľÇľÇľÇľÇľÇľÇľÇľÇľÇľÇľÇľÇľÇľÇľÇľÇľÇľÇľÇľÇľÇľÇľÇľÇľÇľÇľÇľÇľÇľÇľÇľÇľÇľÇľÇľÇľÇľÇľÇľÇľÇľÇľÇľÇľÇľÇľÇľÇľÇľÇľÇľÇľÇľÇľÇľÇľÇľÇľÇľÇľÇľÇľÇľÇľÇľÇľÇľÇľÇľÇľÇľÇľÇľÇľÇľÇľÇľÇľÇľÇľÇľÇľÇľÇľÇľÇľÇľÇľÇľÇľÇľÇľÇľÇľÇľÇľÇľÇľÇľÇľÇľÇľÇľÇľÇľÇľÇľÇľÇľÇľÇľÇľÇľÇľÇľÇľÇľÇľÇľÇľÇľÇľÇľÇľÇľÇľÇľÇľÇľÇľÇľÇľÇľÇľÇľÇľÇľÇľÇľÇľÇľÇľÇľÇľÇľÇľÇľÇľÇľÇľÇľÇľÇľÇľÇľÇľÇľÇľÇľÇľÇľÇľÇľÇľÇľÇľÇľÇľÇľÇľÇľÇľÇľÇľÇľÇľÇľÇľÇľÇľÇľÇľÇľÇľÇľÇľÇľÇľÇľÇľÇľÇľÇľÇľÇľÇľÇľÇľÇľÇľÇľÇľÇľÇľÇľÇľÇľÇľÇľÇľÇľÇľÇľÇľÇľÇľÇľÇľÇľÇľÇľÇľÇľÇľÇľÇľÇľÇľÇľÇľÇľÇľÇľÇľÇľÇľÇľÇľÇľÇľÇľÇľÇľÇľÇľÇľÇľÇľÇľÇľÇľÇľÇľÇľÇľÇľÇľÇľÇľÇľÇľÇľÇľÇľÇľÇľÇľÇľÇľÇľÇľÇľÇľÇľÇľÇľÇľÇľÇľÇľÇľÇľÇľÇľÇľÇľÇľÇľÇľÇľÇľÇľÇľÇľÇľÇľÇľÇľÇľÇľÇľÇľÇľÇľÇľÇľÇľÇľÇľÇľÇľÇľÇľÇľÇľÇľÇľÇľÇľÇľÇľÇľÇľÇľÇľÇľÇľÇľÇľÇľÇľÇľÇľÇľÇľÇľÇľÇľÇľÇľÇľÇľÇľÇľÇľÇľÇľ": 1812,
      "Éĳ": 1813,
      "ÇľÇĿÇľÇľÇľÇĿ": 1814,
      "ÇļÇĸ": 1815,
      "ÇŀÇĸ": 1816,
      "ÇľÇľÇľÇľÇľÇľÇľÇľÇľÇľÇľÇľÇľÇ¡": 1817,
      "Ç¤ÇĿ": 1818,
      "ÆĿÇĿÈŁÆ": 1819,
      "ÇĺÇĻ": 1820,
      "ÇľÇľÇľÇľÇľÇľÇľÇľÇľÇľÇľÇľÇľÇľÇľÇľÇľÇľÇľÇľÇľÇľÇľÇľÇľÇľÇľÇľÇľÇľÇľÇŁÇľÇľÇľÇľÇľÇľÇľÇľÇľÇľÇľÇľÇľÇľÇľÇľÇľÇľÇľÇľÇľÇľÇľÇľÇľÇľÇľÇľÇľÇľÇľÇŀ": 1821,
      "ÇľÇľÇľÇľÇľÇľÇľÇľÇľÇľÇľÇľÇľÇľÇľÇľÇľÇľÇľÇľÇľÇľÇľÇľÇľÇľÇľÇľÇľÇľÇľÇľÇľÇľÇľÇľÇľÇľÇľÇľÇľÇľÇľÇľÇľÇľÇľÇľÇľÇľÇľÇľÇľÇľÇľÇľÇľÇľÇľÇľÇľÇľÇľÇľÇľÇľÇľÇľÇľÇľÇľÇľÇľÇľÇľÇľÇľÇľÇľÇľÇľÇľÇľÇľÇľÇľÇľÇľÇľÇľÇľÇľÇľÇľÇľÇľÇľÇľÇľÇľÇľÇľÇľÇľÇľÇľÇľÇľÇľÇľÇľÇľÇľÇľÇľÇľÇľÇľÇľÇľÇľÇľÇľÇľÇľÇľÇľÇľÇľÇľÇľÇľÇľÇľÇľÇľÇľÇľÇľÇľÇľÇľÇľÇľÇľÇľÇľÇľÇľÇľÇľÇľÇľÇľÇľÇľÇľÇľÇľÇĽ": 1822,
      "Å»": 1823,
      "ÇŀÇ¢": 1824,
      "È¾": 1825,
      "ÇĽÇľÇľÇľÇľÇľÇľÇľÇľÇľÇľÇľÇľÇľÇľÇľÇľÇľÇľÇľÇľÇľÇľÇľÇ": 1826,
      "ÇľÇĿÇľÇľÇľÇĽ": 1827,
      "Ç¢Çĸ": 1828,
      "Ç¥ÇķÇŀÈĳÇĿÆ©ÈĦÇĨÈĴÈĩÇľÇľÇľÇľÇľÇľÇľÇľÇľÇľÇľÇľÇľÇĿ": 1829,
      "ÇļÇĿÇĽ": 1830,
      "ÇľÇľÇľÇľÇľÇľÇľÇľÇľÇľÇľÇľÇľÇľÇľÇľÇľÇľÇľÇľÇľÇľÇŀÇĽ": 1831,
      "Ç¢Çķ": 1832,
      "Èº": 1833,
      "ÇľÇľÇľÇľÇľÇľÇľÇľÇľÇľÇľÇľÇľÇľÇľÇľÇľÇľÇľÇŀ": 1834,
      "«Èª": 1835,
      "Åº": 1836,
      "ÇľÇľÇľÇľÇľÇľÇľÇľÇľÇľÇľÇľÇľÇľÇľÇľÇľÇľÇľÇľÇľÇľÇľÇľÇľÇŀ": 1837,
      "ÇľÇľÇľÇľÇľÇľÇľÇľÇľÇľÇľÇľÇľÇľÇľÇľÇľÇľÇľÇľÇľÇľÇľÇľÇľÇľÇľÇľÇľÇľÇľÇĿÇľÇľÇľÇľÇľÇľÇľÇľÇľÇľÇľÇľÇľÇľÇľÇľÇľÇľÇľÇľÇľÇľÇľÇľÇľÇľÇľÇľÇľÇľÇľÇĿÇľÇľÇľÇľÇľÇľÇľÇľÇľÇľÇľÇľÇľÇľÇľÇľÇľÇľÇľÇľÇľÇľÇľÇľÇľÇľÇľÇľÇľÇľÇľÇĿÇľÇľÇľÇľÇľÇľÇľÇľÇľÇľÇľÇľÇľÇľÇľÇľÇľÇľÇľÇľÇľÇľÇľÇľÇľÇľÇľÇľÇľÇľÇľÇĿ": 1838,
      "ÇľÇľÇľÇľÇľÇľÇľÇľÇľÇľÇľÇľÇľÇľÇľÇľÇľÇľÇľÇľÇľÇľÇľÇĽÇľÇľÇľÇľÇľÇľÇľÇĽ": 1839,
      "ÇľÇĭ": 1840,
      "ÇľÇľÇľÇľÇľÇľÆ©": 1841,
      "ÇľÇĽÇĿÇľÇĿÇľÇľÇľÇľÇľÇľÇľÇľÇľÇľÇľÇľÇľÇľÇľÇľÇľÇľÇľÇľÇľÇľÇľÇľÇĽ": 1842,
      "ÇľÇľÇĺ": 1843,
      "ÇľÇľÇľÇľÇľÇľÇľÇľÇľÇľÇľÇľÇľÇĹ": 1844,
      "ÇľÇľÇļÇŀ": 1845,
      "ÇľÇ°": 1846,
      "ÆĶÇ¤ÈłÆ": 1847,
      "ÇľÇľÇľÇľÇľÇľÇľÇľÇľÇľÇľÇĽ": 1848,
      "ÆĶÇ£Èł": 1849,
      "Å¨": 1850,
      "ÇĻÇĸ": 1851,
      "È¿": 1852,
      "ÇľÇľÇľÇľÇľÇľÇľÇľÇľÇľÇľÇľÇľÇľÇľÇľÇľÇľÇľÇľÇľÇľÇļÇĿ": 1853,
      "Å¹": 1854,
      "ÇľÇľÇľÇľÇľÇľÇľÇľÇľÇľÇľÇľÇľÇľÇľÇľÇľÇľÇľÇľÇľÇľÇľÇľÇľÇľÇľÇľÇľÇĿÇĿ": 1855,
      "ÆĶÇ£ÈłÆ": 1856,
      "È½": 1857,
      "ÇľÇľÇĿÇĽÇĿ": 1858,
      "ÇľÇĻÇĿ": 1859,
      "ÆľÇľÈŁÆ": 1860,
      "ÇŁÇĸ": 1861,
      "ÇľÇľÇľÇľÇľÇľÇľÇľÇľÇľÇľÇľÇľÇľÇľÇľÇľÇľÇľÇľÇľÇľÇľÇľÇľÇľÇľÇľÇľÇľÇľÇľÇľÇľÇľÇľÇľÇľÇľÇľÇľÇľÇľÇľÇľÇľÇľÇľÇľÇľÇľÇľÇľÇľÇľÇľÇľÇľÇľÇľÇľÇľÇľÇľÇľÇľÇľÇľÇľÇľÇľÇľÇľÇľÇľÇľÇľÇľÇľÇľÇľÇľÇľÇľÇľÇľÇľÇľÇľÇľÇľÇľÇľÇľÇľÇľÇľÇľÇľÇľÇľÇľÇľÇľÇľÇľÇľÇľÇľÇľÇľÇľÇľÇľÇľÇľÇľÇľÇľÇľÇľÇľÇľÇľÇľÇľÇľÇľÇľÇľÇľÇľÇľÇľÇľÇľÇľÇľÇľÇľÇľÇľÇľÇľÇľÇľÇľÇľÇľÇľÇľÇľÇľÇľÇľÇľÇľÇľÇľÇľÇľÇľÇľÇľÇľÇľÇľÇľÇľÇľÇľÇľÇľÇľÇľÇľÇľÇľÇľÇľÇľÇľÇľÇľÇľÇľÇľÇľÇľÇľÇľÇľÇľÇľÇľÇľÇľÇľÇľÇľÇľÇľÇľÇľÇľÇľÇľÇľÇľÇľÇľÇľÇľÇľÇľÇľÇľÇľÇľÇľÇľÇľÇľÇľÇľÇľÇľÇľÇľÇľÇľÇľÇľÇľÇľÇľÇľÇľÇľÇľÇľÇľÇľÇľÇľÇľÇľÇľÇľÇľÇľÇľÇľÇľÇľÇľÇľÇľÇľÇľÇľÇľÇľÇľÇľÇľÇľÇľÇľÇľÇľÇľÇľÇľÇľÇľÇľÇľÇľÇľÇľÇľÇľÇľÇľÇľÇľÇľÇľÇľÇľÇľÇľÇľÇľÇľÇľÇľÇľÇľÇľÇľÇľÇľÇľÇľÇľÇľÇľÇľÇľÇľÇľÇľÇľÇľÇľÇľÇľÇľÇľÇľÇľÇľÇľÇľÇľÇľÇľÇľÇľÇľÇľÇľÇľÇľÇľÇľÇľÇľÇľÇľÇľÇľÇľÇľÇľÇľÇľÇľÇľÇľÇľÇľÇľÇľÇľÇľÇľÇľÇľÇľÇľÇľÇľÇľÇľÇľÇľÇľÇľÇľÇľÇľÇľÇľÇľÇľÇľÇľÇľÇľÇľÇľÇľÇľÇľÇľÇľÇľÇľÇľÇľÇľÇľÇľÇľÇľÇľÇľÇľÇľÇľÇľÇľÇľÇľÇľÇľÇľÇľÇľÇľÇľÇľÇľÇľÇľÇľÇľÇľÇľÇľÇľÇľÇľÇľÇľÇľÇľÇľÇľÇľÇľÇľÇľÇľÇľÇľÇľÇľÇľÇľÇľÇľÇľÇľÇľÇľÇľÇľÇľÇľÇľÇľÇľÇľÇľÇľÇľÇľÇľÇľÇľÇľÇľÇľÇľÇľÇľÇľÇľÇľÇľÇľÇľÇľÇľÇľÇľÇľÇľÇľÇľÇľÇľÇľÇľÇľÇľÇľÇľÇľÇľÇľÇľÇľÇľÇľÇľÇľÇľÇľÇľÇľÇľÇľÇľÇľÇľÇľÇľÇľÇľÇľÇľÇľÇľÇľÇľÇľÇľÇľÇľÇľÇľÇľÇľÇľÇľÇľÇľÇľÇľÇľÇľÇľÇľÇľÇľÇľÇľÇľÇľÇľÇľÇľÇľÇľÇľÇľÇľÇľÇľÇľÇľÇľÇľÇľÇľÇľÇľÇľÇľÇľÇľÇľÇľÇľÇľÇľÇľÇľÇľÇľÇľÇľÇľÇľÇľÇľÇľÇľÇľÇľÇľÇľÇľÇľÇľÇľÇľÇľÇľÇľÇľÇľÇľÇľÇľÇľÇľÇľÇľÇľÇľÇľÇľÇľÇľÇľÇľÇľÇľÇľÇľÇľÇľÇľÇľÇľÇľÇľÇľÇľÇľÇľÇľÇľÇľÇľÇľÇľÇľÇľÇľÇľÇľÇľÇľÇľÇľÇľÇľÇľÇľÇľÇľÇľÇľÇľÇľÇľÇľÇľÇľÇľÇľÇľÇľÇľÇľÇľÇľÇľÇľÇľÇľÇľÇľÇľÇľÇľÇľÇľÇľÇľÇľÇľÇľÇľÇľÇľÇľÇľÇľÇľÇľÇľÇľÇľÇľÇľÇľÇľÇľÇľÇľÇľÇľÇľÇľÇľÇľÇľÇľÇľÇľÇľÇľÇľÇľÇľÇľÇľÇľÇľÇľÇľÇľÇľÇľÇľÇľÇľÇľÇľÇľÇľÇľÇľÇľÇľÇľÇľÇľÇľÇľÇľÇľÇľÇľÇľÇľÇľÇľÇľÇľÇľÇľÇľÇľÇľÇľÇľÇľÇľÇľÇľÇľÇľÇľÇľÇľÇľÇľÇľÇľÇľÇľÇľÇľÇľÇľÇľÇľÇľÇľÇľÇľÇľÇľÇľÇľÇľÇľÇľÇľÇľÇľÇľÇľÇľÇľÇľÇľÇľÇľÇľÇľÇľÇľÇľÇľÇľÇľÇľÇľÇľÇľÇľÇľÇľÇľÇľÇľÇľÇľÇľÇľÇľÇľÇľÇľÇľÇľÇľÇľÇľ": 1862,
      "È»": 1863,
      "ÆįÇľÇľÇľÇľÇľÇľÇľÇľÇľÇľÇľÇľÇľÇľÇľÇľÇľÇľÇľÇľÇľÇľÇľÇľÇľÇľÇľÇľÇľÇľÇľÇľÇľÇľÇľÇľÇľÇľÇľÇľÇľÇľÇľÇľÇľÇľÇľÇľÇľÇľÇľÇľÇľÇľÇľÇľÇľÇľÇľÇľÇľÇľÇľÇľÇľÇľÇľÇľÇľÇľÇľÇľÇľÇľÇľÇľÇľÇľÇľÇľÇľÇľÇľÇľÇľÇľÇľÇľÇľÇľÇľÇľÇľÇľÇľÇľÇľÇľÇľÇľÇľÇľÇľÇľÇľÇľÇľÇľÇľÇľÇľÇľÇľÇľÇľÇľÇľÇľÇľÇľÇľÇľÇľÇľÇľÇľÇľÇľÇľÇľÇľÇľÇľÇľÇľÇľÇľÇľÇľÇľÇľÇľÇľÇľÇľÇľÇľÇľÇľÇľÇľÇľÇľÇľÇľÇľÇľÇľÇľÇľÇľÇľÇľÇľÇľÇľÇľÇľÇľÇľÇľÇľÇľÇľÇľÇľÇľÇľÇľÇľÇľÇľÇľÇľÇľÇľÇľÇľÇľÇľÇľÇľÇľÇľÇľÇľÇľÇľÇľÇľÇľÇľÇľÇľÇľÇľÇľÇľÇľÇľÇľÇľÇľÇľÇľÇľÇľÇľÇľÇľÇľÇľÇľÇľÇľÇľÇľÇľÇľÇľÇľÇľÇľÇľÇľÇľÇľÇľÇľÇľÇľÇľÇľÇľÇľÇľÇľÇľÇľÇľÇľÇľÇľÇľÇľÇľÇľÇľÇľÇľÇľÇľÇľÇľÇľÇľÇľÇľÇľÇľÇľÇľÇľÇľÇľÇľÇľÇľÇľÇľÇľÇľÇľÇľÇľÇľÇľÇľÇľÇľÇľÇľÇľÇľÇľÇľÇľÇľÇľÇľÇľÇľÇľÇľÇľÇľÇľÇľÇľÇľÇľÇľÇľÇľÇľÇľÇľÇľÇľÇľÇľÇľÇľÇľÇľÇľÇľÇľÇľÇľÇľÇľÇľÇľÇľÇľÇľÇľÇľÇľÇľÇľÇľÇľÇľÇľÇľÇľÇľÇľÇľÇľÇľÇľÇľÇľÇľÇľÇľÇľÇľÇľÇľÇľÇľÇľÇľÇľÇľÇľÇľÇľÇľÇľÇľÇľÇľÇľÇľÇľÇľÇľÇľÇľÇľÇľÇľÇľÇľÇľÇľÇľÇľÇľÇľÇľÇľÇľÇľÇľÇľÇľÇľÇľÇľÇľÇľÇľÇľÇľÇľÇľÇľÇľÇľÇľÇľÇľÇľÇľÇľÇľÇľÇľÇľÇľÇľÇľÇľÇľÇľÇľÇľÇľÇľÇľÇľÇľÇľÇľÇľÇľÇľÇľÇľÇľÇľÇľÇľÇľÇľÇľÇľÇľÇľÇľÇľÇľÇľÇľÇľÇľÇľÇľÇľÇľÇľÇľÇľÇľÇľÇľÇľÇľÇľÇľÇľÇľÇľÇľÇľÇľÇľÇľÇľÇľÇľÇľÇľÇľÇľÇľÇľÇľÇľÇľÇľÇľÇľÇľÇľÇľÇľÇľÇľÇľÇľÇľÇľÇľÇľÇľÇľÇľÇľÇľÇľÇľÇľÇľÇľÇľÇľÇľÇľÇľÇľÇľÇľÇľÇľÇľÇľÇľÇľÇľÇľÇľÇľÇľÇľÇľÇľÇľÇľÇľÇľÇľÇľÇľÇľÇľÇľÇľÇľÇľÇľÇľÇľÇľÇľÇľÇľÇľÇľÇľÇľÇľÇľÇľÇľÇľÇľÇľÇľÇľÇľÇľÇľÇľÇľÇľÇľÇľÇľÇľÇľÇľÇľÇľÇľÇľÇľÇľÇľÇľÇľÇľÇľÇľÇľÇľÇľÇľÇľÇľÇľÇľÇľÇľÇľÇľÇľÇľÇľÇľÇľÇľÇľÇľÇľÇľÇľÇľÇľÇľÇľÇľÇľÇľÇľÇľÇľÇľÇľÇľÇľÇľÇľÇľÇľÇľÇľÇľÇľÇľÇľÇľÇľÇľÇľÇľÇľÇľÇľÇľÇľÇľÇľÇľÇľÇľÇľÇľÇľÇľÇľÇľÇľÇľÇľÇľÇľÇľÇľÇľÇľÇľÇľÇľÇľÇľÇľÇľÇľÇľÇľÇľÇľÇľÇľÇľÇľÇľÇľÇľÇľÇľÇľÇľÇľÇľÇľÇľÇľÇľÇľÇľÇľÇľÇľÇľÇľÇľÇľÇľÇľÇľÇľÇľÇľÇľÇľÇľÇľÇľÇľÇľÇľÇľÇľÇľÇľÇľÇľÇľÇľÇľÇľÇľÇľÇľÇľÇľÇľÇľÇľÇľÇľÇľÇľÇľÇľÇľÇľÇľÇľÇľÇľÇľÇľÇľÇľÇľÇľÇľÇľÇľÇľÇľÇľÇľÇľÇľÇľÇľÇľÇľÇľÇľÇľÇľÇľÇľÇľÇľÇľÇľÇľÇľÇľÇľÇľÇľÇľÇľÇľÇľÇľÇľÇľÇľÇľÇľÇľÇľÇľÇľÇľÇľÇľÇľÇľÇľÇľÇľÇľÇľÇľÇľÇľÇľÇľÇľÇľÇľÇľÇľÇľÇľÇľÇľÇľÇľÇľÇľÇľÇľÇľÇľÇľÇľÇľÇľÇľÇľÇľÇľÇľÇľÇľÇľÇľÇľÇľÇľÇľÇľÇľÇľÇľÇľÇľÇľÇľÇľÇľÇľÇľÇľÇľÇľÇľÇľÇľÇľÇľÇľÇľÇľÇľÇľÇľÇľÇľÇľÇľÇľÇľÇľÇľÇľÇľÇľÇľÇľÇľÇľÇľÇľÇľÇľÇľÇľÇľÇľÇľÇľÇľÇľÇľÇľÇľÇľÇľÇľÇľÇľÇľÇľÇľÇľÇľÇľÇľÇľÇľÇľÇľÇľÇľÇľÇľÇľÇľÇľÇľÇľÇľÇľÇľÇľÇľÇľÇľÇľÇľÇľÇľÇľÇľÇľÇľÇľÇľÇľÇľÇľÇľÇľÇľÇľÇľÇľÇľÇľÇľÇľÇľÇľÇľÇľÇľÇľÇľÇľÇľÇľÇľÇľÇľÇľÇľÇľÇľÇľÇľÇľÇľÇľÇľÇľÇľÇľÇľÇľÇľÇľÇľÇľÇľÇľÇľÇľ": 1864,
      "ÇľÇľÇľÇľÇľÇľÇľÇľÇľÇľÇľÇľÇľÇľÇľÇľÇľÇľÇľÇľÇľÇľÇľÇľÇ«": 1865,
      "ÇľÇĽÇľÇľÇľÇĽ": 1866,
      "ÆĺÆįÇľÇľÇľÇľÇľÇľÇľÇľÇľÇľÇľÇľÇľÇľÇľÇľÇľÇľÇľÇľÇľÇľ": 1867,
      "ÇľÇľÇľÇľÇľÇľÇľÇľÇľÇľÇľÇľÇľÇľÇľÇľÇľÇľÇľÇľÇľÇľÇľÇľÇĽÇĽÇľÇľÇľÇľÇľÇĽ": 1868,
      "ÆĽÃ¢Æ©Èİ": 1869,
      "ÉĲ": 1870,
      "ÇľÇľÇľÇľÇĽÇĽ": 1871,
      "ÇľÇľÇľÇľÇľÇľÇľÇľÇľÇľÇľÇľÇľÇľÇľÇľÇľÇľÇľÇľÇľÇľÇľÇľÇľÇľÇľÇľÇľÇľÇľÇľÇľÇľÇľÇľÇľÇľÇľÇľÇľÇľÇľÇľÇľÇľÇľÇľÇľÇľÇľÇľÇľÇľÇľÇľÇľÇľÇľÇľÇľÇľÇľÇľÇľÇľÇľÇľÇľÇľÇľÇľÇľÇľÇľÇľÇľÇľÇľÇľÇľÇľÇľÇľÇľÇľÇľÇľÇľÇľÇľÇľÇľÇľÇľÇľÇľÇľÇľÇľÇľÇľÇľÇľÇľÇľÇľÇľÇľÇľÇľÇľÇľÇľÇľÇľÇľÇľÇľÇľÇľÇľÇľÇľÇľÇľÇľÇľÇľÇľÇľÇľÇľÇľÇľÇľÇľÇľÇľÇľÇľÇľÇľÇľÇľÇľÇľÇľÇľÇľÇľÇľÇľÇľÇľÇľÇľÇľÇľÇľÇľÇľÇľÇľÇľÇľÇľÇľÇľÇľÇľÇľÇľÇľÇľÇľÇľÇľÇľÇľÇľÇľÇľÇľÇľÇľÇľÇľÇľÇľÇľÇľÇľÇľÇľÇľÇľÇľÇľÇľÇľÇľÇľÇľÇľÇľÇľÇľÇľÇľÇľÇľÇľÇľÇľÇľÇľÇľÇľÇľÇľÇľÇľÇľÇľÇľÇľÇľÇľÇľÇľÇľÇľÇľÇľÇľÇľÇľÇľÇľÇľÇľÇľÇľÇľÇľÇľÇľÇľÇľÇľÇľÇľÇľÇľÇľÇľÇľÇľÇľÇľÇľÇľÇľÇľÇľÇľÇľÇľÇľÇľÇľÇľÇľÇľÇľÇľÇľÇľÇľÇľÇľÇľÇľÇľÇľÇľÇľÇľÇľÇľÇľÇľÇľÇľÇľÇľÇľÇľÇľÇľÇľÇľÇľÇľÇľÇľÇľÇľÇľÇľÇľÇľÇľÇľÇľÇľÇľÇľÇľÇľÇľÇľÇľÇľÇľÇľÇľÇľÇľÇľÇľÇľÇľÇľÇľÇľÇľÇľÇľÇľÇľÇľÇľÇľÇľÇľÇľÇľÇľÇľÇľÇľÇľÇľÇľÇľÇľÇľÇľÇľÇľÇľÇľÇľÇľÇľÇľÇľÇľÇľÇľÇľÇľÇľÇľÇľÇľÇľÇľÇľÇľÇľÇľÇľÇľÇľÇľÇľÇľÇľÇľÇľÇľÇľÇľÇľÇľÇľÇľÇľÇľÇľÇľÇľÇľÇľÇľÇľÇľÇľÇľÇľÇľÇľÇľÇľÇľÇľÇľÇľÇľÇľÇľÇľÇľÇľÇľÇľÇľÇľÇľÇľÇľÇľÇľÇľÇľÇľÇľÇľÇľÇľÇľÇľÇľÇľÇľÇľÇľÇľÇľÇľÇľÇľÇľÇľÇľÇľÇľÇľÇľÇľÇľÇľÇľÇľÇľÇľÇľÇľÇľÇľÇľÇľÇľÇľÇľÇľÇľÇľÇľÇľÇľÇľÇľÇľÇľÇľÇľÇľÇľÇľÇľÇľÇľÇľÇľÇľÇľÇľÇľÇľÇľÇľÇľÇľÇľÇľÇľÇľÇľÇľÇľÇľÇľÇľÇľÇľÇľÇľÇľÇľÇľÇľÇľÇľÇľÇľÇľÇľÇľÇľÇľÇľÇľÇľÇľÇľÇľÇľÇľÇľÇľÇľÇľÇľÇľÇľÇľÇľÇľÇľÇľÇľÇľÇľÇľÇľÇľÇľÇľÇľÇľÇľÇľÇľÇľÇľÇľÇľÇľÇľÇľÇľÇľÇľÇľÇľÇľÇľÇľÇľÇľÇľÇľÇľÇľÇľÇľÇľÇľÇľÇľÇľÇľÇľÇľÇľÇľÇľÇľÇľÇľÇľÇľÇľÇľÇľÇľÇľÇľÇľÇľÇľÇľÇľÇľÇľÇľÇľÇľÇľÇľÇľÇľÇľÇľÇľÇľÇľÇľÇľÇľÇľÇľÇľÇľÇľÇľÇľÇľÇľÇľÇľÇľÇľÇľÇľÇľÇľÇľÇľÇľÇľÇľÇľÇľÇľÇľÇľÇľÇľÇľÇľÇľÇľÇľÇľ": 1872,
      "ÇĹÇŀ": 1873,
      "ÇľÇļÇĿÇĽ": 1874,
      "ÇŁÇ¢": 1875,
      "ÈŀÆħ": 1876,
      "Å¶": 1877,
      "ÇľÇľÇľÇľÇľÇľÇľÇľÇľÇľÇľÇľÇľÇľÇľÇľÇľÇľÇľÇľÇľÇľÇľÇľÇľÇľÇľÇľÇľÇľÇľÇľÇĽ": 1878,
      "ÇľÇľÇľÇľÇľÇľÇľÇľÇľÇľÇľÇľÇľÇľÇľÇľÇľÇľÇľÇľÇľÇľÇľÇľÇľÇľÇľÇľÇľÇľÇľÇľÇľÇľÇľÇľÇľÇľÇľÇľÇľÇľÇľÇľÇľÇľÇľÇľÇľÇľÇľÇľÇľÇľÇľÇľÇľÇľÇľÇľÇľÇľÇľÇľÇľÇľÇľÇľÇľÇľÇľÇľÇľÇľÇľÇľÇľÇľÇľÇľÇľÇľÇľÇľÇľÇľÇľÇľÇľÇľÇľÇľÇľÇľÇľÇľÇľÇľÇľÇľÇľÇľÇľÇľÇľÇľÇľÇľÇľÇľÇľÇľÇľÇľÇľÇľÇľÇľÇľÇľÇľÇľÇľÇľÇľÇľÇľÇľÇľÇľÇľÇľÇľÇľÇľÇľÇľÇľÇľÇľÇľÇľÇľÇľÇľÇľÇľÇľÇľÇľÇľÇľÇľÇľÇľÇľÇľÇľÇľÇľÇľÇľÇľÇľÇľÇľÇľÇľÇľÇľÇľÇľÇľÇľÇľÇľÇľÇľÇľÇľÇľÇľÇľÇľÇľÇľÇľÇľÇľÇľÇľÇľÇľÇľÇľÇľÇľÇľÇľÇľÇľÇľÇľÇľÇľÇľÇľÇľÇľÇľÇľÇľÇľÇľÇľÇľÇľÇľÇľÇľÇľÇľÇľÇľÇľÇľÇľÇľÇľÇľÇľÇľÇľÇľÇľÇľÇľÇľÇľÇľÇľÇľÇľÇľÇľÇľÇľÇľÇľÇľÇľÇľÇľÇľÇľÇľÇľÇľÇľÇľÇľÇľÇľÇľÇľÇľÇľÇľÇľÇľÇľÇľÇľÇľÇľÇľÇľÇľÇľÇľÇľÇľÇľÇľÇľÇľÇľÇľÇľÇľÇľÇľÇľÇľÇľÇľÇľÇľÇľÇľÇľÇľÇľÇľÇľÇľÇľÇľÇľÇľÇľÇľÇľÇľÇľÇľÇľÇľÇľÇľÇľÇľÇľÇľÇľÇľÇľÇľÇľÇľÇľÇľÇľÇľÇľÇľÇľÇľÇľÇľÇľÇľÇľÇľÇľÇľÇľÇľÇľÇľÇľÇľÇľÇľÇľÇľÇľÇľÇľÇľÇľÇľÇľÇľÇľÇľÇľÇľÇľÇľÇľÇľÇľÇľÇľÇľÇľÇľÇľÇľÇľÇľÇľÇľÇľÇľÇľÇľÇľÇľÇľÇľÇľÇľÇľÇľÇľÇľÇľÇľÇľÇľÇľÇľÇľÇľÇľÇľÇľÇľÇľÇľÇľÇľÇľÇľÇľÇľÇľÇľÇľÇľÇľÇľÇľÇľÇľÇľÇľÇľÇľÇľÇľÇľÇľÇľÇľÇľÇľÇľÇľÇľÇľÇľÇľÇľÇľÇľÇľÇľÇľÇľÇľÇľÇľÇľÇľÇľÇľÇľÇľÇľÇľÇľÇľÇľÇľÇľÇľÇľÇľÇľÇľÇľÇľÇľÇľÇľÇľÇľÇľÇľÇľÇľÇľÇľÇľÇľÇľÇľÇľÇľÇľÇľÇľÇľÇľÇľÇľÇľÇľÇľÇľÇľÇľÇľÇľÇľÇľÇľÇľÇľÇľÇľÇľÇľÇľÇľÇľÇľÇľÇľÇľÇľÇľÇľÇľÇľÇľÇľÇľÇľÇľÇľÇľÇľÇľÇľÇľÇľÇľÇľÇľÇľÇľÇľÇľÇľÇľÇľÇľÇľÇľÇľÇľÇľÇľÇľÇľÇľÇľÇľÇľÇľÇľÇľÇľÇľÇľÇľÇľÇľÇľÇľÇľÇľÇľÇľÇľÇľÇľÇľÇľÇľÇľÇľÇľÇľÇľÇľÇľÇľÇľÇľÇľÇľÇľÇľÇľÇľÇľÇľÇľÇľÇľÇľÇľÇľÇľÇľÇľÇľÇľÇľÇľÇľÇľÇľÇľÇľÇľÇľÇľÇľÇľÇľÇľÇľÇľÇľÇľÇľÇľÇľÇľÇľÇľÇľÇľÇľÇľÇľÇľÇľÇľÇľÇľÇľÇľÇľÇľÇľÇľÇľÇľÇľÇľÇľÇľÇľÇľÇľÇľÇľÇľÇľÇľÇľÇľÇľÇľÇľÇľÇľÇľÇľÇľÇľÇľÇľÇľÇľÇľÇľÇľÇľÇľÇľÇľÇľÇľÇľÇľÇľÇľÇľÇľÇľÇľÇľÇľÇľÇľÇľÇľÇľÇľÇľÇľÇľÇľÇľÇľÇľÇľÇľÇľÇľÇľÇľÇľÇľÇľÇľÇľÇľÇľÇľÇľÇľÇľÇľÇľ": 1879,
      "ÇľÇľÇľÇľÇľÇľÇĿÇľÇľÇľÇľÇľÇľÇľÇľÇľÇľÇľÇľÇľÇľÇľÇľÇľÇľÇľÇľÇľÇľÇľÇľÇľÇľÇľÇľÇľÇľÇľÇľÇľÇľÇľÇľÇľÇľÇľÇľÇľÇľÇľÇľÇľÇľÇľÇľÇľÇľÇľÇľÇľÇľÇľÇľÇľÇľÇľÇľÇľÇľÇľÇľÇľÇľÇľÇľÇľÇľÇľÇľÇľÇľÇľÇľÇľÇľÇľÇľÇľÇľÇľÇľÇľÇľÇľÇľÇľÇľÇľÇľÇľÇľÇľÇľÇľÇľÇľÇľÇľÇľÇľÇľÇľÇľÇľÇľÇľÇľÇľÇľÇľÇľÇľÇľÇľÇľÇľÇľÇľÇľÇľÇľÇľÇľÇľÇľÇľÇľÇľÇľÇľÇľÇľÇľÇľÇľÇľÇľÇľÇľÇľÇľÇľÇľÇľÇľÇľÇľÇľÇľÇľÇľÇľÇľÇľÇľÇľÇľÇľÇľÇľÇľÇľÇľÇľÇľÇľÇľÇľÇľÇľÇľÇľÇľÇľÇľÇľÇľÇľÇľÇľÇľÇľÇľÇľÇľÇľÇľÇľÇľÇľÇľÇľÇľÇľÇľÇľÇľÇľÇľÇľÇľÇľÇľÇľÇľÇľÇľÇľÇľÇľÇľÇľÇľÇľÇľÇľÇľÇľÇľÇľÇľÇľÇľÇľÇľÇľÇľÇľÇľÇľÇľÇľÇľÇľÇľÇľÇľÇľÇľÇľÇľÇľÇľÇľÇľÇľÇľÇľÇľÇľÇľÇľÇľÇľÇľÇľÇľÇľÇľÇľÇľÇľÇľÇľÇľÇľÇľÇľÇľÇľÇľÇľÇľÇľÇľÇľÇľÇľÇľÇľÇľÇľÇľÇľÇľÇľÇľÇľÇľÇľÇľÇľÇľÇľÇľÇľÇľÇľÇľÇľÇľÇľÇľÇľÇľÇľÇľÇľÇľÇľÇľÇľÇľÇľÇľÇľÇľÇľÇľÇľÇľÇľÇľÇľÇľÇľÇľÇľÇľÇľÇľÇľÇľÇľÇľÇľÇľÇľÇľÇľÇľÇľÇľÇľÇľÇľÇľÇľÇľÇľÇľÇľÇľÇľÇľÇľÇľÇľÇľÇľÇľÇľÇľÇľÇľÇľÇľÇľÇľÇľÇľÇľÇľÇľÇľÇľÇľÇľÇľÇľÇľÇľÇľÇľÇľÇľÇľÇľÇľÇľÇľÇľÇľÇľÇľÇľÇľÇľÇľÇľÇľÇľÇľÇľÇľÇľÇľÇľÇľÇľÇľÇľÇľÇľÇľÇľÇľÇľÇľÇľÇľÇľÇľÇľÇľÇľÇľÇľÇľÇľÇľÇľÇľÇľÇľÇľÇľÇľÇľÇľÇľÇľÇľÇľÇľÇľÇľÇľÇľÇľÇľÇľÇľÇľÇľÇľÇľÇľÇľÇľÇľÇľÇľÇľÇľÇľÇľÇľÇľÇľÇľÇľÇľÇľÇľÇľÇľÇľÇľÇľÇľÇľÇľÇľÇľÇľÇľÇľÇľÇľÇľÇľÇľÇľÇľÇľÇľÇľÇľÇľÇľÇľÇľÇľÇľÇľÇľÇľÇľÇľÇľÇľÇľÇľÇľÇľÇľÇľÇľÇľÇľÇľÇľÇľÇľÇľÇľÇľÇľÇľÇľÇľÇľÇľÇľÇľÇľÇľÇľÇľÇľÇľÇľÇľÇľÇľÇľÇľÇľÇľÇľÇľÇľÇľÇľÇľÇľÇľÇľÇľÇľÇľÇľÇľÇľÇľÇľÇľÇľÇľÇľÇľÇľÇľÇľÇľÇľÇľÇľÇľÇľÇľÇľÇľÇľÇľÇľÇľÇľÇľÇľÇľÇľÇľÇľÇľÇľÇľÇľÇľÇľÇľÇľÇľÇľÇľÇľÇľÇľÇľÇľÇľÇľÇľÇľÇľÇľ": 1880,
      "ÆĶÆį": 1881,
      "Éĩ": 1882,
      "ÇľÇļÇĽÇĿ": 1883,
      "ÆĽÃ¢Æ©ÈİÇĦ": 1884,
      "ÇĿÇĺ": 1885,
      "ÇĶÇ¥": 1886,
      "Ç¥ÇķÇŀÈĳÇĿÆ©ÈĦÇĨÈĴÈĩÇľÇľÇľÇľÇľÇľÇľÇľÇľÇľÇľÇľÇĿÇĽ": 1887,
      "ÇľÇľÇľÇľÇľÇľÇľÇľÇľÇľÇľÇľÇľÇľÇľÇľÇľÇľÇľÇľÇľÇľÇľÇ¥": 1888,
      "ÈĲÇŀ": 1889,
      "ÇľÇľÇľÇľÇľÇľÇľÇľÇľÇľÇľÇľÇľÇĽÇĽ": 1890,
      "ÇĶÇĽ": 1891,
      "ÆĺÆįÇľÇľÇľÇľÇľÇľÇľÇľÇľÇľÇľÇľ": 1892,
      "ÇľÇľÇľÇľÇľÇľÇľÇľÇľÇľÇľÇľÇľÇľÇľÇľÇľÇľÇľÇľÇľÇľÇľÇľÇľÇľÇľÇľÇľÇľÇľÇĶ": 1893,
      "ÇľÇ®": 1894,
      "ÇľÇľÇľÇľÇľÇľÇľÇľÇľÇľÇľÇľÇľÇľÇľÇľÇľÇľÇľÇľÇľÇľÇĸ": 1895,
      "Ç¥ÇķÇŀÈĳÇĿÆ©ÈĦÇĨÈĴÈĩÇľÇľÇľÇľÇľÇľÇľÇľÇľÇľÇľÇľÇľÇĽ": 1896,
      "ÇľÇľÇľÇľÇľÇľÇľÇľÇľÇľÇľÇľÇľÇľÇľÇľÇľÇľÇľÇľÇľÇľÇĿÇľÆ": 1897,
      "ÇľÇľÇľÇľÇľÇľÇŀÇľÇľÇľÇľÇľÇľÇľÇľÇľÇľÇľÇľÇľÇľÇľÇľÇľÇľÇľÇľÇľÇľÇľÇľÇļ": 1898,
      "ÇľÇľÇľÇľÇľÇľÇľÇľÇľÇľÇľÇľÇľÇľÇľÇľÇľÇľÇľÇľÇľÇľÇľÇľÇľÇľÇľÇľÇľÇľÇľÇŀÇľÇľÇľÇľÇľÇľÇľÇľÇľÇľÇľÇľÇľÇľÇľÇľÇľÇľÇľÇľÇľÇľÇľÇľÇľÇľÇľÇľÇľÇľÇľÇĽ": 1899,
      "ÉĢ": 1900,
      "Å·": 1901,
      "ÈİÇ¢": 1902,
      "ÇľÇľÇľÇľÇľÇľÇľÇľÇľÇľÇľÇľÇľÇľÇľÇľÇľÇľÇľÇľÇľÇľÇľÇľÇľÇľÇľÇľÇľÇľÇľÇĽÇľÇľÇľÇľÇľÇľÇľÇľÇľÇľÇľÇľÇľÇľÇľÇľÇľÇľÇľÇľÇľÇľÇľÇľÇľÇľÇľÇľÇľÇľÇľÇľÇľÇľÇľÇľÇľÇľÇľÇľÇľÇľÇľÇľÇľÇľÇľÇľÇľÇľÇľÇľÇľÇľÇľÇľÇľÇľÇľÇľÇľÇľÇľÇľÇľÇľÇľÇľÇľÇľÇľÇľÇľÇľÇľÇľÇľÇľÇľÇľÇľÇľÇľÇľÇľÇľÇľÇľÇľÇľÇľÇľÇľÇľÇľÇľÇľÇľÇľÇľÇľÇľÇľÇľÇľÇľÇľÇľÇľÇľÇľÇľÇľÇľÇľÇľÇľÇľÇľÇľÇľÇľÇľÇľÇľÇľÇľÇľÇľÇľÇľÇľÇľÇľÇľÇľÇľÇľÇľÇľÇľÇľÇľÇľÇľÇľÇľÇľÇľÇľÇľÇľÇľÇľÇľÇľÇľÇľÇľÇľÇľÇľÇľÇľÇľÇľÇľÇľÇľÇľÇľÇľÇľÇľÇľÇľÇľÇľÇľÇľÇľÇľÇľÇľÇľÇľÇľÇľÇľÇľÇľÇľÇľÇľÇľÇľÇľÇľÇľÇľÇľÇľÇľÇľÇľÇľÇľÇľÇľÇľÇľÇľÇľÇľÇľÇľÇľÇľÇľÇľÇľÇľÇľÇľÇľÇľÇľÇľÇľÇľÇľÇľÇľÇľÇľÇľÇľÇľÇľÇľÇľÇľÇľÇľÇľÇľÇľÇľÇľÇľÇľÇľÇľÇľÇľÇľÇľÇľÇľÇľÇľÇľÇľÇľÇľÇľÇľÇľÇľÇľÇľÇľÇľÇľÇľÇľÇľÇľÇľÇľÇľÇľÇľÇľÇľÇľÇľÇľÇľÇľÇľÇľÇľÇľÇľÇľÇľÇľÇľÇľÇľÇľÇľÇľÇľÇľÇľÇľÇľÇľÇľÇľÇľÇľÇľÇľÇľÇľÇľÇľÇľÇľÇľÇľÇľÇľÇľÇľÇľÇľÇľÇľÇľÇľÇľÇľÇľÇľÇľÇľÇľÇľÇľÇľÇľÇľÇľÇľÇľÇľÇľÇľÇľÇľÇľÇľÇľÇľÇľÇľÇľÇľÇľÇľÇľÇľÇľÇľÇľÇľÇľÇľÇľÇľÇľÇľÇľÇľÇľÇľÇľÇľÇľÇľÇľÇľÇľÇľÇľÇľÇľÇľÇľÇľÇľÇľÇľÇľÇľÇľÇľÇľÇľÇľÇľÇľÇľÇľÇľÇľÇľÇľÇľÇľÇľÇľÇľÇľÇľÇľÇľÇľÇľÇľÇľÇľÇľÇľÇľÇľÇľÇľÇľÇľÇľÇľÇľÇľÇľÇľÇľÇľÇľÇľÇľÇľÇľÇľÇľÇľÇľÇľÇľÇľÇľÇľÇľÇľÇľÇľÇľÇľÇľÇľÇľÇľÇľÇľÇľÇľÇľÇľÇľÇľÇľÇľÇľÇľÇľÇľÇľÇľÇľÇľÇľÇľÇľÇľÇľÇľÇľÇľÇľÇľÇľÇľÇľÇľÇľÇľÇľÇľÇľÇľÇľÇľÇľÇľÇľÇľÇľÇľÇľÇľÇľÇľÇľÇľÇľÇľÇľÇľÇľÇľÇľÇľÇľÇľÇľÇľÇľÇľÇľÇľÇľÇľÇľÇľÇľÇľÇľÇľÇľÇľÇľÇľÇľÇľÇľÇľÇľÇľÇľÇľÇľÇľÇľÇľÇľÇľÇľÇľÇľÇľÇľÇľÇľÇľÇľÇľÇľÇľÇľÇľÇľÇľÇľÇľÇľÇľÇľÇľÇľÇľÇľÇľÇľÇľÇľÇľÇľÇľÇľÇľÇľÇľÇľÇľÇľÇľÇľÇľÇľÇľÇľÇľÇľÇľÇľÇľÇľÇľÇľÇľÇľÇľÇľÇľÇľÇľÇľÇľÇľÇľÇľÇľÇľÇľÇľÇľÇľÇľÇľÇľÇľÇľÇľÇľÇľÇľÇľÇľÇľÇľÇľÇľÇľÇľÇľÇľÇľÇľÇľÇľÇľÇľÇľÇľÇľÇľÇľÇľÇľÇľÇľÇľÇľÇľÇľÇľÇľÇľÇľÇľÇľÇľÇľÇľÇľÇľÇľÇľÇľÇľÇľÇľÇľÇľÇľÇľÇľ": 1903,
      "ÇĻÇ£": 1904,
      "Ç¥ÇķÇŀÈĳÇĿÆ©ÈĦÇĨÈĴÈĩÇľÇľÇľÇľÇľÇľÇľÇľÇľÇľÇľÇľÇľÇľÇ": 1905,
      "È¼": 1906,
      "ÇĹÇł": 1907,
      "ÇĽÇĿÇĿÇĿ": 1908,
      "ÇľÇľÇľÇľÇľÇľÇľÇľÇľÇľÇľÇľÇľÇľÇľÇľÇľÇľÇľÇľÇľÇľÇľÇľÇľÇľÇľÇľÇľÇľÇľÇľÇľÇľÇľÇľÇľÇľÇĽ": 1909,
      "ÇľÇľÇľÇľÇľÇľÇľÇľÇľÇľÇľÇľÇľÇľÇľÇľÇľÇľÇľÇľÇľÇľÇľÇľÇľÇľÇľÇľÇľÇľÇľÇĿÇľÇľÇľÇľÇľÇľÇľÇľÇľÇľÇľÇľÇľÇľÇľÇľÇľÇľÇľÇľÇľÇľÇľÇľÇľÇľÇľÇľÇľÇľÇľÇľÇľÇľÇľÇľÇľÇľÇľÇľÇľÇľÇľÇľÇľÇľÇľÇľÇľÇľÇľÇľÇľÇľÇľÇľÇľÇľÇľÇľÇľÇľÇľÇľÇľÇľÇľÇľÇľÇľÇľÇľÇľÇľÇľÇľÇľÇľÇľÇľÇľÇľÇľÇľÇľÇľÇľÇľÇľÇľÇľÇľÇľÇľÇľÇľÇľÇľÇľÇľÇľÇľÇľÇľÇľÇľÇľÇľÇľÇľÇľÇľÇľÇľÇľÇľÇľÇľÇľÇľÇľÇľÇľÇľÇľÇľÇľÇľÇľÇľÇľÇľÇľÇľÇľÇľÇľÇľÇľÇľÇľÇľÇľÇľÇľÇľÇľÇľÇľÇľÇľÇľÇľÇľÇľÇľÇľÇľÇľÇľÇľÇľÇľÇľÇľÇľÇľÇľÇľÇľÇľÇľÇľÇľÇľÇľÇľÇľÇľÇľÇľÇľÇľÇľÇľÇľÇľÇľÇľÇľÇľÇľÇľÇľÇľÇľÇľÇľÇľÇľÇľÇľÇľÇľÇľÇľÇľÇľÇľÇľÇľÇľÇľÇľÇľÇľÇľÇľÇľÇľÇľÇľÇľÇľÇľÇľÇľÇľÇľÇľÇľÇľÇľÇľÇľÇľÇľÇľÇľÇľÇľÇľÇľÇľÇľÇľÇľÇľÇľÇľÇľÇľÇľÇľÇľÇľÇľÇľÇľÇľÇľÇľÇľÇľÇľÇľÇľÇľÇľÇľÇľÇľÇľÇľÇľÇľÇľÇľÇľÇľÇľÇľÇľÇľÇľÇľÇľÇľÇľÇľÇľÇľÇľÇľÇľÇľÇľÇľÇľÇľÇľÇľÇľÇľÇľÇľÇľÇľÇľÇľÇľÇľÇľÇľÇľÇľÇľÇľÇľÇľÇľÇľÇľÇľÇľÇľÇľÇľÇľÇľÇľÇľÇľÇľÇľÇľÇľÇľÇľÇľÇľÇľÇľÇľÇľÇľÇľÇľÇľÇľÇľÇľÇľÇľÇľÇľÇľÇľÇľÇľÇľÇľÇľÇľÇľÇľÇľÇľÇľÇľÇľÇľÇľÇľÇľÇľÇľÇľÇľÇľÇľÇľÇľÇľÇľÇľÇľÇľÇľÇľÇľÇľÇľÇľÇľÇľÇľÇľÇľÇľÇľÇľÇľÇľÇľÇľÇľÇľÇľÇľÇľÇľÇľÇľÇľÇľÇľÇľÇľÇľÇľÇľÇľÇľÇľÇľÇľÇľÇľÇľÇľÇľÇľÇľÇľÇľÇľÇľÇľÇľÇľÇľÇľÇľÇľÇľÇľÇľÇľÇľÇľÇľÇľÇľÇľÇľÇľÇľÇľÇľÇľÇľÇľÇľÇľÇľÇľÇľÇľÇľÇľÇľÇľÇľÇľÇľÇľÇľÇľÇľÇľÇľÇľÇľÇľÇľÇľÇľÇľÇľÇľÇľÇľÇľÇľÇľÇľÇľÇľÇľÇľÇľÇľÇľÇľÇľÇľÇľÇľÇľÇľÇľÇľÇľÇľÇľÇľÇľÇľÇľÇľÇľÇľÇľÇľÇľÇľÇľÇľÇľÇľÇľÇľÇľÇľÇľÇľÇľÇľÇľÇľÇľÇľÇľÇľÇľÇľÇľÇľÇľÇľÇľÇľÇľÇľÇľÇľÇľÇľÇľÇľÇľÇľÇľÇľÇľÇľÇľÇľÇľÇľÇľÇľÇľÇľÇľÇľÇľÇľÇľÇľÇľÇľÇľÇľÇľÇľÇľÇľÇľÇľÇľÇľÇľÇľÇľÇľÇľÇľÇľÇľÇľÇľÇľÇľÇľÇľÇľÇľÇľÇľÇľÇľÇľÇľÇľÇľÇľÇľÇľÇľÇľÇľÇľÇľÇľÇľÇľÇľÇľÇľÇľÇľÇľÇľÇľÇľÇľÇľÇľÇľÇľÇľÇľÇľÇľÇľÇľÇľÇľÇľÇľÇľÇľÇľÇľÇľÇľÇľÇľÇľÇľÇľÇľÇľÇľÇľÇľÇľÇľÇľÇľÇľÇľÇľÇľÇľÇľÇľÇľÇľÇľÇľÇľ": 1910,
      "ÈĲÇĿ": 1911,
      "ÇĹÇ£": 1912,
      "µÆķ": 1913,
      "ÇĹÇĹÇľÈİÇ£Æ©ÈĦÇµÈĴÈĩÇ¤ÇĶ": 1914,
      "ÇŀÇľÇĿ": 1915,
      "ÇľÇľÇľÇľÇľÇľÇľÇľÇľÇľÇľÇľÇľÇľÇł": 1916,
      "Å¸": 1917,
      "ÇľÇľÇľÇľÇľÇľÇľÇľÇľÇľÇľÇľÇľÇľÇľÇľÇľÇľÇľÇľÇľÇľÇľÇľÇľÇľÇľÇľÇľÇľÇľÇľÇľÇľÇľÇľÇľÇľÇľÇľÇľÇľÇľÇľÇľÇľÇľÇľÇľÇľÇľÇľÇľÇľÇľÇľÇĽ": 1918,
      "ÇľÇľÇľÇľÇľÇľÇļÇľÇľÇľÇľÇľÇľÇľÇľÇľÇľÇľÇľÇľÇľÇľÇľÇľÇľÇľÇľÇľÇľÇľÇľÇļ": 1919,
      "ÇļÇ£": 1920,
      "ÇľÇľÇľÇľÇľÇľÇľÇľÇľÇľÇľÇľÇľÇľÇľÇľÇľÇľÇľÇľÇľÇŁ": 1921,
      "ÉĨ": 1922,
      "ÇŀÇľÇĽ": 1923,
      "ÇľÇľÇľÇľÇľÇľÇľÇľÇľÇľÇľÇľÇľÇľÇľÇľÇľÇĽ": 1924,
      "ÇľÇľÇĽÇĿÇĿ": 1925,
      "ÇľÇľÇľÇľÇľÇľÇľÇľÇľÇľÇľÇľÇľÇľÇľÇľÇľÇľÇľÇľÇľÇľÇľÇľÇ¬": 1926,
      "ÇľÇľÇľÇľÇľÇľÇľÇľÇľÇľÇľÇľÇľÇľÇľÇľÇľÇľÇľÇľÇľÇľÇľÇľÇľÇľÇľÇľÇľÇľÇŀ": 1927,
      "ÇľÇľÇľÇľÇľÇľÇľÇľÇľÇľÇľÇľÇľÇľÇľÇľÇľÇľÇľÇľÇľÇľÇľÇĵ": 1928,
      "ÇľÇľÇľÇľÇľÇľÇľÇľÇľÇľÇľÇľÇľÇľÇľÇľÇľÇľÇľÇľÇľÇľÇľÇľÇľÇľÇľÇľÇľÇŁ": 1929,
      "ÇľÇĬ": 1930,
      "ÇķÇĺ": 1931,
      "ÇľÇľÇľÇľÇľÇľÇĻÇľÇľÇľÇľÇľÇľÇľÇľÇľÇľÇľÇľÇľÇľÇľÇľÇľÇľÇľÇľÇľÇľÇľÇľÇĽ": 1932,
      "ÇľÇľÇľÇľÇľÇľÇľÇŁ": 1933,
      "ÇĳÇĿ": 1934,
      "ÇĹÇŁ": 1935,
      "Ç¢ÈĲ": 1936,
      "ÆªÈĥÇ": 1937,
      "ÉĬ": 1938,
      "ÇľÇľÇľÇĺ": 1939,
      "ÇľÇĽÇľÇľÇľÇľÇľÇľÇľÇľÇľÇľÇľÇľÇľÇľÇľÇľÇľÇľÇľÇľÇľÇľÇľÇľÇľÇľÇľÇľÇľÇĽ": 1940,
      "Ç¤ÇĽ": 1941,
      "ÇľÇľÇľÇľÇľÇľÇľÇľÇľÇľÇľÇľÇľÇľÇľÇľÇľÇľÇľÇľÇľÇľÇľÇľÇľÇľÇľÇľÇľÇľÇľÇľÇľÇľÇľÇľÇľÇľÇľÇľÇľÇľÇľÇľÇľÇľÇľÇľÇľÇľÇľÇľÇľÇľÇľÇľÇľÇľÇľÇľÇľÇľÇľÇľÇľÇľÇľÇľÇľÇľÇľÇľÇľÇľÇľÇľÇľÇľÇľÇľÇľÇľÇľÇľÇľÇľÇľÇľÇľÇľÇľÇľÇľÇľÇľÇľÇľÇľÇľÇľÇľÇľÇľÇľÇľÇľÇľÇľÇľÇľÇľÇľÇľÇľÇľÇľÇľÇľÇľÇľÇľÇľÇľÇľÇľÇľÇľÇľÇľÇľÇľÇľÇľÇľÇľÇľÇľÇľÇľÇľÇľÇľÇľÇľÇľÇľÇľÇľÇľÇľÇľÇľÇľÇľÇľÇľÇľÇľÇľÇľÇľÇľÇľÇľÇľÇľÇľÇľÇľÇľÇľÇľÇľÇľÇľÇľÇľÇľÇľÇľÇľÇľÇľÇľÇľÇľÇľÇľÇľÇľÇľÇľÇľÇľÇľÇľÇľÇľÇľÇľÇľÇľÇľÇľÇľÇľÇľÇľÇľÇľÇľÇľÇľÇľÇľÇľÇľÇľÇľÇľÇľÇľÇľÇľÇľÇľÇľÇľÇľÇľÇľÇľÇľÇľÇľÇľÇľÇľÇľÇľÇľÇľÇľÇľÇľÇľÇľÇľÇľÇľÇľÇľÇľÇľÇľÇľÇľÇľÇľÇľÇľÇľÇľÇľÇľÇľÇľÇľÇľÇľÇľÇľÇľÇľÇľÇľÇľÇľÇľÇľÇľÇľÇľÇľÇľÇľÇľÇľÇľÇľÇľÇľÇľÇľÇľÇľÇľÇľÇľÇľÇľÇľÇľÇľÇľÇľÇľÇľÇľÇľÇľÇľÇľÇľÇľÇľÇľÇľÇľÇľÇľÇľÇľÇľÇľÇľÇľÇľÇľÇľÇľÇľÇľÇľÇľÇľÇľÇľÇľÇľÇľÇľÇľÇľÇľÇľÇľÇľÇľÇľÇľÇľÇľÇľÇľÇľÇľÇľÇľÇľÇľÇľÇľÇľÇľÇľÇľÇľÇľÇľÇľÇľÇľÇľÇľÇľÇľÇľÇľÇľÇľÇľÇľÇľÇľÇľÇľÇľÇľÇľÇľÇľÇľÇľÇľÇľÇľÇľÇľÇľÇľÇľÇľÇľÇľÇľÇľÇľÇľÇľÇľÇľÇľÇľÇľÇľÇľÇľÇľÇľÇľÇľÇľÇľÇľÇľÇľÇľÇľÇľÇľÇľÇľÇľÇľÇľÇľÇľÇľÇľÇľÇľÇľÇľÇľÇľÇľÇľÇľÇľÇľÇľÇľÇľÇľÇľÇľÇľÇľÇľÇľÇľÇľÇľÇľÇľÇľÇľÇľÇľÇľÇľÇľÇľÇľÇľÇľÇľÇľÇľÇľÇľÇľÇľÇľÇľÇľÇľÇľÇľÇľÇľÇľÇľÇľÇľÇľÇľÇľÇľÇľÇľÇľÇľÇľÇľÇľÇľÇľÇľÇľÇľÇľÇľÇľÇľÇľÇľÇľÇľÇľÇľÇľÇľÇľÇľÇľÇľÇľÇľÇľÇľÇľÇľÇľÇľÇľÇľÇľÇľÇľÇľÇľÇľÇľÇľÇľÇľÇľÇľÇľÇľÇľÇľÇľÇľÇľÇľÇľÇľÇľÇľÇľÇľÇľÇľÇľÇľÇľÇľÇľÇľÇľÇľÇľÇľÇľÇľÇľÇľÇľÇľÇľÇľÇľÇľÇľÇľÇľÇľÇľÇľÇľÇľÇľÇľÇľÇľÇľÇľÇľÇľÇľÇľÇľÇľÇľÇľÇľÇľÇľÇľÇľÇľÇľÇľÇľÇľÇľÇľÇľÇľÇľÇľÇľÇľÇľÇľÇľÇľÇľÇľÇľÇľÇľÇľÇľÇľÇľÇľÇľÇľÇľÇľÇľÇľÇľÇľÇľÇľÇľÇľÇľÇľÇľÇľÇľÇľÇľÇľÇľÇľÇľÇľÇľÇľÇľÇľÇľÇľÇľÇľÇľÇľÇľÇľÇľÇľÇľÇľÇľÇľÇľÇľÇľÇľÇľÇľÇľÇľÇľÇľÇľÇľÇľÇľÇľÇľÇľÇľÇľÇľÇľÇľÇľÇľÇľÇľÇľÇľÇľÇľÇľÇľÇľÇľÇľÇľÇľÇľÇľÇľÇľÇľÇľÇľÇľÇľÇľÇľÇľÇľÇľÇľÇľÇľÇľÇľÇľÇľÇľÇľÇľÇľÇľÇľÇľÇľÇľÇľÇľÇľÇľÇľÇľÇľÇľÇľÇľÇľÇľÇľÇľÇľÇľÇľÇľÇľÇľÇľÇľÇľÇľÇľÇľÇľÇľÇľÇľÇľÇľÇľÇľÇľÇľÇľÇľÇľÇľÇľ": 1942,
      "ÇľÇľÇľÇľÇľÇľÇŁÇľÇľÇľÇľÇľÇľÇľÇľÇľÇľÇľÇľÇľÇľÇľÇľÇľÇľÇľÇľÇľÇľÇľÇľÇĽ": 1943,
      "ÇľÇľÇľÇľÇľÇľÇľÇľÇľÇľÇľÇľÇľÇľÇľÇľÇľÇľÇľÇľÇľÇľÇľÇľÇľÇľÇľÇľÇľÇľÇľÇľÇľÇľÇľÇľÇľÇľÇľÇľÇľÇľÇľÇľÇľÇľÇľÇľÇľÇľÇľÇľÇľÇľÇľÇľÇľÇľÇľÇľÇľÇľÇľÇľÇľÇľÇľÇľÇľÇľÇľÇľÇľÇľÇľÇľÇľÇľÇľÇľÇľÇľÇľÇľÇľÇľÇľÇľÇľÇľÇľÇľÇľÇľÇľÇľÇľÇľÇľÇľÇľÇľÇľÇľÇľÇľÇľÇľÇľÇľÇľÇľÇľÇľÇľÇľÇľÇľÇľÇľÇľÇľÇľÇľÇľÇľÇľÇľÇľÇľÇľÇľÇľÇľÇľÇľÇľÇľÇľÇľÇľÇľÇľÇľÇľÇľÇľÇľÇľÇľÇľÇľÇľÇľÇľÇľÇľÇľÇľÇľÇľÇľÇľÇľÇľÇľÇľÇľÇľÇľÇľÇľÇľÇľÇľÇľÇľÇľÇľÇľÇľÇľÇľÇľÇľÇľÇľÇľÇľÇľÇľÇľÇľÇľÇľÇľÇľÇľÇľÇľÇľÇľÇľÇľÇľÇľÇľÇľÇľÇľÇľÇľÇľÇľÇľÇľÇľÇľÇľÇľÇľÇľÇľÇľÇľÇľÇľÇľÇľÇľÇľÇľÇľÇľÇľÇľÇľÇľÇľÇľÇľÇľÇľÇľÇľÇľÇľÇľÇľÇľÇľÇľÇľÇľÇľÇľÇľÇľÇľÇľÇľÇľÇľÇľÇľÇľÇľÇľÇľÇľÇľÇľÇľÇľÇľÇľÇľÇľÇľÇľÇľÇľÇľÇľÇľÇľÇľÇľÇľÇľÇľÇľÇľÇľÇľÇľÇľÇľÇľÇľÇľÇľÇľÇľÇľÇľÇľÇľÇľÇľÇľÇľÇľÇľÇľÇľÇľÇľÇľÇľÇľÇľÇľÇľÇľÇľÇľÇľÇľÇľÇľÇľÇľÇľÇľÇľÇľÇľÇľÇľÇľÇľÇľÇľÇľÇľÇľÇľÇľÇľÇľÇľÇľÇľÇľÇľÇľÇľÇľÇľÇľÇľÇľÇľÇľÇľÇľÇľÇľÇľÇľÇľÇľÇľÇľÇľÇľÇľÇľÇľÇľÇľÇľÇľÇľÇľÇľÇľÇľÇľÇľÇľÇľÇľÇľÇľÇľÇľÇľÇľÇľÇľÇľÇľÇľÇľÇľÇľÇľÇľÇľÇľÇľÇľÇľÇľÇľÇľÇľÇľÇľÇľÇľÇľÇľÇľÇľÇľÇľÇľÇľÇľÇľÇľÇľÇľÇľÇľÇľÇľÇľÇľÇľÇľÇľÇľÇľÇľÇľÇľÇľÇľÇľÇľÇľÇľÇľÇľÇľÇľÇľÇľÇľÇľÇľÇľÇľÇľÇľÇľÇľÇľÇľÇľÇľÇľÇľÇľÇľÇľÇľÇľÇľÇľÇľÇľÇľÇľÇľÇľÇľÇľÇľÇľÇľÇľÇľÇľÇľÇľÇľÇľÇľÇľÇľÇľÇľÇľÇľÇľÇľÇľÇľÇľÇľÇľÇľÇľÇľÇľÇľÇľÇľÇľÇľÇľÇľÇľÇľÇľÇľÇľÇľÇľÇľÇľÇľÇľÇľÇľÇľÇľÇľÇľÇľÇľÇľÇľÇľÇľÇľÇľÇľÇľÇľÇľÇľÇľÇľÇľÇľÇľÇľÇľÇľÇľÇľÇľÇľÇľÇľÇľÇľÇľÇľÇľÇľÇľÇľÇľÇľÇľÇľÇľÇľÇľÇľÇľÇľÇľÇľÇľÇľÇľÇľÇľÇľÇľÇľÇľÇľÇľÇľÇľÇľÇľÇľÇľÇľÇľÇľÇľÇľÇľÇľÇľÇľÇľÇľÇľÇľÇľÇľÇľÇľÇľÇľÇľÇľÇľÇľÇľÇľÇľÇľÇľÇľÇľÇľÇľÇľÇľÇľÇľÇľÇľÇľÇľÇľÇľÇľÇľÇľÇľÇľÇľÇľÇľÇľÇľÇľÇľÇľÇľÇľÇľÇľÇľÇľÇľÇľÇľÇľÇľÇľÇľÇľÇľÇľÇľÇľÇľÇľÇľÇľÇľÇľÇľÇľÇľÇľÇľÇľÇľÇľÇľÇľÇľÇľÇľÇľÇľÇľÇľÇľÇľÇľÇľÇľÇľÇľÇľÇľÇľÇľÇľÇľÇľÇľÇľÇľÇľÇľÇľÇľÇľÇľÇľÇľÇľÇľÇľÇľÇľÇľÇľÇľÇľÇľÇľÇľÇľÇľÇľÇľÇľÇľÇľÇľÇľÇľÇľÇľÇľÇľÇľÇľÇľ": 1944,
      "ÇļÇĿÇĿ": 1945,
      "ÇľÇľÇľÇľÇľÇľÇľÇľÇľÇľÇľÇľÇľÇľÇľÇľÇľÇľÇľÇľÇľÇľÇľÇľÇľÇľÇľÇľÇľÇľÇľÇľÇľÇľÇľÇľÇľÇľÇľÇľÇľÇľÇľÇľÇľÇľÇľÇľÇľÇľÇľÇľÇľÇľÇľÇľÇľÇľÇľÇľÇľÇľÇľÇľÇľÇľÇľÇľÇľÇľÇľÇľÇľÇľÇľÇľÇľÇľÇľÇľÇľÇľÇľÇľÇľÇľÇľÇľÇľÇľÇľÇľÇľÇľÇľÇľÇľÇľÇľÇľÇľÇľÇľÇľÇľÇľÇľÇľÇľÇľÇľÇľÇľÇľÇľÇľÇľÇľÇľÇľÇľÇľÇľÇľÇľÇľÇľÇľÇľÇľÇľÇľÇľÇľÇľÇľÇľÇľÇľÇľÇľÇľÇľÇľÇľÇľÇľÇľÇľÇľÇľÇľÇľÇľÇľÇľÇľÇľÇľÇĿ": 1946,
      "ÅŃ": 1947,
      "ÇłÇ¡": 1948,
      "ÇľÇľÇľÇľÇľÇľÇĿÇľÇľÇľÇľÇľÇľÇľÇľÇľÇľÇľÇľÇľÇľÇľÇľÇľÇľÇľÇľÇľÇľÇľÇľÇľÇľÇľÇľÇľÇľÇľÇľÇľÇľÇľÇľÇľÇľÇľÇľÇľÇľÇľÇľÇľÇľÇľÇľÇľÇľÇľÇľÇľÇľÇľÇľÇľÇľÇľÇľÇľÇľÇľÇľÇľÇľÇľÇľÇľÇľÇľÇľÇľÇľÇľÇľÇľÇľÇľÇľÇľÇľÇľÇľÇľÇľÇľÇľÇľÇľÇľÇľÇľÇľÇľÇľÇľÇľÇľÇľÇľÇľÇľÇľÇľÇľÇľÇľÇľÇľÇľÇľÇľÇľÇľÇľÇľÇľÇľÇľÇľÇľÇľÇľÇľÇľÇľÇľÇľÇľÇľÇľÇľÇľÇľÇľÇľÇľÇľÇľÇľÇľÇľÇľÇľÇľÇľÇľÇľÇľÇľÇľÇľÇľÇľÇľÇľÇľÇľÇľÇľÇľÇľÇľÇľÇľÇľÇľÇľÇľÇľÇľÇľÇľÇľÇľÇľÇľÇľÇľÇľÇľÇľÇľÇľÇľÇľÇľÇľÇľÇľÇľÇľÇľÇľÇľÇľÇľÇľÇľÇľÇľÇľÇľÇľÇľÇľÇľÇľÇľÇľÇľÇľÇľÇľÇľÇľÇľÇľÇľÇľÇľÇľÇľÇľÇľÇľÇľÇľÇľÇľÇľÇľÇľÇľÇľÇľÇľÇľÇľÇľÇľÇľÇľÇľÇľÇľÇľÇľÇľÇľÇľÇľÇľÇľÇľÇľÇľÇľÇľÇľÇľÇľÇľÇľÇľÇľÇľÇľÇľÇľÇľÇľÇľÇľÇľÇľÇľÇľÇľÇľÇľÇľÇľÇľÇľÇľÇľÇľÇľÇľÇľÇľÇľÇľÇľÇľÇľÇľÇľÇľÇľÇľÇľÇľÇľÇľÇľÇľÇľÇľÇľÇľÇľÇľÇľÇľÇľÇľÇľÇľÇľÇľÇľÇľÇľÇľÇľÇľÇľÇľÇľÇľÇľÇľÇľÇľÇľÇľÇľÇľÇľÇľÇľÇľÇľÇľÇľÇľÇľÇľÇľÇľÇľÇľÇľÇľÇľÇľÇľÇľÇľÇľÇľÇľÇľÇľÇľÇľÇľÇľÇľÇľÇľÇľÇľÇľÇľÇľÇľÇľÇľÇľÇľÇľÇľÇľÇľÇľÇľÇľÇľÇľÇľÇľÇľÇľÇľÇľÇľÇľÇľÇľÇľÇľÇľÇľÇľÇľÇľÇľÇľÇľÇľÇľÇľÇľÇľÇľÇľÇľÇľÇľÇľÇľÇľÇľÇľÇľÇľÇľÇľÇľÇľÇľÇľÇľÇľÇľÇľÇľÇľÇľÇľÇľÇľÇľÇľÇľÇľÇľÇľÇľÇľÇľÇľÇľÇľÇľÇľÇľÇľÇľÇľÇľÇľÇľÇľÇľÇľÇľÇľÇľÇľÇľÇľÇľÇľÇľÇľÇľÇľÇľÇľÇľÇľÇľÇľÇľÇľÇľÇľÇľÇľÇľÇľÇľÇľÇľÇľÇľÇľÇľÇľÇľÇľÇľÇľÇľÇľÇľÇľÇľÇľÇľÇľÇľÇľÇľÇľÇľÇľÇľÇľÇľÇľÇľÇľÇľÇľÇľÇľÇľÇľÇľÇľÇľÇľÇľÇľÇľÇľÇľÇľÇľÇľÇľÇľÇľÇľÇľÇľÇľÇľÇľÇľÇľÇľÇľÇľÇľÇľÇľÇľÇľÇľÇľÇľÇľÇľÇľÇľÇľÇľÇľÇľÇľÇľÇľÇľÇľÇľÇľÇľÇľÇľÇľÇľÇľÇľÇľÇľÇľÇľÇľÇľÇľÇľÇľÇľÇľÇľÇľÇľÇľÇľÇľÇľÇľÇľÇľÇľÇľÇľÇľÇľÇľÇľÇľÇľÇľÇľÇľÇľÇľÇľÇľÇľÇľÇľ": 1949,
      "ÇľÇľÇľÇľÇľÇľÇľÇľÇľÇľÇľÇľÇľÇľÇľÇľÇľÇľÇľÇľÇĽÇĿ": 1950,
      "ÇľÇľÇľÇľÇľÇľÇľÇľÇľÇľÇľÇľÇľÇľÇľÇľÇľÇľÇľÇľÇľÇľÇľÇľÇľÇľÇľÇľÇľÇľÇľÇŀÇľÇľÇľÇľÇľÇľÇľÇľÇľÇľÇľÇľÇľÇľÇľÇľÇľÇľÇľÇľÇľÇľÇľÇľÇľÇľÇľÇľÇľÇľÇľÇļ": 1951,
      "Ç¥ÇķÇŀÈĳÇĿÆ©ÈĦÇĨÈĴÈĩÇľÇľÇľÇľÇľÇľÇľÇľÇľÇľÇľÇľÇľÇľÇľÇľÇľÇľÇľÇľ": 1952,
      "ÈľÆĦ": 1953,
      "ÇľÇĿÇľÇľ": 1954,
      "ÇľÇľÇľÇľÇĻ": 1955,
      "ÇľÇľÇľÇľÇľÇľÇľÇľÇľÇľÇľÇľÇľÇľÇľÇľÇľÇľÇľÇľÇľÇľÇľÇľÇľÇľÇľÇľÇľÇľÇľÇĿÇľÇľÇľÇľÇľÇľÇĽÇľÇľÇľÇľÇľÇľÇľÇľÇľÇľÇľÇľÇľÇľÇľÇľÇľÇľÇľÇľÇľÇľÇľÇľÇĿ": 1956,
      "ÇľÇľÇľÇľÇľÇľÇľÇľÇľÇľÇľÇľÇľÇľÇľÇľÇľÇľÇľÇľÇľÇľÇĿÇľÇĽ": 1957,
      "ÉĪ": 1958,
      "ÆĸÇ£ÈłÆ": 1959,
      "ÇľÇľÇľÇľÇľÇľÇľÇľÇľÇľÇľÇľÇľÇľÇľÇľÇľÇľÇľÇľÇľÇľÇĽÇľÇľÇľÇľÇľÇľÇľÇľÇĽ": 1960,
      "ÇľÇľÇľÇľÇľÇľÇľÇľÇľÇľÇľÇľÇľÇľÇľÇľÇľÇľÇľÇľÇľÇľÇľÇľÇľÇľÇľÇľÇľÇľÇľÇľÇľÇľÇľÇľÇľÇľÇľÇľÇľÇľÇľÇľÇľÇľÇľÇľÇľÇľÇľÇľÇľÇľÇľÇľÇľÇľÇľÇľÇľÇľÇľÇľÇľÇľÇľÇľÇľÇľÇľÇľÇľÇľÇľÇľÇľÇľÇľÇľÇľÇľÇľÇľÇľÇľÇľÇľÇľÇľÇľÇľÇľÇľÇľÇľÇľÇľÇľÇľÇľÇľÇľÇľÇľÇľÇľÇľÇľÇľÇľÇľÇľÇľÇľÇľÇľÇľÇľÇľÇľÇľÇľÇľÇľÇľÇľÇĽÇľÇľÇľÇľÇľÇľÇľÇľÇľÇľÇľÇľÇľÇľÇľÇľÇľÇľÇľÇľÇľÇľÇľÇľÇľÇľÇľÇľÇľÇľÇľÇľÇľÇľÇľÇľÇľÇľÇľÇľÇľÇľÇľÇľÇľÇľÇľÇľÇľÇľÇľÇľÇľÇľÇľÇľÇľÇľÇľÇľÇľÇľÇľÇľÇľÇľÇľÇľÇľÇľÇľÇľÇľÇľÇľÇľÇľÇľÇľÇľÇľÇľÇľÇľÇľÇľÇľÇľÇľÇľÇľÇľÇľÇľÇľÇľÇľÇľÇľÇľÇľÇľÇľÇľÇľÇľÇľÇľÇľÇľÇľÇľÇľÇľÇľÇľÇľÇľÇľÇľÇľÇľÇľÇľÇľÇľÇľÇľÇľÇľÇľÇľÇľÇľÇľÇľÇľÇľÇľÇľÇľÇľÇľÇľÇľÇľÇľÇľÇľÇľÇľÇľÇľÇľÇľÇľÇľÇľÇľÇľÇľÇľÇľÇľÇľÇľÇľÇľÇľÇľÇľÇľÇľÇľÇľÇľÇľÇľÇľÇľÇľÇľÇľÇľÇľÇľÇľÇľÇľÇľÇľÇľÇľÇľÇľÇľÇľÇľÇľÇľÇľÇľÇľÇľÇľÇľÇľÇľÇľÇľÇľÇľÇľÇľÇľÇľÇľÇľÇľÇľÇľÇľÇľÇľÇľÇľÇľÇľÇľÇľÇľÇľÇľÇľÇľÇľÇľÇľÇľÇľÇľÇľÇľÇľÇľÇľÇľÇľÇľÇľÇľÇľÇľÇľÇľÇľÇľÇľÇľÇľÇľÇľÇľÇľÇľÇľÇľÇľÇľÇľÇľÇľÇľÇľÇľÇľÇľÇľÇľÇľÇľÇľÇľÇľÇľÇľÇľÇľÇľÇľÇľÇľÇľÇľÇľÇľÇľÇľÇľÇľÇľÇľÇľÇľÇľÇľÇľÇľÇľÇľÇľÇľÇľÇľÇľÇľÇľÇľÇľÇľÇľÇľÇľÇľÇľÇľÇľÇľÇľÇľÇľÇľÇľÇľÇľÇľÇľÇľÇľÇľÇľÇľÇľÇľÇľÇľÇľÇľÇľÇľÇľÇľÇľÇľÇľÇľÇľÇľÇľÇľÇľÇľÇľÇľÇľÇľÇľÇľÇľÇľÇľÇľÇľÇľÇľÇľÇľÇľÇľÇľÇľÇľÇľÇľÇľÇľÇľÇľÇľÇľÇľÇľÇľÇľÇľÇľÇľÇľÇľÇľÇľÇľÇľÇľÇľÇľÇľÇľÇľÇľÇľÇľÇľÇľÇľÇľÇľÇľÇľÇľÇľÇľÇľÇľÇľÇľÇľÇľÇľÇľÇľÇľÇľÇľÇľÇľÇľÇľÇľÇľÇľÇľÇľÇľÇľÇľÇľÇľÇľÇľÇľÇľÇľÇľÇľÇľÇľÇľÇľÇľÇľÇľÇľÇľÇľÇľÇľÇľÇľÇľÇľÇľÇľÇľÇľÇľÇľÇľÇľÇľÇľÇľÇľÇľÇľÇľÇľÇľÇľÇľÇľÇľÇľÇľÇľÇľÇľÇľÇľÇľÇľÇľÇľÇľÇľÇľÇľÇľÇľÇľÇľÇľÇľÇľÇľÇľÇľÇľÇľÇľÇľÇľÇľÇľÇľÇľÇľÇľÇľÇľÇľÇľÇľÇľÇľÇľÇľÇľÇľÇľÇľÇľÇľÇľÇľÇľÇľÇľÇľÇľÇľÇľÇľÇľÇľÇľÇľÇľÇľÇľÇľÇľÇľÇľÇľÇľÇľÇľÇľÇľÇľÇľÇľÇľÇľÇľÇľÇľÇľÇľÇľÇľÇľÇľÇľÇľÇľÇľÇľÇľÇľÇľÇľÇľÇľÇľÇľÇľÇľÇľÇľÇľÇľÇľÇľÇľÇľÇľÇľÇľÇľÇľÇľÇľÇľÇľÇľÇľÇľÇľ": 1961,
      "ÇľÇľÇľÇł": 1962,
      "ÇľÇľÇľÇľÇľÇľÇľÇľÇľÇľÇľÇľÇľÇľÇľÇľÇľÇľÇľÇľÇľÇľÇľÇľÇľÇĿÇĽ": 1963,
      "ÇľÇľÇľÇľÇľÇľÇľÇľÇľÇľÇľÇľÇľÇľÇľÇľÇľÇľÇľÇľÇľÇľÇľÇĿÇĻ": 1964,
      "ÇķÇ¢": 1965,
      "ÇľÇľÇľÇľÇľÇľÇľÇľÇľÇľÇľÇľÇľÇľÇĺ": 1966,
      "ÇľÇľÇľÇľÇľÇľÇľÇľÇľÇľÇľÇľÇľÇľÇĽÇĽ": 1967,
      "ÇĹÇĻ": 1968,
      "ÆµÇ»": 1969,
      "ÇľÇľÇľÇľÇľÇľÇľÇľÇľÇľÇľÇľÇľÇľÇľÇľÇľÇľÇľÇľÇľÇľÇľÇĴ": 1970,
      "Ç¥ÇĶÇŀ": 1971,
      "ÇľÇľÇľÇľÇľÇľÇľÇľÇľÇľÇľÇľÇľÇľÇľÇľÇľÇľÇľÇľÇľÇľÇľÇľÇĿÇľÇľÇľÇľÇľÇľÇĽ": 1972,
      "ÇķÇĻ": 1973,
      "ÈĴÆįÇľÇľÇľÇľÇľÇľÇľÇľÇľÇľÇľÇľ": 1974,
      "ÇĽÇĿÇĽÇĿ": 1975,
      "Å´": 1976,
      "Ç¥Èł": 1977,
      "ÇľÇľÇľÇľÇľÇľÇľÇľÇľÇľÇľÇľÇľÇľÇľÇľÇľÇľÇľÇľÇľÇľÇľÇľÇľÇľÇľÇľÇľÇľÇľÇĿÇľÇľÇľÇľÇľÇľÇľÇľÇľÇľÇľÇľÇľÇľÇľÇľÇľÇľÇľÇľÇľÇľÇľÇľÇľÇľÇľÇľÇľÇľÇľÇľÇľÇľÇľÇľÇľÇľÇľÇľÇľÇľÇľÇľÇľÇľÇľÇľÇľÇľÇľÇľÇľÇľÇľÇľÇľÇľÇľÇľÇľÇľÇľÇľÇľÇľÇľÇľÇľÇľÇľÇľÇľÇľÇľÇľÇľÇľÇľÇľÇľÇľÇľÇľÇľÇľÇľÇľÇľÇľÇľÇľÇľÇľÇľÇľÇľÇľÇľÇľÇľÇľÇľÇľÇľÇľÇľÇľÇľÇľÇľÇľÇľÇľÇľÇľÇľÇľÇľÇľÇľÇľÇľÇľÇľÇľÇľÇľÇľÇľÇľÇľÇľÇľÇľÇľÇľÇľÇľÇľÇľÇľÇľÇľÇľÇľÇľÇľÇľÇľÇľÇľÇľÇľÇľÇľÇľÇľÇľÇľÇľÇľÇľÇľÇľÇľÇľÇľÇľÇľÇľÇľÇľÇľÇľÇľÇľÇľÇľÇľÇľÇľÇľÇľÇľÇľÇľÇľÇľÇľÇľÇľÇľÇľÇľÇľÇľÇľÇľÇľÇľÇľÇľÇľÇľÇľÇľÇľÇľÇľÇľÇľÇľÇľÇľÇľÇľÇľÇľÇľÇľÇľÇľÇľÇľÇľÇľÇľÇľÇľÇľÇľÇľÇľÇľÇľÇľÇľÇľÇľÇľÇľÇľÇľÇľÇľÇľÇľÇľÇľÇľÇľÇľÇľÇľÇľÇľÇľÇľÇľÇľÇľÇľÇľÇľÇľÇľÇľÇľÇľÇľÇľÇľÇľÇľÇľÇľÇľÇľÇľÇľÇľÇľÇľÇľÇľÇľÇľÇľÇľÇľÇľÇľÇľÇľÇľÇľÇľÇľÇľÇľÇľÇľÇľÇľÇľÇľÇľÇľÇľÇľÇľÇľÇľÇľÇľÇľÇľÇľÇľÇľÇľÇľÇľÇľÇľÇľÇľÇľÇľÇľÇľÇľÇľÇľÇľÇľÇľÇľÇľÇľÇľÇľÇľÇľÇľÇľÇľÇľÇľÇľÇľÇľÇľÇľÇľÇľÇľÇľÇľÇľÇľÇľÇľÇľÇľÇľÇľÇľÇľÇľÇľÇľÇľÇľÇľÇľÇľÇľÇľÇľÇľÇľÇľÇľÇľÇľÇľÇľÇľÇľÇľÇľÇľÇľÇľÇľÇľÇľÇľÇľÇľÇľÇľÇľÇľÇľÇľÇľÇľÇľÇľÇľÇľÇľÇľÇľÇľÇľÇľÇľÇľÇľÇľÇľÇľÇľÇľÇľÇľÇľÇľÇľÇľÇľÇľÇľÇľÇľÇľÇľÇľÇľÇľÇľÇľÇľÇľÇľÇľÇľÇľÇľÇľÇľÇľÇľÇľÇľÇľÇľÇľÇľÇľÇľÇľÇľÇľÇľÇľÇľÇľÇľÇľÇľÇľÇľÇľÇľÇľÇľÇľÇľÇľÇľÇľÇľÇľÇľÇľÇľÇľÇľÇľÇľÇľÇľÇľÇľÇľÇľÇľÇľÇľÇľÇľÇľÇľÇľÇľÇľÇľÇľÇľÇľÇľÇľÇľÇľÇľÇľÇľÇľÇľÇľÇľÇľÇľÇľÇľÇľÇľÇľÇľÇľÇľÇľÇľÇľÇľÇľÇľÇľÇľÇľÇľÇľÇľÇľÇľÇľÇľÇľÇľÇľÇľÇľÇľÇľÇľÇľÇľÇľÇľÇľÇľÇľÇľÇľÇľÇľÇľÇľÇľÇľÇľÇľÇľÇľÇľÇľÇľÇľÇľÇľÇľÇľÇľÇľÇľÇľÇľÇľÇľÇľÇľÇľÇľÇľÇľÇľÇľÇľÇľÇľÇľÇľÇľÇľÇľÇľÇľÇľÇľÇľÇľÇľÇľÇľÇľÇľÇľÇľÇľÇľÇľÇľÇľÇľÇľÇľÇľÇľÇľÇľÇľÇľÇľÇľÇľÇľÇľÇľÇľÇľÇľÇľÇľÇľÇľÇľÇľÇľÇľÇľÇľÇľÇľÇľÇľÇľÇľÇľÇľÇľÇľÇľÇľÇľÇľÇľÇľÇľÇľÇľÇľÇľÇľÇľÇľÇľÇľÇľÇľÇľÇľÇľÇľÇľÇľÇľÇľÇľÇľÇľÇľÇľÇľÇľÇľÇľÇľÇľÇľÇľÇľÇľÇľÇľÇľÇľÇľÇľÇľÇľÇľÇľÇľÇľÇľÇľÇľÇľÇľÇľÇľÇľÇľÇľÇľÇľÇľÇľÇľÇľÇľÇľÇľÇľÇľÇľÇľÇľÇľÇľÇľÇľÇľ": 1978,
      "ÇľÇĩ": 1979,
      "ÈĳÇľÆ": 1980,
      "ÇľÇľÇľÇľÇľÇľÈİ": 1981,
      "ÇľÇľÇĽÇľÇĿ": 1982,
      "ÇľÇĻÇŁ": 1983,
      "ÇľÇļÇľÇĽ": 1984,
      "Å¬": 1985,
      "ÇľÇľÇľÇľÇľÇľÇľÇľÇľÇľÇľÇľÇľÇľÇľÇľÇľÇľÇľÇľÇľÇľÇľÇľÇľÇľÇľÇľÇľÇľÇľÇľÇľÇľÇľÇľÇľÇľÇľÇľÇľÇľÇľÇľÇľÇľÇľÇľÇľÇľÇľÇľÇľÇľÇľÇľÇľÇľÇľÇľÇľÇľÇľÇľÇľÇľÇľÇľÇľÇľÇľÇľÇľÇľÇľÇľÇľÇľÇľÇľÇľÇľÇľÇľÇľÇľÇľÇľÇľÇľÇľÇľÇľÇľÇľÇľÇľÇľÇľÇľÇľÇľÇľÇľÇľÇľÇľÇľÇľÇľÇľÇľÇľÇľÇľÇľÇľÇľÇľÇľÇľÇľÇľÇľÇľÇľÇľÇľÇľÇľÇľÇľÇľÇľÇľÇľÇľÇľÇľÇľÇľÇľÇľÇľÇľÇľÇľÇľÇľÇľÇľÇľÇľÇľÇľÇľÇľÇľÇľÇľÇľÇľÇľÇľÇľÇľÇľÇľÇľÇľÇľÇľÇľÇľÇľÇľÇľÇľÇľÇľÇľÇľÇľÇľÇľÇľÇľÇľÇľÇľÇľÇľÇľÇľÇľÇľÇľÇľÇľÇľÇľÇľÇľÇľÇľÇľÇľÇľÇľÇľÇľÇľÇľÇľÇľÇľÇľÇľÇľÇľÇľÇľÇľÇľÇľÇľÇľÇľÇľÇľÇľÇľÇľÇľÇľÇľÇľÇľÇľÇľÇľÇľÇľÇľÇľÇľÇľÇľÇľÇľÇľÇľÇľÇľÇľÇľÇľÇľÇľÇľÇľÇľÇľÇľÇľÇľÇľÇľÇľÇľÇľÇľÇľÇľÇľÇľÇľÇľÇľÇľÇľÇľÇľÇľÇľÇľÇľÇľÇľÇľÇľÇľÇľÇľÇľÇľÇľÇľÇľÇľÇľÇľÇľÇľÇľÇľÇľÇľÇľÇľÇľÇľÇľÇľÇľÇľÇľÇľÇľÇľÇľÇľÇľÇľÇľÇľÇľÇľÇľÇľÇľÇľÇľÇľÇľÇľÇľÇľÇľÇľÇľÇľÇľÇľÇľÇľÇľÇľÇľÇľÇľÇľÇľÇľÇľÇľÇľÇľÇľÇľÇľÇľÇľÇľÇľÇľÇľÇľÇľÇľÇľÇľÇľÇľÇľÇľÇľÇľÇľÇľÇľÇľÇľÇľÇľÇľÇľÇľÇľÇľÇľÇľÇľÇľÇľÇľÇľÇľÇľÇľÇľÇľÇľÇľÇľÇľÇľÇľÇľÇľÇľÇľÇľÇľÇľÇľÇľÇľÇľÇľÇľÇľÇľÇľÇľÇľÇľÇľÇľÇľÇľÇľÇľÇľÇľÇľÇľÇľÇľÇľÇľÇľÇľÇľÇľÇľÇľÇľÇľÇľÇľÇľÇľÇľÇľÇľÇľÇľÇľÇľÇľÇľÇľÇľÇľÇľÇľÇľÇľÇľÇľÇľÇľÇľÇľÇľÇľÇľÇľÇľÇľÇľÇľÇľÇľÇľÇľÇľÇľÇľÇľÇľÇľÇľÇľÇľÇľÇľÇľÇľÇľÇľÇľÇľÇľÇľÇľÇľÇľÇľÇľÇľÇľÇľÇľÇľÇľÇľÇľÇľÇľÇľÇľÇľÇľÇľÇľÇľÇľÇľÇľÇľÇľÇľÇľÇľÇľÇľÇľÇľÇľÇľÇľÇľÇľÇľÇľÇľÇľÇľÇľÇľÇľÇľÇľÇľÇľÇľÇľÇľÇľÇľÇľÇľÇľÇľÇľÇľÇľÇľÇľÇľÇľÇľÇľÇľÇľÇľÇľÇľÇľÇľÇľÇľÇľÇľÇľÇľÇľÇľÇľÇľÇľÇľÇľÇľÇľÇľÇľÇľÇľÇľÇľÇľÇľÇľÇľÇľÇľÇľÇľÇľÇľÇľÇľÇľÇľÇľÇľÇľÇľÇľÇľÇľÇľÇľÇľÇľÇľÇľÇľÇľÇľÇľÇľÇľÇľÇľÇľÇľÇľÇľÇľÇľÇľÇľÇľÇľÇľÇľÇľÇľÇľÇľÇľÇľÇľÇľÇľÇľÇľÇľÇľÇľÇľÇľÇľÇľÇľÇľÇľÇľÇľÇľÇľÇľÇľÇľÇľÇľÇľÇľÇľÇľÇľÇľÇľÇľÇľÇľÇľÇľÇľÇľÇľÇľÇľÇľÇľÇľÇľÇľÇľÇľÇľÇľÇľÇľÇľÇľÇľÇľÇľÇľÇľÇľ": 1986,
      "ÇľÇľÇľÇľÇľÇľÇľÇľÇľÇľÇľÇľÇľÇľÇĽÇľÇľÇľÇľÇľÇľÇľÇľÇľÇĽ": 1987,
      "ÉĮ": 1988,
      "ÇĶÇŀ": 1989,
      "ÇľÇľÇľÇľÇľÇľÇľÇľÇľÇľÇľÇľÇľÇľÇľÇľÇľÇľÇľÇľÇľÇľÇľÇľÇ®": 1990,
      "ÇĹÇļ": 1991,
      "Ç¡Çļ": 1992,
      "Éĭ": 1993,
      "ÇľÇľÇ¢": 1994,
      "Éī": 1995,
      "ÇľÇľÇľÇľÇľÇľÇľÇľÇľÇľÇľÇľÇľÇľÇľÇľÇľÇľÇľÇľÇľÇľÇľÇľÇľÇľÇľÇľÇľÇľÇľÇľÇľÇľÇľÇľÇľÇľÇľÇľÇľÇľÇľÇľÇľÇľÇľÇľÇľÇľÇľÇľÇľÇľÇľÇľÇľÇľÇľÇľÇľÇľÇľÇľÇľÇľÇľÇľÇľÇľÇľÇľÇľÇľÇľÇľÇľÇľÇľÇľÇľÇľÇľÇľÇľÇľÇľÇľÇľÇľÇľÇľÇľÇľÇľÇľÇľÇľÇľÇľÇľÇľÇľÇľÇľÇľÇľÇľÇľÇľÇľÇľÇľÇľÇľÇľÇľÇľÇľÇľÇľÇľÇľÇľÇľÇľÇľÇľÇľÇľÇľÇľÇľÇľÇľÇľÇľÇľÇľÇľÇľÇľÇľÇľÇľÇľÇľÇľÇľÇľÇľÇľÇľÇľÇľÇľÇľÇľÇľÇľÇľÇľÇľÇľÇľÇľÇľÇľÇľÇľÇľÇľÇľÇľÇľÇľÇľÇľÇľÇľÇľÇľÇľÇľÇľÇľÇľÇľÇľÇľÇľÇľÇľÇľÇľÇľÇľÇľÇľÇľÇľÇľÇľÇľÇľÇľÇľÇľÇľÇľÇľÇľÇľÇľÇľÇľÇľÇľÇľÇľÇľÇľÇľÇľÇľÇľÇľÇľÇľÇľÇľÇľÇľÇľÇľÇľÇľÇľÇľÇľÇľÇľÇľÇľÇľÇľÇľÇľÇľÇľÇľÇľÇľÇľÇľÇľÇľÇľÇľÇľÇľÇľÇľÇľÇľÇľÇľÇľÇľÇľÇľÇľÇľÇľÇľÇľÇľÇľÇľÇľÇľÇľÇľÇľÇľÇľÇľÇľÇľÇľÇľÇľÇľÇľÇľÇľÇľÇľÇľÇľÇľÇľÇľÇľÇľÇľÇľÇľÇľÇľÇľÇľÇľÇľÇľÇľÇľÇľÇľÇľÇľÇľÇľÇľÇľÇľÇľÇľÇľÇľÇľÇľÇľÇľÇľÇľÇľÇľÇľÇľÇľÇľÇľÇľÇľÇľÇľÇľÇľÇľÇľÇľÇľÇľÇľÇľÇľÇľÇľÇľÇľÇľÇľÇľÇľÇľÇľÇľÇľÇľÇľÇľÇľÇľÇľÇľÇľÇľÇľÇľÇľÇľÇľÇľÇľÇľÇľÇľÇľÇľÇľÇľÇľÇľÇľÇľÇľÇľÇľÇľÇľÇľÇľÇľÇľÇľÇľÇľÇľÇľÇľÇľÇľÇľÇľÇľÇľÇľÇľÇľÇľÇľÇľÇľÇľÇľÇľÇľÇľÇľÇľÇľÇľÇľÇľÇľÇľÇľÇľÇľÇľÇľÇľÇľÇľÇľÇľÇľÇľÇľÇľÇľÇľÇľÇľÇľÇľÇľÇľÇľÇľÇľÇľÇľÇľÇľÇľÇľÇľÇľÇľÇľÇľÇľÇľÇľÇľÇľÇľÇľÇľÇľÇľÇľÇľÇľÇľÇľÇľÇľÇľÇľÇľÇľÇľÇľÇľÇľÇľÇľÇľÇľÇľÇľÇľÇľÇľÇľÇľÇľÇľÇľÇľÇľÇľÇľÇľÇľÇľÇľÇľÇľÇľÇľÇľÇľÇľÇľÇľÇľÇľÇľÇľÇľÇľÇľÇľÇľÇľÇľÇľÇľÇľÇľÇľÇľÇľÇľÇľÇľÇľÇľÇľÇľÇľÇľÇľÇľÇľÇľÇľÇľÇľÇľÇľÇľÇľÇľÇľÇľÇľÇľÇľÇľÇľÇľÇľÇľÇľÇľÇľÇľÇľÇľÇľÇľÇľÇľÇľÇľÇľÇľÇľÇľÇľÇľÇľÇľÇľÇľÇľÇľÇľÇľÇľÇľÇľÇľÇľÇľÇľÇľÇľÇľÇľÇľÇľÇľÇľÇľÇľÇľÇľÇľÇľÇľÇľÇľÇľÇľÇľÇľÇľÇľÇľÇľÇľÇľÇľÇľÇľÇľÇľÇľÇľÇľÇľÇľÇľÇľÇľÇľÇľÇľÇľÇľÇľÇľÇľÇľÇľÇľÇľÇľÇľÇľÇľÇľÇľÇľÇľÇľÇľÇľÇľÇľÇľÇľÇľÇľÇľÇľÇľÇľ": 1996,
      "Ç¥ÇĿ": 1997,
      "ÇľÇľÇľÇľÇľÇľÇľÇľÇľÇľÇľÇľÇľÇľÇľÇľÇľÇľÇľÇľÇľÇľÇľÇľÇľÇĽÇĽ": 1998,
      "Éħ": 1999,
      "ÇľÇĽÇľÇľÇľÇľÇŀ": 2000,
      "ÇľÇľÇľÇľÇľÇľÇľÇľÇľÇľÇľÇľÇľÇľÇľÇľÇľÇľÇľÇľÇľÇľÇľÇľÇľÇľÇľÇľÇľÇľÇľÇĻÇľÇľÇľÇľÇľÇľÇľÇľÇľÇľÇľÇľÇľÇľÇľÇľÇľÇľÇľÇľÇľÇľÇľÇľÇľÇľÇľÇľÇľÇľÇľÇĻ": 2001,
      "ÇľÇľÇľÇľÇľÇľÇĽÇľÇľÇľÇľÇľÇľÇľÇľÇľÇľÇľÇľÇľÇľÇľÇľÇľÇľÇľÇľÇľÇľÇľÇľÇĺ": 2002,
      "ÇľÇľÇľÇľÇľÇľÇľÇľÇľÇľÇľÇľÇľÇľÇľÇľÇľÇľÇľÇľÇľÇľÇĽÇľÇĽ": 2003,
      "ÇĽÇĿÇĿÇĽ": 2004,
      "ÇľÇľÇľÇľÇľÇľÇľÇľÇľÇľÇľÇľÇľÇľÇľÇľÇľÇľÇľÇľÇľÇľÇľÇľÇľÇľÇľÇľÇľÇľÇľÇŀÇľÇľÇľÇľÇľÇľÇľÇľÇľÇľÇľÇľÇľÇľÇľÇľÇľÇľÇľÇľÇľÇľÇľÇľÇľÇľÇľÇľÇľÇľÇľÇĿ": 2005,
      "Éİ": 2006,
      "ÇľÇľÇľÇľÇľÇľÇľÇľÇľÇľÇľÇľÇľÇľÇľÇľÇľÇľÇľÇľÇľÇľÇľÇľÇľ": 2007,
      "ÇľÇľÇľÇĿÇļ": 2008,
      "ÆľÇĿÈŁÆĦÇħÆĻ": 2009,
      "ÇĸÇ¡": 2010,
      "ÇľÇľÇľÇľÇľÇľÇ§": 2011,
      "ÇľÇľÇľÇľÇľÇľÇľÇľÇľÇĻ": 2012,
      "ÇĶÇĺ": 2013,
      "ÇľÇľÇľÇľÇľÇľÇľÇľÇľÇľÇľÇľÇľÇľÇľÇľÇľÇľÇľÇľÇľÇľÇĿÇľÇŀ": 2014,
      "ÇĽÇŀÇĿ": 2015,
      "Éĥ": 2016,
      "ÇľÇľÇľÇľÇľÇľÇľÇľÇľÇľÇľÇľÇľÇľÇľÇľÇľÇľÇľÇľÇľÇľÇĿÇľÇľÇľÇľÇľÇľÇľÇľÇĽ": 2017,
      "Ç¥Çĵ": 2018,
      "ÇĸÇĻ": 2019,
      "ÇľÇľÇľÇľÇŁ": 2020,
      "ÇľÇĽÇľÇľÇľÇľÇľÇľÇľÇľÇľÇľÇľÇľÇľÇľÇľÇľÇľÇľÇľÇľÇľÇľÇľÇľÇľÇľÇľÇľ": 2021,
      "Ç¤Çĵ": 2022,
      "ÇľÇĽÇĿÇĿÇĿ": 2023,
      "ÇĹÇĶ": 2024,
      "ÇľÇŀÇľÇĿ": 2025,
      "ÇľÇľÇľÇľÇľÇľÇľÇľÇľÇľÇľÇľÇľÇľÇľÇľÇľÇľÇľÇľÇľÇľÇľÇľÇ©": 2026,
      "ÇĹÇĹÇľÈİÇ£Æ©ÈĦÇ¸ÈĴÈĩÇ¦": 2027,
      "ÇľÇľÇľÇľÇľÇľÇľÇľÇľÇľÇľÇľÇľÇľÇľÇľÇľÇľÇľÇľÇľÇľÇľÇľÇľÇľÇľÇľÇľÇľÇľÇĿÇľÇľÇľÇľÇľÇľÇľÇľÇľÇľÇľÇľÇľÇľÇľÇľÇľÇľÇľÇľÇľÇľÇľÇľÇľÇľÇľÇľÇľÇľÇľÇľÇľÇľÇľÇľÇľÇľÇĽ": 2028,
      "Éį": 2029,
      "Ç¥ÇĴ": 2030,
      "ÇľÇľÇľÇľÇľÇľÇľÇľÇľÇľÇľÇľÇľÇľÇľÇľÇľÇľÇľÇľÇľÇľÇľÇľÇľÇľÇľÇľÇľÇľÇľÇĿÇľÇľÇľÇľÇľÇľÇľÇľÇľÇľÇľÇľÇľÇľÇľÇľÇľÇľÇľÇľÇľÇľÇľÇľÇľÇľÇľÇľÇľÇľÇľÇľÇľÇľÇľÇľÇľÇľÇľÇľÇľÇľÇľÇľÇľÇľÇľÇľÇľÇľÇľÇľÇľÇľÇľÇľÇľÇľÇľÇľÇľÇľÇľÇľÇľÇľÇľÇľÇľÇľÇľÇľÇľÇľÇľÇľÇľÇľÇľÇľÇľÇľÇľÇľÇľÇľÇľÇľÇľÇľÇľÇľÇľÇľÇľÇľÇľÇľÇľÇľÇľÇľÇľÇľÇľÇľÇľÇľÇľÇľÇľÇľÇľÇľÇľÇľÇľÇľÇľÇľÇľÇľÇľÇľÇľÇľÇľÇľÇľÇľÇľÇľÇľÇľÇľÇľÇľÇľÇľÇľÇľÇľÇľÇľÇľÇľÇľÇľÇľÇľÇľÇľÇľÇľÇľÇľÇľÇľÇľÇľÇľÇľÇľÇľÇľÇľÇľÇľÇľÇľÇľÇľÇľÇľÇľÇľÇľÇľÇľÇľÇľÇľÇľÇľÇľÇľÇľÇľÇľÇľÇľÇľÇľÇľÇľÇľÇľÇľÇľÇľÇľÇľÇľÇľÇľÇľÇľÇľÇľÇľÇľÇľÇľÇľÇľÇľÇľÇľÇľÇľÇľÇľÇľÇľÇľÇľÇľÇľÇľÇľÇľÇľÇľÇľÇľÇľÇľÇľÇľÇľÇľÇľÇľÇľÇľÇľÇľÇľÇľÇľÇľÇľÇľÇľÇľÇľÇľÇľÇľÇľÇľÇľÇľÇľÇľÇľÇľÇľÇľÇľÇľÇľÇľÇľÇľÇľÇľÇľÇľÇľÇľÇľÇľÇľÇľÇľÇľÇľÇľÇľÇľÇľÇľÇľÇľÇľÇľÇľÇľÇľÇľÇľÇľÇľÇľÇľÇľÇľÇľÇľÇľÇľÇľÇľÇľÇľÇľÇľÇľÇľÇľÇľÇľÇľÇľÇľÇľÇľÇľÇľÇľÇľÇľÇľÇľÇľÇľÇľÇľÇľÇľÇľÇľÇľÇľÇľÇľÇľÇľÇľÇľÇľÇľÇľÇľÇľÇľÇľÇľÇľÇľÇľÇľÇľÇľÇľÇľÇľÇľÇľÇľÇľÇľÇľÇľÇľÇľÇľÇľÇľÇľÇľÇľÇľÇľÇľÇľÇľÇľÇľÇľÇľÇľÇľÇľÇľÇľÇľÇľÇľÇľÇľÇľÇľÇľÇľÇľÇľÇľÇľÇľÇľÇľÇľÇľÇľÇľÇľÇľÇľÇľÇľÇľÇľÇľÇľÇľÇľÇľÇľÇľÇľÇľÇľÇľÇľÇľÇľÇľÇľÇľÇľÇľÇľÇľÇľÇľÇľÇľÇľÇľÇľÇľÇľÇľÇľÇľÇľÇľÇľÇľÇľÇľÇľÇľÇľÇľÇľÇľÇľÇľÇľÇľÇľÇľÇľÇľÇľÇľÇľÇľÇľÇľÇľÇľÇľÇľÇľÇľÇľÇľÇľÇľÇľÇľÇľÇľÇľÇľÇľÇľÇľÇľÇľÇľÇľÇľÇľÇľÇľÇľÇľÇľÇľÇľÇľÇľÇľÇľÇľÇľÇľÇľÇľÇľÇľÇľÇľÇľÇľÇľÇľÇľÇľÇľÇľÇľÇľÇľÇľÇľÇľÇľÇľÇľÇľÇľÇľÇľÇľÇľÇľÇľÇľÇľÇľÇľÇľÇľÇľÇľÇľÇľÇľÇľÇľÇľÇľÇľÇľÇľÇľÇľÇľÇľÇľÇľÇľÇľÇľÇľÇľÇľÇľÇľÇľÇľÇľÇľÇľÇľÇľÇľÇľÇľÇľÇľÇľÇľÇľÇľÇľÇľÇľÇľÇľÇľÇľÇľÇľÇľÇľÇľÇľÇľÇľÇľÇľÇľÇľÇľÇľÇľÇľÇľÇľÇľÇľÇľÇľÇľÇľÇľÇľÇľÇľÇľÇľÇľÇľÇľÇľÇľÇľÇľÇľÇľÇľÇľÇľÇľÇľÇľÇľÇľÇľÇľÇľÇľÇľÇľÇľÇľÇľÇľÇľÇľÇľÇľÇľÇľÇľÇľÇľÇľÇľÇľÇľÇľÇľÇľÇľÇľÇľÇľÇľÇľÇľÇľÇľÇľÇľÇľÇľÇľÇľÇľÇľÇľÇľÇľÇľÇľÇľÇľÇľÇľÇľÇľÇľÇľÇľÇľÇľÇľÇľÇľÇľÇľÇľÇľÇľÇľÇľÇľÇľÇľÇľÇľÇľÇľÇľÇľÇľÇľÇľÇľÇľÇľÇľÇľÇľÇľÇľÇľÇľÇľÇľÇľÇľÇľÇľÇľÇľÇľÇľÇľÇľ": 2031,
      "ÈĳÇĿÆ©ÈĦ": 2032,
      "ÇľÇľÇľÇľÇľÇľÇľÇľÇľÇľÇľÇľÇľÇ¢": 2033,
      "ÇľÇľÇľÇľÇľÇľÇľÇľÇŀ": 2034,
      "ÆķÇ£ÈłÆ": 2035,
      "É¾": 2036,
      "ÇĿÇł": 2037,
      "ÇľÇľÇĹ": 2038,
      "Ç¡ÇŁ": 2039,
      "ÇľÇľÇľÇľÇľÇľÇľÇľÇľÇľÇľÇľÇľÇľÇľÇľÇľÇľÇľÇľÇľÇľÇľÇĽÇŁ": 2040,
      "Æ´Ç»": 2041,
      "ÇľÇľÇľÇľÇľÇľÇľÇľÇľÇľÇľÇľÇľÇľÇľÇľÇľÇľÇľÇľÇľÇľÇľÇľÇľÇľÇľÇľÇľÇľÇľÇĽÇľÇľÇľÇľÇľÇľÇľÇľÇľÇľÇľÇľÇľÇľÇľÇľÇľÇľÇľÇľÇľÇľÇľÇľÇľÇľÇľÇľÇľÇľÇľÇľÇľÇľÇľÇľÇľÇľÇľÇľÇľÇľÇľÇľÇľÇľÇľÇľÇľÇľÇľÇľÇľÇľÇľÇľÇľÇľÇľÇľÇľÇľÇľÇľÇľÇľÇľÇľÇľÇľÇľÇľÇľÇľÇľÇľÇľÇľÇľÇľÇľÇľÇľÇľÇľÇľÇľÇľÇľÇľÇľÇľÇľÇľÇľÇľÇľÇľÇľÇľÇľÇľÇľÇľÇľÇľÇľÇľÇľÇľÇľÇľÇľÇľÇľÇľÇľÇľÇľÇľÇľÇľÇľÇľÇľÇľÇľÇľÇľÇľÇľÇľÇľÇľÇľÇľÇľÇľÇľÇľÇľÇľÇľÇľÇľÇľÇľÇľÇľÇľÇľÇľÇľÇľÇľÇľÇľÇľÇľÇľÇľÇľÇľÇľÇľÇľÇľÇľÇľÇľÇľÇľÇľÇľÇľÇľÇľÇľÇľÇľÇľÇľÇľÇľÇľÇľÇľÇľÇľÇľÇľÇľÇľÇľÇľÇľÇľÇľÇľÇľÇľÇľÇľÇľÇľÇľÇľÇľÇľÇľÇľÇľÇľÇľÇľÇľÇľÇľÇľÇľÇľÇľÇľÇľÇľÇľÇľÇľÇľÇľÇľÇľÇľÇľÇľÇľÇľÇľÇľÇľÇľÇľÇľÇľÇľÇľÇľÇľÇľÇľÇľÇľÇľÇľÇľÇľÇľÇľÇľÇľÇľÇľÇľÇľÇľÇľÇľÇľÇľÇľÇľÇľÇľÇľÇľÇľÇľÇľÇľÇľÇľÇľÇľÇľÇľÇľÇľÇľÇľÇľÇľÇľÇľÇľÇľÇľÇľÇľÇľÇľÇľÇľÇľÇľÇľÇľÇľÇľÇľÇľÇľÇľÇľÇľÇľÇľÇľÇľÇľÇľÇľÇľÇľÇľÇľÇľÇľÇľÇľÇľÇľÇľÇľÇľÇľÇľÇľÇľÇľÇľÇľÇľÇľÇľÇľÇľÇľÇľÇľÇľÇľÇľÇľÇľÇľÇľÇľÇľÇľÇľÇľÇľÇľÇľÇľÇľÇľÇľÇľÇľÇľÇľÇľÇľÇľÇľÇľÇľÇľÇľÇľÇľÇľÇľÇľÇľÇľÇľÇľÇľÇľÇľÇľÇľÇľÇľÇľÇľÇľÇľÇľÇľÇľÇľÇľÇľÇľÇľÇľÇľÇľÇľÇľÇľÇľÇľÇľÇľÇľÇľÇľÇľÇľÇľÇľÇľÇľÇľÇľÇľÇľÇľÇľÇľÇľÇľÇľÇľÇľÇľÇľÇľÇľÇľÇľÇľÇľÇľÇľÇľÇľÇľÇľÇľÇľÇľÇľÇľÇľÇľÇľÇľÇľÇľÇľÇľÇľÇľÇľÇľÇľÇľÇľÇľÇľÇľÇľÇľÇľÇľÇľÇľÇľÇľÇľÇľÇľÇľÇľÇľÇľÇľÇľÇľÇľÇľÇľÇľÇľÇľÇľÇľÇľÇľÇľÇľÇľÇľÇľÇľÇľÇľÇľÇľÇľÇľÇľÇľÇľÇľÇľÇľÇľÇľÇľÇľÇľÇľÇľÇľÇľÇľÇľÇľÇľÇľÇľÇľÇľÇľÇľÇľÇľÇľÇľÇľÇľÇľÇľÇľÇľÇľÇľÇľÇľÇľÇľÇľÇľÇľÇľÇľÇľÇľÇľÇľÇľÇľÇľÇľÇľÇľÇľÇľÇľÇľÇľÇľÇľÇľÇľÇľÇľÇľÇľÇľÇľÇľÇľÇľÇľÇľÇľÇľÇľÇľÇľÇľÇľÇľÇľÇľÇľÇľÇľÇľÇľÇľÇľÇľÇľÇľÇľÇľÇľÇľÇľÇľÇľÇľÇľÇľÇľÇľÇľÇľÇľÇľÇľÇľÇľÇľÇľÇľÇľÇľÇľÇľÇľÇľÇľÇľÇľÇľÇľÇľÇľÇľÇľÇľÇľÇľÇľÇľÇľÇľÇľÇľÇľÇľÇľÇľÇľÇľÇľÇľÇľÇľÇľÇľÇľÇľÇľÇľÇľÇľÇľÇľÇľÇľÇľÇľÇľÇľÇľÇľÇľÇľÇľÇľÇľÇľÇľÇľÇľÇľÇľÇľÇľÇľÇľ": 2042,
      "ÇľÇŀÇļ": 2043,
      "ÈªÇŃ": 2044,
      "ÇĸÇł": 2045,
      "Ç¢Çļ": 2046,
      "ÇľÇľÇ£": 2047
    },
    "merges": [
      [
        "Ç",
        "ľ"
      ],
      [
        "Çľ",
        "Çľ"
      ],
      [
        "ÇľÇľ",
        "ÇľÇľ"
      ],
      [
        "ÇľÇľÇľÇľ",
        "ÇľÇľÇľÇľ"
      ],
      [
        "ÇľÇľÇľÇľÇľÇľÇľÇľ",
        "ÇľÇľÇľÇľÇľÇľÇľÇľ"
      ],
      [
        "ÇľÇľÇľÇľÇľÇľÇľÇľÇľÇľÇľÇľÇľÇľÇľÇľ",
        "ÇľÇľÇľÇľÇľÇľÇľÇľÇľÇľÇľÇľÇľÇľÇľÇľ"
      ],
      [
        "ÇľÇľÇľÇľÇľÇľÇľÇľÇľÇľÇľÇľÇľÇľÇľÇľÇľÇľÇľÇľÇľÇľÇľÇľÇľÇľÇľÇľÇľÇľÇľÇľ",
        "ÇľÇľÇľÇľÇľÇľÇľÇľÇľÇľÇľÇľÇľÇľÇľÇľÇľÇľÇľÇľÇľÇľÇľÇľÇľÇľÇľÇľÇľÇľÇľÇľ"
      ],
      [
        "Çľ",
        "Ç"
      ],
      [
        "ÇľÇľÇľÇľÇľÇľÇľÇľÇľÇľÇľÇľÇľÇľÇľÇľÇľÇľÇľÇľÇľÇľÇľÇľÇľÇľÇľÇľÇľÇľÇľÇľÇľÇľÇľÇľÇľÇľÇľÇľÇľÇľÇľÇľÇľÇľÇľÇľÇľÇľÇľÇľÇľÇľÇľÇľÇľÇľÇľÇľÇľÇľÇľÇľ",
        "ÇľÇľÇľÇľÇľÇľÇľÇľÇľÇľÇľÇľÇľÇľÇľÇľÇľÇľÇľÇľÇľÇľÇľÇľÇľÇľÇľÇľÇľÇľÇľÇľÇľÇľÇľÇľÇľÇľÇľÇľÇľÇľÇľÇľÇľÇľÇľÇľÇľÇľÇľÇľÇľÇľÇľÇľÇľÇľÇľÇľÇľÇľÇľÇľ"
      ],
      [
        "ÇľÇľÇľÇľ",
        "ÇľÇľ"
      ],
      [
        "Ç",
        "Ŀ"
      ],
      [
        "Ç",
        "Ľ"
      ],
      [
        "ÇľÇľÇľÇľÇľÇľÇľÇľÇľÇľÇľÇľÇľÇľÇľÇľ",
        "ÇľÇľÇľÇľÇľÇľÇľÇľ"
      ],
      [
        "ÇľÇľÇľÇľÇľÇľÇľÇľÇľÇľÇľÇľÇľÇľÇľÇľÇľÇľÇľÇľÇľÇľÇľÇľÇľÇľÇľÇľÇľÇľÇľÇľÇľÇľÇľÇľÇľÇľÇľÇľÇľÇľÇľÇľÇľÇľÇľÇľÇľÇľÇľÇľÇľÇľÇľÇľÇľÇľÇľÇľÇľÇľÇľÇľÇľÇľÇľÇľÇľÇľÇľÇľÇľÇľÇľÇľÇľÇľÇľÇľÇľÇľÇľÇľÇľÇľÇľÇľÇľÇľÇľÇľÇľÇľÇľÇľÇľÇľÇľÇľÇľÇľÇľÇľÇľÇľÇľÇľÇľÇľÇľÇľÇľÇľÇľÇľÇľÇľÇľÇľÇľÇľÇľÇľÇľÇľÇľÇľ",
        "ÇľÇľÇľÇľÇľÇľÇľÇľÇľÇľÇľÇľÇľÇľÇľÇľÇľÇľÇľÇľÇľÇľÇľÇľÇľÇľÇľÇľÇľÇľÇľÇľÇľÇľÇľÇľÇľÇľÇľÇľÇľÇľÇľÇľÇľÇľÇľÇľÇľÇľÇľÇľÇľÇľÇľÇľÇľÇľÇľÇľÇľÇľÇľÇľÇľÇľÇľÇľÇľÇľÇľÇľÇľÇľÇľÇľÇľÇľÇľÇľÇľÇľÇľÇľÇľÇľÇľÇľÇľÇľÇľÇľÇľÇľÇľÇľÇľÇľÇľÇľÇľÇľÇľÇľÇľÇľÇľÇľÇľÇľÇľÇľÇľÇľÇľÇľÇľÇľÇľÇľÇľÇľÇľÇľÇľÇľÇľÇľ"
      ],
      [
        "ÇľÇľÇľÇľÇľÇľ",
        "ÇľÇ"
      ],
      [
        "Ç",
        "ŀ"
      ],
      [
        "ÇľÇ",
        "Ŀ"
      ],
      [
        "ÇľÇ",
        "Ľ"
      ],
      [
        "Ç",
        "ļ"
      ],
      [
        "ÇľÇľÇľÇľÇľÇľÇľÇľÇľÇľÇľÇľÇľÇľÇľÇľÇľÇľÇľÇľÇľÇľÇľÇľ",
        "ÇľÇľÇľÇľÇľÇľÇľÇ"
      ],
      [
        "Ç",
        "Ĺ"
      ],
      [
        "ÇľÇľÇľÇľÇľÇľÇľÇľ",
        "ÇľÇľÇľÇľ"
      ],
      [
        "ÇľÇľÇľÇľÇľÇľÇľÇľÇľÇľÇľÇľÇľÇľÇľÇľ",
        "ÇľÇľÇľÇľÇľÇľ"
      ],
      [
        "ÇľÇľÇľÇľÇľÇľÇľÇľÇľÇľÇľÇľÇľÇľÇľÇľÇľÇľÇľÇľÇľÇľÇľÇľÇľÇľÇľÇľÇľÇľÇľÇľÇľÇľÇľÇľÇľÇľÇľÇľÇľÇľÇľÇľÇľÇľÇľÇľÇľÇľÇľÇľÇľÇľÇľÇľÇľÇľÇľÇľÇľÇľÇľÇľÇľÇľÇľÇľÇľÇľÇľÇľÇľÇľÇľÇľÇľÇľÇľÇľÇľÇľÇľÇľÇľÇľÇľÇľÇľÇľÇľÇľÇľÇľÇľÇľÇľÇľÇľÇľÇľÇľÇľÇľÇľÇľÇľÇľÇľÇľÇľÇľÇľÇľÇľÇľÇľÇľÇľÇľÇľÇľÇľÇľÇľÇľÇľÇľÇľÇľÇľÇľÇľÇľÇľÇľÇľÇľÇľÇľÇľÇľÇľÇľÇľÇľÇľÇľÇľÇľÇľÇľÇľÇľÇľÇľÇľÇľÇľÇľÇľÇľÇľÇľÇľÇľÇľÇľÇľÇľÇľÇľÇľÇľÇľÇľÇľÇľÇľÇľÇľÇľÇľÇľÇľÇľÇľÇľÇľÇľÇľÇľÇľÇľÇľÇľÇľÇľÇľÇľÇľÇľÇľÇľÇľÇľÇľÇľÇľÇľÇľÇľÇľÇľÇľÇľÇľÇľÇľÇľÇľÇľÇľÇľÇľÇľÇľÇľÇľÇľÇľÇľÇľÇľÇľÇľÇľÇľÇľÇľÇľÇľÇľÇľÇľÇľÇľÇľÇľÇľÇľÇľÇľÇľÇľÇľ",
        "ÇľÇľÇľÇľÇľÇľÇľÇľÇľÇľÇľÇľÇľÇľÇľÇľÇľÇľÇľÇľÇľÇľÇľÇľÇľÇľÇľÇľÇľÇľÇľÇľÇľÇľÇľÇľÇľÇľÇľÇľÇľÇľÇľÇľÇľÇľÇľÇľÇľÇľÇľÇľÇľÇľÇľÇľÇľÇľÇľÇľÇľÇľÇľÇľÇľÇľÇľÇľÇľÇľÇľÇľÇľÇľÇľÇľÇľÇľÇľÇľÇľÇľÇľÇľÇľÇľÇľÇľÇľÇľÇľÇľÇľÇľÇľÇľÇľÇľÇľÇľÇľÇľÇľÇľÇľÇľÇľÇľÇľÇľÇľÇľÇľÇľÇľÇľÇľÇľÇľÇľÇľÇľÇľÇľÇľÇľÇľÇľÇľÇľÇľÇľÇľÇľÇľÇľÇľÇľÇľÇľÇľÇľÇľÇľÇľÇľÇľÇľÇľÇľÇľÇľÇľÇľÇľÇľÇľÇľÇľÇľÇľÇľÇľÇľÇľÇľÇľÇľÇľÇľÇľÇľÇľÇľÇľÇľÇľÇľÇľÇľÇľÇľÇľÇľÇľÇľÇľÇľÇľÇľÇľÇľÇľÇľÇľÇľÇľÇľÇľÇľÇľÇľÇľÇľÇľÇľÇľÇľÇľÇľÇľÇľÇľÇľÇľÇľÇľÇľÇľÇľÇľÇľÇľÇľÇľÇľÇľÇľÇľÇľÇľÇľÇľÇľÇľÇľÇľÇľÇľÇľÇľÇľÇľÇľÇľÇľÇľÇľÇľÇľÇľÇľÇľÇľÇľÇľ"
      ],
      [
        "Ç",
        "Ł"
      ],
      [
        "È",
        "ĩ"
      ],
      [
        "Ç",
        "Ļ"
      ],
      [
        "ÇľÇľÇľÇľÇľÇľÇľÇľÇľÇľÇľÇľÇľÇľÇľÇľ",
        "ÇľÇľÇľÇľÇľÇľÇľÇ"
      ],
      [
        "Ħ",
        "Ç"
      ],
      [
        "Ç",
        "ķ"
      ],
      [
        "Ç",
        "£"
      ],
      [
        "Æ",
        "©"
      ],
      [
        "Ç",
        "¥"
      ],
      [
        "È",
        "Ĵ"
      ],
      [
        "ÇĽ",
        "ÇĿ"
      ],
      [
        "Æ©",
        "È"
      ],
      [
        "Ç",
        "ĺ"
      ],
      [
        "Ç",
        "ł"
      ],
      [
        "ÈĴ",
        "Èĩ"
      ],
      [
        "Æ©È",
        "ĦÇ"
      ],
      [
        "ÇľÇľÇľÇľÇľÇľÇľÇľÇľÇľÇľÇľÇľÇľÇľÇľÇľÇľÇľÇľÇľÇľÇľÇľÇľÇľÇľÇľÇľÇľÇľÇ",
        "Ľ"
      ],
      [
        "ÇľÇľÇľÇľÇľÇľÇľÇľÇľÇľÇľÇľÇľÇľÇľÇľÇľÇľÇľÇľÇľÇľÇľÇľÇľÇľÇľÇľÇľÇľÇľÇ",
        "Ŀ"
      ],
      [
        "Ç",
        "¡"
      ],
      [
        "Ç",
        "ĸ"
      ],
      [
        "ÇľÇľÇľÇľÇľÇľÇľÇľÇľÇľÇľÇľÇľÇľÇľÇľÇľÇľÇľÇľÇľÇľÇľÇľ",
        "ÇľÇľÇľÇľ"
      ],
      [
        "Ç",
        "¢"
      ],
      [
        "ÇľÇľÇľÇľÇľÇľ",
        "ÇĿ"
      ],
      [
        "ÇĿ",
        "ÇĽ"
      ],
      [
        "È",
        "İ"
      ],
      [
        "ÇľÇľÇľÇľÇľÇľÇľÇľÇľÇľÇľÇľÇľÇľÇľÇľÇľÇľÇľÇľÇľÇľÇľÇľÇľÇľÇľÇľÇľÇľÇľÇľÇľÇľÇľÇľÇľÇľÇľÇľÇľÇľÇľÇľÇľÇľÇľÇľÇľÇľÇľÇľÇľÇľÇľÇľÇľÇľÇľÇľÇľÇľÇľÇľÇľÇľÇľÇľÇľÇľÇľÇľÇľÇľÇľÇľÇľÇľÇľÇľÇľÇľÇľÇľÇľÇľÇľÇľÇľÇľÇľÇľÇľÇľÇľÇľÇľÇľÇľÇľÇľÇľÇľÇľÇľÇľÇľÇľÇľÇľÇľÇľÇľÇľÇľÇľÇľÇľÇľÇľÇľÇľÇľÇľÇľÇľÇľÇľÇľÇľÇľÇľÇľÇľÇľÇľÇľÇľÇľÇľÇľÇľÇľÇľÇľÇľÇľÇľÇľÇľÇľÇľÇľÇľÇľÇľÇľÇľÇľÇľÇľÇľÇľÇľÇľÇľÇľÇľÇľÇľÇľÇľÇľÇľÇľÇľÇľÇľÇľÇľÇľÇľÇľÇľÇľÇľÇľÇľÇľÇľÇľÇľÇľÇľÇľÇľÇľÇľÇľÇľÇľÇľÇľÇľÇľÇľÇľÇľÇľÇľÇľÇľÇľÇľÇľÇľÇľÇľÇľÇľÇľÇľÇľÇľÇľÇľÇľÇľÇľÇľÇľÇľÇľÇľÇľÇľÇľÇľÇľÇľÇľÇľÇľÇľÇľÇľÇľÇľÇľÇľÇľÇľÇľÇľÇľÇľÇľÇľÇľÇľÇľÇľÇľÇľÇľÇľÇľÇľÇľÇľÇľÇľÇľÇľÇľÇľÇľÇľÇľÇľÇľÇľÇľÇľÇľÇľÇľÇľÇľÇľÇľÇľÇľÇľÇľÇľÇľÇľÇľÇľÇľÇľÇľÇľÇľÇľÇľÇľÇľÇľÇľÇľÇľÇľÇľÇľÇľÇľÇľÇľÇľÇľÇľÇľÇľÇľÇľÇľÇľÇľÇľÇľÇľÇľÇľÇľÇľÇľÇľÇľÇľÇľÇľÇľÇľÇľÇľÇľÇľÇľÇľÇľÇľÇľÇľÇľÇľÇľÇľÇľÇľÇľÇľÇľÇľÇľÇľÇľÇľÇľÇľÇľÇľÇľÇľÇľÇľÇľÇľÇľÇľÇľÇľÇľÇľÇľÇľÇľÇľÇľÇľÇľÇľÇľÇľÇľÇľÇľÇľÇľÇľÇľÇľÇľÇľÇľÇľÇľÇľÇľÇľÇľÇľÇľÇľÇľÇľÇľÇľÇľÇľÇľÇľÇľÇľÇľÇľÇľÇľÇľÇľÇľÇľÇľÇľÇľÇľÇľÇľÇľÇľÇľÇľÇľÇľÇľÇľÇľÇľÇľÇľÇľÇľÇľÇľÇľÇľÇľÇľÇľÇľÇľÇľÇľÇľÇľÇľÇľÇľÇľÇľÇľÇľÇľÇľÇľÇľÇľÇľÇľÇľÇľÇľÇľÇľÇľÇľÇľÇľÇľÇľÇľÇľÇľÇľÇľÇľÇľÇľÇľÇľÇľÇľÇľÇľÇľÇľÇľÇľÇľÇľÇľ",
        "ÇľÇľÇľÇľÇľÇľÇľÇľÇľÇľÇľÇľÇľÇľÇľÇľÇľÇľÇľÇľÇľÇľÇľÇľÇľÇľÇľÇľÇľÇľÇľÇľÇľÇľÇľÇľÇľÇľÇľÇľÇľÇľÇľÇľÇľÇľÇľÇľÇľÇľÇľÇľÇľÇľÇľÇľÇľÇľÇľÇľÇľÇľÇľÇľÇľÇľÇľÇľÇľÇľÇľÇľÇľÇľÇľÇľÇľÇľÇľÇľÇľÇľÇľÇľÇľÇľÇľÇľÇľÇľÇľÇľÇľÇľÇľÇľÇľÇľÇľÇľÇľÇľÇľÇľÇľÇľÇľÇľÇľÇľÇľÇľÇľÇľÇľÇľÇľÇľÇľÇľÇľÇľÇľÇľÇľÇľÇľÇľ"
      ],
      [
        "ÇľÇľÇľÇľÇľÇľ",
        "ÇĽ"
      ],
      [
        "Ç",
        "¤"
      ],
      [
        "È",
        "ĳ"
      ],
      [
        "ÇľÇ",
        "ļ"
      ],
      [
        "Æ",
        "į"
      ],
      [
        "ÇľÇ",
        "ŀ"
      ],
      [
        "Ç¥",
        "Çķ"
      ],
      [
        "ÇĹ",
        "ÇĹ"
      ],
      [
        "Ç",
        "Ķ"
      ],
      [
        "ÇľÇľÇľÇľÇľÇľÇľÇľÇľÇľÇľÇľÇľÇľÇľÇľÇľÇľÇľÇľÇľÇľÇľÇľÇľÇľÇľÇľÇľÇľÇľÇľÇľÇľÇľÇľÇľÇľÇľÇľÇľÇľÇľÇľÇľÇľÇľÇľÇľÇľÇľÇľÇľÇľÇľÇľÇľÇľÇľÇľÇľÇľÇľÇľ",
        "ÇľÇľÇľÇľÇľÇľÇľÇľÇľÇľÇľÇľÇľÇľÇľÇľÇľÇľÇľÇľÇľÇľÇľÇľÇľÇľÇľÇľÇľÇľÇľÇľ"
      ],
      [
        "ÇľÇľÇľÇľÇľÇľÇľÇľÇľÇľÇľÇľÇľÇľÇľÇľ",
        "ÇľÇľÇľÇľ"
      ],
      [
        "Ç¥Çķ",
        "Çŀ"
      ],
      [
        "Èĳ",
        "ÇĿ"
      ],
      [
        "ÇĹÇĹ",
        "Çľ"
      ],
      [
        "Èİ",
        "Ç£"
      ],
      [
        "ÇľÇľÇľÇľÇľÇľÇľÇľÇľÇľÇľÇľÇľÇľÇľÇľÇľÇľÇľÇľÇľÇľÇľÇľ",
        "ÇľÇľ"
      ],
      [
        "ÇĿ",
        "ÇĿ"
      ],
      [
        "ÈĳÇĿ",
        "Æ©ÈĦÇ"
      ],
      [
        "ÈİÇ£",
        "Æ©ÈĦÇ"
      ],
      [
        "Ç¥ÇķÇŀ",
        "ÈĳÇĿÆ©ÈĦÇ"
      ],
      [
        "ÇĹÇĹÇľ",
        "ÈİÇ£Æ©ÈĦÇ"
      ],
      [
        "ÇĽ",
        "ÇĽ"
      ],
      [
        "Ç",
        "ĵ"
      ],
      [
        "ÇľÇľÇľÇľÇľÇľÇľÇľÇľÇľÇľÇľÇľÇľÇľÇľÇľÇľÇľÇľÇľÇľÇľÇľ",
        "ÇĿ"
      ],
      [
        "ÇľÇľ",
        "ÇľÇĿ"
      ],
      [
        "È",
        "Ł"
      ],
      [
        "ÈĴÈĩ",
        "ÇľÇľÇľÇľÇľÇľÇľÇľÇľÇľÇľÇľ"
      ],
      [
        "Ç¥ÇķÇŀÈĳÇĿÆ©ÈĦÇ",
        "Ĩ"
      ],
      [
        "Ç",
        "¦"
      ],
      [
        "ÇľÇľ",
        "ÇľÇĽ"
      ],
      [
        "ÇľÇľÇľÇľÇľÇľÇľÇľÇľÇľÇľÇľÇľÇľÇľÇľÇľÇľÇľÇľÇľÇľÇľÇľ",
        "ÇĽ"
      ],
      [
        "Ç",
        "Ĵ"
      ],
      [
        "µ",
        "ÈĴÈĩ"
      ],
      [
        "È",
        "ł"
      ],
      [
        "ÇĹÇĹÇľÈİÇ£Æ©ÈĦÇ",
        "µÈĴÈĩ"
      ],
      [
        "ÇľÇľÇľÇľÇľÇľÇľÇľÇľÇľÇľÇľÇľÇľÇľÇľÇľÇľÇľÇľÇľÇľÇľÇ",
        "Ľ"
      ],
      [
        "Ç¥ÇķÇŀÈĳÇĿÆ©ÈĦÇĨ",
        "ÈĴÈĩÇľÇľÇľÇľÇľÇľÇľÇľÇľÇľÇľÇľ"
      ],
      [
        "ÇľÇľÇľÇľÇľÇľ",
        "Ç"
      ],
      [
        "ÇľÇľÇľÇľÇľÇľÇľÇľÇľÇľÇľÇľÇľÇľÇľÇľÇľÇľÇľÇľÇľÇľÇľÇ",
        "Ŀ"
      ],
      [
        "Ç",
        "ĳ"
      ],
      [
        "ÇľÇľ",
        "ÇĿ"
      ],
      [
        "ÇľÇľÇľÇľ",
        "ÇĿ"
      ],
      [
        "ÇľÇľÇľÇľÇľÇľÇľÇľÇľÇľÇľÇľÇľÇľÇľÇľ",
        "ÇľÇľ"
      ],
      [
        "Ç",
        "§"
      ],
      [
        "ÈŁ",
        "Æ"
      ],
      [
        "ÇľÇ",
        "Ł"
      ],
      [
        "ÇľÇ",
        "Ļ"
      ],
      [
        "ÇľÇľÇľÇľ",
        "ÇĽ"
      ],
      [
        "Ç",
        "¨"
      ],
      [
        "ÇľÇľ",
        "ÇĽ"
      ],
      [
        "ÇľÇľÇľÇľÇľÇľÇľÇľÇľÇľÇľÇľÇľÇľÇľÇľÇľÇľÇľÇľÇľÇľÇľÇľÇľÇľÇľÇľÇľÇľÇľÇľÇľÇľÇľÇľÇľÇľÇľÇľÇľÇľÇľÇľÇľÇľÇľÇľÇľÇľÇľÇľÇľÇľÇľÇľÇľÇľÇľÇľÇľÇľÇľÇľÇľÇľÇľÇľÇľÇľÇľÇľÇľÇľÇľÇľÇľÇľÇľÇľÇľÇľÇľÇľÇľÇľÇľÇľÇľÇľÇľÇľÇľÇľÇľÇľÇľÇľÇľÇľÇľÇľÇľÇľÇľÇľÇľÇľÇľÇľÇľÇľÇľÇľÇľÇľÇľÇľÇľÇľÇľÇľÇľÇľÇľÇľÇľÇľÇľÇľÇľÇľÇľÇľÇľÇľÇľÇľÇľÇľÇľÇľÇľÇľÇľÇľÇľÇľÇľÇľÇľÇľÇľÇľÇľÇľÇľÇľÇľÇľÇľÇľÇľÇľÇľÇľÇľÇľÇľÇľÇľÇľÇľÇľÇľÇľÇľÇľÇľÇľÇľÇľÇľÇľÇľÇľÇľÇľÇľÇľÇľÇľÇľÇľÇľÇľÇľÇľÇľÇľÇľÇľÇľÇľÇľÇľÇľÇľÇľÇľÇľÇľÇľÇľÇľÇľÇľÇľÇľÇľÇľÇľÇľÇľÇľÇľÇľÇľÇľÇľÇľÇľÇľÇľÇľÇľÇľÇľÇľÇľÇľÇľÇľÇľÇľÇľÇľÇľÇľÇľÇľÇľÇľÇľÇľÇľÇľÇľÇľÇľÇľÇľÇľÇľÇľÇľÇľÇľÇľÇľÇľÇľÇľÇľÇľÇľÇľÇľÇľÇľÇľÇľÇľÇľÇľÇľÇľÇľÇľÇľÇľÇľÇľÇľÇľÇľÇľÇľÇľÇľÇľÇľÇľÇľÇľÇľÇľÇľÇľÇľÇľÇľÇľÇľÇľÇľÇľÇľÇľÇľÇľÇľÇľÇľÇľÇľÇľÇľÇľÇľÇľÇľÇľÇľÇľÇľÇľÇľÇľÇľÇľÇľÇľÇľÇľÇľÇľÇľÇľÇľÇľÇľÇľÇľÇľÇľÇľÇľÇľÇľÇľÇľÇľÇľÇľÇľÇľÇľÇľÇľÇľÇľÇľÇľÇľÇľÇľÇľÇľÇľÇľÇľÇľÇľÇľÇľÇľÇľÇľÇľÇľÇľÇľÇľÇľÇľÇľÇľÇľÇľÇľÇľÇľÇľÇľÇľÇľÇľÇľÇľÇľÇľÇľÇľÇľÇľÇľÇľÇľÇľÇľÇľÇľÇľÇľÇľÇľÇľÇľÇľÇľÇľÇľÇľÇľÇľÇľÇľÇľÇľÇľÇľÇľÇľÇľÇľÇľÇľÇľÇľÇľÇľÇľÇľÇľÇľÇľÇľÇľÇľÇľÇľÇľÇľÇľÇľÇľÇľÇľÇľÇľÇľÇľÇľÇľÇľÇľÇľÇľÇľÇľÇľÇľÇľÇľÇľÇľÇľÇľÇľÇľÇľÇľÇľÇľÇľÇľÇľÇľÇľÇľÇľÇľÇľÇľÇľÇľÇľÇľÇľÇľÇľ",
        "ÇľÇľÇľÇľÇľÇľÇľÇľÇľÇľÇľÇľÇľÇľÇľÇľÇľÇľÇľÇľÇľÇľÇľÇľÇľÇľÇľÇľÇľÇľÇľÇľÇľÇľÇľÇľÇľÇľÇľÇľÇľÇľÇľÇľÇľÇľÇľÇľÇľÇľÇľÇľÇľÇľÇľÇľÇľÇľÇľÇľÇľÇľÇľÇľÇľÇľÇľÇľÇľÇľÇľÇľÇľÇľÇľÇľÇľÇľÇľÇľÇľÇľÇľÇľÇľÇľÇľÇľÇľÇľÇľÇľÇľÇľÇľÇľÇľÇľÇľÇľÇľÇľÇľÇľÇľÇľÇľÇľÇľÇľÇľÇľÇľÇľÇľÇľÇľÇľÇľÇľÇľÇľÇľÇľÇľÇľÇľÇľÇľÇľÇľÇľÇľÇľÇľÇľÇľÇľÇľÇľÇľÇľÇľÇľÇľÇľÇľÇľÇľÇľÇľÇľÇľÇľÇľÇľÇľÇľÇľÇľÇľÇľÇľÇľÇľÇľÇľÇľÇľÇľÇľÇľÇľÇľÇľÇľÇľÇľÇľÇľÇľÇľÇľÇľÇľÇľÇľÇľÇľÇľÇľÇľÇľÇľÇľÇľÇľÇľÇľÇľÇľÇľÇľÇľÇľÇľÇľÇľÇľÇľÇľÇľÇľÇľÇľÇľÇľÇľÇľÇľÇľÇľÇľÇľÇľÇľÇľÇľÇľÇľÇľÇľÇľÇľÇľÇľÇľÇľÇľÇľÇľÇľÇľÇľÇľÇľÇľÇľÇľÇľÇľÇľÇľÇľÇľÇľ"
      ],
      [
        "Ç",
        "Ĳ"
      ],
      [
        "ÇľÇľÇľÇľÇľÇľÇľÇľÇľÇľÇľÇľÇľÇľÇľÇľÇľÇľÇľÇľÇľÇľ",
        "ÇĿ"
      ],
      [
        "ÇľÇľÇľÇľÇľÇľÇľÇľ",
        "ÇľÇľÇľÇľÇľÇľ"
      ],
      [
        "ÇľÇľÇľÇľÇľÇľÇľÇľÇľÇľÇľÇľÇľÇľÇľÇľÇľÇľÇľÇľÇľÇľÇľÇľÇľÇľÇľÇľÇľÇľÇľÇľÇľÇľÇľÇľÇľÇľÇľÇľÇľÇľÇľÇľÇľÇľÇľÇľÇľÇľÇľÇľÇľÇľÇľÇľÇľÇľÇľÇľÇľÇľÇľÇľÇľÇľÇľÇľÇľÇľÇľÇľÇľÇľÇľÇľÇľÇľÇľÇľÇľÇľÇľÇľÇľÇľÇľÇľÇľÇľÇľÇľÇľÇľÇľÇľÇľÇľÇľÇľÇľÇľÇľÇľÇľÇľÇľÇľÇľÇľÇľÇľÇľÇľÇľÇľÇľÇľÇľÇľÇľÇľÇľÇľÇľÇľÇľÇľÇľÇľÇľÇľÇľÇľÇľÇľÇľÇľÇľÇľÇľÇľÇľÇľÇľÇľÇľÇľÇľÇľÇľÇľÇľÇľÇľÇľÇľÇľÇľÇľÇľÇľÇľÇľÇľÇľÇľÇľÇľÇľÇľÇľÇľÇľÇľÇľÇľÇľÇľÇľÇľÇľÇľÇľÇľÇľÇľÇľÇľÇľÇľÇľÇľÇľÇľÇľÇľÇľÇľÇľÇľÇľÇľÇľÇľÇľÇľÇľÇľÇľÇľÇľÇľÇľÇľÇľÇľÇľÇľÇľÇľÇľÇľÇľÇľÇľÇľÇľÇľÇľÇľÇľÇľÇľÇľÇľÇľÇľÇľÇľÇľÇľÇľÇľÇľÇľÇľÇľÇľÇľÇľÇľÇľÇľÇľÇľÇľÇľÇľÇľÇľÇľÇľÇľÇľÇľÇľÇľÇľÇľÇľÇľÇľÇľÇľÇľÇľÇľÇľÇľÇľÇľÇľÇľÇľÇľÇľÇľÇľÇľÇľÇľÇľÇľÇľÇľÇľÇľÇľÇľÇľÇľÇľÇľÇľÇľÇľÇľÇľÇľÇľÇľÇľÇľÇľÇľÇľÇľÇľÇľÇľÇľÇľÇľÇľÇľÇľÇľÇľÇľÇľÇľÇľÇľÇľÇľÇľÇľÇľÇľÇľÇľÇľÇľÇľÇľÇľÇľÇľÇľÇľÇľÇľÇľÇľÇľÇľÇľÇľÇľÇľÇľÇľÇľÇľÇľÇľÇľÇľÇľÇľÇľÇľÇľÇľÇľÇľÇľÇľÇľÇľÇľÇľÇľÇľÇľÇľÇľÇľÇľÇľÇľÇľÇľÇľÇľÇľÇľÇľÇľÇľÇľÇľÇľÇľÇľÇľÇľÇľÇľÇľÇľÇľÇľÇľÇľÇľÇľÇľÇľÇľÇľÇľÇľÇľÇľÇľÇľÇľÇľÇľÇľÇľÇľÇľÇľÇľÇľÇľÇľÇľÇľÇľÇľÇľÇľÇľÇľÇľÇľÇľÇľÇľÇľÇľÇľÇľÇľÇľÇľÇľÇľÇľÇľÇľÇľÇľÇľÇľÇľÇľÇľÇľÇľÇľÇľÇľÇľÇľÇľÇľÇľÇľÇľÇľÇľÇľÇľÇľÇľÇľÇľÇľÇľÇľÇľÇľÇľÇľÇľÇľÇľÇľÇľÇľÇľÇľÇľÇľÇľÇľÇľ",
        "ÇľÇľÇľÇľÇľÇľÇľÇľÇľÇľÇľÇľÇľÇľÇľÇľÇľÇľÇľÇľÇľÇľÇľÇľÇľÇľÇľÇľÇľÇľÇľÇľÇľÇľÇľÇľÇľÇľÇľÇľÇľÇľÇľÇľÇľÇľÇľÇľÇľÇľÇľÇľÇľÇľÇľÇľÇľÇľÇľÇľÇľÇľÇľÇľÇľÇľÇľÇľÇľÇľÇľÇľÇľÇľÇľÇľÇľÇľÇľÇľÇľÇľÇľÇľÇľÇľÇľÇľÇľÇľÇľÇľÇľÇľÇľÇľ"
      ],
      [
        "Ç",
        "©"
      ],
      [
        "Èł",
        "Æ"
      ],
      [
        "ÇľÇĽ",
        "ÇĿ"
      ],
      [
        "Ç",
        "ı"
      ],
      [
        "ÇľÇľÇľÇľÇľÇľÇľÇľÇľÇľÇľÇľÇľÇľÇľÇľÇľÇľÇľÇľÇľÇľÇľÇľÇľÇľÇľÇľÇľÇľÇľÇĽ",
        "ÇľÇľÇľÇľÇľÇľÇľÇľÇľÇľÇľÇľÇľÇľÇľÇľÇľÇľÇľÇľÇľÇľÇľÇľÇľÇľÇľÇľÇľÇľÇľÇĽ"
      ],
      [
        "Ç",
        "ª"
      ],
      [
        "ÇľÇľÇľÇľÇľÇľÇľÇľÇľÇľÇľÇľÇľÇľÇľÇľÇľÇľÇľÇľÇľÇľ",
        "ÇĽ"
      ],
      [
        "Ç",
        "¬"
      ],
      [
        "ÇľÇľÇľÇľÇľÇľÇľÇľÇľÇľÇľÇľÇľÇľÇľÇľÇľÇľ",
        "Çľ"
      ],
      [
        "Ç",
        "İ"
      ],
      [
        "Ç",
        "«"
      ],
      [
        "Æ",
        "ķ"
      ],
      [
        "Æ",
        "Ķ"
      ],
      [
        "Çļ",
        "Çŀ"
      ],
      [
        "Ç",
        "Ń"
      ],
      [
        "ÇľÇľÇľÇľÇľÇľ",
        "Çŀ"
      ],
      [
        "Æ",
        "ľ"
      ],
      [
        "Ç",
        "į"
      ],
      [
        "ÇľÇľÇľÇľÇľÇľÇľÇľÇľÇľÇľÇľÇľÇľÇľÇľÇľÇľÇľÇľÇľÇľÇľÇľÇľÇľÇľÇľ",
        "Çľ"
      ],
      [
        "Ç",
        "Į"
      ],
      [
        "Ç",
        "ĭ"
      ],
      [
        "Æ",
        "Ļ"
      ],
      [
        "Ç",
        "®"
      ],
      [
        "Çļ",
        "ÇĿ"
      ],
      [
        "ÇľÇľÇľÇľÇľÇľÇľÇľÇľÇľÇľÇľ",
        "ÇľÇ"
      ],
      [
        "ÇľÇĿ",
        "ÇĽ"
      ],
      [
        "ÇľÇľÇľÇľÇľÇľÇľÇľÇľÇľÇľÇľÇľÇľÇľÇľÇľÇľÇľÇľÇľÇľÇľÇľ",
        "Çŀ"
      ],
      [
        "ÇľÇľÇľÇľÇľÇľÇľÇľÇľÇľÇľÇľÇľÇľÇľÇľÇľÇľÇľÇľÇľÇľÇľÇľÇľÇľÇľÇľÇľÇľÇľÇĿ",
        "ÇľÇľÇľÇľÇľÇľÇľÇľÇľÇľÇľÇľÇľÇľÇľÇľÇľÇľÇľÇľÇľÇľÇľÇľÇľÇľÇľÇľÇľÇľÇľÇľÇľÇľÇľÇľÇľÇľÇľÇľÇľÇľÇľÇľÇľÇľÇľÇľÇľÇľÇľÇľÇľÇľÇľÇľÇľÇľÇľÇľÇľÇľÇľÇľÇľÇľÇľÇľÇľÇľÇľÇľÇľÇľÇľÇľÇľÇľÇľÇľÇľÇľÇľÇľÇľÇľÇľÇľÇľÇľÇľÇľÇľÇľÇľÇľÇľÇľÇľÇľÇľÇľÇľÇľÇľÇľÇľÇľÇľÇľÇľÇľÇľÇľÇľÇľÇľÇľÇľÇľÇľÇľÇľÇľÇľÇľÇľÇľÇľÇľÇľÇľÇľÇľÇľÇľÇľÇľÇľÇľÇľÇľÇľÇľÇľÇľÇľÇľÇľÇľÇľÇľÇľÇľÇľÇľÇľÇľÇľÇľÇľÇľÇľÇľÇľÇľÇľÇľÇľÇľÇľÇľÇľÇľÇľÇľÇľÇľÇľÇľÇľÇľÇľÇľÇľÇľÇľÇľÇľÇľÇľÇľÇľÇľÇľÇľÇľÇľÇľÇľÇľÇľÇľÇľÇľÇľÇľÇľÇľÇľÇľÇľÇľÇľÇľÇľÇľÇľÇľÇľÇľÇľÇľÇľÇľÇľÇľÇľÇľÇľÇľÇľÇľÇľÇľÇľÇľÇľÇľÇľÇľÇľÇľÇľÇľÇľÇľÇľÇľÇľÇľÇľÇľÇľÇľÇľÇľÇľÇľÇľÇľÇľÇľÇľÇľÇľÇľÇľÇľÇľÇľÇľÇľÇľÇľÇľÇľÇľÇľÇľÇľÇľÇľÇľÇľÇľÇľÇľÇľÇľÇľÇľÇľÇľÇľÇľÇľÇľÇľÇľÇľÇľÇľÇľÇľÇľÇľÇľÇľÇľÇľÇľÇľÇľÇľÇľÇľÇľÇľÇľÇľÇľÇľÇľÇľÇľÇľÇľÇľÇľÇľÇľÇľÇľÇľÇľÇľÇľÇľÇľÇľÇľÇľÇľÇľÇľÇľÇľÇľÇľÇľÇľÇľÇľÇľÇľÇľÇľÇľÇľÇľÇľÇľÇľÇľÇľÇľÇľÇľÇľÇľÇľÇľÇľÇľÇľÇľÇľÇľÇľÇľÇľÇľÇľÇľÇľÇľÇľÇľÇľÇľÇľÇľÇľÇľÇľÇľÇľÇľÇľÇľÇľÇľÇľÇľÇľÇľÇľÇľÇľÇľÇľÇľÇľÇľÇľÇľÇľÇľÇľÇľÇľÇľÇľÇľÇľÇľÇľÇľÇľÇľÇľÇľÇľÇľÇľÇľÇľÇľÇľÇľÇľÇľÇľÇľÇľÇľÇľÇľÇľÇľÇľÇľÇľÇľÇľÇľÇľÇľÇľÇľÇľÇľÇľÇľÇľÇľÇľÇľÇľÇľÇľÇľÇľÇľÇľÇľÇľÇľÇľÇľÇľÇľÇľÇľÇľÇľÇľÇľÇľÇľÇľÇľÇľÇľÇľÇľÇľÇľÇľÇľÇľÇľÇľÇľÇľÇľÇľÇľÇľÇľÇľÇľÇľÇľÇľÇľÇľÇľÇľÇľÇľÇľÇľÇľÇľÇľÇľÇľÇľÇľÇľÇľÇľÇľÇľÇľÇľÇľÇľÇľÇľÇľÇľÇľÇľÇľÇľÇľÇľÇľÇľÇľÇľÇľÇľÇľÇľÇľÇľÇľÇľÇľÇľÇľÇľÇľÇľÇľÇľÇľÇľÇľÇľÇľÇľÇľÇľÇľÇľÇľÇľÇľÇľÇľÇľÇľÇľÇľÇľÇľÇľÇľÇľÇľÇľÇľÇľÇľÇľÇľÇľÇľÇľÇľÇľÇľÇľÇľÇľÇľÇľÇľÇľÇľÇľÇľÇľÇľÇľÇľÇľÇľÇľÇľÇľÇľÇľÇľÇľÇľÇľÇľÇľÇľÇľÇľÇľÇľÇľ"
      ],
      [
        "ĥ",
        "Ç"
      ],
      [
        "ÇľÇľÇľÇľÇľÇľ",
        "Çļ"
      ],
      [
        "Æ",
        "ĸ"
      ],
      [
        "Æ",
        "Ľ"
      ],
      [
        "ÇľÇľÇľÇľÇľÇľÇľÇľÇľÇľÇľÇľÇľÇľÇľÇľÇľÇľÇľÇľÇľÇľÇľÇľÇľÇľÇľÇľ",
        "ÇľÇĽ"
      ],
      [
        "ÇľÇľ",
        "ÇĽÇĿ"
      ],
      [
        "Ç",
        "°"
      ],
      [
        "ÇľÇ",
        "ĺ"
      ],
      [
        "ÇľÇ",
        "ł"
      ],
      [
        "Ç",
        "Ĭ"
      ],
      [
        "ÇĽ",
        "Çŀ"
      ],
      [
        "ÇľÇľÇľÇľÇľÇľÇľÇľÇľÇľÇľÇľÇľÇľÇľÇľÇľÇľÇľÇľÇľÇľÇľÇľ",
        "ÇľÇľÇľÇľÇľÇľ"
      ],
      [
        "ÇľÇľÇľÇľÇľÇľÇľÇľÇľÇľÇľÇľÇľÇľÇľÇľÇľÇľÇľÇľÇľÇľÇľÇľÇľÇľÇľÇľÇľÇľÇľÇĽ",
        "ÇľÇľÇľÇľÇľÇľÇľÇľÇľÇľÇľÇľÇľÇľÇľÇľÇľÇľÇľÇľÇľÇľÇľÇľÇľÇľÇľÇľÇľÇľÇľÇľÇľÇľÇľÇľÇľÇľÇľÇľÇľÇľÇľÇľÇľÇľÇľÇľÇľÇľÇľÇľÇľÇľÇľÇľÇľÇľÇľÇľÇľÇľÇľÇľÇľÇľÇľÇľÇľÇľÇľÇľÇľÇľÇľÇľÇľÇľÇľÇľÇľÇľÇľÇľÇľÇľÇľÇľÇľÇľÇľÇľÇľÇľÇľÇľÇľÇľÇľÇľÇľÇľÇľÇľÇľÇľÇľÇľÇľÇľÇľÇľÇľÇľÇľÇľÇľÇľÇľÇľÇľÇľÇľÇľÇľÇľÇľÇľÇľÇľÇľÇľÇľÇľÇľÇľÇľÇľÇľÇľÇľÇľÇľÇľÇľÇľÇľÇľÇľÇľÇľÇľÇľÇľÇľÇľÇľÇľÇľÇľÇľÇľÇľÇľÇľÇľÇľÇľÇľÇľÇľÇľÇľÇľÇľÇľÇľÇľÇľÇľÇľÇľÇľÇľÇľÇľÇľÇľÇľÇľÇľÇľÇľÇľÇľÇľÇľÇľÇľÇľÇľÇľÇľÇľÇľÇľÇľÇľÇľÇľÇľÇľÇľÇľÇľÇľÇľÇľÇľÇľÇľÇľÇľÇľÇľÇľÇľÇľÇľÇľÇľÇľÇľÇľÇľÇľÇľÇľÇľÇľÇľÇľÇľÇľÇľÇľÇľÇľÇľÇľÇľÇľÇľÇľÇľÇľÇľÇľÇľÇľÇľÇľÇľÇľÇľÇľÇľÇľÇľÇľÇľÇľÇľÇľÇľÇľÇľÇľÇľÇľÇľÇľÇľÇľÇľÇľÇľÇľÇľÇľÇľÇľÇľÇľÇľÇľÇľÇľÇľÇľÇľÇľÇľÇľÇľÇľÇľÇľÇľÇľÇľÇľÇľÇľÇľÇľÇľÇľÇľÇľÇľÇľÇľÇľÇľÇľÇľÇľÇľÇľÇľÇľÇľÇľÇľÇľÇľÇľÇľÇľÇľÇľÇľÇľÇľÇľÇľÇľÇľÇľÇľÇľÇľÇľÇľÇľÇľÇľÇľÇľÇľÇľÇľÇľÇľÇľÇľÇľÇľÇľÇľÇľÇľÇľÇľÇľÇľÇľÇľÇľÇľÇľÇľÇľÇľÇľÇľÇľÇľÇľÇľÇľÇľÇľÇľÇľÇľÇľÇľÇľÇľÇľÇľÇľÇľÇľÇľÇľÇľÇľÇľÇľÇľÇľÇľÇľÇľÇľÇľÇľÇľÇľÇľÇľÇľÇľÇľÇľÇľÇľÇľÇľÇľÇľÇľÇľÇľÇľÇľÇľÇľÇľÇľÇľÇľÇľÇľÇľÇľÇľÇľÇľÇľÇľÇľÇľÇľÇľÇľÇľÇľÇľÇľÇľÇľÇľÇľÇľÇľÇľÇľÇľÇľÇľÇľÇľÇľÇľÇľÇľÇľÇľÇľÇľÇľÇľÇľÇľÇľÇľÇľÇľÇľÇľÇľÇľÇľÇľÇľÇľÇľÇľÇľÇľÇľÇľÇľÇľÇľÇľÇľÇľÇľÇľÇľÇľÇľÇľÇľÇľÇľÇľÇľÇľÇľÇľÇľÇľÇľÇľÇľÇľÇľÇľÇľÇľÇľÇľÇľÇľÇľÇľÇľÇľÇľÇľÇľÇľÇľÇľÇľÇľÇľÇľÇľÇľÇľÇľÇľÇľÇľÇľÇľÇľÇľÇľÇľÇľÇľÇľÇľÇľÇľÇľÇľÇľÇľÇľÇľÇľÇľÇľÇľÇľÇľÇľÇľÇľÇľÇľÇľÇľÇľÇľÇľÇľÇľÇľÇľÇľÇľÇľÇľÇľÇľÇľÇľÇľÇľÇľÇľÇľÇľÇľÇľÇľÇľÇľÇľÇľÇľÇľÇľÇľÇľÇľÇľÇľÇľÇľÇľÇľÇľÇľÇľÇľÇľÇľÇľÇľ"
      ],
      [
        "Ç",
        "¯"
      ],
      [
        "ÇľÇľÇľÇľÇľÇľÇľÇ",
        "Ľ"
      ],
      [
        "ÇľÇľÇľÇľÇľÇľÇľÇľ",
        "ÇľÇľÇľÇľÇľÇľÇĿ"
      ],
      [
        "Æ",
        "ļ"
      ],
      [
        "ÇľÇĿ",
        "ÇĿ"
      ],
      [
        "Æį",
        "Ç¥ÇķÇŀÈĳÇĿÆ©ÈĦÇĨÈĴÈĩÇľÇľÇľÇľÇľÇľÇľÇľÇľÇľÇľÇľ"
      ],
      [
        "ÇľÇľÇľÇľÇľÇľÇľÇľÇľÇľÇľÇľÇľÇľÇľÇľÇľÇľÇľÇľÇľÇľÇľÇľÇľÇľÇľÇľÇľÇľÇľÇ",
        "ļ"
      ],
      [
        "Çľ",
        "Æ"
      ],
      [
        "Ç",
        "±"
      ],
      [
        "ÇľÇľÇľÇľÇľÇľÇľÇ",
        "Ŀ"
      ],
      [
        "¸",
        "ÈĴÈĩ"
      ],
      [
        "ÇľÇľÇľÇľÇľÇľÇľÇľ",
        "ÇľÇĽ"
      ],
      [
        "ÇĿ",
        "ÈŁÆ"
      ],
      [
        "Ç",
        "ī"
      ],
      [
        "ÇľÇľÇľÇľÇľÇľÇľÇľÇľÇľÇľÇľÇľÇľÇľÇľÇľÇľÇľÇľÇľÇľÇľÇľÇľÇľÇľÇľÇľÇľÇľÇ",
        "ŀ"
      ],
      [
        "Çŀ",
        "ÇĿ"
      ],
      [
        "Ç",
        "Ī"
      ],
      [
        "ÇľÇĽ",
        "ÇľÇľÇľÇľ"
      ],
      [
        "ÇľÇľÇľÇľÇľÇľÇľÇľÇľÇľÇľÇľÇľÇľÇľÇľÇľÇľÇľÇľÇľÇľÇľÇľ",
        "Çļ"
      ],
      [
        "Çŀ",
        "ÇĽ"
      ],
      [
        "Ç",
        "²"
      ],
      [
        "ÇľÇĿ",
        "ÇľÇľÇľÇľ"
      ],
      [
        "ÇľÇľÇľÇľÇľÇľÇľÇľÇľÇľÇľÇľÇľÇľÇľÇľÇľÇľÇľÇľÇľÇľÇľÇľÇľÇľÇľÇľ",
        "ÇľÇĿ"
      ],
      [
        "Ç",
        "ĩ"
      ],
      [
        "Æ",
        "ĺ"
      ],
      [
        "È",
        "Ĳ"
      ],
      [
        "Æ",
        "Ĺ"
      ],
      [
        "ÇľÇľÇľÇľÇľÇľÇľÇľ",
        "ÇľÇĿ"
      ],
      [
        "Çļ",
        "ÇĽ"
      ],
      [
        "ÇľÇľÇľÇľÇľÇľÇľÇľÇľÇľÇľÇľÇľÇľÇľÇľÇľÇľÇľÇľ",
        "ÇľÇĿ"
      ],
      [
        "Ç",
        "Ĩ"
      ],
      [
        "ÇľÇľÇľÇľÇľÇľÇľÇľÇľÇľÇľÇľÇľÇľÇľÇľÇľÇľÇľÇľÇľÇľÇľÇľÇľÇľÇľÇľÇľÇľÇľÇĿ",
        "ÇľÇľÇľÇľÇľÇľÇľÇľÇľÇľÇľÇľÇľÇľÇľÇľÇľÇľÇľÇľÇľÇľÇľÇľÇľÇľÇľÇľÇľÇľÇľÇĿ"
      ],
      [
        "Æ",
        "Ŀ"
      ],
      [
        "ÇľÇľÇľÇľÇľÇľÇľÇľÇľÇľÇľÇľÇľÇľÇľÇľÇľÇľÇľÇľ",
        "ÇľÇĽ"
      ],
      [
        "Ç",
        "³"
      ],
      [
        "Ç",
        "´"
      ],
      [
        "ÇĹÇĹÇľÈİÇ£Æ©ÈĦÇ",
        "¸ÈĴÈĩ"
      ],
      [
        "Ç",
        "ħ"
      ],
      [
        "ÇľÇľÇľÇľÇľÇľÇľÇľÇľÇľÇľÇľÇľÇľÇľÇľÇľÇľÇľÇľÇľÇľÇľÇľÇľÇľÇľÇľÇľÇľÇľÇľ",
        "ÇľÇľÇľÇľÇľÇľÇľÇľÇľÇľÇľÇľÇľÇľÇľÇľÇľÇľÇľÇľÇľÇľÇľÇľÇľÇľÇľÇľÇľÇľÇľÇĽ"
      ],
      [
        "È",
        "Ĩ"
      ],
      [
        "È",
        "ģ"
      ],
      [
        "Ç",
        "µ"
      ],
      [
        "ÇľÇľÇľÇľÇľÇľÇľÇľ",
        "ÇľÇľÇľÇľÇľÇľÇĽ"
      ],
      [
        "Æ",
        "ŀ"
      ],
      [
        "Æį",
        "ÇľÇľÇľÇľÇľÇľÇľÇľÇľÇľÇľÇľ"
      ],
      [
        "È",
        "ħ"
      ],
      [
        "Ç",
        "º"
      ],
      [
        "È",
        "ĥ"
      ],
      [
        "Æį",
        "ÇľÇľÇľÇľÇľÇľÇľÇľÇľÇľÇľÇľÇľÇľÇľÇľÇľÇľÇľÇľÇľÇľ"
      ],
      [
        "ÇľÇ",
        "¡"
      ],
      [
        "È",
        "į"
      ],
      [
        "Ç",
        "·"
      ],
      [
        "Æ",
        "ĵ"
      ],
      [
        "Ç",
        "¸"
      ],
      [
        "ÇľÇľÇľÇľÇľÇľÇľÇľÇľÇľÇľÇľ",
        "ÇľÇĽ"
      ],
      [
        "ÇľÇ",
        "Ĺ"
      ],
      [
        "Ç",
        "»"
      ],
      [
        "Ç",
        "¶"
      ],
      [
        "ÇľÇĽ",
        "ÇľÇĿ"
      ],
      [
        "Çŀ",
        "Çļ"
      ],
      [
        "È",
        "Ĥ"
      ],
      [
        "ÈłÆ",
        "ĥÇ"
      ],
      [
        "Ç",
        "½"
      ],
      [
        "Ç",
        "¿"
      ],
      [
        "Ç",
        "¼"
      ],
      [
        "ÇĽÇĿ",
        "ÇĿ"
      ],
      [
        "ÇľÇľÇľÇľÇľÇľÇľÇľÇľÇľÇľÇľÇľÇľÇľÇľÇľÇľÇľÇľÇľÇľÇľÇľ",
        "ÇľÇľÇľÇľÇľÇľÇĿ"
      ],
      [
        "Æ",
        "ª"
      ],
      [
        "Ç",
        "¹"
      ],
      [
        "ÇľÇľÇľÇľÇľÇľÇľÇľÇľÇľÇľÇľÇľÇľÇľÇľÇľÇľÇľÇľÇľÇľÇľÇľ",
        "ÇŁ"
      ],
      [
        "Æ",
        "´"
      ],
      [
        "È",
        "Ģ"
      ],
      [
        "Æ",
        "¿"
      ],
      [
        "Ç",
        "Ĥ"
      ],
      [
        "ÇľÇľÇľÇľÇľÇľÇľÇľÇľÇľÇľÇľÇľÇľÇľÇľÇľÇľÇľÇľÇľÇľÇľÇľ",
        "ÇľÇľÇľÇľÇľÇľÇĽ"
      ],
      [
        "Èĩ",
        "ÇľÇľÇľÇľÇľÇľÇľÇľÇľÇľÇľÇľ"
      ],
      [
        "Æ",
        "µ"
      ],
      [
        "ÇľÇľÇľÇľÇľÇľ",
        "ÇŁ"
      ],
      [
        "ÇľÇľÇľÇľÇľÇľÇľÇľÇľÇľÇľÇľÇľÇľÇľÇľÇľÇľÇľÇľÇľÇľÇľÇ",
        "ļ"
      ],
      [
        "ÇľÇľÇľÇľÇľÇľÇľÇľÇľÇľÇľÇľÇľÇľÇľÇľÇľÇľÇľÇľÇľÇľÇľÇ",
        "ŀ"
      ],
      [
        "ÇĿ",
        "Çļ"
      ],
      [
        "ÇĽÇĿ",
        "ÇĽ"
      ],
      [
        "È",
        "ī"
      ],
      [
        "Ç",
        "ĥ"
      ],
      [
        "Æ",
        "»"
      ],
      [
        "Æ",
        "«"
      ],
      [
        "ÇľÇľ",
        "ÇĿÇĽ"
      ],
      [
        "Æ",
        "¸"
      ],
      [
        "È",
        "ĭ"
      ],
      [
        "Æ",
        "¼"
      ],
      [
        "Æ",
        "¾"
      ],
      [
        "ÇĻ",
        "ÇŁ"
      ],
      [
        "Ç",
        "Ģ"
      ],
      [
        "È",
        "Į"
      ],
      [
        "ÇĽ",
        "Çļ"
      ],
      [
        "È",
        "ı"
      ],
      [
        "ÇľÇľÇľÇľÇľÇľÇľÇľÇľÇľÇľÇľÇľÇľÇľÇľÇľÇľÇľÇľÇľÇľÇľÇľÇľÇľÇľÇľÇľÇľÇľÇľÇľÇľÇľÇľÇľÇľÇľÇľÇľÇľÇľÇľÇľÇľÇľÇľÇľÇľÇľÇľÇľÇľÇľÇľÇľÇľÇľÇľÇľÇľÇľÇľÇľÇľÇľÇľÇľÇľÇľÇľÇľÇľÇľÇľÇľÇľÇľÇľÇľÇľÇľÇľÇľÇľÇľÇľÇľÇľÇľÇľÇľÇľÇľÇľÇľÇľÇľÇľÇľÇľÇľÇľÇľÇľÇľÇľÇľÇľÇľÇľÇľÇľÇľÇľÇľÇľÇľÇľÇľÇľÇľÇľÇľÇľÇľÇľÇľÇľÇľÇľÇľÇľÇľÇľÇľÇľÇľÇľÇľÇľÇľÇľÇľÇľÇľÇľÇľÇľÇľÇľÇľÇľÇľÇľÇľÇľÇľÇľÇľÇľÇľÇľÇľÇľÇľÇľÇľÇľÇľÇľÇľÇľÇľÇľÇľÇľÇľÇľÇľÇľÇľÇľÇľÇľÇľÇľÇľÇľÇľÇľÇľÇľÇľÇľÇľÇľÇľÇľÇľÇľÇľÇľÇľÇľÇľÇľÇľÇľÇľÇľÇľÇľÇľÇľÇľÇľÇľÇľÇľÇľÇľÇľÇľÇľÇľÇľÇľÇľÇľÇľÇľÇľÇľÇľÇľÇľÇľÇľÇľÇľÇľÇľÇľÇľÇľÇľÇľÇľÇľÇľÇľÇľÇľÇľÇľÇľÇľÇľÇľÇľÇľÇľÇľÇľÇľÇľÇľÇľÇľÇľÇľÇľÇľÇľÇľÇľÇľÇľÇľÇľÇľÇľÇľÇľÇľÇľÇľÇľÇľÇľÇľÇľÇľÇľÇľÇľÇľÇľÇľÇľÇľÇľÇľÇľÇľÇľÇľÇľÇľÇľÇľÇľÇľÇľÇľÇľÇľÇľÇľÇľÇľÇľÇľÇľÇľÇľÇľÇľÇľÇľÇľÇľÇľÇľÇľÇľÇľÇľÇľÇľÇľÇľÇľÇľÇľÇľÇľÇľÇľÇľÇľÇľÇľÇľÇľÇľÇľÇľÇľÇľÇľÇľÇľÇľÇľÇľÇľÇľÇľÇľÇľÇľÇľÇľÇľÇľÇľÇľÇľÇľÇľÇľÇľÇľÇľÇľÇľÇľÇľÇľÇľÇľÇľÇľÇľÇľÇľÇľÇľÇľÇľÇľÇľÇľÇľÇľÇľÇľÇľÇľÇľÇľÇľÇľÇľÇľÇľÇľÇľÇľÇľÇľÇľÇľÇľÇľÇľÇľÇľÇľÇľÇľÇľÇľÇľÇľÇľÇľÇľÇľÇľÇľÇľÇľÇľÇľÇľÇľÇľÇľÇľÇľÇľÇľÇľÇľÇľÇľÇľÇľÇľÇľÇľÇľÇľÇľÇľÇľÇľÇľÇľÇľÇľÇľÇľÇľÇľÇľÇľÇľÇľÇľÇľÇľÇľÇľÇľÇľÇľÇľÇľÇľÇľÇľÇľÇľÇľÇľÇľÇľÇľÇľÇľÇľÇľÇľÇľÇľÇľÇľÇľÇľÇľÇľÇľÇľÇľÇľÇľÇľÇľÇľÇľÇľÇľÇľÇľÇľÇľÇľÇľÇľÇľÇľÇľÇľÇľÇľÇľÇľÇľÇľÇľÇľÇľÇľÇľÇľÇľÇľÇľÇľÇľÇľÇľÇľÇľÇľÇľÇľÇľÇľÇľÇľÇľÇľÇľÇľÇľÇľÇľÇľÇľÇľÇľÇľÇľÇľÇľÇľÇľÇľÇľÇľÇľÇľÇľÇľÇľÇľÇľÇľÇľÇľÇľÇľÇľÇľÇľÇľÇľÇľÇľÇľÇľÇľÇľÇľÇľÇľÇľÇľÇľÇľÇľÇľÇľÇľÇľÇľÇľÇľÇľÇľÇľÇľÇľÇľÇľÇľÇľÇľÇľÇľÇľÇľÇľÇľ",
        "ÇľÇľÇľÇľÇľÇľÇľÇľÇľÇľÇľÇľÇľÇľÇľÇľÇľÇľÇľÇľÇľÇľÇľÇľÇľÇľÇľÇľÇľÇľÇľÇľÇľÇľÇľÇľÇľÇľÇľÇľÇľÇľÇľÇľÇľÇľÇľÇľÇľÇľÇľÇľÇľÇľÇľÇľÇľÇľÇľÇľÇľÇľÇľÇľÇľÇľÇľÇľÇľÇľÇľÇľÇľÇľÇľÇľÇľÇľÇľÇľÇľÇľÇľÇľÇľÇľÇľÇľÇľÇľÇľÇľÇľÇľÇľÇľ"
      ],
      [
        "ÇľÇĿ",
        "ÇľÇĽ"
      ],
      [
        "Ç",
        "ģ"
      ],
      [
        "Æ",
        "½"
      ],
      [
        "ÇľÇľÇľÇľÇľÇľÇľÇľÇľÇľÇľÇľÇľÇľÇľÇľÇľÇľÇľÇľÇľÇľÇľÇľÇľÇľÇľÇľÇľÇľÇľÇľÇľÇľÇľÇľÇľÇľÇľÇľÇľÇľÇľÇľÇľÇľÇľÇľÇľÇľÇľÇľÇľÇľÇľÇľÇľÇľÇľÇľÇľÇľÇľÇľÇľÇľÇľÇľÇľÇľÇľÇľÇľÇľÇľÇľÇľÇľÇľÇľÇľÇľÇľÇľÇľÇľÇľÇľÇľÇľÇľÇľÇľÇľÇľÇľÇľÇľÇľÇľÇľÇľÇľÇľÇľÇľÇľÇľÇľÇľÇľÇľÇľÇľÇľÇľÇľÇľÇľÇľÇľÇľÇľÇľÇľÇľÇľÇľÇľÇľÇľÇľÇľÇľÇľÇľÇľÇľÇľÇľÇľÇľÇľÇľÇľÇľÇľÇľÇľÇľÇľÇľÇľÇľÇľÇľÇľÇľÇľÇľÇľÇľÇľÇľÇľÇľÇľÇľÇľÇľÇľÇľÇľÇľÇľÇľÇľÇľÇľÇľÇľÇľÇľÇľÇľÇľÇľÇľÇľÇľÇľÇľÇľÇľÇľÇľÇľÇľÇľÇľÇľÇľÇľÇľÇľÇľÇľÇľÇľÇľÇľÇľÇľÇľÇľÇľÇľÇľÇľÇľÇľÇľÇľÇľÇľÇľÇľÇľÇľÇľÇľÇľÇľÇľÇľÇľÇľÇľÇľÇľÇľÇľÇľÇľÇľÇľÇľÇľÇľÇľÇľÇľÇľÇľÇľÇľÇľÇľÇľÇľÇľÇľÇľÇľÇľÇľÇľÇľÇľÇľÇľÇľÇľÇľÇľÇľÇľÇľÇľÇľÇľÇľÇľÇľÇľÇľÇľÇľÇľÇľÇľÇľÇľÇľÇľÇľÇľÇľÇľÇľÇľÇľÇľÇľÇľÇľÇľÇľÇľÇľÇľÇľÇľÇľÇľÇľÇľÇľÇľÇľÇľÇľÇľÇľÇľÇľÇľÇľÇľÇľÇľÇľÇľÇľÇľÇľÇľÇľÇľÇľÇľÇľÇľÇľÇľÇľÇľÇľÇľÇľÇľÇľÇľÇľÇľÇľÇľÇľÇľÇľÇľÇľÇľÇľÇľÇľÇľÇľÇľÇľÇľÇľÇľÇľÇľÇľÇľÇľÇľÇľÇľÇľÇľÇľÇľÇľÇľÇľÇľÇľÇľÇľÇľÇľÇľÇľÇľÇľÇľÇľÇľÇľÇľÇľÇľÇľÇľÇľÇľÇľÇľÇľÇľÇľÇľÇľÇľÇľÇľÇľÇľÇľÇľÇľÇľÇľÇľÇľÇľÇľÇľÇľÇľÇľÇľÇľÇľÇľÇľÇľÇľÇľÇľÇľÇľÇľÇľÇľÇľÇľÇľÇľÇľÇľÇľÇľÇľÇľÇľÇľÇľÇľÇľÇľÇľÇľÇľÇľÇľÇľÇľÇľÇľÇľÇľÇľÇľÇľÇľÇľÇľÇľÇľÇľÇľÇľÇľÇľÇľÇľÇľÇľÇľÇľÇľÇľÇľÇľÇľÇľÇľÇľÇľÇľÇľÇľÇľÇľÇľÇľÇľÇľÇľÇľÇľÇľÇľÇľÇľÇľÇľÇľÇľÇľÇľÇľÇľÇľÇľÇľÇľÇľÇľÇľÇľÇľÇľÇľÇľÇľÇľÇľÇľÇľÇľÇľÇľÇľÇľÇľÇľÇľÇľÇľÇľÇľÇľÇľÇľÇľÇľÇľÇľÇľÇľÇľÇľÇľÇľÇľÇľÇľÇľÇľÇľÇľÇľÇľÇľÇľÇľÇľÇľÇľÇľÇľÇľÇľÇľÇľÇľÇľÇľÇľÇľÇľÇľÇľÇľÇľÇľÇľÇľÇľÇľÇľÇľÇľ",
        "ÇľÇľÇľÇľÇľÇľÇľÇľÇľÇľÇľÇľ"
      ],
      [
        "Æ",
        "¨"
      ],
      [
        "È",
        "Ĭ"
      ],
      [
        "È",
        "Ħ"
      ],
      [
        "ÇľÇľÇľÇľÇľÇľÇľÇľÇľÇľÇľÇľÇľÇľÇľÇľÇľÇľÇľÇľÇľÇľÇľÇľÇľÇľÇľÇľÇľÇľÇľÇĿ",
        "ÇľÇľÇľÇľÇľÇľÇľÇľÇľÇľÇľÇľÇľÇľÇľÇľÇľÇľÇľÇľÇľÇľÇľÇľÇľÇľÇľÇľÇľÇľÇľÇĽ"
      ],
      [
        "Æ",
        "·"
      ],
      [
        "ÇľÇľ",
        "Çŀ"
      ],
      [
        "Çļ",
        "ÇŁ"
      ],
      [
        "Æ",
        "¬"
      ],
      [
        "ÇľÇľÇľÇľÇľÇľÇľÇľÇľÇľÇľÇľÇľÇľÇľÇľÇľÇľÇľÇľÇľÇľÇľÇľÇľÇľ",
        "ÇľÇĽ"
      ],
      [
        "Æ",
        "¯"
      ],
      [
        "Æ",
        "Ĵ"
      ],
      [
        "Æ",
        "°"
      ],
      [
        "Æ",
        "º"
      ],
      [
        "Ç",
        "¾"
      ],
      [
        "Ç",
        "Ħ"
      ],
      [
        "Æ",
        "³"
      ],
      [
        "ÇĻ",
        "ÇĿ"
      ],
      [
        "Æ",
        "Ł"
      ],
      [
        "ÇľÇľÇľÇľÇľÇľÇľÇľ",
        "ÇĿ"
      ],
      [
        "Æ",
        "²"
      ],
      [
        "ÇľÇľÇľÇľÇľÇľÇĽ",
        "ÇľÇľÇľÇľÇľÇľÇľÇľÇľÇľÇľÇľÇľÇľÇľÇľÇľÇľÇľÇľÇľÇľÇľÇľÇĿ"
      ],
      [
        "ÇľÇ",
        "¢"
      ],
      [
        "È",
        "Ī"
      ],
      [
        "ÇľÇ",
        "ĸ"
      ],
      [
        "ÇľÇľÇľÇľÇľÇľÇľÇľÇľÇľÇľÇľÇľÇľÇľÇľÇľÇľÇľÇľÇľÇľÇľÇľ",
        "Çł"
      ],
      [
        "ÇľÇľÇľÇľÇľÇľÇľÇľÇľÇľÇľÇľÇľÇľÇľÇľÇľÇľÇľÇľÇľÇľÇľÇľÇľÇľÇľÇľÇľÇľÇľÇľÇľÇľÇľÇľÇľÇľÇľÇľÇľÇľÇľÇľÇľÇľÇľÇľÇľÇľÇľÇľÇľÇľÇľÇľÇľÇľÇľÇľÇľÇľÇľÇľÇľÇľÇľÇľÇľÇľÇľÇľÇľÇľÇľÇľÇľÇľÇľÇľÇľÇľÇľÇľÇľÇľÇľÇľÇľÇľÇľÇľÇľÇľÇľÇľÇľÇľÇľÇľÇľÇľÇľÇľÇľÇľÇľÇľÇľÇľÇľÇľÇľÇľÇľÇľÇľÇľÇľÇľÇľÇľÇľÇľÇľÇľÇľÇľÇľÇľÇľÇľÇľÇľÇľÇľÇľÇľÇľÇľÇľÇľÇľÇľÇľÇľÇľÇľÇľÇľÇľÇľÇľÇľÇľÇľÇľÇľÇľÇľÇľÇľÇľÇľÇľÇľÇľÇľÇľÇľÇľÇľÇľÇľÇľÇľÇľÇľÇľÇľÇľÇľÇľÇľÇľÇľÇľÇľÇľÇľÇľÇľÇľÇľÇľÇľÇľÇľÇľÇľÇľÇľÇľÇľÇľÇľÇľÇľÇľÇľÇľÇľÇľÇľÇľÇľÇľÇľÇľÇľÇľÇľÇľÇľÇľÇľÇľÇľÇľÇľÇľÇľÇľÇľÇľÇľÇľÇľÇľÇľÇľÇľÇľÇľÇľÇľÇľÇľÇľÇľÇľÇľÇľÇľÇľÇľÇľÇľÇľÇľÇľÇľÇľÇľÇľÇľÇľÇľÇľÇľÇľÇľÇľÇľÇľÇľÇľÇľÇľÇľÇľÇľÇľÇľÇľÇľÇľÇľÇľÇľÇľÇľÇľÇľÇľÇľÇľÇľÇľÇľÇľÇľÇľÇľÇľÇľÇľÇľÇľÇľÇľÇľÇľÇľÇľÇľÇľÇľÇľÇľÇľÇľÇľÇľÇľÇľÇľÇľÇľÇľÇľÇľÇľÇľÇľÇľÇľÇľÇľÇľÇľÇľÇľÇľÇľÇľÇľÇľÇľÇľÇľÇľÇľÇľÇľÇľÇľÇľÇľÇľÇľÇľÇľÇľÇľÇľÇľÇľÇľÇľÇľÇľÇľÇľÇľÇľÇľÇľÇľÇľÇľÇľÇľÇľÇľÇľÇľÇľÇľÇľÇľÇľÇľÇľÇľÇľÇľÇľÇľÇľÇľÇľÇľÇľÇľÇľÇľÇľÇľÇľÇľÇľÇľÇľÇľÇľÇľÇľÇľÇľÇľÇľÇľÇľÇľÇľÇľÇľÇľÇľÇľÇľÇľÇľÇľÇľÇľÇľÇľÇľÇľÇľÇľÇľÇľÇľÇľÇľÇľÇľÇľÇľÇľÇľÇľÇľÇľÇľÇľÇľÇľÇľÇľÇľÇľÇľÇľÇľÇľÇľÇľÇľÇľÇľÇľÇľÇľÇľÇľÇľÇľÇľÇľÇľÇľÇľÇľÇľÇľÇľÇľÇľÇľÇľÇľÇľÇľÇľÇľÇľÇľÇľÇľÇľÇľÇľÇľÇľÇľÇľÇľÇľÇľÇľÇľÇľÇľÇľÇľÇľÇľÇľÇľÇľÇľÇľÇľÇľÇľÇľÇľÇľÇľÇľÇľÇľÇľÇľÇľÇľÇľÇľÇľÇľÇľÇľÇľÇľÇľÇľÇľÇľÇľÇľÇľÇľÇľÇľÇľÇľÇľÇľÇľÇľÇľÇľÇľÇľÇľÇľÇľÇľÇľÇľÇľÇľÇľÇľÇľÇľÇľÇľÇľÇľÇľÇľÇľÇľÇľÇľÇľÇľÇľÇľÇľÇľÇľÇľÇľÇľÇľÇľÇľÇľÇľÇľÇľÇľÇľÇľÇľÇľÇľÇľÇľÇľÇľÇľÇľÇľÇľÇľÇľÇľÇľÇľÇľÇľÇľÇľÇľÇľÇľÇľÇľÇľÇľÇľÇľÇľ",
        "ÇľÇľÇľÇľÇľÇľÇľÇľÇľÇľÇľÇľÇľÇľÇľÇľÇľÇľÇľÇľÇľÇľÇľÇľÇľÇľÇľÇľÇľÇľÇľÇľ"
      ],
      [
        "Æ",
        "¹"
      ],
      [
        "Æ",
        "±"
      ],
      [
        "ÇľÇľÇľÇľÇľÇľÇľÇľÇľÇľÇľÇľÇľÇľÇľÇľÇľÇľÇľÇľÇľÇľÇľÇľ",
        "ÇľÇĽ"
      ],
      [
        "Æ",
        "Ń"
      ],
      [
        "ÇľÇľÇľÇľÇľÇľÇľÇľÇľÇľÇľÇľÇľÇľÇľÇľÇľÇľÇľÇľÇľÇľÇľÇľÇľÇľÇľÇľÇľÇľÇľÇľÇľÇľÇľÇľÇľÇľÇľÇľÇľÇľÇľÇľÇľÇľÇľÇľÇľÇľÇľÇľÇľÇľÇľÇľÇľÇľÇľÇľÇľÇľÇľÇľÇľÇľÇľÇľÇľÇľÇľÇľÇľÇľÇľÇľÇľÇľÇľÇľÇľÇľÇľÇľÇľÇľÇľÇľÇľÇľÇľÇľÇľÇľÇľÇľÇľÇľÇľÇľÇľÇľÇľÇľÇľÇľÇľÇľÇľÇľÇľÇľÇľÇľÇľÇľÇľÇľÇľÇľÇľÇľÇľÇľÇľÇľÇľÇľÇľÇľÇľÇľÇľÇľÇľÇľÇľÇľÇľÇľÇľÇľÇľÇľÇľÇľÇľÇľÇľÇľÇľÇľÇľÇľÇľÇľÇľÇľÇľÇľÇľÇľÇľÇľÇľÇľÇľÇľÇľÇľÇľÇľÇľÇľÇľÇľÇľÇľÇľÇľÇľÇľÇľÇľÇľÇľÇľÇľÇľÇľÇľÇľÇľÇľÇľÇľÇľÇľÇľÇľÇľÇľÇľÇľÇľÇľÇľÇľÇľÇľÇľÇľÇľÇľÇľÇľÇľÇľÇľÇľÇľÇľÇľÇľÇľÇľÇľÇľÇľÇľÇľÇľÇľÇľÇľÇľÇľÇľÇľÇľÇľÇľÇľÇľÇľÇľÇľÇľÇľÇľÇľÇľÇľÇľÇľÇľÇľÇľÇľÇľÇľÇľÇľÇľÇľÇľÇľÇľÇľÇľÇľÇľÇľÇľÇľÇľÇľÇľÇľÇľÇľÇľÇľÇľÇľÇľÇľÇľÇľÇľÇľÇľÇľÇľÇľÇľÇľÇľÇľÇľÇľÇľÇľÇľÇľÇľÇľÇľÇľÇľÇľÇľÇľÇľÇľÇľÇľÇľÇľÇľÇľÇľÇľÇľÇľÇľÇľÇľÇľÇľÇľÇľÇľÇľÇľÇľÇľÇľÇľÇľÇľÇľÇľÇľÇľÇľÇľÇľÇľÇľÇľÇľÇľÇľÇľÇľÇľÇľÇľÇľÇľÇľÇľÇľÇľÇľÇľÇľÇľÇľÇľÇľÇľÇľÇľÇľÇľÇľÇľÇľÇľÇľÇľÇľÇľÇľÇľÇľÇľÇľÇľÇľÇľÇľÇľÇľÇľÇľÇľÇľÇľÇľÇľÇľÇľÇľÇľÇľÇľÇľÇľÇľÇľÇľÇľÇľÇľÇľÇľÇľÇľÇľÇľÇľÇľÇľÇľÇľÇľÇľÇľÇľÇľÇľÇľÇľÇľÇľÇľÇľÇľÇľÇľÇľÇľÇľÇľÇľÇľÇľÇľÇľÇľÇľÇľÇľÇľÇľÇľÇľÇľÇľÇľÇľÇľÇľÇľÇľÇľÇľÇľÇľÇľÇľÇľÇľÇľÇľÇľÇľÇľÇľÇľÇľÇľÇľÇľÇľÇľÇľÇľÇľÇľÇľÇľÇľÇľÇľÇľÇľÇľÇľÇľÇľÇľÇľÇľÇľÇľÇľÇľÇľ",
        "ÇľÇľÇľÇľÇľÇľÇľÇľÇľÇľÇľÇľÇľÇľÇľÇľÇľÇľÇľÇľÇľÇľÇľÇľÇľÇľÇľÇľÇľÇľÇľÇľÇľÇľÇľÇľÇľÇľÇľÇľÇľÇľÇľÇľÇľÇľÇľÇľÇľÇľÇľÇľÇľÇľÇľÇľÇľÇľÇľÇľÇľÇľÇľÇľ"
      ],
      [
        "Æ",
        "¶"
      ],
      [
        "È",
        "ŀ"
      ],
      [
        "Æ",
        "®"
      ],
      [
        "Æ",
        "ł"
      ],
      [
        "Ç¥ÇķÇŀÈĳÇĿÆ©ÈĦÇ",
        "ĩ"
      ],
      [
        "ÇľÇľÇľÇľÇľÇľÇľÇľÇľÇľÇľÇľÇľÇľÇľÇľÇľÇľÇľÇľÇľÇľÇľÇľÇľÇľÇľÇľÇľÇľÇľÇľÇľÇľÇľÇľÇľÇľÇľÇľÇľÇľÇľÇľÇľÇľÇľÇľÇľÇľÇľÇľÇľÇľÇľÇľÇľÇľÇľÇľÇľÇľÇľÇľÇľÇľÇľÇľÇľÇľÇľÇľÇľÇľÇľÇľÇľÇľÇľÇľÇľÇľÇľÇľÇľÇľÇľÇľÇľÇľÇľÇľÇľÇľÇľÇľÇľÇľÇľÇľÇľÇľÇľÇľÇľÇľÇľÇľÇľÇľÇľÇľÇľÇľÇľÇľÇľÇľÇľÇľÇľÇľÇľÇľÇľÇľÇľÇľÇľÇľÇľÇľÇľÇľÇľÇľÇľÇľÇľÇľÇľÇľÇľÇľÇľÇľÇľÇľÇľÇľÇľÇľÇľÇľÇľÇľÇľÇľÇľÇľÇľÇľÇľÇľÇľÇľÇľÇľÇľÇľÇľÇľÇľÇľÇľÇľÇľÇľÇľÇľÇľÇľÇľÇľÇľÇľÇľÇľÇľÇľÇľÇľÇľÇľÇľÇľÇľÇľÇľÇľÇľÇľÇľÇľÇľÇľÇľÇľÇľÇľÇľÇľÇľÇľÇľÇľÇľÇľÇľÇľÇľÇľÇľÇľÇľÇľÇľÇľÇľÇľÇľÇľÇľÇľÇľÇľÇľÇľÇľÇľÇľÇľÇľÇľÇľÇľÇľÇľÇľÇľÇľÇľÇľÇľÇľÇľÇľÇľÇľÇľÇľÇľÇľÇľÇľÇľÇľÇľÇľÇľÇľÇľÇľÇľÇľÇľÇľÇľÇľÇľÇľÇľÇľÇľÇľÇľÇľÇľÇľÇľÇľÇľÇľÇľÇľÇľÇľÇľÇľÇľÇľÇľÇľÇľÇľÇľÇľÇľÇľÇľÇľÇľÇľÇľÇľÇľÇľÇľÇľÇľÇľÇľÇľÇľÇľÇľÇľÇľÇľÇľÇľÇľÇľÇľÇľÇľÇľÇľÇľÇľÇľÇľÇľÇľÇľÇľÇľÇľÇľÇľÇľÇľÇľÇľÇľÇľÇľÇľÇľÇľÇľÇľÇľÇľÇľÇľÇľÇľÇľÇľÇľÇľÇľÇľÇľÇľÇľÇľÇľÇľÇľÇľÇľÇľÇľÇľÇľÇľÇľÇľÇľÇľÇľÇľÇľÇľÇľÇľÇľÇľÇľÇľÇľÇľÇľÇľÇľÇľÇľÇľÇľÇľÇľÇľÇľÇľÇľÇľÇľÇľÇľÇľÇľÇľÇľÇľÇľÇľÇľÇľÇľÇľÇľÇľÇľÇľÇľÇľÇľÇľÇľÇľÇľÇľÇľÇľÇľÇľÇľÇľÇľÇľÇľÇľÇľÇľÇľÇľÇľÇľÇľÇľÇľÇľÇľÇľÇľÇľÇľÇľÇľÇľÇľÇľÇľÇľÇľÇľÇľÇľÇľÇľÇľÇľÇľÇľÇľÇľÇľÇľÇľÇľÇľÇľÇľÇľÇľÇľÇľÇľÇľÇľÇľÇľÇľÇľÇľÇľÇľÇľÇľÇľÇľÇľÇľÇľÇľÇľÇľÇľÇľÇľÇľÇľÇľÇľÇľÇľÇľÇľÇľÇľÇľÇľÇľÇľÇľÇľÇľÇľÇľÇľÇľÇľÇľÇľÇľÇľÇľÇľÇľÇľÇľÇľÇľÇľÇľÇľÇľÇľÇľÇľÇľÇľÇľÇľÇľÇľÇľÇľÇľÇľÇľÇľÇľÇľÇľÇľÇľÇľÇľÇľÇľÇľÇľÇľÇľÇľÇľÇľÇľÇľÇľÇľÇľÇľÇľÇľÇľÇľÇľÇľÇľÇľÇľÇľÇľÇľÇľÇľÇľÇľÇľÇľÇľÇľÇľÇľÇľÇľÇľÇľÇľÇľÇľÇľÇľÇľÇľÇľÇľÇľÇľÇľÇľÇľÇľÇľÇľÇľ",
        "ÇľÇľÇľÇľÇľÇľÇľÇľÇľÇľÇľÇľÇľÇľÇľÇľÇľÇľÇľÇľÇľÇľÇľÇľÇľÇľÇľÇľÇľÇľÇľÇľÇľÇľÇľÇľÇľÇľÇľÇľÇľÇľÇľÇľÇľÇľÇľÇľÇľÇľÇľÇľÇľÇľÇľÇľÇľÇľÇľÇľÇľÇľÇľÇľ"
      ],
      [
        "Æ",
        "¡"
      ],
      [
        "ÇľÇľÇľÇľÇľÇľÇľÇľÇľÇľÇľÇľÇľÇľÇľÇľÇľÇľÇľÇľÇľÇľÇľÇľ",
        "ÇĻ"
      ],
      [
        "ÇľÇľÇľÇľÇľÇľÇľÇľÇľÇľÇľÇľÇľÇľÇľÇľÇľÇľÇľÇľÇľÇľÇľÇľÇľÇľÇľÇľÇľÇľÇľÇľÇľÇľÇľÇľÇľÇľÇľÇľÇľÇľÇľÇľÇľÇľÇľÇľÇľÇľÇľÇľÇľÇľÇľÇľÇľÇľÇľÇľÇľÇľÇľÇľÇľÇľÇľÇľÇľÇľÇľÇľÇľÇľÇľÇľÇľÇľÇľÇľÇľÇľÇľÇľÇľÇľÇľÇľÇľÇľÇľÇľÇľÇľÇľÇľÇľÇľÇľÇľÇľÇľÇľÇľÇľÇľÇľÇľÇľÇľÇľÇľÇľÇľÇľÇľÇľÇľÇľÇľÇľÇľÇľÇľÇľÇľÇľÇľÇľÇľÇľÇľÇľÇľÇľÇľÇľÇľÇľÇľÇľÇľÇľÇľÇľÇľÇľÇľÇľÇľÇľÇľÇľÇľÇľÇľÇľÇľÇľÇľÇľÇľÇľÇľÇľÇľÇľÇľÇľÇľÇľÇľÇľÇľÇľÇľÇľÇľÇľÇľÇľÇľÇľÇľÇľÇľÇľÇľÇľÇľÇľÇľÇľÇľÇľÇľÇľÇľÇľÇľÇľÇľÇľÇľÇľÇľÇľÇľÇľÇľÇľÇľÇľÇľÇľÇľÇľÇľÇľÇľÇľÇľÇľÇľÇľÇľÇľÇľÇľÇľÇľÇľÇľÇľÇľÇľÇľÇľÇľÇľÇľÇľÇľÇľÇľÇľÇľÇľÇľÇľÇľÇľÇľÇľÇľÇľÇľÇľÇľÇľÇľÇľÇľÇľÇľÇľÇľÇľÇľÇľÇľÇľÇľÇľÇľÇľÇľÇľÇľÇľÇľÇľÇľÇľÇľÇľÇľÇľÇľÇľÇľÇľÇľÇľÇľÇľÇľÇľÇľÇľÇľÇľÇľÇľÇľÇľÇľÇľÇľÇľÇľÇľÇľÇľÇľÇľÇľÇľÇľÇľÇľÇľÇľÇľÇľÇľÇľÇľÇľÇľÇľÇľÇľÇľÇľÇľÇľÇľÇľÇľÇľÇľÇľÇľÇľÇľÇľÇľÇľÇľÇľÇľÇľÇľÇľÇľÇľÇľÇľÇľÇľÇľÇľÇľÇľÇľÇľÇľÇľÇľÇľÇľÇľÇľÇľÇľÇľÇľÇľÇľÇľÇľÇľÇľÇľÇľÇľÇľÇľÇľÇľÇľÇľÇľÇľÇľÇľÇľÇľÇľÇľÇľÇľÇľÇľÇľÇľÇľÇľÇľÇľÇľÇľÇľÇľÇľÇľÇľÇľÇľÇľÇľÇľÇľÇľÇľÇľÇľÇľÇľÇľÇľÇľÇľÇľÇľÇľÇľÇľÇľÇľÇľÇľÇľÇľÇľÇľÇľÇľÇľÇľÇľÇľÇľÇľÇľÇľÇľÇľÇľÇľÇľÇľÇľÇľÇľÇľÇľÇľÇľÇľÇľÇľÇľÇľÇľÇľÇľÇľÇľÇľÇľÇľÇľÇľÇľÇľÇľÇľÇľÇľÇľÇľÇľÇľÇľÇľÇľÇľÇľÇľÇľÇľÇľÇľÇľÇľÇľÇľÇľÇľÇľÇľÇľÇľÇľÇľÇľÇľÇľÇľÇľÇľÇľÇľÇľÇľÇľÇľÇľÇľÇľÇľÇľÇľÇľÇľÇľÇľÇľÇľÇľÇľÇľÇľÇľÇľÇľÇľÇľÇľÇľÇľÇľÇľÇľÇľÇľÇľÇľÇľÇľÇľÇľÇľÇľÇľÇľÇľÇľÇľÇľÇľÇľÇľÇľÇľÇľÇľÇľÇľÇľÇľÇľÇľÇľÇľÇľÇľÇľÇľÇľÇľÇľÇľÇľÇľÇľÇľÇľÇľÇľÇľÇľÇľÇľÇľÇľ",
        "ÇľÇľÇľÇľÇľÇľÇľÇľÇľÇľÇľÇľÇľÇľÇľÇľÇľÇľÇľÇľÇľÇľ"
      ],
      [
        "ÇľÇľÇľÇľÇľÇľ",
        "ÇĻ"
      ],
      [
        "ÇľÇľÇľÇľÇľÇľÇľÇľÇľÇľÇľÇľ",
        "ÇľÇĿ"
      ],
      [
        "Èĩ",
        "ÇľÇľÇľÇľÇľÇľÇľÇľÇľÇľÇľÇľÇľÇľÇľÇľÇľÇľÇľÇľÇľÇľ"
      ],
      [
        "ÇľÇľÇľÇľÇľÇľÇĿ",
        "ÇľÇľÇľÇľÇľÇľÇľÇľÇľÇľÇľÇľÇľÇľÇľÇľÇľÇľÇľÇľÇľÇľÇľÇľÇĿ"
      ],
      [
        "Ç¥ÇķÇŀÈĳÇĿÆ©ÈĦÇĨ",
        "ÈĴÈĩ"
      ],
      [
        "ÇľÇľ",
        "Çļ"
      ],
      [
        "ÇĽ",
        "ÇľÇĿ"
      ],
      [
        "ÇľÇľÇľÇľÇľÇľÇľÇľÇľÇľÇľÇľÇľÇľÇľÇľÇľÇľÇľÇľÇľÇľÇľÇľÇľÇľÇľÇľÇľÇľÇľÇľÇľÇľÇľÇľÇľÇľÇľÇľÇľÇľÇľÇľÇľÇľÇľÇľÇľÇľÇľÇľÇľÇľÇľÇľÇľÇľÇľÇľÇľÇľÇľÇľÇľÇľÇľÇľÇľÇľÇľÇľÇľÇľÇľÇľÇľÇľÇľÇľÇľÇľÇľÇľÇľÇľÇľÇľÇľÇľÇľÇľÇľÇľÇľÇľ",
        "ÇľÇľÇľÇľÇľÇľÇľÇľÇľÇľÇľÇľ"
      ],
      [
        "ÇľÇľÇľÇľ",
        "ÇľÇĽ"
      ],
      [
        "ÇĿÈŁÆ",
        "ĦÇ"
      ],
      [
        "ÇŁ",
        "ÇĿ"
      ],
      [
        "ÇľÇľÇľÇľÇľÇľÇľÇľÇľÇľÇľÇľÇľÇľÇľÇľÇľÇľÇľÇľÇľÇľÇľÇľÇľÇľ",
        "Çľ"
      ],
      [
        "ÇľÇľÇľÇľÇľÇľÇľÇľÇľÇľÇľÇľÇľÇľÇľÇľÇľÇľÇľÇľÇľÇĿ",
        "ÇľÇľÇľÇľÇľÇľÇľÇľÇľÇĿ"
      ],
      [
        "Æ",
        "§"
      ],
      [
        "È",
        "Ŀ"
      ],
      [
        "Æ",
        "¤"
      ],
      [
        "Çŀ",
        "Çŀ"
      ],
      [
        "ÇľÇľÇľÇľ",
        "ÇľÇĿ"
      ],
      [
        "ÇľÇ",
        "£"
      ],
      [
        "ÇľÇľÇľÇľÇľÇľÇľÇľÇľÇľÇľÇľÇľÇľÇľÇľ",
        "ÇľÇľÇľÇĿ"
      ],
      [
        "ÇĽ",
        "ÇľÇľÇľÇľÇĽ"
      ],
      [
        "ÇľÇľÇľÇľÇľÇľÇľÇľÇľÇľÇľÇľÇľÇľÇľÇľÇľÇľÇľÇľÇľÇľÇľÇľÇľÇľÇľÇľÇľÇľ",
        "Çľ"
      ],
      [
        "ÈŁÆ",
        "ĦÇ"
      ],
      [
        "ÇľÇľÇľÇľÇľÇľÇľÇľÇľÇľÇľÇľÇľÇľÇľÇľÇľÇľÇľÇľÇľÇĽ",
        "ÇľÇľÇľÇľÇľÇľÇľÇľÇľÇĽ"
      ],
      [
        "ÇľÇĽÇĿ",
        "ÇľÇĿ"
      ],
      [
        "ÇľÇľÇľÇľÇľÇľÇľÇľÇľÇľÇľÇľÇľÇľÇľÇľÇľÇľÇľÇľÇľÇľÇľÇľÇľÇľÇľÇľÇľÇľÇľÇľÇľÇľÇľÇľÇľÇľÇľÇľÇľÇľÇľÇľÇľÇľÇľÇľÇľÇľÇľÇľÇľÇľÇľÇľÇľÇľÇľÇľÇľÇľÇľÇľÇľÇľÇľÇľÇľÇľÇľÇľÇľÇľÇľÇľÇľÇľÇľÇľÇľÇľÇľÇľÇľÇľÇľÇľÇľÇľÇľÇľÇľÇľÇľÇľÇľÇľÇľÇľÇľÇľÇľÇľÇľÇľÇľÇľÇľÇľÇľÇľÇľÇľÇľÇľÇľÇľÇľÇľÇľÇľÇľÇľÇľÇľÇľÇľÇľÇľÇľÇľÇľÇľÇľÇľÇľÇľÇľÇľÇľÇľÇľÇľÇľÇľÇľÇľÇľÇľÇľÇľÇľÇľÇľÇľÇľÇľÇľÇľÇľÇľÇľÇľÇľÇľÇľÇľÇľÇľÇľÇľÇľÇľÇľÇľÇľÇľÇľÇľÇľÇľÇľÇľÇľÇľÇľÇľÇľÇľÇľÇľÇľÇľÇľÇľÇľÇľÇľÇľÇľÇľÇľÇľÇľÇľÇľÇľÇľÇľÇľÇľÇľÇľÇľÇľÇľÇľÇľÇľÇľÇľÇľÇľÇľÇľÇľÇľÇľÇľÇľÇľÇľÇľÇľÇľÇľÇľÇľÇľÇľÇľÇľÇľÇľÇľÇľÇľÇľÇľÇľÇľÇľÇľÇľÇľÇľÇľÇľÇľÇľÇľÇľÇľÇľÇľÇľÇľÇľÇľÇľÇľÇľÇľÇľÇľÇľÇľÇľÇľÇľÇľÇľÇľÇľÇľÇľÇľÇľÇľÇľÇľÇľÇľÇľÇľÇľÇľÇľÇľÇľÇľÇľÇľÇľÇľÇľÇľÇľÇľÇľÇľÇľÇľÇľÇľÇľÇľÇľÇľÇľÇľÇľÇľÇľÇľÇľÇľÇľÇľÇľÇľÇľÇľÇľÇľÇľÇľÇľÇľÇľÇľÇľÇľÇľÇľÇľÇľÇľÇľÇľÇľÇľÇľÇľÇľÇľÇľÇľÇľÇľÇľÇľÇľÇľÇľÇľÇľÇľÇľÇľÇľÇľÇľÇľÇľÇľÇľÇľÇľÇľÇľÇľÇľÇľÇľÇľÇľÇľÇľÇľÇľÇľÇľÇľÇľÇľÇľÇľÇľÇľÇľÇľÇľÇľÇľÇľÇľÇľÇľÇľÇľÇľÇľÇľÇľÇľÇľÇľÇľÇľÇľÇľÇľÇľÇľÇľÇľÇľÇľÇľÇľÇľÇľÇľÇľÇľÇľÇľÇľÇľÇľÇľÇľÇľÇľÇľÇľÇľÇľÇľÇľÇľÇľÇľÇľÇľÇľÇľÇľÇľÇľÇľÇľÇľÇľÇľÇľÇľÇľÇľÇľÇľÇľÇľÇľÇľÇľÇľÇľÇľÇľÇľÇľÇľÇľÇľÇľÇľÇľÇľÇľÇľÇľÇľÇľÇľÇľÇľÇľÇľÇľÇľÇľÇľÇľÇľÇľÇľÇľÇľÇľÇľÇľÇľÇľÇľÇľÇľÇľÇľÇľÇľÇľÇľÇľÇľÇľÇľÇľÇľÇľÇľÇľÇľÇľÇľÇľÇľÇľÇľÇľÇľÇľÇľÇľÇľÇľÇľÇľÇľÇľÇľÇľÇľÇľÇľÇľÇľÇľÇľÇľÇľÇľÇľÇľÇľÇľÇľÇľÇľÇľÇľÇľÇľÇľÇľÇľÇľÇľÇľÇľÇľÇľÇľÇľÇľÇľÇľÇľÇľÇľÇľÇľÇľÇľÇľÇľÇľÇľÇľÇľÇľÇľÇľÇľÇľÇľÇľÇľÇľÇľÇľÇľÇľÇľÇľÇľÇľÇľÇľÇľÇľÇľÇľÇľÇľÇľÇľÇľÇľÇľÇľÇľÇľÇľÇľÇľÇľÇľÇľÇľÇľÇľÇľÇľÇľÇľÇľÇľÇľÇľÇľÇľÇľÇľÇľÇľÇľÇľÇľÇľÇľÇľÇľÇľÇľÇľÇľÇľÇľÇľÇľÇľÇľÇľÇľÇľÇľÇľÇľÇľÇľÇľÇľÇľÇľÇľÇľÇľÇľÇľÇľÇľÇľÇľÇľÇľÇľÇľÇľÇľÇľÇľÇľÇľÇľÇľÇľÇľÇľÇľÇľÇľÇľÇľÇľÇľÇľÇľÇľÇľÇľÇľÇľÇľÇľÇľÇľÇľÇľÇľÇľÇľÇľÇľÇľÇľÇľÇľÇľÇľÇľÇľÇľÇľÇľÇľÇľÇľÇľÇľÇľÇľÇľÇľÇľÇľÇľÇľÇľÇľÇľÇľÇľÇľÇľÇľ",
        "ÇľÇľÇľÇľÇľÇľÇľÇľÇľÇľÇľÇľÇľÇľÇľÇľÇľÇľÇľÇľÇľÇľÇľÇľÇľÇľÇľÇľÇľÇľÇľÇľÇľÇľÇľÇľÇľÇľÇľÇľÇľÇľÇľÇľÇľÇľÇľÇľÇľÇľÇľÇľÇľÇľÇľÇľÇľÇľÇľÇľÇľÇľÇľÇľÇľÇľÇľÇľÇľÇľÇľÇľÇľÇľÇľÇľÇľÇľÇľÇľÇľÇľÇľÇľÇľÇľÇľÇľÇľÇľÇľÇľÇľÇľÇľÇľÇľÇľÇľÇľÇľÇľÇľÇľÇľÇľÇľÇľÇľÇľÇľÇľÇľÇľÇľÇľÇľÇľÇľÇľÇľÇľÇľÇľÇľÇľÇľÇľ"
      ],
      [
        "Èĩ",
        "Ç¥ÇķÇŀÈĳÇĿÆ©ÈĦÇĨÈĴÈĩÇľÇľÇľÇľÇľÇľÇľÇľÇľÇľÇľÇľ"
      ],
      [
        "ÇĻ",
        "ÇĽ"
      ],
      [
        "ÇľÇľÇľÇľÇľÇľÇľÇľÇľÇľÇľÇľÇľÇľÇľÇľÇľÇľÇľÇľÇľÇľÇľÇľ",
        "Çĺ"
      ],
      [
        "ÇŁ",
        "ÇĽ"
      ],
      [
        "ÇľÇľÇľÇľÇľÇľÇľÇľÇľÇľÇľÇľÇľÇľÇľÇľÇľÇľÇľÇľÇľÇľÇľÇľÇľÇľÇľÇľÇľÇľÇľÇ",
        "Ł"
      ],
      [
        "Æ",
        "¥"
      ],
      [
        "ÇľÇľÇľÇľÇľÇľÇľÇľÇľÇľÇľÇľÇľÇľÇľÇľÇľÇľÇľÇľÇľÇľÇľÇľÇľÇľÇľÇľÇľÇľÇľÇľÇľÇľÇľÇľÇľÇľÇľÇľÇľÇľÇľÇľÇľÇľÇľÇľÇľÇľÇľÇľÇľÇľÇľÇľÇľÇľÇľÇľÇľÇľÇľÇľÇľÇľÇľÇľÇľÇľÇľÇľÇľÇľÇľÇľÇľÇľÇľÇľÇľÇľÇľÇľÇľÇľÇľÇľÇľÇľÇľÇľÇľÇľÇľÇľÇľÇľÇľÇľÇľÇľÇľÇľÇľÇľÇľÇľÇľÇľÇľÇľÇľÇľÇľÇľÇľÇľÇľÇľÇľÇľÇľÇľÇľÇľÇľÇľÇľÇľÇľÇľÇľÇľÇľÇľÇľÇľÇľÇľÇľÇľÇľÇľÇľÇľÇľÇľÇľÇľÇľÇľÇľÇľÇľÇľÇľÇľÇľÇľÇľÇľÇľÇľÇľÇľÇľÇľÇľÇľÇľÇľÇľÇľÇľÇľÇľÇľÇľÇľÇľÇľÇľÇľÇľÇľÇľÇľÇľÇľÇľÇľÇľÇľÇľÇľÇľÇľÇľÇľÇľÇľÇľÇľÇľÇľÇľÇľÇľÇľÇľÇľÇľÇľÇľÇľÇľÇľÇľÇľÇľÇľÇľÇľÇľÇľÇľÇľÇľÇľÇľÇľÇľÇľÇľÇľÇľÇľÇľÇľÇľÇľÇľÇľÇľÇľÇľÇľÇľÇľÇľÇľÇľÇľÇľÇľÇľÇľÇľÇľÇľÇľÇľÇľÇľÇľÇľÇľÇľÇľÇľÇľÇľÇľÇľÇľÇľÇľÇľÇľÇľÇľÇľÇľÇľÇľÇľÇľÇľÇľÇľÇľÇľÇľÇľÇľÇľÇľÇľÇľÇľÇľÇľÇľÇľÇľÇľÇľÇľÇľÇľÇľÇľÇľÇľÇľÇľÇľÇľÇľÇľÇľÇľÇľÇľÇľÇľÇľÇľÇľÇľÇľÇľÇľÇľÇľÇľÇľÇľÇľÇľÇľÇľÇľÇľÇľÇľÇľÇľÇľÇľÇľÇľÇľÇľÇľÇľÇľÇľÇľÇľÇľÇľÇľÇľÇľÇľÇľÇľÇľÇľÇľÇľÇľÇľÇľÇľÇľÇľÇľÇľÇľÇľÇľÇľÇľÇľÇľÇľÇľÇľÇľÇľÇľÇľÇľÇľÇľÇľÇľÇľÇľÇľÇľÇľÇľÇľÇľÇľÇľÇľÇľÇľÇľÇľÇľÇľÇľÇľÇľÇľÇľÇľÇľÇľÇľÇľÇľÇľÇľÇľÇľÇľÇľÇľÇľÇľÇľÇľÇľÇľÇľÇľÇľÇľÇľÇľÇľÇľÇľÇľÇľÇľÇľÇľÇľÇľÇľÇľÇľÇľÇľÇľÇľÇľÇľÇľÇľÇľÇľÇľÇľÇľÇľÇľÇľÇľÇľÇľÇľÇľÇľÇľÇľÇľÇľÇľÇľÇľÇľÇľÇľÇľÇľÇľÇľÇľÇľÇľÇľÇľÇľÇľÇľÇľÇľÇľÇľÇľÇľÇľÇľÇľÇľÇľÇľÇľÇľÇľÇľÇľÇľÇľÇľÇľÇľÇľÇľÇľÇľÇľÇľÇľÇľÇľÇľÇľÇľÇľÇľÇľÇľÇľÇľÇľÇľÇľÇľÇľÇľÇľÇľÇľÇľÇľÇľÇľÇľÇľÇľÇľÇľÇľÇľÇľÇľÇľÇľÇľÇľÇľÇľÇľÇľÇľÇľÇľÇľÇľÇľÇľÇľÇľÇľÇľÇľÇľÇľÇľÇľÇľÇľÇľÇľÇľÇľÇľÇľÇľÇľÇľÇľÇľÇľÇľÇľÇľÇľÇľÇľÇľÇľÇľÇľÇľÇľÇľÇľÇľÇľÇľÇľÇľÇľÇľÇľÇľÇľÇľÇľÇľÇľÇľÇľÇľÇľÇľÇľÇľÇľÇľÇľÇľÇľÇľÇľÇľÇľÇľÇľÇľÇľÇľÇľÇľÇľÇľÇľÇľÇľÇľÇľÇľÇľÇľÇľÇľÇľÇľÇľÇľÇľÇľÇľÇľÇľÇľÇľÇľÇľÇľÇľÇľÇľÇľÇľÇľÇľÇľÇľÇľÇľÇľÇľÇľÇľÇľÇľÇľÇľÇľÇľÇľÇľÇľÇľÇľÇľÇľÇľÇľÇľÇľÇľÇľÇľÇľÇľÇľÇľÇľÇľÇľÇľÇľÇľÇľÇľÇľÇľÇľÇľÇľÇľÇľÇľÇľÇľÇľÇľÇľÇľÇľÇľÇľÇľÇľÇľÇľÇľÇľÇľÇľÇľÇľÇľÇľÇľÇľÇľÇľÇľÇľÇľÇľÇľÇľÇľ",
        "ÇľÇľÇľÇľÇľÇľÇľÇľÇľÇľÇľÇľÇľÇľÇľÇľÇľÇľÇľÇľÇľÇľÇľÇľÇľÇľÇľÇľÇľÇľÇľÇľ"
      ],
      [
        "ÇľÇľÇľÇľÇľÇľÇľÇľÇľÇľÇľÇľÇľÇľÇľÇľÇľÇľÇľÇľÇľÇľÇľÇľ",
        "Ç¡"
      ],
      [
        "ÇľÇ",
        "ķ"
      ],
      [
        "ÇľÇľÇľÇľÇľÇľ",
        "Ç¥"
      ],
      [
        "ÇľÇľÇľÇľÇľÇľÇľÇľÇľÇľÇľÇľÇľÇľÇľÇľÇľÇľÇľÇľÇľÇľ",
        "Çļ"
      ],
      [
        "Æ",
        "¢"
      ],
      [
        "ÇĿ",
        "Çŀ"
      ],
      [
        "Ç¥ÇķÇŀÈĳÇĿÆ©ÈĦÇĩ",
        "ÈĴÈĩÇľÇľÇľÇľÇľÇľÇľÇľÇľÇľÇľÇľ"
      ],
      [
        "È",
        "ľ"
      ],
      [
        "ÇľÇľÇľÇľÇľÇľÇľÇľÇľÇľÇľÇľÇľÇľÇľÇľÇľÇľÇľÇľÇľÇľÇľÇľÇľÇľ",
        "ÇľÇĿ"
      ],
      [
        "Æ",
        "£"
      ],
      [
        "Æ",
        "İ"
      ],
      [
        "ÇľÇľÇľÇľÇľÇľÇľÇľÇľÇľÇľÇľÇľÇľÇľÇľÇľÇľÇľÇľÇľÇľÇľÇľÇľÇľ",
        "ÇĽ"
      ],
      [
        "Æ",
        "¦"
      ],
      [
        "ÇľÇ",
        "¤"
      ],
      [
        "ÇľÇľÇľÇľÇľÇľÇľÇľÇľÇľÇľÇľÇľÇľÇľÇľÇľÇľÇľÇľÇľÇľÇľÇľÇľÇľÇľÇľÇľÇľÇľÇľÇľÇľÇľÇľÇľÇľÇľÇľÇľÇľÇľÇľÇľÇľÇľÇľÇľÇľÇľÇľÇľÇľÇľÇľÇľÇľÇľÇľÇľÇľÇľÇľÇľÇľÇľÇľÇľÇľÇľÇľÇľÇľÇľÇľÇľÇľÇľÇľÇľÇľÇľÇľÇľÇľÇľÇľÇľÇľÇľÇľÇľÇľÇľÇľÇľÇľÇľÇľÇľÇľÇľÇľÇľÇľÇľÇľÇľÇľÇľÇľÇľÇľÇľÇľÇľÇľÇľÇľÇľÇľÇľÇľÇľÇľÇľÇľÇľÇľÇľÇľÇľÇľÇľÇľÇľÇľÇľÇľÇľÇľÇľÇľÇľÇľÇľÇľÇľÇľÇľÇľÇľÇľÇľÇľÇľÇľÇľÇľÇľÇľÇľÇľÇľÇľÇľÇľÇľÇľÇľÇľÇľÇľÇľÇľÇľÇľÇľÇľÇľÇľÇľÇľÇľÇľÇľÇľÇľÇľÇľÇľÇľÇľÇľÇľÇľÇľÇľÇľÇľÇľÇľÇľÇľÇľÇľÇľÇľÇľÇľÇľÇľÇľÇľÇľÇľÇľÇľÇľÇľÇľÇľÇľÇľÇľÇľÇľÇľÇľÇľÇľÇľÇľÇľÇľÇľÇľÇľÇľÇľÇľÇľÇľÇľÇľÇľÇľÇľÇľÇľÇľÇľÇľÇľÇľÇľÇľÇľÇľÇľÇľÇľÇľÇľÇľÇľÇľÇľÇľÇľÇľÇľÇľÇľÇľÇľÇľÇľÇľÇľÇľÇľÇľÇľÇľÇľÇľÇľÇľÇľÇľÇľÇľÇľÇľÇľÇľÇľÇľÇľÇľÇľÇľÇľÇľÇľÇľÇľÇľÇľÇľÇľÇľÇľÇľÇľÇľÇľÇľÇľÇľÇľÇľÇľÇľÇľÇľÇľÇľÇľÇľÇľÇľÇľÇľÇľÇľÇľÇľÇľÇľÇľÇľÇľÇľÇľÇľÇľÇľÇľÇľÇľÇľÇľÇľÇľÇľÇľÇľÇľÇľÇľÇľÇľÇľÇľÇľÇľÇľÇľÇľÇľÇľÇľÇľÇľÇľÇľÇľÇľÇľÇľÇľÇľÇľÇľÇľÇľÇľÇľÇľÇľÇľÇľÇľÇľÇľÇľÇľÇľÇľÇľÇľÇľÇľÇľÇľÇľÇľÇľÇľÇľÇľÇľÇľÇľÇľÇľÇľÇľÇľÇľÇľÇľÇľÇľÇľÇľÇľÇľÇľÇľÇľÇľÇľÇľÇľÇľÇľÇľÇľÇľÇľÇľÇľÇľÇľÇľÇľÇľÇľÇľÇľÇľÇľÇľÇľÇľÇľÇľÇľÇľÇľÇľÇľÇľÇľÇľÇľÇľÇľÇľÇľÇľÇľÇľÇľÇľÇľÇľÇľÇľÇľÇľÇľÇľÇľÇľÇľÇľÇľÇľÇľÇľÇľÇľÇľÇľÇľÇľÇľÇľÇľÇľÇľÇľÇľÇľÇľÇľÇľ",
        "ÇľÇľÇľÇľÇľÇľÇľÇľÇľÇľÇľÇľÇľÇľÇľÇľÇľÇľÇľÇľÇľÇľÇľÇľÇľÇľÇľÇľÇľÇľÇľÇľ"
      ],
      [
        "Æ",
        "ĳ"
      ],
      [
        "ÇľÇľÇľÇľÇľÇľÇľÇľÇľÇľÇľÇľÇľÇľÇľÇľÇľÇľÇľÇľÇľÇľ",
        "ÇĿÇĽ"
      ],
      [
        "ÇľÇľÇľÇľÇľÇľÇľÇľÇľÇľÇľÇľÇľÇľÇľÇľÇľÇľÇľÇľÇľÇľÇľÇľÇľÇľÇľÇľÇľÇľÇľÇľ",
        "ÇľÇľÇľÇľÇľÇľÇľÇľÇľÇľÇľÇľÇľÇľÇľÇľÇľÇľÇľÇľÇľÇľÇľÇľÇľÇľÇľÇľÇľÇľÇľÇĿ"
      ],
      [
        "ÇľÇľÇľÇľÇľÇľÇľÇľÇľÇľÇľÇľÇľÇľÇľÇľÇľÇľÇľÇľÇľÇľ",
        "Çŀ"
      ],
      [
        "ÇľÇľÇľÇľÇľÇľÇľÇľÇľÇľÇľÇľÇľÇľÇľÇľÇľÇľÇľÇľÇľÇľÇľÇ",
        "Ļ"
      ],
      [
        "ÇľÇľ",
        "ÇľÇŀ"
      ],
      [
        "Çł",
        "ÇĿ"
      ],
      [
        "ÇĻ",
        "Çŀ"
      ],
      [
        "ÇľÇľÇľÇľÇľÇľÇľÇľÇľÇľÇľÇľÇľÇľÇľÇľÇľÇľÇľÇľÇľÇľÇľÇ",
        "Ł"
      ],
      [
        "ÇľÇľÇľÇľÇľÇľÇľÇľ",
        "ÇĽ"
      ],
      [
        "ÇľÇľÇľÇľÇľÇľÇľÇľÇľÇľÇľÇľÇľÇľÇľÇľÇľÇľÇľÇľÇľÇľÇľÇľÇľÇľÇľÇľÇľÇľÇľÇ",
        "Ļ"
      ],
      [
        "Æ",
        "ı"
      ],
      [
        "Çĺ",
        "ÇĿ"
      ],
      [
        "ÇľÇĽ",
        "ÇľÇĽ"
      ],
      [
        "ÇľÇľÇľÇľÇľÇľÇľÇľÇľÇľÇľÇľÇľÇľÇľÇľÇľÇľÇľÇľÇľÇľ",
        "ÇĽÇĽ"
      ],
      [
        "ÇľÇľÇľÇľÇľÇľÇľÇľÇľÇľÇľÇľÇľÇľÇľÇľÇľÇľÇľÇľÇľÇľÇľÇľ",
        "Ç¢"
      ],
      [
        "Æ",
        "Ĳ"
      ],
      [
        "ÇľÇľÇľÇľÇľÇľ",
        "Ç¤"
      ],
      [
        "ÇľÇľÇľÇľÇľÇľÇľÇľ",
        "ÇľÇľÇľÇľÇľÇľÇľÇĽ"
      ],
      [
        "ÇľÇľÇľÇľÇľÇľÇľÇľÇľÇľÇľÇľÇľÇľÇľÇľÇľÇľÇľÇľÇľÇľÇľÇľÇľÇľÇľÇľÇľÇľÇľÇľÇľÇľÇľÇľÇľÇľÇľÇľÇľÇľÇľÇľÇľÇľÇľÇľÇľÇľÇľÇľÇľÇľÇľÇľÇľÇľÇľÇľÇľÇľÇľÇľÇľÇľÇľÇľÇľÇľÇľÇľÇľÇľÇľÇľÇľÇľÇľÇľÇľÇľÇľÇľÇľÇľÇľÇľÇľÇľÇľÇľÇľÇľÇľÇľÇľÇľÇľÇľÇľÇľÇľÇľÇľÇľÇľÇľÇľÇľÇľÇľÇľÇľÇľÇľÇľÇľÇľÇľÇľÇľÇľÇľÇľÇľÇľÇľÇľÇľÇľÇľÇľÇľÇľÇľÇľÇľÇľÇľÇľÇľÇľÇľÇľÇľÇľÇľÇľÇľÇľÇľÇľÇľÇľÇľÇľÇľÇľÇľÇľÇľÇľÇľÇľÇľÇľÇľÇľÇľÇľÇľÇľÇľÇľÇľÇľÇľÇľÇľÇľÇľÇľÇľÇľÇľÇľÇľÇľÇľÇľÇľÇľÇľÇľÇľÇľÇľÇľÇľÇľÇľÇľÇľÇľÇľÇľÇľÇľÇľÇľÇľÇľÇľÇľÇľÇľÇľÇľÇľÇľÇľÇľÇľÇľÇľÇľÇľÇľÇľÇľÇľÇľÇľÇľÇľÇľÇľÇľÇľÇľÇľÇľÇľÇľÇľÇľÇľÇľÇľÇľÇľÇľÇľÇľÇľÇľÇľÇľÇľÇľÇľÇľÇľÇľÇľÇľÇľÇľÇľÇľÇľÇľÇľÇľÇľÇľÇľÇľÇľÇľÇľÇľÇľÇľÇľÇľÇľÇľÇľÇľÇľÇľÇľÇľÇľÇľÇľÇľÇľÇľÇľÇľÇľÇľÇľÇľÇľÇľÇľÇľÇľÇľÇľÇľÇľÇľÇľÇľÇľÇľÇľÇľÇľÇľÇľÇľÇľÇľÇľÇľÇľÇľÇľÇľÇľÇľÇľÇľÇľÇľÇľÇľÇľÇľÇľÇľÇľÇľÇľÇľÇľÇľÇľÇľÇľÇľÇľÇľÇľÇľÇľÇľÇľÇľÇľÇľÇľÇľÇľÇľÇľÇľÇľÇľÇľÇľÇľÇľÇľÇľÇľÇľÇľÇľÇľÇľÇľÇľÇľÇľÇľÇľÇľÇľÇľÇľÇľÇľÇľÇľÇľÇľÇľÇľÇľÇľÇľÇľÇľÇľÇľÇľÇľÇľÇľÇľÇľÇľÇľÇľÇľÇľÇľÇľÇľÇľÇľÇľÇľÇľÇľÇľÇľÇľÇľÇľÇľÇľÇľÇľÇľÇľÇľÇľÇľÇľÇľÇľÇľÇľÇľÇľÇľÇľÇľÇľÇľÇľÇľÇľÇľÇľÇľÇľÇľÇľÇľÇľÇľÇľÇľÇľÇľÇľÇľÇľÇľÇľÇľÇľÇľÇľÇľÇľÇľÇľÇľÇľÇľÇľÇľÇľÇľÇľÇľÇľÇľÇľÇľÇľÇľÇľÇľÇľÇľÇľÇľÇľÇľÇľÇľÇľÇľÇľÇľÇľÇľÇľÇľÇľÇľÇľÇľÇľÇľÇľÇľÇľÇľÇľÇľÇľÇľÇľÇľÇľÇľÇľÇľÇľÇľÇľÇľÇľÇľÇľÇľÇľÇľÇľÇľÇľÇľÇľÇľÇľÇľÇľÇľÇľÇľÇľÇľÇľÇľÇľÇľÇľÇľÇľÇľÇľÇľÇľÇľÇľÇľÇľÇľÇľÇľÇľÇľÇľÇľÇľÇľÇľÇľÇľÇľÇľÇľÇľÇľÇľÇľÇľÇľÇľÇľÇľÇľÇľÇľÇľÇľÇľÇľÇľÇľÇľÇľÇľÇľÇľÇľÇľÇľÇľÇľÇľÇľÇľÇľÇľÇľÇľÇľÇľÇľÇľÇľÇľÇľÇľÇľÇľÇľÇľÇľÇľÇľÇľÇľÇľÇľÇľÇľÇľÇľÇľÇľÇľÇľÇľÇľÇľÇľÇľÇľÇľÇľÇľÇľÇľÇľÇľÇľÇľÇľÇľÇľÇľÇľÇľÇľÇľÇľÇľÇľÇľÇľÇľÇľÇľÇľÇľÇľÇľÇľÇľÇľÇľÇľÇľÇľÇľÇľÇľÇľÇľÇľÇľÇľÇľÇľÇľÇľÇľÇľÇľÇľÇľÇľÇľÇľÇľÇľÇľÇľÇľÇľÇľÇľÇľÇľÇľÇľÇľÇľÇľÇľÇľÇľÇľÇľÇľÇľÇľÇľÇľÇľÇľÇľÇľÇľÇľÇľÇľÇľÇľÇľÇľÇľÇľÇľÇľÇľÇľÇľÇľÇľÇľÇľÇľÇľÇľÇľÇľÇľÇľÇľÇľÇľÇľÇľÇľÇľÇľÇľÇľÇľÇľÇľÇľÇľÇľÇľÇľÇľÇľÇľÇľÇľÇľÇľÇľÇľÇľÇľÇľÇľÇľÇľÇľÇľÇľÇľÇľÇľÇľÇľÇľÇľÇľÇľÇľÇľÇľÇľÇľÇľÇľÇľÇľÇľÇľÇľÇľÇľÇľÇľÇľÇľÇľÇľÇľÇľÇľÇľÇľÇľÇľÇľÇľÇľÇľÇľÇľÇľÇľÇľÇľÇľÇľÇľÇľÇľÇľÇľÇľÇľÇľÇľÇľÇľÇľÇľÇľÇľÇľÇľÇľÇľÇľÇľÇľÇľÇľÇľÇľÇľÇľÇľÇľÇľÇľÇľÇľÇľÇľÇľÇľÇľ",
        "ÇľÇľÇľÇľÇľÇľÇľÇľÇľÇľÇľÇľÇľÇľÇľÇľÇľÇľÇľÇľÇľÇľÇľÇľÇľÇľÇľÇľÇľÇľÇľÇľÇľÇľÇľÇľÇľÇľÇľÇľÇľÇľÇľÇľÇľÇľÇľÇľÇľÇľÇľÇľÇľÇľÇľÇľÇľÇľÇľÇľÇľÇľÇľÇľÇľÇľÇľÇľÇľÇľÇľÇľÇľÇľÇľÇľÇľÇľÇľÇľÇľÇľÇľÇľÇľÇľÇľÇľÇľÇľÇľÇľÇľÇľÇľÇľÇľÇľÇľÇľÇľÇľÇľÇľÇľÇľÇľÇľ"
      ],
      [
        "ÇľÇľ",
        "ÇľÇļ"
      ],
      [
        "ÇľÇĿ",
        "ÇľÇĿ"
      ],
      [
        "ÇľÇľ",
        "ÇĿÇĿ"
      ],
      [
        "ÇľÇľÇľÇľÇľÇľÇľÇľÇľÇľÇľÇľÇľÇľÇľÇľÇľÇľÇľÇľ",
        "Çľ"
      ],
      [
        "ÇľÇľÇľÇľÇľÇľÇĿ",
        "ÇľÇľÇľÇľÇľÇľÇľÇľÇľÇľÇľÇľÇľÇľÇľÇľÇľÇľÇľÇľÇľÇľÇľÇľÇĽ"
      ],
      [
        "ÇľÇľÇľÇĽ",
        "ÇĿ"
      ],
      [
        "Çļ",
        "Çļ"
      ],
      [
        "Ç£",
        "ÈłÆ"
      ],
      [
        "ÇľÇĽ",
        "ÇĽÇĿ"
      ],
      [
        "ÇĽ",
        "ÇŁ"
      ],
      [
        "Ç¥",
        "ÇĶ"
      ],
      [
        "ÇľÇľÇľÇľÇľÇľÇľÇľÇľÇľÇľÇľÇľÇľÇľÇľÇľÇľÇľÇľÇľÇľÇľÇľ",
        "ÇĽÇĽ"
      ],
      [
        "ÇľÇľ",
        "ÇĽÇĽ"
      ],
      [
        "ÇĹÇĹÇľÈİÇ£Æ©ÈĦÇµÈĴÈĩ",
        "Ç¤"
      ],
      [
        "ÇĿÇĽ",
        "ÇľÇľÇľÇĿ"
      ],
      [
        "ÇľÇľÇľÇľÇľÇľÇľÇľÇľÇľÇľÇľÇľÇľÇľÇľÇľÇľÇľÇľÇľÇľÇľÇľÇľÇľ",
        "ÇĿ"
      ],
      [
        "ÇľÇľÇľÇľÇľÇľÇľÇľ",
        "ÇľÇľÇľÇľÇľÇľÇľÇĿ"
      ],
      [
        "È",
        "Ľ"
      ],
      [
        "È",
        "ª"
      ],
      [
        "ÇĻ",
        "Çł"
      ],
      [
        "Çĺ",
        "Çł"
      ],
      [
        "ÇľÇľÇľÇľÇľÇľÇĽ",
        "ÇľÇľÇľÇľÇľÇľÇľÇľÇľÇľÇľÇľÇľÇľÇľÇľÇľÇľÇľÇľÇľÇľÇľÇľÇĽ"
      ],
      [
        "ÇľÇľÇľÇľÇľÇľ",
        "Ç¡"
      ],
      [
        "ÇľÇ",
        "Ķ"
      ],
      [
        "ÇľÇľÇľÇľÇľÇľ",
        "Çł"
      ],
      [
        "ÇľÇľÇľÇľÇľÇľÇľÇľÇľÇľÇľÇľÇľÇľÇľÇľÇľÇľÇľÇľÇľÇľÇľÇľÇľÇľÇľÇľÇľÇľÇľÇĽÇľÇľÇľÇľÇľÇľÇľÇľÇľÇľÇľÇľÇľÇľÇľÇľÇľÇľÇľÇľÇľÇľÇľÇľÇľÇľÇľÇľÇľÇľÇľÇľÇľÇľÇľÇľÇľÇľÇľÇľÇľÇľÇľÇľÇľÇľÇľÇľÇľÇľÇľÇľÇľÇľÇľÇľÇľÇľÇľÇľÇľÇľÇľÇľÇľÇľÇľÇľÇľÇľÇľÇľÇľÇľÇľÇľÇľÇľÇľÇľÇľÇľÇľÇľÇľÇľÇľÇľÇľÇľÇľÇľÇľÇľÇľÇľÇľÇľÇľÇľÇľÇľÇľÇľÇľÇľÇľÇľÇľÇľÇľÇľÇľÇľÇľÇľÇľÇľÇľÇľÇľÇľÇľÇľÇľÇľÇľÇľÇľÇľÇľÇľÇľÇľÇľÇľÇľÇľÇľÇľÇľÇľÇľÇľÇľÇľÇľÇľÇľÇľÇľÇľÇľÇľÇľÇľÇľÇľÇľÇľÇľÇľÇľÇľÇľÇľÇľÇľÇľÇľÇľÇľÇľÇľÇľÇľÇľÇľÇľÇľÇľÇľÇľÇľÇľÇľÇľÇľÇľÇľÇľÇľÇľÇľÇľÇľÇľÇľÇľÇľÇľÇľÇľÇľÇľÇľÇľÇľÇľÇľÇľÇľÇľÇľÇľÇľÇľÇľÇľÇľÇľÇľÇľÇľÇľÇľÇľÇľÇľÇľÇľÇľÇľÇľÇľÇľÇľÇľÇľÇľÇľÇľÇľÇľÇľÇľÇľÇľÇľÇľÇľÇľÇľÇľÇľÇľÇľÇľÇľÇľÇľÇľÇľÇľÇľÇľÇľÇľÇľÇľÇľÇľÇľÇľÇľÇľÇľÇľÇľÇľÇľÇľÇľÇľÇľÇľÇľÇľÇľÇľÇľÇľÇľÇľÇľÇľÇľÇľÇľÇľÇľÇľÇľÇľÇľÇľÇľÇľÇľÇľÇľÇľÇľÇľÇľÇľÇľÇľÇľÇľÇľÇľÇľÇľÇľÇľÇľÇľÇľÇľÇľÇľÇľÇľÇľÇľÇľÇľÇľÇľÇľÇľÇľÇľÇľÇľÇľÇľÇľÇľÇľÇľÇľÇľÇľÇľÇľÇľÇľÇľÇľÇľÇľÇľÇľÇľÇľÇľÇľÇľÇľÇľÇľÇľÇľÇľÇľÇľÇľÇľÇľÇľÇľÇľÇľÇľÇľÇľÇľÇľÇľÇľÇľÇľÇľÇľÇľÇľÇľÇľÇľÇľÇľÇľÇľÇľÇľÇľÇľÇľÇľÇľÇľÇľÇľÇľÇľÇľÇľÇľÇľÇľÇľÇľÇľÇľÇľÇľÇľÇľÇľÇľÇľÇľÇľÇľÇľÇľÇľÇľÇľÇľÇľÇľÇľÇľÇľÇľÇľÇľÇľÇľÇľÇľÇľÇľÇľÇľÇľÇľÇľÇľÇľÇľÇľÇľÇľÇľÇľÇľÇľÇľÇľÇľÇľÇľÇľÇľÇľÇľÇľÇľÇľÇľÇľÇľÇľÇľÇľÇľÇľÇľÇľÇľÇľÇľÇľÇľÇľÇľÇľÇľÇľÇľÇľÇľÇľÇľÇľÇľÇľÇľÇľÇľÇľÇľÇľÇľÇľÇľÇľÇľÇľÇľÇľÇľÇľÇľÇľÇľÇľÇľÇľÇľÇľÇľÇľÇľÇľÇľÇľÇľÇľÇľÇľÇľÇľÇľÇľÇľÇľÇľÇľÇľÇľÇľÇľÇľÇľÇľÇľÇľÇľÇľÇľÇľÇľÇľÇľÇľÇľÇľÇľÇľÇľÇľÇľÇľÇľÇľÇľÇľÇľÇľÇľÇľÇľÇľÇľÇľÇľÇľÇľÇľÇľÇľÇľÇľÇľÇľÇľÇľÇľÇľÇľÇľÇľÇľÇľÇľÇľÇľÇľÇľÇľÇľÇľÇľÇľÇľÇľÇľÇľÇľÇľÇľÇľÇľÇľÇľÇľÇľÇľÇľÇľÇľÇľÇľÇľÇľ",
        "ÇľÇľÇľÇľÇľÇľÇľÇľÇľÇľÇľÇľÇľÇľÇľÇľÇľÇľÇľÇľÇľÇľÇľÇľÇľÇľÇľÇľÇľÇľÇľÇľ"
      ],
      [
        "ÇľÇľÇľÇľÇľÇľÇľÇľÇľÇľÇľÇľÇľÇľÇľÇľÇľÇľÇľÇľÇľÇľÇľÇľÇľÇľÇľÇľÇľÇľÇľÇĽÇľÇľÇľÇľÇľÇľÇľÇľÇľÇľÇľÇľÇľÇľÇľÇľÇľÇľÇľÇľÇľÇľÇľÇľÇľÇľÇľÇľÇľÇľÇľÇĽ",
        "ÇľÇľÇľÇľÇľÇľÇľÇľÇľÇľÇľÇľÇľÇľÇľÇľÇľÇľÇľÇľÇľÇľÇľÇľÇľÇľÇľÇľÇľÇľÇľÇĽÇľÇľÇľÇľÇľÇľÇľÇľÇľÇľÇľÇľÇľÇľÇľÇľÇľÇľÇľÇľÇľÇľÇľÇľÇľÇľÇľÇľÇľÇľÇľÇĽ"
      ],
      [
[...]
