{
  "version": "1.0",
  "truncation": null,
  "padding": null,
  "added_tokens": [],
  "normalizer": null,
  "pre_tokenizer": {
    "type": "ByteLevel",
    "add_prefix_space": false,
    "trim_offsets": true,
    "use_regex": true
  },
  "post_processor": {
    "type": "ByteLevel",
    "add_prefix_space": true,
    "trim_offsets": false,
    "use_regex": true
  },
  "decoder": {
    "type": "ByteLevel",
    "add_prefix_space": true,
    "trim_offsets": true,
    "use_regex": true
  },
  "model": {
    "type": "BPE",
    "dropout": null,
    "unk_token": null,
    "continuing_subword_prefix": null,
    "end_of_word_suffix": null,
    "fuse_unk": false,
    "byte_fallback": false,
    "ignore_merges": false,
    "vocab": {
      "\u0000": 0,
      "\u0001": 1,
      "\u0002": 2,
      "\u0003": 3,
      "\u0004": 4,
      "\u0005": 5,
      "\u0006": 6,
      "\u0007": 7,
      "\b": 8,
      "\t": 9,
      "\n": 10,
      "\u000b": 11,
      "\f": 12,
      "\r": 13,
      "\u000e": 14,
      "\u000f": 15,
      "\u0010": 16,
      "\u0011": 17,
      "\u0012": 18,
      "\u0013": 19,
      "\u0014": 20,
      "\u0015": 21,
      "\u0016": 22,
      "\u0017": 23,
      "\u0018": 24,
      "\u0019": 25,
      "\u001a": 26,
      "\u001b": 27,
      "\u001c": 28,
      "\u001d": 29,
      "\u001e": 30,
      "\u001f": 31,
      " ": 32,
      "!": 33,
      "\"": 34,
      "#": 35,
      "$": 36,
      "%": 37,
      "&": 38,
      "'": 39,
      "(": 40,
      ")": 41,
      "*": 42,
      "+": 43,
      ",": 44,
      "-": 45,
      ".": 46,
      "/": 47,
      "0": 48,
      "1": 49,
      "2": 50,
      "3": 51,
      "4": 52,
      "5": 53,
      "6": 54,
      "7": 55,
      "8": 56,
      "9": 57,
      ":": 58,
      ";": 59,
      "<": 60,
      "=": 61,
      ">": 62,
      "?": 63,
      "@": 64,
      "A": 65,
      "B": 66,
      "C": 67,
      "D": 68,
      "E": 69,
      "F": 70,
      "G": 71,
      "H": 72,
      "I": 73,
      "J": 74,
      "K": 75,
      "L": 76,
      "M": 77,
      "N": 78,
      "O": 79,
      "P": 80,
      "Q": 81,
      "R": 82,
      "S": 83,
      "T": 84,
      "U": 85,
      "V": 86,
      "W": 87,
      "X": 88,
      "Y": 89,
      "Z": 90,
      "[": 91,
      "\\": 92,
      "]": 93,
      "^": 94,
      "_": 95,
      "`": 96,
      "a": 97,
      "b": 98,
      "c": 99,
      "d": 100,
      "e": 101,
      "f": 102,
      "g": 103,
      "h": 104,
      "i": 105,
      "j": 106,
      "k": 107,
      "l": 108,
      "m": 109,
      "n": 110,
      "o": 111,
      "p": 112,
      "q": 113,
      "r": 114,
      "s": 115,
      "t": 116,
      "u": 117,
      "v": 118,
      "w": 119,
      "x": 120,
      "y": 121,
      "z": 122,
      "{": 123,
      "|": 124,
      "}": 125,
      "~": 126,
      "": 127,
      "": 128,
      "": 129,
      "": 130,
      "": 131,
      "": 132,
      "": 133,
      "": 134,
      "": 135,
      "": 136,
      "": 137,
      "": 138,
      "": 139,
      "": 140,
      "": 141,
      "": 142,
      "": 143,
      "": 144,
      "": 145,
      "": 146,
      "": 147,
      "": 148,
      "": 149,
      "": 150,
      "": 151,
      "": 152,
      "": 153,
      "": 154,
      "": 155,
      "": 156,
      "": 157,
      "": 158,
      "": 159,
      " ": 160,
      "¡": 161,
      "¢": 162,
      "£": 163,
      "¤": 164,
      "¥": 165,
      "¦": 166,
      "§": 167,
      "¨": 168,
      "©": 169,
      "ª": 170,
      "«": 171,
      "¬": 172,
      "­": 173,
      "®": 174,
      "¯": 175,
      "°": 176,
      "±": 177,
      "²": 178,
      "³": 179,
      "´": 180,
      "µ": 181,
      "¶": 182,
      "·": 183,
      "¸": 184,
      "¹": 185,
      "º": 186,
      "»": 187,
      "¼": 188,
      "½": 189,
      "¾": 190,
      "¿": 191,
      "À": 192,
      "Á": 193,
      "Â": 194,
      "Ã": 195,
      "Ä": 196,
      "Å": 197,
      "Æ": 198,
      "Ç": 199,
      "È": 200,
      "É": 201,
      "Ê": 202,
      "Ë": 203,
      "Ì": 204,
      "Í": 205,
      "Î": 206,
      "Ï": 207,
      "Ð": 208,
      "Ñ": 209,
      "Ò": 210,
      "Ó": 211,
      "Ô": 212,
      "Õ": 213,
      "Ö": 214,
      "×": 215,
      "Ø": 216,
      "Ù": 217,
      "Ú": 218,
      "Û": 219,
      "Ü": 220,
      "Ý": 221,
      "Þ": 222,
      "ß": 223,
      "à": 224,
      "á": 225,
      "â": 226,
      "ã": 227,
      "ä": 228,
      "å": 229,
      "æ": 230,
      "ç": 231,
      "è": 232,
      "é": 233,
      "ê": 234,
      "ë": 235,
      "ì": 236,
      "í": 237,
      "î": 238,
      "ï": 239,
      "ð": 240,
      "ñ": 241,
      "ò": 242,
      "ó": 243,
      "ô": 244,
      "õ": 245,
      "ö": 246,
      "÷": 247,
      "ø": 248,
      "ù": 249,
      "ú": 250,
      "û": 251,
      "ü": 252,
      "ý": 253,
      "þ": 254,
      "ÿ": 255,
      "Ā": 256,
      "ā": 257,
      "Ă": 258,
      "ă": 259,
      "Ą": 260,
      "ą": 261,
      "Ć": 262,
      "ć": 263,
      "Ĉ": 264,
      "ĉ": 265,
      "Ċ": 266,
      "ċ": 267,
      "Č": 268,
      "č": 269,
      "Ď": 270,
      "ď": 271,
      "Đ": 272,
      "đ": 273,
      "Ē": 274,
      "ē": 275,
      "Ĕ": 276,
      "ĕ": 277,
      "Ė": 278,
      "ė": 279,
      "Ę": 280,
      "ę": 281,
      "Ě": 282,
      "ě": 283,
      "Ĝ": 284,
      "ĝ": 285,
      "Ğ": 286,
      "ğ": 287,
      "Ġ": 288,
      "ġ": 289,
      "Ģ": 290,
      "ģ": 291,
      "Ĥ": 292,
      "ĥ": 293,
      "Ħ": 294,
      "ħ": 295,
      "Ĩ": 296,
      "ĩ": 297,
      "Ī": 298,
      "ī": 299,
      "Ĭ": 300,
      "ĭ": 301,
      "Į": 302,
      "į": 303,
      "İ": 304,
      "ı": 305,
      "Ĳ": 306,
      "ĳ": 307,
      "Ĵ": 308,
      "ĵ": 309,
      "Ķ": 310,
      "ķ": 311,
      "ĸ": 312,
      "Ĺ": 313,
      "ĺ": 314,
      "Ļ": 315,
      "ļ": 316,
      "Ľ": 317,
      "ľ": 318,
      "Ŀ": 319,
      "ŀ": 320,
      "Ł": 321,
      "ł": 322,
      "Ń": 323,
      "ń": 324,
      "Ņ": 325,
      "ņ": 326,
      "Ň": 327,
      "ň": 328,
      "ŉ": 329,
      "Ŋ": 330,
      "ŋ": 331,
      "Ō": 332,
      "ō": 333,
      "Ŏ": 334,
      "ŏ": 335,
      "Ő": 336,
      "ő": 337,
      "Œ": 338,
      "œ": 339,
      "Ŕ": 340,
      "ŕ": 341,
      "Ŗ": 342,
      "ŗ": 343,
      "Ř": 344,
      "ř": 345,
      "Ś": 346,
      "ś": 347,
      "Ŝ": 348,
      "ŝ": 349,
      "Ş": 350,
      "ş": 351,
      "Š": 352,
      "š": 353,
      "Ţ": 354,
      "ţ": 355,
      "Ť": 356,
      "ť": 357,
      "Ŧ": 358,
      "ŧ": 359,
      "Ũ": 360,
      "ũ": 361,
      "Ū": 362,
      "ū": 363,
      "Ŭ": 364,
      "ŭ": 365,
      "Ů": 366,
      "ů": 367,
      "Ű": 368,
      "ű": 369,
      "Ų": 370,
      "ų": 371,
      "Ŵ": 372,
      "ŵ": 373,
      "Ŷ": 374,
      "ŷ": 375,
      "Ÿ": 376,
      "Ź": 377,
      "ź": 378,
      "Ż": 379,
      "ż": 380,
      "Ž": 381,
      "ž": 382,
      "ſ": 383,
      "ƀ": 384,
      "Ɓ": 385,
      "Ƃ": 386,
      "ƃ": 387,
      "Ƅ": 388,
      "ƅ": 389,
      "Ɔ": 390,
      "Ƈ": 391,
      "ƈ": 392,
      "Ɖ": 393,
      "Ɗ": 394,
      "Ƌ": 395,
      "ƌ": 396,
      "ƍ": 397,
      "Ǝ": 398,
      "Ə": 399,
      "Ɛ": 400,
      "Ƒ": 401,
      "ƒ": 402,
      "Ɠ": 403,
      "Ɣ": 404,
      "ƕ": 405,
      "Ɩ": 406,
      "Ɨ": 407,
      "Ƙ": 408,
      "ƙ": 409,
      "ƚ": 410,
      "ƛ": 411,
      "Ɯ": 412,
      "Ɲ": 413,
      "ƞ": 414,
      "Ɵ": 415,
      "Ơ": 416,
      "ơ": 417,
      "Ƣ": 418,
      "ƣ": 419,
      "Ƥ": 420,
      "ƥ": 421,
      "Ʀ": 422,
      "Ƨ": 423,
      "ƨ": 424,
      "Ʃ": 425,
      "ƪ": 426,
      "ƫ": 427,
      "Ƭ": 428,
      "ƭ": 429,
      "Ʈ": 430,
      "Ư": 431,
      "ư": 432,
      "Ʊ": 433,
      "Ʋ": 434,
      "Ƴ": 435,
      "ƴ": 436,
      "Ƶ": 437,
      "ƶ": 438,
      "Ʒ": 439,
      "Ƹ": 440,
      "ƹ": 441,
      "ƺ": 442,
      "ƻ": 443,
      "Ƽ": 444,
      "ƽ": 445,
      "ƾ": 446,
      "ƿ": 447,
      "ǀ": 448,
      "ǁ": 449,
      "ǂ": 450,
      "ǃ": 451,
      "Ǆ": 452,
      "ǅ": 453,
      "ǆ": 454,
      "Ǉ": 455,
      "ǈ": 456,
      "ǉ": 457,
      "Ǌ": 458,
      "ǋ": 459,
      "ǌ": 460,
      "Ǎ": 461,
      "ǎ": 462,
      "Ǐ": 463,
      "ǐ": 464,
      "Ǒ": 465,
      "ǒ": 466,
      "Ǔ": 467,
      "ǔ": 468,
      "Ǖ": 469,
      "ǖ": 470,
      "Ǘ": 471,
      "ǘ": 472,
      "Ǚ": 473,
      "ǚ": 474,
      "Ǜ": 475,
      "ǜ": 476,
      "ǝ": 477,
      "Ǟ": 478,
      "ǟ": 479,
      "Ǡ": 480,
      "ǡ": 481,
      "Ǣ": 482,
      "ǣ": 483,
      "Ǥ": 484,
      "ǥ": 485,
      "Ǧ": 486,
      "ǧ": 487,
      "Ǩ": 488,
      "ǩ": 489,
      "Ǫ": 490,
      "ǫ": 491,
      "Ǭ": 492,
      "ǭ": 493,
      "Ǯ": 494,
      "ǯ": 495,
      "ǰ": 496,
      "Ǳ": 497,
      "ǲ": 498,
      "ǳ": 499,
      "Ǵ": 500,
      "ǵ": 501,
      "Ƕ": 502,
      "Ƿ": 503,
      "Ǹ": 504,
      "ǹ": 505,
      "Ǻ": 506,
      "ǻ": 507,
      "Ǽ": 508,
      "ǽ": 509,
      "Ǿ": 510,
      "ǿ": 511,
      "Ȁ": 512,
      "ȁ": 513,
      "Ȃ": 514,
      "ȃ": 515,
      "Ȅ": 516,
      "ȅ": 517,
      "Ȇ": 518,
      "ȇ": 519,
      "Ȉ": 520,
      "ȉ": 521,
      "Ȋ": 522,
      "ȋ": 523,
      "Ȍ": 524,
      "ȍ": 525,
      "Ȏ": 526,
      "ȏ": 527,
      "Ȑ": 528,
      "ȑ": 529,
      "Ȓ": 530,
      "ȓ": 531,
      "Ȕ": 532,
      "ȕ": 533,
      "Ȗ": 534,
      "ȗ": 535,
      "Ș": 536,
      "ș": 537,
      "Ț": 538,
      "ț": 539,
      "Ȝ": 540,
      "ȝ": 541,
      "Ȟ": 542,
      "ȟ": 543,
      "Ƞ": 544,
      "ȡ": 545,
      "Ȣ": 546,
      "ȣ": 547,
      "Ȥ": 548,
      "ȥ": 549,
      "Ȧ": 550,
      "ȧ": 551,
      "Ȩ": 552,
      "ȩ": 553,
      "Ȫ": 554,
      "ȫ": 555,
      "Ȭ": 556,
      "ȭ": 557,
      "Ȯ": 558,
      "ȯ": 559,
      "Ȱ": 560,
      "ȱ": 561,
      "Ȳ": 562,
      "ȳ": 563,
      "ȴ": 564,
      "ȵ": 565,
      "ȶ": 566,
      "ȷ": 567,
      "ȸ": 568,
      "ȹ": 569,
      "Ⱥ": 570,
      "Ȼ": 571,
      "ȼ": 572,
      "Ƚ": 573,
      "Ⱦ": 574,
      "ȿ": 575,
      "ɀ": 576,
      "Ɂ": 577,
      "ɂ": 578,
      "Ƀ": 579,
      "Ʉ": 580,
      "Ʌ": 581,
      "Ɇ": 582,
      "ɇ": 583,
      "Ɉ": 584,
      "ɉ": 585,
      "Ɋ": 586,
      "ɋ": 587,
      "Ɍ": 588,
      "ɍ": 589,
      "Ɏ": 590,
      "ɏ": 591,
      "ɐ": 592,
      "ɑ": 593,
      "ɒ": 594,
      "ɓ": 595,
      "ɔ": 596,
      "ɕ": 597,
      "ɖ": 598,
      "ɗ": 599,
      "ɘ": 600,
      "ə": 601,
      "ɚ": 602,
      "ɛ": 603,
      "ɜ": 604,
      "ɝ": 605,
      "ɞ": 606,
      "ɟ": 607,
      "ɠ": 608,
      "ɡ": 609,
      "ɢ": 610,
      "ɣ": 611,
      "ɤ": 612,
      "ɥ": 613,
      "ɦ": 614,
      "ɧ": 615,
      "ɨ": 616,
      "ɩ": 617,
      "ɪ": 618,
      "ɫ": 619,
      "ɬ": 620,
      "ɭ": 621,
      "ɮ": 622,
      "ɯ": 623,
      "ɰ": 624,
      "ɱ": 625,
      "ɲ": 626,
      "ɳ": 627,
      "ɴ": 628,
      "ɵ": 629,
      "ɶ": 630,
      "ɷ": 631,
      "ɸ": 632,
      "ɹ": 633,
      "ɺ": 634,
      "ɻ": 635,
      "ɼ": 636,
      "ɽ": 637,
      "ɾ": 638,
      "ɿ": 639,
      "ʀ": 640,
      "ʁ": 641,
      "ʂ": 642,
      "ʃ": 643,
      "ʄ": 644,
      "ʅ": 645,
      "ʆ": 646,
      "ʇ": 647,
      "ʈ": 648,
      "ʉ": 649,
      "ʊ": 650,
      "ʋ": 651,
      "ʌ": 652,
      "ʍ": 653,
      "ʎ": 654,
      "ʏ": 655,
      "ʐ": 656,
      "ʑ": 657,
      "ʒ": 658,
      "ʓ": 659,
      "ʔ": 660,
      "ʕ": 661,
      "ʖ": 662,
      "ʗ": 663,
      "ʘ": 664,
      "ʙ": 665,
      "ʚ": 666,
      "ʛ": 667,
      "ʜ": 668,
      "ʝ": 669,
      "ʞ": 670,
      "ʟ": 671,
      "ʠ": 672,
      "ʡ": 673,
      "ʢ": 674,
      "ʣ": 675,
      "ʤ": 676,
      "ʥ": 677,
      "ʦ": 678,
      "ʧ": 679,
      "ʨ": 680,
      "ʩ": 681,
      "ʪ": 682,
      "ʫ": 683,
      "ʬ": 684,
      "ʭ": 685,
      "ʮ": 686,
      "ʯ": 687,
      "ʰ": 688,
      "ʱ": 689,
      "ʲ": 690,
      "ʳ": 691,
      "ʴ": 692,
      "ʵ": 693,
      "ʶ": 694,
      "ʷ": 695,
      "ʸ": 696,
      "ʹ": 697,
      "ʺ": 698,
      "Åł": 699,
      "ÅłÅł": 700,
      "ÅłÅłÅłÅł": 701,
      "ÅłÅłÅłÅłÅłÅłÅłÅł": 702,
      "ÅłÅłÅłÅłÅłÅłÅłÅłÅłÅłÅłÅłÅłÅłÅłÅł": 703,
      "ÅłÅłÅłÅłÅłÅłÅłÅłÅłÅłÅłÅłÅłÅłÅłÅłÅłÅłÅłÅłÅłÅłÅłÅłÅłÅłÅłÅłÅłÅłÅłÅł": 704,
      "ÅłÅłÅłÅłÅłÅłÅłÅłÅłÅłÅłÅłÅłÅłÅłÅłÅłÅłÅłÅłÅłÅłÅłÅłÅłÅłÅłÅłÅłÅłÅłÅłÅłÅłÅłÅłÅłÅłÅłÅłÅłÅłÅłÅłÅłÅłÅłÅłÅłÅłÅłÅłÅłÅłÅłÅłÅłÅłÅłÅłÅłÅłÅłÅł": 705,
      "ÅłÅ": 706,
      "ÅłÅłÅłÅłÅłÅłÅłÅłÅłÅłÅłÅłÅłÅłÅłÅłÅłÅłÅłÅłÅłÅłÅłÅłÅłÅłÅłÅłÅłÅłÅłÅłÅłÅłÅłÅłÅłÅłÅłÅłÅłÅłÅłÅłÅłÅłÅłÅłÅłÅłÅłÅłÅłÅłÅłÅłÅłÅłÅłÅłÅłÅłÅłÅłÅłÅłÅłÅłÅłÅłÅłÅłÅłÅłÅłÅłÅłÅłÅłÅłÅłÅłÅłÅłÅłÅłÅłÅłÅłÅłÅłÅłÅłÅłÅłÅłÅłÅłÅłÅłÅłÅłÅłÅłÅłÅłÅłÅłÅłÅłÅłÅłÅłÅłÅłÅłÅłÅłÅłÅłÅłÅłÅłÅłÅłÅłÅłÅł": 707,
      "Å¡": 708,
      "ÅŁ": 709,
      "ÅłÅłÅłÅłÅłÅł": 710,
      "ÅłÅ¡": 711,
      "ÅłÅŁ": 712,
      "ÅłÅłÅłÅłÅłÅłÅłÅłÅłÅłÅłÅłÅłÅłÅłÅłÅłÅłÅłÅłÅłÅłÅłÅłÅłÅłÅłÅłÅłÅłÅłÅłÅłÅłÅłÅłÅłÅłÅłÅłÅłÅłÅłÅłÅłÅłÅłÅłÅłÅłÅłÅłÅłÅłÅłÅłÅłÅłÅłÅłÅłÅłÅłÅłÅłÅłÅłÅłÅłÅłÅłÅłÅłÅłÅłÅłÅłÅłÅłÅłÅłÅłÅłÅłÅłÅłÅłÅłÅłÅłÅłÅłÅłÅłÅłÅłÅłÅłÅłÅłÅłÅłÅłÅłÅłÅłÅłÅłÅłÅłÅłÅłÅłÅłÅłÅłÅłÅłÅłÅłÅłÅłÅłÅłÅłÅłÅłÅłÅłÅłÅłÅłÅłÅłÅłÅłÅłÅłÅłÅłÅłÅłÅłÅłÅłÅłÅłÅłÅłÅłÅłÅłÅłÅłÅłÅłÅłÅłÅłÅłÅłÅłÅłÅłÅłÅłÅłÅłÅłÅłÅłÅłÅłÅłÅłÅłÅłÅłÅłÅłÅłÅłÅłÅłÅłÅłÅłÅłÅłÅłÅłÅłÅłÅłÅłÅłÅłÅłÅłÅłÅłÅłÅłÅłÅłÅłÅłÅłÅłÅłÅłÅłÅłÅłÅłÅłÅłÅłÅłÅłÅłÅłÅłÅłÅłÅłÅłÅłÅłÅłÅłÅłÅłÅłÅłÅłÅłÅłÅłÅłÅłÅłÅłÅłÅłÅłÅłÅłÅłÅłÅłÅłÅłÅłÅłÅł": 713,
      "ÅłÅłÅłÅłÅłÅłÅłÅłÅłÅłÅłÅłÅłÅł": 714,
      "ÅłÅłÅłÅłÅłÅłÅłÅłÅłÅłÅłÅł": 715,
      "Å¢": 716,
      "Åŀ": 717,
      "Å£": 718,
      "ÅłÅłÅłÅłÅłÅłÅłÅłÅłÅłÅłÅłÅłÅłÅłÅłÅłÅłÅłÅł": 719,
      "ÅĿ": 720,
      "ÅłÅłÅłÅłÅłÅłÅłÅłÅłÅłÅłÅłÅłÅłÅłÅłÅłÅłÅłÅłÅłÅłÅłÅłÅłÅłÅłÅłÅłÅł": 721,
      "ÅłÅłÅłÅłÅłÅłÅłÅłÅłÅłÅłÅłÅłÅłÅłÅłÅłÅłÅłÅłÅłÅłÅłÅłÅłÅłÅłÅłÅłÅłÅłÅłÅłÅłÅłÅłÅłÅłÅłÅłÅłÅłÅłÅłÅłÅłÅłÅłÅłÅłÅłÅłÅłÅłÅłÅłÅłÅłÅłÅłÅłÅłÅłÅłÅłÅłÅłÅłÅłÅłÅłÅłÅłÅłÅłÅłÅłÅłÅłÅłÅłÅłÅłÅłÅłÅłÅłÅłÅłÅłÅłÅłÅłÅłÅłÅłÅłÅłÅłÅłÅłÅłÅłÅłÅłÅłÅłÅłÅłÅłÅłÅłÅłÅłÅłÅłÅłÅłÅłÅłÅłÅłÅłÅłÅłÅłÅłÅłÅłÅłÅłÅłÅłÅłÅłÅłÅłÅłÅłÅłÅłÅłÅłÅłÅłÅłÅłÅłÅłÅłÅłÅłÅłÅłÅłÅłÅłÅłÅłÅłÅłÅłÅłÅłÅłÅłÅłÅłÅłÅłÅłÅłÅłÅłÅłÅłÅłÅłÅłÅłÅłÅłÅłÅłÅłÅłÅłÅłÅłÅłÅłÅłÅłÅłÅłÅłÅłÅłÅłÅłÅłÅłÅłÅłÅłÅłÅłÅłÅłÅłÅłÅłÅłÅłÅłÅłÅłÅłÅłÅłÅłÅłÅłÅłÅłÅłÅłÅłÅłÅłÅłÅłÅłÅłÅłÅłÅłÅłÅłÅłÅłÅłÅłÅłÅłÅłÅłÅłÅłÅłÅłÅłÅłÅłÅłÅłÅłÅłÅłÅłÅłÅłÅłÅłÅłÅłÅłÅłÅłÅłÅłÅłÅłÅłÅłÅłÅłÅłÅłÅłÅłÅłÅłÅłÅłÅłÅłÅłÅłÅłÅłÅłÅłÅłÅłÅłÅłÅłÅłÅłÅłÅłÅłÅłÅłÅłÅłÅłÅłÅłÅłÅłÅłÅłÅłÅłÅłÅłÅłÅłÅłÅłÅłÅłÅłÅłÅłÅłÅłÅłÅłÅłÅłÅłÅłÅłÅłÅłÅłÅłÅłÅłÅłÅłÅłÅłÅłÅłÅłÅłÅłÅłÅłÅłÅłÅłÅłÅłÅłÅłÅłÅłÅłÅłÅłÅłÅłÅłÅłÅłÅłÅłÅłÅłÅłÅłÅłÅłÅłÅłÅłÅłÅłÅłÅłÅłÅłÅłÅłÅłÅłÅłÅłÅłÅłÅłÅłÅłÅłÅłÅłÅłÅłÅłÅłÅłÅłÅłÅłÅłÅłÅłÅłÅłÅłÅłÅłÅłÅłÅłÅłÅłÅłÅłÅłÅłÅłÅłÅłÅłÅłÅłÅłÅłÅłÅłÅłÅłÅłÅłÅłÅłÅłÅłÅłÅłÅłÅłÅłÅłÅłÅłÅłÅłÅłÅłÅłÅłÅłÅłÅłÅłÅłÅłÅłÅłÅłÅłÅłÅłÅłÅłÅłÅłÅłÅłÅłÅłÅłÅłÅłÅłÅłÅłÅłÅłÅłÅłÅłÅłÅłÅłÅłÅłÅłÅłÅłÅłÅłÅłÅłÅłÅłÅłÅłÅłÅłÅłÅłÅłÅłÅł": 722,
      "Æĭ": 723,
      "ÅłÅ¢": 724,
      "Å¤": 725,
      "ÅłÅŀ": 726,
      "Å§": 727,
      "Åľ": 728,
      "ÅŁÅ¡": 729,
      "Å¥": 730,
      "ÅĽ": 731,
      "ÅĹ": 732,
      "ÅłÅłÅ¡": 733,
      "Åļ": 734,
      "Å¦": 735,
      "ÅłÅłÅłÅłÅłÅłÅłÅłÅłÅłÅłÅłÅłÅłÅłÅłÅłÅł": 736,
      "ÅĻ": 737,
      "Åĺ": 738,
      "ÅłÅłÅŁ": 739,
      "Å¡Å¡": 740,
      "ÅłÅ£": 741,
      "Å¨": 742,
      "ÅłÅłÅłÅłÅłÅłÅłÅłÅłÅłÅłÅłÅłÅłÅłÅłÅłÅłÅłÅłÅłÅłÅłÅłÅłÅłÅłÅłÅłÅłÅłÅŁ": 743,
      "Æ¤": 744,
      "ÆĴ": 745,
      "ÅłÅłÅłÅłÅłÅłÅłÅłÅłÅ¡": 746,
      "ÅłÅłÅłÅłÅłÅłÅłÅłÅłÅłÅłÅłÅłÅłÅłÅłÅłÅłÅłÅłÅłÅłÅłÅłÅłÅłÅłÅłÅłÅłÅłÅłÅłÅłÅłÅłÅłÅłÅłÅłÅłÅłÅłÅłÅłÅłÅłÅłÅłÅłÅłÅłÅłÅłÅłÅłÅłÅłÅłÅłÅłÅłÅłÅłÅłÅłÅłÅłÅłÅłÅłÅłÅłÅłÅłÅłÅłÅłÅłÅłÅłÅłÅłÅłÅłÅłÅłÅłÅłÅłÅłÅłÅłÅłÅłÅłÅłÅłÅłÅłÅłÅłÅłÅłÅłÅłÅłÅłÅłÅłÅłÅłÅłÅłÅłÅłÅłÅłÅłÅłÅłÅłÅłÅłÅłÅłÅłÅłÅłÅłÅłÅłÅłÅłÅłÅłÅłÅłÅłÅłÅłÅłÅłÅłÅłÅłÅłÅłÅłÅłÅłÅłÅłÅłÅłÅłÅłÅłÅłÅłÅłÅłÅłÅłÅłÅłÅłÅłÅłÅłÅłÅłÅłÅłÅłÅłÅłÅłÅłÅłÅłÅłÅłÅłÅłÅłÅłÅłÅłÅłÅłÅłÅłÅłÅłÅłÅłÅłÅłÅłÅłÅłÅłÅłÅłÅłÅłÅłÅłÅłÅłÅłÅłÅłÅłÅłÅłÅłÅłÅłÅłÅłÅłÅłÅłÅłÅłÅłÅłÅłÅłÅłÅłÅłÅłÅłÅłÅłÅłÅłÅłÅłÅłÅłÅłÅłÅłÅłÅłÅłÅłÅłÅłÅłÅłÅłÅłÅłÅłÅłÅłÅłÅłÅłÅłÅłÅłÅłÅłÅłÅłÅłÅłÅłÅłÅłÅłÅłÅłÅłÅłÅłÅłÅłÅłÅłÅłÅłÅłÅłÅłÅłÅłÅłÅłÅłÅłÅłÅłÅłÅłÅłÅłÅłÅłÅłÅłÅłÅłÅłÅłÅłÅłÅłÅłÅłÅłÅłÅłÅłÅłÅłÅłÅłÅłÅłÅłÅłÅłÅłÅłÅłÅłÅłÅłÅłÅłÅłÅłÅłÅłÅłÅłÅłÅłÅłÅłÅłÅłÅłÅłÅłÅłÅłÅłÅłÅłÅłÅłÅłÅłÅłÅłÅłÅłÅłÅłÅłÅłÅłÅłÅłÅłÅłÅłÅłÅłÅłÅłÅłÅłÅłÅłÅłÅłÅłÅłÅłÅłÅłÅłÅłÅłÅłÅłÅłÅłÅłÅłÅłÅłÅłÅłÅłÅłÅłÅłÅłÅłÅłÅłÅłÅłÅłÅłÅłÅłÅłÅłÅłÅłÅłÅłÅłÅłÅłÅłÅłÅłÅłÅłÅłÅłÅłÅłÅłÅłÅłÅłÅłÅłÅłÅłÅłÅłÅłÅłÅłÅłÅłÅłÅłÅłÅłÅłÅłÅłÅłÅłÅłÅłÅłÅłÅłÅłÅłÅłÅłÅłÅłÅłÅłÅłÅłÅłÅłÅłÅłÅłÅłÅłÅłÅłÅłÅłÅłÅłÅłÅłÅłÅłÅłÅłÅłÅłÅłÅłÅłÅłÅłÅłÅłÅłÅłÅłÅłÅłÅłÅłÅłÅłÅłÅłÅłÅłÅłÅłÅłÅłÅłÅłÅłÅłÅłÅłÅłÅłÅłÅłÅłÅłÅłÅłÅłÅłÅłÅłÅłÅłÅłÅłÅłÅłÅłÅłÅłÅłÅłÅłÅłÅłÅłÅłÅłÅłÅłÅłÅłÅłÅłÅłÅłÅłÅłÅłÅłÅłÅłÅłÅłÅłÅłÅłÅłÅłÅłÅłÅłÅłÅłÅłÅłÅłÅłÅłÅłÅłÅłÅłÅłÅłÅłÅłÅłÅłÅłÅłÅłÅłÅłÅłÅłÅłÅłÅłÅłÅłÅłÅłÅłÅłÅłÅłÅłÅłÅłÅłÅłÅłÅłÅłÅłÅłÅłÅłÅłÅłÅłÅłÅłÅłÅłÅłÅłÅłÅłÅłÅłÅłÅł": 747,
      "ÅłÅĿ": 748,
      "ÅłÅłÅłÅłÅłÅłÅłÅłÅłÅłÅłÅłÅłÅłÅłÅłÅłÅłÅłÅłÅłÅłÅłÅłÅłÅłÅłÅłÅłÅłÅłÅ¡": 749,
      "Å¡ÅŁ": 750,
      "ÄŃ": 751,
      "Å«": 752,
      "ÆĪ": 753,
      "Åĸ": 754,
      "ÅłÅłÅłÅ¡": 755,
      "Å©": 756,
      "Äĳ": 757,
      "Åª": 758,
      "ÅłÅłÅłÅłÅłÅłÅłÅłÅłÅŁ": 759,
      "Æĸ": 760,
      "ÅłÅłÅłÅłÅłÅłÅłÅłÅłÅłÅłÅłÅłÅłÅłÅłÅłÅłÅłÅłÅłÅłÅłÅłÅłÅłÅłÅłÅłÅłÅłÅłÅłÅłÅłÅłÅłÅłÅłÅłÅłÅłÅłÅłÅłÅłÅłÅłÅłÅłÅłÅłÅłÅłÅłÅłÅłÅłÅłÅłÅłÅłÅłÅłÅłÅłÅłÅłÅłÅłÅłÅłÅłÅłÅłÅłÅłÅłÅłÅłÅłÅłÅłÅłÅłÅłÅłÅłÅłÅłÅłÅłÅłÅłÅłÅł": 761,
      "ÆĭÅłÅłÅłÅłÅłÅłÅłÅłÅłÅłÅłÅł": 762,
      "Å¹": 763,
      "ÅłÅłÅłÅłÅłÅłÅłÅłÅłÅłÅłÅłÅłÅ": 764,
      "ÅŁÅŁ": 765,
      "ÅłÅłÅłÅłÅłÅłÅłÅ¡": 766,
      "Åķ": 767,
      "ÅłÅłÅłÅłÅłÅłÅłÅ": 768,
      "ÄŃÆĪ": 769,
      "ÅłÅłÅłÅłÅłÅłÅłÅłÅłÅłÅłÅłÅłÅłÅłÅłÅłÅłÅłÅłÅłÅ¡": 770,
      "ÆĸÆĭ": 771,
      "ÆĴÅ§": 772,
      "ÆĴÅ§ÄŃÆĪ": 773,
      "ÅłÅłÅłÅŁ": 774,
      "ÅłÅłÅłÅłÅłÅłÅłÅłÅłÅłÅłÅłÅłÅŁ": 775,
      "ÅłÅłÅłÅłÅłÅłÅłÅłÅłÅ": 776,
      "ÅłÅłÅłÅłÅłÅłÅłÅłÅłÅłÅłÅłÅłÅłÅłÅłÅłÅłÅłÅłÅłÅŁ": 777,
      "ÅłÅłÅłÅłÅłÅłÅłÅłÅłÅłÅłÅłÅłÅ¡": 778,
      "Å¬": 779,
      "ÅłÅłÅłÅłÅłÅłÅ¡": 780,
      "ÅĶ": 781,
      "ÅłÅłÅłÅłÅłÅłÅłÅłÅłÅłÅłÅłÅłÅłÅ¡": 782,
      "ÅłÅłÅłÅłÅłÅłÅŁ": 783,
      "ÅłÅłÅłÅłÅłÅłÅłÅŁ": 784,
      "Å¼": 785,
      "ÅŃ": 786,
      "Åĵ": 787,
      "Å¹ÆĸÆĭ": 788,
      "ÆĴÅ§ÄŃÆĪÅ¹ÆĸÆĭ": 789,
      "ÅłÅłÅłÅłÅłÅłÅłÅłÅłÅłÅłÅłÅłÅłÅŁ": 790,
      "ÅĴ": 791,
      "Å®": 792,
      "ÅłÅłÅłÅłÅłÅłÅłÅłÅłÅłÅłÅłÅłÅłÅłÅłÅłÅłÅł": 793,
      "ÅłÅłÅłÅłÅłÅłÅłÅłÅłÅłÅłÅłÅłÅłÅłÅłÅłÅłÅłÅłÅłÅłÅłÅłÅłÅłÅłÅł": 794,
      "Åĳ": 795,
      "ÅłÅłÅłÅłÅłÅłÅłÅłÅłÅłÅłÅłÅłÅłÅłÅłÅłÅłÅłÅłÅłÅłÅłÅł": 796,
      "ÅłÅłÅłÅłÅ¡": 797,
      "ÅłÅłÅłÅłÅłÅłÅłÅłÅłÅłÅłÅłÅłÅłÅłÅłÅłÅłÅłÅłÅłÅłÅłÅłÅłÅłÅłÅłÅłÅłÅłÅłÅłÅłÅłÅłÅłÅłÅłÅłÅłÅłÅłÅłÅłÅłÅłÅłÅłÅłÅłÅłÅłÅłÅłÅłÅłÅłÅłÅłÅłÅłÅłÅłÅłÅłÅłÅłÅłÅłÅłÅłÅłÅłÅłÅłÅłÅłÅłÅłÅłÅłÅłÅłÅłÅłÅłÅłÅłÅłÅłÅłÅłÅłÅłÅłÅłÅłÅłÅłÅłÅłÅłÅłÅłÅłÅłÅłÅłÅłÅłÅłÅłÅłÅłÅłÅłÅłÅłÅłÅłÅłÅłÅłÅłÅłÅłÅłÅłÅłÅłÅłÅłÅłÅłÅłÅłÅłÅłÅłÅłÅłÅłÅłÅłÅłÅłÅłÅłÅłÅłÅłÅłÅłÅłÅłÅłÅłÅłÅłÅłÅłÅłÅłÅłÅłÅłÅłÅłÅłÅłÅłÅłÅłÅłÅłÅłÅłÅłÅłÅłÅłÅłÅłÅłÅłÅłÅłÅłÅłÅłÅłÅłÅłÅłÅłÅłÅłÅłÅłÅłÅłÅłÅłÅłÅłÅłÅłÅłÅłÅłÅłÅłÅłÅłÅłÅłÅłÅłÅłÅłÅłÅłÅłÅłÅłÅłÅłÅłÅłÅłÅłÅłÅłÅłÅłÅłÅłÅłÅłÅłÅłÅłÅłÅłÅłÅłÅłÅłÅłÅłÅłÅłÅłÅłÅłÅłÅłÅłÅłÅłÅłÅłÅłÅłÅłÅłÅłÅłÅłÅłÅłÅłÅłÅłÅłÅłÅłÅłÅłÅłÅłÅłÅłÅłÅłÅłÅłÅłÅłÅłÅłÅłÅłÅłÅłÅłÅłÅłÅłÅłÅłÅłÅłÅłÅłÅłÅłÅłÅłÅłÅłÅłÅłÅłÅłÅłÅłÅłÅłÅłÅłÅłÅłÅłÅłÅłÅłÅłÅłÅłÅłÅłÅłÅłÅłÅłÅłÅłÅłÅłÅłÅłÅłÅłÅłÅłÅłÅłÅłÅłÅłÅłÅłÅłÅłÅłÅłÅłÅłÅłÅłÅłÅłÅłÅłÅłÅłÅłÅłÅłÅłÅłÅłÅłÅłÅłÅłÅłÅłÅłÅłÅłÅłÅłÅłÅłÅłÅłÅłÅłÅłÅłÅłÅłÅłÅłÅłÅłÅłÅłÅłÅłÅłÅłÅłÅłÅłÅłÅłÅłÅłÅłÅłÅłÅłÅłÅłÅłÅłÅłÅłÅłÅłÅłÅłÅłÅłÅłÅłÅłÅłÅłÅłÅłÅłÅłÅłÅłÅłÅłÅłÅłÅłÅłÅłÅłÅłÅłÅłÅłÅłÅłÅłÅłÅłÅłÅłÅłÅłÅłÅłÅłÅłÅłÅłÅłÅłÅłÅłÅłÅłÅłÅłÅłÅłÅłÅłÅłÅłÅłÅłÅłÅłÅłÅłÅłÅłÅłÅłÅłÅłÅłÅłÅłÅłÅłÅłÅłÅłÅłÅłÅłÅłÅłÅłÅłÅłÅłÅłÅłÅłÅłÅłÅłÅłÅłÅłÅłÅłÅłÅłÅłÅłÅłÅłÅłÅłÅłÅłÅłÅłÅłÅłÅłÅłÅłÅłÅłÅłÅłÅłÅłÅłÅłÅłÅłÅłÅłÅłÅłÅłÅłÅłÅłÅłÅłÅłÅłÅłÅłÅłÅłÅłÅłÅłÅłÅłÅłÅłÅłÅłÅłÅłÅłÅłÅłÅłÅłÅłÅłÅłÅłÅłÅłÅłÅłÅłÅłÅłÅłÅłÅłÅłÅłÅłÅłÅłÅłÅłÅłÅłÅłÅłÅłÅłÅłÅłÅłÅłÅłÅłÅłÅłÅłÅłÅłÅłÅłÅłÅłÅłÅłÅłÅłÅłÅłÅłÅłÅłÅłÅłÅłÅłÅłÅłÅłÅłÅłÅłÅłÅłÅłÅłÅłÅłÅłÅłÅłÅłÅłÅłÅłÅłÅłÅłÅłÅłÅłÅłÅłÅłÅłÅłÅłÅłÅłÅłÅłÅłÅłÅłÅłÅłÅłÅłÅłÅłÅłÅłÅłÅłÅłÅłÅłÅłÅłÅłÅłÅłÅłÅłÅłÅłÅłÅłÅłÅłÅłÅłÅłÅłÅłÅłÅłÅłÅłÅłÅłÅłÅłÅłÅłÅłÅłÅłÅłÅłÅłÅłÅłÅłÅłÅłÅłÅłÅłÅłÅłÅłÅłÅłÅłÅłÅłÅłÅłÅłÅłÅłÅłÅłÅłÅłÅłÅłÅłÅłÅłÅłÅłÅłÅłÅłÅłÅłÅłÅłÅłÅłÅłÅłÅłÅłÅłÅłÅłÅł": 798,
      "Å¯": 799,
      "Å¾": 800,
      "ÅłÅłÅłÅłÅŁ": 801,
      "Å°": 802,
      "ÅĲ": 803,
      "Å¢Å¡": 804,
      "Å±": 805,
      "ÅłÅ¤": 806,
      "Åı": 807,
      "Ä¶": 808,
      "Å´": 809,
      "Æ¦": 810,
      "ÅłÅľ": 811,
      "ÅłÅłÅłÅłÅłÅłÅłÅłÅłÅłÅłÅłÅłÅłÅłÅłÅłÅłÅłÅłÅłÅłÅłÅłÅłÅłÅłÅłÅłÅłÅłÅłÅłÅłÅłÅłÅłÅłÅłÅłÅłÅłÅłÅłÅłÅłÅłÅłÅłÅłÅłÅłÅłÅłÅłÅłÅłÅłÅłÅłÅłÅłÅłÅłÅłÅłÅłÅłÅłÅłÅłÅłÅłÅłÅłÅłÅłÅłÅłÅłÅłÅłÅłÅłÅłÅłÅłÅłÅłÅłÅłÅłÅłÅłÅłÅłÅłÅłÅłÅłÅłÅłÅłÅłÅłÅłÅłÅłÅłÅłÅłÅłÅłÅłÅłÅłÅłÅłÅłÅłÅłÅłÅłÅłÅłÅłÅłÅłÅłÅłÅłÅłÅłÅłÅłÅłÅłÅłÅłÅłÅłÅłÅłÅłÅłÅłÅłÅłÅłÅłÅłÅłÅłÅłÅłÅłÅłÅłÅłÅłÅłÅłÅłÅłÅłÅłÅłÅłÅłÅłÅłÅłÅłÅłÅłÅłÅłÅłÅłÅłÅłÅłÅłÅłÅłÅłÅłÅłÅłÅłÅłÅłÅłÅłÅłÅłÅłÅłÅłÅłÅłÅłÅłÅłÅłÅłÅłÅłÅłÅłÅłÅłÅłÅłÅłÅłÅłÅłÅłÅłÅłÅłÅłÅłÅłÅłÅłÅłÅłÅłÅłÅłÅłÅłÅłÅłÅłÅłÅłÅłÅłÅłÅłÅłÅłÅłÅłÅłÅłÅłÅłÅłÅłÅłÅłÅłÅłÅłÅłÅłÅłÅłÅłÅłÅłÅłÅłÅłÅłÅłÅłÅłÅłÅłÅłÅłÅłÅłÅłÅłÅłÅłÅłÅłÅłÅłÅłÅłÅłÅłÅłÅłÅłÅłÅłÅłÅłÅłÅłÅłÅłÅłÅłÅłÅłÅłÅłÅłÅłÅłÅłÅłÅłÅłÅłÅłÅłÅłÅłÅłÅłÅłÅłÅłÅłÅłÅłÅłÅłÅłÅłÅłÅłÅłÅłÅłÅłÅłÅłÅłÅłÅłÅłÅłÅłÅłÅłÅłÅłÅłÅłÅłÅłÅłÅłÅłÅłÅłÅłÅłÅłÅłÅłÅłÅłÅłÅłÅłÅłÅłÅłÅłÅłÅłÅłÅłÅłÅłÅłÅłÅłÅłÅłÅłÅłÅłÅłÅłÅłÅłÅłÅłÅłÅłÅłÅłÅłÅłÅłÅłÅłÅłÅłÅłÅłÅłÅłÅłÅłÅłÅłÅłÅłÅłÅłÅłÅłÅłÅłÅłÅłÅłÅłÅłÅłÅłÅłÅłÅłÅłÅłÅłÅłÅłÅłÅłÅłÅłÅłÅłÅłÅłÅłÅłÅłÅłÅłÅłÅłÅłÅłÅłÅłÅłÅłÅłÅłÅłÅłÅłÅłÅłÅłÅłÅłÅłÅłÅłÅłÅłÅłÅłÅłÅłÅłÅłÅłÅłÅłÅłÅłÅłÅłÅłÅłÅłÅłÅłÅłÅłÅłÅłÅłÅłÅłÅłÅłÅłÅłÅłÅłÅłÅłÅłÅłÅłÅłÅłÅłÅłÅłÅłÅłÅłÅłÅłÅłÅłÅłÅłÅłÅłÅłÅłÅłÅłÅłÅłÅłÅłÅłÅłÅłÅłÅłÅłÅłÅłÅłÅłÅłÅłÅłÅłÅłÅłÅłÅłÅłÅłÅłÅłÅłÅłÅłÅłÅłÅłÅłÅłÅłÅłÅłÅłÅłÅłÅłÅłÅłÅłÅłÅłÅłÅłÅłÅłÅłÅłÅłÅłÅłÅłÅłÅłÅłÅłÅłÅłÅłÅłÅłÅłÅłÅłÅłÅłÅłÅłÅłÅłÅłÅłÅłÅłÅłÅłÅłÅł": 812,
      "ÅłÅŁÅ¡": 813,
      "Æ¤Ä": 814,
      "Å³": 815,
      "Å½": 816,
      "Å²": 817,
      "Åİ": 818,
      "ÅłÅłÅłÅłÅłÅłÅłÅłÅłÅłÅłÅłÅłÅłÅłÅłÅłÅłÅłÅłÅłÅł": 819,
      "ÅŁÅ¢": 820,
      "ÄĳÅłÅłÅłÅłÅłÅłÅłÅłÅłÅłÅłÅł": 821,
      "ÅŀÅ¡": 822,
      "ÅŁÅłÅ¡": 823,
      "Ä·": 824,
      "ÅłÅłÅłÅłÅłÅ¡": 825,
      "ÅĮ": 826,
      "ÅłÅłÅłÅłÅłÅłÅłÅłÅłÅłÅłÅłÅłÅłÅłÅŁ": 827,
      "ÅłÅłÅłÅłÅłÅłÅłÅłÅłÅ¢": 828,
      "Åį": 829,
      "ÄĻ": 830,
      "Äĺ": 831,
      "ÅłÅłÅŀ": 832,
      "ÅłÆ": 833,
      "Åĥ": 834,
      "Å·": 835,
      "Ä¸": 836,
      "Åµ": 837,
      "ÅĢ": 838,
      "Å¶": 839,
      "Åº": 840,
      "ÅŁÅŀ": 841,
      "ÅĤ": 842,
      "Åĭ": 843,
      "Ä¿": 844,
      "Å»": 845,
      "Å¸": 846,
      "ÅłÅŁÅłÅ¡": 847,
      "ÄĮ": 848,
      "ÅłÅłÅłÅłÅłÅłÅłÅłÅłÅŀ": 849,
      "ÅłÅłÅłÅłÅłÅłÅłÅłÅ¡": 850,
      "ÅĦ": 851,
      "Åģ": 852,
      "ÅłÅ¥": 853,
      "Ä¹": 854,
      "ÅĬ": 855,
      "ÅłÅĽ": 856,
      "ÅłÅłÅłÅłÅłÅłÅłÅłÅłÅłÅłÅłÅ¡": 857,
      "ÅłÅłÅłÅłÅłÅłÅłÅłÅłÅłÅłÅłÅłÅłÅłÅłÅłÅłÅłÅłÅłÅłÅłÅłÅłÅłÅłÅłÅłÅłÅłÅ¡ÅłÅłÅłÅłÅłÅłÅłÅłÅłÅłÅłÅłÅłÅłÅłÅłÅłÅłÅłÅłÅłÅłÅłÅłÅłÅłÅłÅłÅłÅłÅłÅłÅłÅłÅłÅłÅłÅłÅłÅłÅłÅłÅłÅłÅłÅłÅłÅłÅłÅłÅłÅłÅłÅłÅłÅłÅłÅłÅłÅłÅłÅłÅłÅłÅłÅłÅłÅłÅłÅłÅłÅłÅłÅłÅłÅłÅłÅłÅłÅłÅłÅłÅłÅłÅłÅłÅłÅłÅłÅłÅłÅłÅłÅłÅłÅłÅłÅłÅłÅłÅłÅłÅłÅłÅłÅłÅłÅłÅłÅłÅłÅłÅłÅłÅłÅłÅłÅłÅłÅłÅłÅłÅłÅłÅłÅłÅłÅłÅłÅłÅłÅłÅłÅłÅłÅłÅłÅłÅłÅłÅłÅłÅłÅłÅłÅłÅłÅłÅłÅłÅłÅłÅłÅłÅłÅłÅłÅłÅłÅłÅłÅłÅłÅłÅłÅłÅłÅłÅłÅłÅłÅłÅłÅłÅłÅłÅłÅłÅłÅłÅłÅłÅłÅłÅłÅłÅłÅłÅłÅłÅłÅłÅłÅłÅłÅłÅłÅłÅłÅłÅłÅłÅłÅłÅłÅłÅłÅłÅłÅłÅłÅłÅłÅłÅłÅłÅłÅłÅłÅłÅłÅłÅłÅłÅłÅłÅłÅłÅłÅłÅłÅłÅłÅłÅłÅłÅłÅłÅłÅłÅłÅłÅłÅłÅłÅłÅłÅłÅłÅłÅłÅłÅłÅłÅłÅłÅłÅłÅłÅłÅłÅłÅłÅłÅłÅłÅłÅłÅłÅłÅłÅłÅłÅłÅłÅłÅłÅłÅłÅłÅłÅłÅłÅłÅłÅłÅłÅłÅłÅłÅłÅłÅłÅłÅłÅłÅłÅłÅłÅłÅłÅłÅłÅłÅłÅłÅłÅłÅłÅłÅłÅłÅłÅłÅłÅłÅłÅłÅłÅłÅłÅłÅłÅłÅłÅłÅłÅłÅłÅłÅłÅłÅłÅłÅłÅłÅłÅłÅłÅłÅłÅłÅłÅłÅłÅłÅłÅłÅłÅłÅłÅłÅłÅłÅłÅłÅłÅłÅłÅłÅłÅłÅłÅłÅłÅłÅłÅłÅłÅłÅłÅłÅłÅłÅłÅłÅłÅłÅłÅłÅłÅłÅłÅłÅłÅłÅłÅłÅłÅłÅłÅłÅłÅłÅłÅłÅłÅłÅłÅłÅłÅłÅłÅłÅłÅłÅłÅłÅłÅłÅłÅłÅłÅłÅłÅłÅłÅłÅłÅłÅłÅłÅłÅłÅłÅłÅłÅłÅłÅłÅłÅłÅłÅłÅłÅłÅłÅłÅłÅłÅłÅłÅłÅłÅłÅłÅłÅłÅłÅłÅłÅłÅłÅłÅłÅłÅłÅłÅłÅłÅłÅłÅłÅłÅłÅłÅłÅłÅłÅłÅłÅłÅłÅłÅłÅłÅłÅłÅłÅłÅłÅłÅłÅłÅłÅłÅłÅłÅłÅłÅłÅłÅłÅłÅłÅłÅłÅłÅłÅłÅłÅłÅłÅłÅłÅłÅłÅłÅłÅłÅłÅłÅłÅłÅłÅłÅłÅłÅłÅłÅłÅłÅłÅłÅłÅłÅłÅłÅłÅłÅłÅłÅłÅłÅłÅłÅłÅłÅłÅłÅłÅłÅłÅłÅłÅłÅłÅłÅłÅłÅłÅłÅłÅłÅłÅłÅłÅłÅłÅłÅłÅłÅłÅłÅłÅłÅłÅłÅłÅłÅłÅłÅłÅłÅłÅłÅłÅłÅłÅłÅłÅłÅłÅłÅłÅłÅłÅłÅłÅłÅłÅłÅłÅłÅłÅłÅłÅłÅłÅłÅłÅłÅłÅłÅłÅłÅłÅłÅłÅłÅłÅłÅłÅłÅłÅłÅłÅłÅłÅłÅłÅłÅłÅłÅłÅłÅłÅłÅłÅłÅłÅłÅłÅłÅłÅłÅłÅłÅłÅł": 858,
      "ÅłÅłÅłÅłÅłÅłÅłÅłÅłÅłÅłÅłÅłÅłÅłÅłÅłÅłÅłÅłÅłÅłÅłÅłÅłÅłÅłÅłÅłÅłÅłÅŁÅłÅłÅłÅłÅłÅłÅłÅłÅłÅłÅłÅłÅłÅłÅłÅłÅłÅłÅłÅłÅłÅłÅłÅłÅłÅłÅłÅłÅłÅłÅłÅłÅłÅłÅłÅłÅłÅłÅłÅłÅłÅłÅłÅłÅłÅłÅłÅłÅłÅłÅłÅłÅłÅłÅłÅłÅłÅłÅłÅłÅłÅłÅłÅłÅłÅłÅłÅłÅłÅłÅłÅłÅłÅłÅłÅłÅłÅłÅłÅłÅłÅłÅłÅłÅłÅłÅłÅłÅłÅłÅłÅłÅłÅłÅłÅłÅłÅłÅłÅłÅłÅłÅłÅłÅłÅłÅłÅłÅłÅłÅłÅłÅłÅłÅłÅłÅłÅłÅłÅłÅłÅłÅłÅłÅłÅłÅłÅłÅłÅłÅłÅłÅłÅłÅłÅłÅłÅłÅłÅłÅłÅłÅłÅłÅłÅłÅłÅłÅłÅłÅłÅłÅłÅłÅłÅłÅłÅłÅłÅłÅłÅłÅłÅłÅłÅłÅłÅłÅłÅłÅłÅłÅłÅłÅłÅłÅłÅłÅłÅłÅłÅłÅłÅłÅłÅłÅłÅłÅłÅłÅłÅłÅłÅłÅłÅłÅłÅłÅłÅłÅłÅłÅłÅłÅłÅłÅłÅłÅłÅłÅłÅłÅłÅłÅłÅłÅłÅłÅłÅłÅłÅłÅłÅłÅłÅłÅłÅłÅłÅłÅłÅłÅłÅłÅłÅłÅłÅłÅłÅłÅłÅłÅłÅłÅłÅłÅłÅłÅłÅłÅłÅłÅłÅłÅłÅłÅłÅłÅłÅłÅłÅłÅłÅłÅłÅłÅłÅłÅłÅłÅłÅłÅłÅłÅłÅłÅłÅłÅłÅłÅłÅłÅłÅłÅłÅłÅłÅłÅłÅłÅłÅłÅłÅłÅłÅłÅłÅłÅłÅłÅłÅłÅłÅłÅłÅłÅłÅłÅłÅłÅłÅłÅłÅłÅłÅłÅłÅłÅłÅłÅłÅłÅłÅłÅłÅłÅłÅłÅłÅłÅłÅłÅłÅłÅłÅłÅłÅłÅłÅłÅłÅłÅłÅłÅłÅłÅłÅłÅłÅłÅłÅłÅłÅłÅłÅłÅłÅłÅłÅłÅłÅłÅłÅłÅłÅłÅłÅłÅłÅłÅłÅłÅłÅłÅłÅłÅłÅłÅłÅłÅłÅłÅłÅłÅłÅłÅłÅłÅłÅłÅłÅłÅłÅłÅłÅłÅłÅłÅłÅłÅłÅłÅłÅłÅłÅłÅłÅłÅłÅłÅłÅłÅłÅłÅłÅłÅłÅłÅłÅłÅłÅłÅłÅłÅłÅłÅłÅłÅłÅłÅłÅłÅłÅłÅłÅłÅłÅłÅłÅłÅłÅłÅłÅłÅłÅłÅłÅłÅłÅłÅłÅłÅłÅłÅłÅłÅłÅłÅłÅłÅłÅłÅłÅłÅłÅłÅłÅłÅłÅłÅłÅłÅłÅłÅłÅłÅłÅłÅłÅłÅłÅłÅłÅłÅłÅłÅłÅłÅłÅłÅłÅłÅłÅłÅłÅłÅłÅłÅłÅłÅłÅłÅłÅłÅłÅłÅłÅłÅłÅłÅłÅłÅłÅłÅłÅłÅłÅłÅłÅłÅłÅłÅłÅłÅłÅłÅłÅłÅłÅłÅłÅłÅłÅłÅłÅłÅłÅłÅłÅłÅłÅłÅłÅłÅłÅłÅłÅłÅłÅłÅłÅłÅłÅłÅłÅłÅłÅłÅłÅłÅłÅłÅłÅłÅłÅłÅłÅłÅłÅłÅłÅłÅłÅłÅłÅłÅłÅłÅłÅłÅłÅłÅłÅłÅłÅłÅłÅłÅłÅłÅłÅłÅłÅłÅłÅłÅłÅłÅłÅłÅłÅłÅłÅłÅłÅłÅłÅłÅłÅłÅłÅłÅłÅłÅłÅłÅłÅłÅłÅłÅłÅłÅłÅłÅłÅłÅłÅłÅłÅłÅłÅłÅłÅłÅłÅłÅłÅłÅłÅł": 859,
      "ÅłÅłÅ¢": 860,
      "Å¿": 861,
      "ÅłÅłÅłÅłÅłÅŁ": 862,
      "Åħ": 863,
      "ÅłÅłÅłÅłÅłÅłÅ¢": 864,
      "Åĩ": 865,
      "ÅłÅ¡Å¡": 866,
      "Åī": 867,
      "Æģ": 868,
      "ÅŀÅ¢": 869,
      "ÅłÅłÅłÅłÅłÅłÅłÅłÅłÅłÅłÅłÅłÅŀ": 870,
      "ÅĨ": 871,
      "Äļ": 872,
      "ÅĪ": 873,
      "Ä¾": 874,
      "ÆĢ": 875,
      "Æ·": 876,
      "Ä¼": 877,
      "ÅŀÅŁ": 878,
      "ÅłÅłÅłÅłÅłÅłÅłÅłÅłÅłÅłÅłÅłÅłÅłÅłÅłÅłÅłÅłÅłÅ¡ÅłÅłÅłÅłÅłÅłÅłÅłÅłÅ¡": 879,
      "ÅłÅłÅłÅłÅłÅłÅłÅłÅłÅłÅłÅłÅłÅłÅ¡ÅłÅłÅłÅłÅłÅłÅłÅłÅłÅ¡": 880,
      "ÅłÅłÅłÅłÅłÅłÅłÅ¢": 881,
      "ÅłÅłÅłÅłÅłÅłÅłÅłÅłÅłÅłÅłÅłÅłÅ¢": 882,
      "Äµ": 883,
      "ÅłÅłÅłÅłÅłÅłÅłÅłÅłÅłÅłÅłÅłÅ¢": 884,
      "Ä½": 885,
      "Å£ÅĹ": 886,
      "Äº": 887,
      "Å¼ÆĸÆĭ": 888,
      "ÅłÅłÅłÅłÅłÅłÅłÅłÅłÅłÅłÅłÅłÅłÅłÅłÅłÅłÅłÅłÅłÅŁÅłÅłÅłÅłÅłÅłÅłÅłÅłÅŁ": 889,
      "ÆĬ": 890,
      "Å£Å¡": 891,
      "Ä»": 892,
      "ÅŁÅłÅłÅłÅŁ": 893,
      "ÅłÅłÅłÅłÅłÅłÅłÅłÅłÅłÅłÅłÅłÅłÅłÅłÅłÅłÅłÅłÅłÅ¢": 894,
      "ÅłÅłÅłÅłÅłÅłÅŀ": 895,
      "ÆĴÅ§ÄŃÆĪÅ¼ÆĸÆĭ": 896,
      "Æĩ": 897,
      "ÅłÅ¦": 898,
      "Æħ": 899,
      "Å¢ÅŁ": 900,
      "ÅŁÅ¡Å¡": 901,
      "Æĥ": 902,
      "Æī": 903,
      "ÅłÅłÅłÅłÅłÅłÅłÅłÅŁ": 904,
      "ÅłÅļ": 905,
      "Ä´": 906,
      "ÄĽ": 907,
      "ÅłÅłÅłÅłÅłÅłÅłÅłÅłÅ£": 908,
      "ÅłÅłÅłÅłÅłÅłÅłÅłÅłÅłÅłÅłÅłÅłÅłÅłÅłÅłÅłÅłÅłÅŁÅłÅłÅłÅłÅłÅłÅłÅłÅłÅ¡": 909,
      "ÅłÅłÅłÅłÅłÅłÅłÅłÅłÅłÅłÅłÅłÅłÅłÅłÅłÅłÅłÅŁ": 910,
      "ÆĤ": 911,
      "ÅłÅłÅłÅłÅłÅłÅłÅłÅłÅłÅłÅłÅłÅłÅłÅłÅŁ": 912,
      "Ä³": 913,
      "ÅłÅłÅłÅłÅłÅłÅłÅłÅłÅłÅłÅłÅłÅłÅłÅłÅłÅłÅłÅłÅłÅłÅłÅłÅłÅłÅłÅłÅłÅłÅłÅŁÅłÅłÅłÅłÅłÅłÅłÅłÅłÅłÅłÅłÅłÅłÅłÅłÅłÅłÅłÅłÅłÅłÅłÅłÅłÅłÅłÅłÅłÅłÅłÅŁ": 914,
      "ÅłÅłÅłÅłÅłÅłÅłÅłÅłÅłÅłÅłÅłÅłÅŀ": 915,
      "ÄĹ": 916,
      "ÅłÅ¡ÅŁ": 917,
      "Å¢Å¢": 918,
      "Æ¤Äĩ": 919,
      "ÆĦ": 920,
      "Å¢ÅĹ": 921,
      "Æĳ": 922,
      "Æ£": 923,
      "ÅĿÅ¡": 924,
      "ÅłÅ¡ÅłÅŁ": 925,
      "Å¢Åŀ": 926,
      "ÅłÅłÅłÅłÅłÅłÅłÅłÅłÅłÅłÅłÅłÅłÅłÅłÅłÅłÅłÅłÅłÅ¡ÅłÅłÅłÅłÅłÅłÅłÅłÅłÅŁ": 927,
      "ÅłÅ§": 928,
      "ÅłÅłÅłÅłÅłÅłÅłÅłÅłÅłÅłÅłÅłÅłÅłÅłÅ¡": 929,
      "ÆĨ": 930,
      "ÅłÅłÅŁÅ¡": 931,
      "Ä²": 932,
      "Ä¯": 933,
      "Æ¤ÅĹ": 934,
      "Äľ": 935,
      "ÅłÅłÅłÅłÅłÅłÅłÅłÅłÅłÅłÅłÅłÅłÅłÅłÅłÅłÅłÅłÅłÅłÅłÅłÅłÅłÅłÅłÅłÅłÅłÅłÅłÅłÅłÅłÅłÅłÅłÅłÅłÅłÅłÅłÅłÅłÅłÅłÅłÅłÅł": 936,
      "ÅłÅłÅłÅłÅłÅłÅłÅłÅłÅłÅłÅłÅłÅłÅłÅłÅłÅłÅłÅłÅłÅłÅłÅłÅłÅłÅłÅłÅ¡": 937,
      "Ä°": 938,
      "ÅłÅłÅłÅłÅłÅłÅłÅłÅłÅłÅłÅłÅłÅłÅŁÅłÅłÅłÅłÅłÅłÅłÅłÅłÅŁ": 939,
      "Å¡Åŀ": 940,
      "ÅłÅłÅłÅłÅłÅłÅłÅłÅłÅłÅłÅłÅłÅłÅłÅłÅłÅłÅłÅłÅłÅłÅłÅłÅłÅłÅłÅłÅłÅłÅłÅłÅłÅłÅłÅłÅłÅłÅłÅłÅłÅłÅłÅłÅłÅłÅłÅłÅłÅłÅłÅłÅłÅłÅłÅłÅłÅłÅłÅłÅłÅłÅłÅłÅłÅłÅłÅłÅłÅłÅłÅłÅłÅłÅłÅłÅłÅłÅłÅłÅłÅłÅłÅłÅłÅłÅłÅłÅłÅłÅłÅłÅłÅłÅłÅłÅłÅłÅłÅłÅłÅłÅłÅłÅłÅłÅłÅłÅłÅłÅłÅłÅłÅłÅłÅłÅłÅłÅłÅłÅłÅłÅłÅłÅłÅłÅłÅłÅłÅłÅłÅłÅłÅłÅłÅłÅłÅłÅłÅłÅłÅłÅłÅłÅłÅłÅłÅłÅłÅłÅłÅłÅłÅłÅłÅłÅłÅłÅłÅłÅłÅłÅłÅłÅłÅłÅłÅłÅłÅłÅłÅłÅłÅłÅłÅłÅłÅłÅłÅłÅłÅłÅłÅłÅłÅłÅłÅłÅłÅłÅłÅłÅłÅłÅłÅłÅłÅłÅłÅłÅłÅłÅłÅłÅłÅłÅłÅłÅłÅłÅłÅłÅłÅłÅłÅłÅłÅłÅłÅłÅłÅłÅłÅłÅłÅłÅłÅłÅłÅłÅłÅłÅłÅłÅłÅłÅłÅłÅłÅłÅłÅłÅłÅłÅłÅłÅłÅłÅłÅłÅłÅłÅłÅłÅłÅłÅłÅłÅłÅłÅłÅłÅłÅłÅłÅłÅłÅłÅłÅłÅłÅłÅłÅłÅłÅłÅłÅłÅłÅłÅłÅłÅłÅłÅłÅłÅłÅłÅłÅłÅłÅłÅłÅłÅłÅłÅłÅłÅłÅłÅłÅłÅłÅłÅłÅłÅłÅłÅłÅłÅłÅłÅłÅłÅłÅłÅłÅłÅłÅłÅłÅłÅłÅłÅłÅłÅłÅłÅłÅłÅłÅłÅłÅłÅłÅłÅłÅłÅłÅłÅłÅłÅłÅłÅłÅłÅłÅłÅłÅłÅłÅłÅłÅłÅłÅłÅłÅłÅłÅłÅłÅłÅłÅłÅłÅłÅłÅłÅłÅłÅłÅłÅłÅłÅłÅłÅłÅłÅłÅłÅłÅłÅłÅłÅłÅłÅłÅłÅłÅłÅłÅłÅłÅłÅłÅłÅłÅłÅłÅłÅłÅłÅłÅłÅłÅłÅłÅłÅłÅłÅłÅłÅłÅłÅłÅłÅłÅłÅłÅłÅłÅłÅłÅłÅłÅłÅłÅłÅłÅłÅłÅłÅłÅłÅłÅłÅłÅłÅłÅłÅłÅłÅłÅłÅłÅłÅłÅłÅłÅłÅłÅłÅłÅłÅłÅłÅłÅłÅłÅłÅłÅłÅłÅłÅłÅłÅłÅłÅłÅłÅłÅłÅłÅłÅłÅłÅłÅłÅłÅłÅłÅłÅłÅłÅłÅłÅłÅłÅłÅłÅłÅłÅłÅłÅłÅłÅłÅłÅłÅłÅłÅłÅłÅłÅłÅłÅłÅłÅłÅłÅłÅłÅłÅłÅłÅłÅłÅłÅłÅłÅłÅłÅłÅłÅłÅłÅłÅłÅłÅłÅłÅłÅłÅłÅłÅłÅłÅłÅłÅłÅłÅłÅłÅłÅłÅłÅłÅłÅłÅłÅłÅłÅłÅłÅłÅłÅłÅłÅłÅłÅłÅłÅłÅłÅłÅłÅłÅłÅłÅłÅłÅłÅłÅłÅłÅłÅłÅłÅłÅłÅłÅłÅłÅłÅłÅłÅłÅłÅłÅłÅłÅłÅłÅłÅłÅłÅłÅłÅłÅłÅłÅłÅłÅłÅłÅłÅłÅłÅłÅłÅłÅłÅłÅłÅłÅłÅłÅłÅłÅłÅłÅłÅłÅłÅłÅłÅłÅłÅłÅłÅłÅłÅłÅłÅłÅłÅłÅłÅłÅłÅłÅłÅłÅłÅłÅłÅłÅłÅłÅłÅłÅłÅłÅłÅłÅłÅłÅłÅłÅłÅłÅłÅłÅłÅłÅłÅłÅłÅłÅłÅłÅłÅłÅłÅłÅłÅłÅłÅłÅłÅłÅłÅłÅłÅłÅłÅłÅłÅłÅłÅłÅłÅłÅłÅłÅłÅłÅłÅłÅłÅłÅłÅłÅłÅłÅłÅłÅłÅłÅłÅłÅłÅłÅłÅłÅłÅłÅłÅłÅłÅłÅłÅłÅłÅłÅłÅłÅłÅłÅłÅłÅłÅłÅłÅłÅł": 941,
      "ÅŁÅłÅŁ": 942,
      "ÅłÅłÅĿ": 943,
      "Ä®": 944,
      "Ä±": 945,
      "ÅłÅłÅłÅłÅłÅłÅłÅłÅłÅłÅłÅłÅłÅłÅłÅłÅłÅłÅłÅłÅłÅŀ": 946,
      "ÅłÅłÅłÅłÅłÅłÅłÅłÅłÅłÅłÅłÅłÅłÅłÅ¡": 947,
      "ÅŁÅ£": 948,
      "ÅłÅłÅłÅłÅłÅłÅłÅŀ": 949,
      "Äĭ": 950,
      "ÅłÅĻ": 951,
      "ÅłÅŁÅłÅłÅłÅł": 952,
      "Å¡ÅłÅłÅłÅ¡": 953,
      "Æĵ": 954,
      "ÅłÅłÅłÅłÅłÅłÅłÅłÅłÅłÅłÅłÅłÅłÅłÅłÅłÅłÅłÅłÅłÅłÅłÅłÅłÅłÅłÅłÅŁ": 955,
      "ÆĶ": 956,
      "ÅłÅ¡ÅłÅłÅłÅł": 957,
      "Äĸ": 958,
      "Æį": 959,
      "ÄĢ": 960,
      "ÅłÅłÅłÅłÅłÅłÅłÅłÅłÅłÅłÅłÅłÅĿ": 961,
      "Å¡Å¢": 962,
      "ÅłÅłÅłÅ¢": 963,
      "ÅłÅłÅłÅłÅłÅłÅłÅłÅłÅłÅłÅłÅłÅłÅłÅłÅłÅłÅłÅłÅłÅłÅłÅłÅłÅłÅłÅłÅłÅłÅłÅłÅłÅłÅłÅłÅłÅłÅłÅłÅłÅłÅłÅłÅłÅłÅłÅłÅłÅłÅłÅłÅłÅłÅłÅłÅłÅłÅłÅłÅłÅłÅłÅłÅłÅłÅłÅłÅłÅłÅłÅłÅłÅłÅłÅłÅłÅłÅłÅłÅłÅłÅłÅłÅłÅłÅłÅłÅłÅłÅłÅłÅłÅłÅłÅłÅłÅłÅłÅłÅłÅłÅłÅłÅłÅłÅłÅłÅłÅłÅłÅłÅłÅłÅłÅłÅłÅłÅłÅłÅłÅłÅłÅłÅłÅłÅłÅłÅłÅłÅłÅłÅłÅłÅłÅłÅłÅłÅłÅłÅłÅłÅłÅłÅłÅłÅłÅłÅłÅłÅłÅłÅłÅłÅłÅłÅłÅłÅłÅłÅłÅłÅłÅłÅłÅłÅłÅłÅłÅłÅłÅłÅłÅłÅłÅłÅłÅłÅłÅłÅłÅłÅłÅłÅłÅłÅłÅłÅłÅłÅłÅłÅłÅłÅłÅłÅłÅłÅłÅłÅłÅłÅłÅłÅłÅłÅłÅłÅłÅłÅłÅłÅłÅłÅłÅłÅłÅłÅłÅłÅłÅłÅłÅłÅłÅłÅłÅłÅłÅłÅłÅłÅłÅłÅłÅłÅłÅłÅłÅłÅłÅłÅłÅłÅłÅłÅłÅłÅłÅłÅłÅłÅłÅłÅłÅłÅłÅłÅłÅłÅłÅłÅłÅłÅłÅłÅłÅłÅłÅłÅłÅłÅłÅłÅłÅłÅłÅłÅłÅłÅłÅłÅłÅłÅłÅłÅłÅłÅłÅłÅłÅłÅłÅłÅłÅłÅłÅłÅłÅłÅłÅłÅłÅłÅłÅłÅłÅłÅłÅłÅłÅłÅłÅłÅłÅłÅłÅłÅłÅłÅłÅłÅłÅłÅłÅłÅłÅłÅłÅłÅłÅłÅłÅłÅłÅłÅłÅłÅłÅłÅłÅłÅłÅłÅłÅłÅłÅłÅłÅłÅłÅłÅłÅłÅłÅłÅłÅłÅłÅłÅłÅłÅłÅłÅłÅłÅłÅłÅłÅłÅłÅłÅłÅłÅłÅłÅłÅłÅłÅłÅłÅłÅłÅłÅłÅłÅłÅłÅłÅłÅłÅłÅłÅłÅłÅłÅłÅłÅłÅłÅłÅłÅłÅłÅłÅłÅłÅłÅłÅłÅłÅłÅłÅłÅłÅłÅłÅłÅłÅłÅłÅłÅłÅłÅłÅłÅłÅłÅłÅłÅłÅłÅłÅłÅłÅłÅłÅłÅłÅłÅłÅłÅłÅłÅłÅłÅłÅłÅłÅłÅłÅłÅłÅłÅłÅłÅłÅłÅłÅłÅłÅłÅłÅłÅłÅłÅłÅłÅłÅłÅłÅłÅłÅłÅłÅłÅłÅłÅłÅłÅłÅłÅłÅłÅłÅłÅłÅłÅłÅłÅłÅłÅłÅłÅłÅłÅłÅłÅłÅłÅłÅłÅłÅłÅłÅłÅłÅłÅłÅłÅłÅłÅłÅłÅłÅłÅłÅłÅłÅłÅłÅłÅłÅłÅłÅłÅłÅłÅłÅłÅłÅłÅłÅłÅłÅłÅłÅłÅłÅłÅłÅłÅłÅłÅłÅłÅłÅłÅłÅłÅłÅłÅłÅłÅłÅłÅłÅłÅłÅłÅłÅłÅłÅłÅłÅłÅłÅłÅłÅłÅłÅłÅłÅłÅłÅłÅłÅłÅłÅłÅłÅłÅłÅłÅłÅłÅłÅłÅłÅłÅłÅłÅłÅłÅłÅłÅłÅłÅłÅłÅłÅłÅłÅłÅłÅłÅłÅłÅłÅłÅłÅłÅłÅłÅłÅłÅłÅłÅłÅł": 964,
      "ÆĮ": 965,
      "Æı": 966,
      "ÅłÅłÅłÅłÅłÅłÅłÅłÅłÅĿ": 967,
      "ÅłÅłÅłÅłÅłÅłÅłÅłÅłÅłÅłÅłÅłÅłÅłÅłÅłÅłÅłÅłÅł": 968,
      "ÅŁÅĿ": 969,
      "ÅłÅ¨": 970,
      "ÅŀÅŀ": 971,
      "ÅłÅłÅłÅłÅłÅłÅłÅłÅłÅłÅłÅłÅłÅłÅłÅłÅłÅłÅłÅ¡": 972,
      "ÆĴÅ§ÄŃÆĪÅ¹ÆĸÆĭÅ«": 973,
      "Æ¶": 974,
      "ÅłÅłÅłÅłÅłÅłÅłÅłÅłÅłÅłÅłÅłÅłÅ£": 975,
      "ÅłÅłÅłÅłÅłÅłÅ£": 976,
      "ÅłÅłÅłÅłÅłÅłÅłÅłÅłÅłÅłÅłÅłÅłÅłÅłÅłÅłÅłÅłÅłÅłÅłÅłÅ¡": 977,
      "ÅłÅłÅłÅłÅłÅłÅłÅ£": 978,
      "ÆĲ": 979,
      "Æİ": 980,
      "ÅłÅĺ": 981,
      "Ä¬": 982,
      "ÅłÅłÅłÅłÅłÅłÅłÅłÅłÅłÅłÅłÅłÅłÅłÅłÅłÅłÅłÅłÅłÅłÅłÅłÅłÅłÅłÅłÅłÅłÅłÅłÅłÅłÅłÅłÅłÅłÅłÅłÅłÅłÅłÅłÅłÅłÅłÅłÅłÅłÅłÅłÅłÅłÅłÅłÅłÅłÅłÅłÅłÅłÅłÅłÅłÅłÅłÅłÅłÅłÅłÅłÅłÅłÅłÅłÅłÅłÅłÅłÅłÅłÅłÅłÅłÅłÅłÅłÅłÅłÅłÅłÅłÅłÅłÅłÅłÅłÅłÅłÅłÅłÅłÅłÅłÅłÅłÅł": 983,
      "ÆĽ": 984,
      "ÅłÅłÅłÅłÅłÅłÅłÅłÅłÅłÅłÅłÅłÅłÅłÅłÅłÅłÅłÅłÅ¡": 985,
      "ÅłÅĹ": 986,
      "ÅłÅłÅłÅłÅłÅłÅłÅłÅłÅłÅłÅłÅłÅ£": 987,
      "ÅłÅłÅłÅŀ": 988,
      "ÅłÅłÅłÅłÅłÅłÅłÅłÅłÅłÅłÅłÅłÅłÅłÅłÅłÅłÅłÅłÅŁ": 989,
      "Å¤Å¡": 990,
      "ÅŀÅ£": 991,
      "ÄĬ": 992,
      "Ä¨": 993,
      "ÅłÅłÅłÅłÅłÅłÅłÅłÅłÅłÅłÅłÅłÅłÅłÅłÅłÅłÅłÅłÅłÅłÅłÅłÅłÅłÅłÅłÅłÅłÅłÅ¡ÅłÅłÅłÅłÅłÅłÅłÅłÅłÅłÅłÅłÅłÅłÅłÅłÅłÅłÅłÅłÅłÅłÅłÅłÅłÅłÅłÅłÅłÅłÅłÅ¡": 994,
      "Äķ": 995,
      "ÅłÅ©": 996,
      "ÅłÅłÅłÅłÅłÅłÅłÅłÅłÅłÅłÅłÅłÅłÅłÅłÅłÅłÅłÅłÅłÅłÅłÅłÅłÅłÅłÅłÅł": 997,
      "Ä¤": 998,
      "ÅłÅłÅłÅłÅłÅłÅłÅłÅłÅłÅłÅłÅłÅłÅĿ": 999,
      "ÅłÅ¡ÅłÅ¡": 1000,
      "ÅłÅŁÅŁ": 1001,
      "ÅªÅŁ": 1002,
      "Ä«": 1003,
      "Çĵ": 1004,
      "Å£Å¢": 1005,
      "ÅłÅłÅłÅłÅłÅłÅłÅłÅłÅłÅłÅłÅłÅłÅłÅłÅłÅłÅłÅłÅłÅłÅłÅłÅłÅłÅłÅłÅłÅłÅłÅłÅłÅłÅłÅłÅłÅłÅłÅłÅłÅłÅłÅłÅłÅłÅłÅłÅłÅłÅłÅłÅłÅłÅłÅłÅłÅłÅłÅłÅłÅłÅłÅłÅłÅłÅłÅłÅłÅłÅłÅłÅłÅłÅłÅłÅłÅłÅłÅłÅłÅłÅłÅłÅłÅłÅłÅłÅłÅłÅłÅłÅłÅłÅłÅłÅłÅłÅłÅłÅłÅłÅłÅłÅłÅłÅłÅłÅłÅłÅłÅłÅłÅłÅłÅłÅłÅłÅłÅłÅłÅłÅłÅłÅłÅłÅłÅłÅłÅłÅłÅłÅłÅłÅłÅłÅłÅłÅłÅłÅłÅłÅłÅłÅłÅłÅłÅłÅłÅłÅłÅłÅłÅłÅłÅłÅłÅłÅłÅłÅłÅłÅłÅłÅłÅłÅłÅłÅłÅłÅłÅłÅłÅłÅłÅłÅłÅłÅłÅłÅłÅłÅłÅłÅłÅłÅłÅłÅłÅłÅłÅłÅłÅłÅłÅłÅłÅłÅłÅłÅłÅłÅłÅłÅłÅłÅłÅłÅłÅłÅłÅłÅłÅłÅłÅłÅłÅłÅłÅłÅłÅłÅłÅłÅłÅłÅłÅłÅłÅłÅłÅłÅłÅłÅłÅłÅłÅłÅłÅłÅłÅłÅłÅłÅłÅłÅłÅłÅłÅłÅłÅłÅłÅłÅłÅłÅłÅłÅłÅłÅłÅłÅłÅłÅłÅłÅłÅłÅłÅłÅłÅłÅłÅłÅłÅłÅłÅłÅłÅłÅłÅłÅłÅłÅłÅłÅłÅłÅłÅłÅłÅłÅłÅłÅłÅłÅłÅłÅłÅłÅłÅłÅłÅłÅłÅłÅłÅłÅłÅłÅłÅłÅłÅłÅłÅłÅłÅłÅłÅłÅłÅłÅłÅłÅłÅłÅłÅłÅłÅłÅłÅłÅłÅłÅłÅłÅłÅłÅłÅłÅłÅłÅłÅłÅłÅłÅłÅłÅłÅłÅłÅłÅłÅłÅłÅłÅłÅłÅłÅłÅłÅłÅłÅłÅłÅłÅłÅłÅłÅłÅłÅłÅłÅłÅłÅłÅłÅłÅłÅłÅłÅłÅłÅłÅłÅłÅłÅłÅłÅłÅłÅłÅłÅłÅłÅłÅłÅłÅłÅłÅłÅłÅłÅłÅłÅłÅłÅłÅłÅłÅłÅłÅłÅłÅłÅłÅłÅłÅłÅłÅłÅłÅłÅłÅłÅłÅłÅłÅłÅłÅłÅłÅłÅłÅłÅłÅłÅłÅłÅłÅłÅłÅłÅłÅłÅłÅłÅłÅłÅłÅłÅłÅłÅłÅłÅłÅłÅłÅłÅłÅłÅłÅłÅłÅłÅłÅłÅłÅłÅłÅłÅłÅłÅłÅłÅłÅłÅłÅłÅłÅłÅłÅłÅłÅłÅłÅłÅłÅłÅłÅłÅłÅłÅłÅłÅłÅłÅłÅłÅłÅłÅłÅłÅłÅłÅłÅłÅłÅłÅłÅłÅłÅłÅłÅłÅłÅłÅłÅłÅłÅłÅłÅłÅłÅłÅłÅłÅłÅłÅłÅłÅłÅłÅłÅłÅłÅłÅłÅłÅłÅłÅłÅłÅłÅłÅłÅłÅłÅłÅłÅłÅłÅłÅłÅłÅłÅłÅłÅłÅłÅłÅłÅłÅłÅłÅłÅłÅłÅłÅłÅłÅłÅłÅłÅłÅłÅłÅłÅłÅłÅłÅłÅłÅłÅłÅłÅłÅłÅłÅłÅłÅłÅłÅłÅłÅłÅłÅłÅłÅłÅłÅłÅłÅłÅłÅłÅłÅłÅłÅłÅłÅłÅłÅłÅłÅłÅłÅłÅłÅłÅłÅłÅłÅłÅłÅłÅłÅłÅłÅł": 1006,
      "ÅłÅłÅłÅłÅłÅłÅłÅłÅłÅłÅłÅłÅłÅłÅłÅłÅłÅłÅłÅłÅłÅłÅłÅłÅłÅłÅłÅłÅłÅłÅłÅłÅłÅłÅłÅłÅłÅłÅłÅłÅłÅłÅłÅłÅłÅłÅłÅłÅłÅłÅłÅłÅłÅłÅłÅłÅłÅłÅłÅłÅłÅłÅłÅłÅłÅłÅłÅłÅłÅłÅłÅłÅłÅłÅłÅłÅłÅłÅłÅłÅłÅłÅłÅłÅłÅłÅłÅłÅłÅłÅłÅłÅłÅłÅłÅłÅłÅłÅłÅłÅłÅłÅłÅłÅłÅłÅłÅłÅłÅłÅłÅłÅłÅłÅłÅłÅłÅłÅłÅłÅłÅłÅłÅłÅłÅłÅłÅłÅłÅłÅłÅłÅłÅłÅłÅłÅłÅłÅłÅłÅłÅłÅłÅłÅłÅłÅłÅłÅłÅłÅłÅłÅłÅłÅłÅłÅłÅłÅłÅłÅłÅłÅłÅłÅłÅłÅłÅłÅłÅłÅłÅłÅłÅłÅłÅłÅłÅłÅłÅłÅłÅłÅłÅłÅłÅłÅłÅłÅłÅłÅłÅłÅłÅłÅłÅłÅłÅłÅłÅłÅłÅłÅłÅłÅłÅłÅłÅłÅłÅłÅłÅłÅłÅłÅłÅłÅłÅłÅłÅłÅłÅłÅłÅłÅłÅłÅłÅłÅłÅłÅłÅłÅłÅłÅłÅłÅłÅłÅłÅłÅłÅłÅłÅłÅłÅłÅłÅłÅłÅłÅłÅłÅłÅłÅłÅłÅłÅłÅłÅłÅłÅłÅłÅłÅłÅłÅłÅłÅłÅłÅłÅłÅłÅłÅłÅłÅłÅłÅłÅłÅłÅłÅłÅłÅłÅłÅłÅłÅłÅłÅłÅłÅłÅłÅłÅłÅłÅłÅłÅłÅłÅłÅłÅłÅłÅłÅłÅłÅłÅłÅłÅłÅłÅłÅłÅłÅłÅłÅłÅłÅłÅłÅłÅłÅłÅłÅłÅłÅłÅłÅłÅłÅłÅłÅłÅłÅłÅłÅłÅłÅłÅłÅłÅłÅłÅłÅłÅłÅłÅłÅłÅłÅłÅłÅłÅłÅłÅłÅłÅłÅłÅłÅłÅłÅłÅłÅłÅłÅłÅłÅłÅłÅłÅłÅłÅłÅłÅłÅłÅłÅłÅłÅłÅłÅłÅłÅłÅłÅłÅłÅłÅłÅłÅłÅłÅłÅłÅłÅłÅłÅłÅłÅłÅłÅłÅłÅłÅłÅłÅłÅłÅłÅłÅłÅłÅłÅłÅłÅłÅłÅłÅłÅłÅłÅłÅłÅłÅłÅłÅłÅłÅłÅłÅłÅłÅłÅłÅłÅłÅłÅłÅłÅłÅłÅłÅłÅłÅłÅłÅłÅłÅłÅłÅłÅłÅłÅłÅłÅłÅłÅłÅłÅłÅłÅłÅłÅłÅłÅłÅłÅłÅłÅłÅłÅłÅłÅłÅłÅłÅłÅłÅłÅłÅłÅłÅłÅłÅłÅłÅłÅłÅłÅłÅłÅłÅłÅłÅłÅłÅłÅłÅłÅłÅłÅłÅłÅłÅłÅłÅłÅłÅłÅłÅłÅłÅłÅłÅłÅłÅłÅłÅłÅłÅłÅłÅłÅłÅłÅłÅłÅłÅłÅłÅłÅłÅłÅłÅłÅłÅłÅłÅłÅłÅłÅłÅłÅłÅłÅłÅłÅłÅłÅłÅłÅłÅłÅłÅłÅłÅłÅłÅłÅłÅłÅłÅłÅłÅłÅłÅłÅłÅłÅłÅłÅłÅł": 1007,
      "Æ¢": 1008,
      "ÅłÅłÅłÅłÅłÅłÅłÅłÅłÅłÅłÅłÅłÅłÅłÅłÅłÅłÅłÅłÅłÅłÅłÅłÅłÅłÅłÅłÅłÅłÅłÅłÅłÅłÅłÅłÅłÅłÅłÅłÅłÅłÅłÅłÅłÅłÅłÅłÅłÅłÅłÅłÅłÅłÅłÅłÅłÅłÅłÅłÅłÅłÅłÅłÅłÅłÅłÅłÅłÅłÅłÅłÅłÅłÅłÅłÅłÅłÅłÅłÅłÅłÅłÅłÅłÅłÅłÅłÅłÅłÅłÅłÅłÅłÅłÅłÅłÅłÅłÅłÅłÅłÅłÅłÅłÅłÅłÅłÅłÅłÅłÅłÅłÅłÅłÅłÅłÅłÅłÅłÅłÅłÅłÅłÅłÅłÅłÅłÅłÅłÅłÅłÅłÅłÅłÅłÅłÅłÅłÅłÅłÅłÅłÅłÅłÅłÅłÅłÅłÅłÅłÅłÅłÅłÅłÅłÅłÅłÅłÅłÅłÅłÅłÅłÅłÅłÅłÅłÅłÅłÅłÅłÅłÅłÅłÅłÅłÅłÅłÅłÅłÅłÅłÅłÅłÅłÅłÅłÅłÅłÅłÅłÅłÅłÅłÅłÅłÅłÅłÅłÅłÅłÅłÅłÅłÅłÅłÅłÅłÅłÅłÅłÅłÅłÅłÅłÅłÅłÅłÅłÅłÅłÅłÅłÅłÅłÅłÅłÅłÅłÅłÅłÅłÅłÅłÅłÅłÅłÅłÅłÅłÅłÅłÅłÅłÅłÅłÅłÅłÅłÅłÅłÅłÅłÅłÅłÅłÅłÅłÅłÅłÅłÅłÅłÅłÅłÅłÅłÅłÅłÅłÅłÅłÅłÅłÅłÅłÅłÅłÅłÅłÅłÅłÅłÅłÅłÅłÅłÅłÅłÅłÅłÅłÅłÅłÅłÅłÅłÅłÅłÅłÅłÅłÅłÅłÅłÅłÅłÅłÅłÅłÅłÅłÅłÅłÅłÅłÅłÅłÅłÅłÅłÅłÅłÅłÅłÅłÅłÅłÅłÅłÅłÅłÅłÅłÅłÅłÅłÅłÅłÅłÅłÅłÅłÅłÅłÅłÅłÅłÅłÅłÅłÅłÅłÅłÅłÅłÅłÅłÅłÅłÅłÅłÅłÅłÅłÅłÅłÅłÅłÅłÅłÅłÅłÅłÅłÅłÅłÅłÅłÅłÅłÅłÅłÅłÅłÅłÅłÅłÅłÅłÅłÅłÅłÅłÅłÅłÅłÅłÅłÅłÅłÅłÅłÅłÅłÅłÅłÅłÅłÅłÅłÅłÅłÅłÅłÅłÅłÅłÅłÅłÅłÅłÅłÅłÅłÅłÅłÅłÅłÅłÅłÅłÅłÅłÅłÅłÅłÅłÅłÅłÅłÅłÅłÅłÅłÅłÅłÅłÅłÅłÅłÅłÅłÅłÅłÅłÅłÅłÅłÅłÅłÅłÅłÅłÅłÅłÅłÅłÅłÅłÅłÅłÅłÅłÅłÅłÅłÅłÅłÅłÅłÅłÅłÅłÅłÅłÅłÅłÅłÅłÅłÅłÅłÅłÅłÅłÅłÅłÅłÅłÅłÅłÅłÅłÅłÅłÅłÅłÅłÅłÅłÅłÅłÅłÅłÅłÅłÅłÅłÅłÅłÅłÅłÅłÅłÅłÅłÅłÅłÅłÅłÅłÅłÅłÅłÅłÅłÅłÅłÅłÅłÅłÅłÅłÅłÅłÅłÅłÅłÅłÅłÅłÅłÅłÅłÅłÅłÅłÅłÅłÅłÅłÅłÅłÅłÅłÅłÅłÅłÅłÅłÅłÅłÅłÅłÅłÅłÅłÅłÅłÅłÅłÅłÅłÅłÅłÅłÅłÅłÅłÅłÅłÅłÅłÅłÅłÅłÅłÅłÅłÅłÅłÅłÅłÅłÅłÅłÅłÅłÅłÅłÅłÅłÅłÅłÅłÅłÅłÅłÅłÅłÅłÅłÅłÅłÅłÅłÅłÅłÅłÅłÅłÅłÅłÅłÅłÅłÅłÅłÅłÅłÅłÅłÅłÅłÅłÅłÅłÅłÅłÅłÅłÅłÅłÅłÅłÅłÅłÅłÅłÅłÅłÅłÅłÅłÅłÅłÅłÅłÅłÅłÅłÅłÅłÅłÅłÅłÅłÅłÅłÅłÅłÅłÅłÅłÅłÅłÅłÅłÅłÅłÅłÅłÅłÅłÅłÅłÅłÅłÅłÅłÅłÅł": 1009,
      "ÅłÅłÅłÅłÅłÅłÅłÅłÅłÅłÅłÅłÅłÅłÅłÅłÅłÅłÅłÅłÅłÅłÅłÅłÅłÅłÅłÅłÅłÅłÅłÅŀ": 1010,
      "ÄĿ": 1011,
      "ÄĴ": 1012,
      "ÅłÅłÅ¡Å¡": 1013,
      "Æ¡": 1014,
      "ÅłÅłÅłÅłÅłÅłÅłÅłÅłÅłÅłÅłÅłÅłÅłÅłÅłÅłÅłÅłÅłÅłÅłÅłÅłÅłÅłÅłÅłÅłÅłÅłÅłÅłÅłÅłÅłÅłÅłÅłÅłÅłÅłÅłÅłÅłÅłÅłÅłÅłÅłÅłÅłÅłÅłÅłÅłÅłÅłÅłÅłÅłÅłÅłÅłÅłÅłÅłÅłÅłÅłÅłÅłÅłÅłÅłÅłÅłÅłÅłÅłÅłÅłÅłÅłÅłÅłÅłÅłÅłÅłÅłÅłÅłÅłÅłÅłÅłÅłÅłÅłÅłÅłÅłÅłÅłÅłÅłÅłÅłÅłÅłÅłÅłÅłÅłÅłÅłÅłÅłÅłÅłÅłÅłÅłÅłÅłÅłÅłÅłÅłÅłÅłÅłÅłÅłÅłÅłÅłÅłÅłÅłÅłÅłÅłÅłÅłÅłÅłÅłÅłÅłÅłÅłÅłÅłÅłÅłÅłÅłÅłÅłÅłÅłÅłÅłÅłÅłÅłÅłÅłÅłÅłÅłÅłÅłÅłÅłÅłÅłÅłÅłÅłÅłÅłÅłÅłÅłÅłÅłÅłÅłÅłÅłÅłÅłÅłÅłÅłÅłÅłÅłÅłÅłÅłÅłÅłÅłÅłÅłÅłÅłÅłÅłÅłÅłÅłÅłÅłÅłÅłÅłÅłÅłÅłÅłÅłÅłÅłÅłÅłÅłÅłÅłÅłÅłÅłÅłÅłÅłÅłÅłÅłÅłÅłÅłÅłÅłÅłÅłÅłÅłÅłÅłÅłÅłÅłÅłÅłÅłÅłÅłÅłÅłÅłÅłÅłÅłÅłÅłÅłÅłÅłÅłÅłÅłÅłÅłÅłÅłÅłÅłÅłÅłÅłÅłÅłÅłÅłÅłÅłÅłÅłÅłÅłÅłÅłÅłÅłÅłÅłÅłÅłÅłÅłÅłÅłÅłÅłÅłÅłÅłÅłÅłÅłÅłÅłÅłÅłÅłÅłÅłÅłÅłÅłÅłÅłÅłÅłÅłÅłÅłÅłÅłÅłÅłÅłÅłÅłÅłÅłÅłÅłÅłÅłÅłÅłÅłÅłÅłÅłÅłÅłÅłÅłÅłÅłÅłÅłÅłÅłÅłÅłÅłÅłÅłÅłÅłÅłÅłÅłÅłÅłÅłÅłÅłÅłÅłÅłÅłÅłÅłÅłÅłÅłÅłÅłÅłÅłÅłÅłÅłÅłÅłÅłÅłÅłÅłÅłÅłÅłÅłÅłÅłÅłÅłÅłÅłÅłÅłÅłÅłÅłÅłÅłÅłÅłÅłÅłÅłÅłÅłÅłÅłÅłÅłÅłÅłÅłÅłÅłÅłÅłÅłÅłÅłÅłÅłÅłÅłÅłÅłÅłÅłÅłÅłÅłÅłÅłÅłÅłÅłÅłÅłÅłÅłÅłÅłÅłÅłÅłÅłÅłÅłÅłÅłÅłÅłÅłÅłÅłÅłÅłÅłÅłÅłÅłÅłÅłÅłÅłÅłÅłÅłÅłÅłÅłÅłÅłÅłÅłÅłÅłÅłÅłÅłÅłÅłÅłÅłÅłÅłÅłÅłÅłÅłÅłÅłÅłÅłÅłÅłÅłÅłÅłÅłÅłÅłÅłÅłÅłÅłÅłÅłÅłÅłÅłÅłÅłÅłÅłÅłÅłÅłÅłÅłÅłÅłÅłÅłÅłÅłÅłÅłÅłÅłÅłÅłÅłÅłÅłÅłÅłÅłÅłÅłÅłÅłÅłÅłÅłÅłÅłÅłÅłÅłÅłÅłÅłÅłÅłÅłÅłÅłÅłÅłÅłÅłÅłÅłÅłÅłÅłÅłÅłÅłÅłÅłÅłÅłÅłÅłÅłÅłÅłÅłÅłÅłÅłÅłÅłÅłÅłÅłÅłÅłÅłÅłÅłÅłÅłÅłÅłÅłÅłÅłÅłÅłÅłÅłÅłÅłÅłÅłÅłÅłÅłÅłÅłÅłÅłÅłÅłÅłÅłÅłÅłÅłÅłÅłÅłÅłÅłÅłÅłÅłÅłÅłÅłÅłÅłÅłÅłÅłÅłÅłÅłÅłÅłÅłÅłÅłÅłÅłÅłÅłÅłÅłÅłÅłÅłÅłÅłÅłÅłÅłÅłÅłÅłÅłÅłÅłÅłÅłÅłÅłÅłÅłÅłÅłÅłÅłÅłÅłÅłÅłÅłÅłÅłÅłÅłÅłÅłÅłÅłÅłÅłÅłÅłÅłÅłÅłÅłÅłÅłÅłÅłÅłÅłÅłÅłÅłÅłÅłÅłÅłÅłÅłÅłÅłÅłÅłÅłÅłÅłÅłÅłÅłÅłÅłÅłÅłÅłÅłÅłÅłÅłÅłÅłÅłÅłÅłÅłÅłÅłÅłÅłÅłÅłÅłÅłÅłÅłÅłÅłÅłÅłÅłÅłÅłÅłÅłÅłÅłÅłÅłÅłÅłÅłÅłÅłÅłÅłÅłÅłÅłÅłÅłÅłÅłÅłÅłÅłÅłÅłÅłÅłÅłÅłÅłÅłÅłÅłÅłÅłÅłÅłÅłÅłÅłÅłÅłÅłÅłÅłÅłÅłÅłÅłÅłÅłÅłÅłÅłÅłÅłÅłÅłÅłÅłÅłÅłÅłÅłÅłÅłÅłÅłÅłÅłÅłÅłÅłÅłÅłÅłÅłÅłÅłÅłÅłÅłÅłÅłÅłÅłÅłÅłÅłÅłÅłÅłÅłÅłÅłÅłÅłÅłÅłÅłÅłÅłÅłÅłÅłÅłÅłÅłÅłÅłÅłÅłÅłÅłÅłÅłÅłÅłÅłÅłÅłÅłÅłÅłÅłÅł": 1015,
      "Ä¢": 1016,
      "Ä§": 1017,
      "ÅłÅłÅłÅłÅłÅłÅĿ": 1018,
      "Å¢ÅĿ": 1019,
      "ÅłÅłÅłÅłÅłÅłÅłÅłÅłÅłÅłÅłÅłÅłÅłÅłÅłÅłÅłÅłÅłÅłÅłÅłÅłÅłÅłÅłÅłÅłÅłÅłÅłÅłÅłÅłÅłÅłÅłÅłÅłÅłÅłÅłÅłÅłÅłÅłÅłÅłÅłÅłÅłÅłÅłÅłÅłÅłÅłÅłÅłÅłÅłÅŁ": 1020,
      "Äŀ": 1021,
      "ÅłÅłÅ£": 1022,
      "Ä¥": 1023,
      "ÅłÅłÅłÅłÅłÅłÅłÅłÅłÅłÅłÅłÅłÅłÅłÅłÅłÅłÅ¡": 1024,
      "ÅłÅłÅłÅłÅłÅłÅłÅłÅłÅłÅłÅłÅŁ": 1025,
      "Æ¥": 1026,
      "Ä©": 1027,
      "ÄŁ": 1028,
      "ÅĿÅ£": 1029,
      "ÅłÅłÅłÅłÅłÅłÅłÅłÅłÅłÅłÅłÅłÅłÅ¤": 1030,
      "Å£ÅĹÅ¡": 1031,
      "ÅľÅ¡": 1032,
      "Äª": 1033,
      "ÅŁÅ¤": 1034,
      "ÅłÅłÅłÅłÅłÅłÅłÅłÅłÅ¤": 1035,
      "Äĵ": 1036,
      "Å¢Å£": 1037,
      "ÅłÅłÅłÅłÅłÅłÅłÅłÅłÅłÅłÅłÅłÅłÅłÅłÅłÅłÅłÅłÅłÅłÅłÅŁ": 1038,
      "Æ¤Åļ": 1039,
      "ÅłÅłÅłÅłÅłÅłÅłÅłÅ¡ÅŁ": 1040,
      "Å£Åĸ": 1041,
      "Ä¡": 1042,
      "ÅłÅłÅłÅłÅłÅłÅłÅłÅłÅłÅłÅłÅłÅłÅłÅłÅłÅłÅłÅłÅłÅłÅłÅłÅłÅłÅłÅłÅłÅłÅłÅ¡ÅłÅłÅłÅłÅłÅłÅłÅłÅłÅłÅłÅłÅłÅłÅłÅłÅłÅłÅłÅłÅłÅłÅłÅłÅłÅłÅłÅłÅłÅłÅłÅŁ": 1043,
      "Ä¦": 1044,
      "ÄĶ": 1045,
      "ÅŀÅĿ": 1046,
      "Å½ÆĭÅłÅłÅłÅłÅłÅłÅłÅłÅłÅłÅłÅł": 1047,
      "ÅłÅª": 1048,
      "ÅłÅłÅłÅłÅłÅłÅłÅłÅłÅłÅłÅłÅłÅłÅłÅłÅłÅłÅłÅłÅłÅ£": 1049,
      "ÅłÅłÅłÅłÅłÅłÅłÅłÅłÅłÅłÅłÅłÅľ": 1050,
      "ÅłÅłÅľ": 1051,
      "Å¢Åĸ": 1052,
      "ÅłÅłÅłÅłÅłÅłÅłÅłÅłÅłÅłÅłÅłÅłÅłÅłÅłÅłÅłÅłÅłÅłÅłÅłÅŁ": 1053,
      "ÅłÅłÅłÅłÅłÅłÅłÅłÅłÅłÅłÅłÅłÅłÅłÅłÅłÅŁ": 1054,
      "Æķ": 1055,
      "ÅłÅłÅłÅłÅłÅłÅłÅłÅłÅłÅłÅłÅłÅłÅłÅłÅłÅłÅŁ": 1056,
      "Å¡ÅłÅ": 1057,
      "ÅĿÅŁ": 1058,
      "ÅłÅłÅłÅłÅłÅłÅłÅłÅłÅłÅłÅłÅłÅ¤": 1059,
      "ÅłÅłÅłÅłÅłÅłÅłÅłÅłÅłÅłÅłÅłÅłÅłÅłÅłÅłÅłÅłÅłÅłÅłÅ¡": 1060,
      "Ä£": 1061,
      "ÅłÅłÅł": 1062,
      "ÅłÅłÅłÅłÅłÅłÅ©": 1063,
      "ÅłÅłÅłÅłÅłÅłÅłÅ¤": 1064,
      "Å¥Å¡": 1065,
      "ÅłÅłÅłÅłÅłÅłÅłÅłÅłÅłÅłÅłÅłÅłÅłÅłÅłÅłÅłÅłÅłÅłÅłÅłÅłÅłÅł": 1066,
      "ÅłÅ¡ÅłÅłÅłÅ¡": 1067,
      "ÅłÅłÅłÅłÅłÅłÅłÅĿ": 1068,
      "ÅłÅłÅłÅłÅłÅłÅłÅłÅłÅľ": 1069,
      "Äĩ": 1070,
      "Äį": 1071,
      "ÅłÅłÅłÅłÅłÅłÅłÅłÅłÅłÅłÅłÅłÅłÅłÅłÅłÅłÅłÅłÅłÅłÅłÅłÅłÅłÅłÅłÅłÅłÅłÅłÅłÅłÅłÅłÅłÅłÅłÅłÅłÅłÅłÅłÅłÅłÅłÅłÅłÅłÅłÅłÅłÅłÅłÅłÅłÅłÅłÅłÅłÅłÅłÅłÅłÅłÅłÅłÅłÅłÅłÅłÅłÅłÅłÅłÅłÅłÅłÅłÅłÅłÅłÅłÅłÅłÅłÅłÅłÅłÅłÅłÅłÅłÅłÅłÅłÅłÅłÅłÅłÅłÅłÅłÅłÅłÅłÅłÅłÅłÅłÅłÅłÅłÅłÅłÅłÅłÅłÅłÅłÅłÅłÅłÅłÅłÅłÅłÅłÅłÅłÅłÅłÅłÅłÅłÅłÅłÅłÅłÅłÅłÅłÅłÅłÅłÅłÅłÅłÅłÅłÅłÅłÅłÅłÅłÅłÅłÅłÅłÅłÅłÅłÅłÅłÅłÅłÅłÅłÅłÅłÅłÅłÅłÅłÅłÅłÅłÅłÅłÅłÅłÅłÅłÅłÅłÅłÅłÅłÅłÅłÅłÅłÅłÅłÅłÅłÅłÅłÅłÅłÅłÅłÅłÅłÅłÅłÅłÅłÅłÅłÅłÅłÅłÅłÅłÅłÅłÅłÅłÅłÅłÅłÅłÅłÅłÅłÅłÅłÅłÅłÅłÅłÅłÅłÅłÅłÅłÅłÅłÅłÅłÅłÅłÅłÅłÅłÅłÅłÅłÅłÅłÅłÅłÅłÅłÅłÅłÅłÅłÅłÅłÅłÅłÅłÅłÅłÅłÅłÅłÅłÅłÅłÅłÅłÅłÅłÅłÅłÅłÅłÅłÅłÅłÅłÅłÅłÅłÅłÅłÅłÅłÅłÅłÅłÅłÅłÅłÅłÅłÅłÅłÅłÅłÅłÅłÅłÅłÅłÅłÅłÅłÅłÅłÅłÅłÅłÅłÅłÅłÅłÅłÅłÅłÅłÅłÅłÅłÅłÅłÅłÅłÅłÅłÅłÅłÅłÅłÅłÅłÅłÅłÅłÅłÅłÅłÅłÅłÅłÅłÅłÅłÅłÅłÅłÅłÅłÅłÅłÅłÅłÅłÅłÅłÅłÅłÅłÅłÅłÅłÅłÅłÅłÅłÅłÅłÅłÅłÅłÅłÅłÅłÅłÅłÅłÅłÅłÅłÅłÅłÅłÅłÅłÅłÅłÅłÅłÅłÅłÅłÅłÅłÅłÅłÅłÅłÅłÅłÅłÅłÅłÅłÅłÅłÅłÅłÅłÅłÅłÅłÅłÅłÅłÅłÅłÅłÅłÅłÅłÅłÅłÅłÅłÅłÅłÅłÅłÅłÅłÅłÅłÅłÅłÅłÅłÅłÅłÅłÅłÅłÅłÅłÅłÅłÅłÅłÅłÅłÅłÅłÅłÅłÅłÅłÅłÅłÅłÅłÅłÅłÅłÅłÅłÅłÅłÅłÅłÅłÅłÅłÅłÅłÅłÅłÅłÅłÅłÅłÅłÅłÅłÅłÅłÅłÅłÅłÅłÅłÅłÅłÅłÅłÅłÅłÅłÅłÅłÅłÅłÅłÅłÅłÅłÅłÅłÅłÅłÅłÅłÅłÅłÅłÅłÅłÅłÅłÅłÅłÅłÅłÅłÅłÅłÅłÅłÅłÅłÅłÅłÅłÅłÅłÅłÅłÅłÅłÅłÅłÅłÅłÅłÅłÅłÅłÅłÅłÅłÅłÅłÅłÅłÅłÅłÅłÅłÅłÅłÅłÅłÅłÅłÅłÅłÅłÅłÅłÅłÅłÅłÅłÅłÅłÅłÅłÅłÅłÅłÅłÅłÅłÅłÅłÅłÅłÅłÅłÅłÅłÅłÅłÅłÅłÅłÅłÅłÅłÅłÅłÅłÅłÅłÅłÅłÅłÅłÅłÅłÅłÅłÅłÅłÅłÅłÅłÅłÅłÅłÅłÅłÅłÅłÅłÅłÅłÅłÅłÅłÅłÅłÅłÅłÅłÅłÅłÅłÅłÅłÅłÅłÅłÅłÅłÅłÅłÅłÅłÅłÅłÅłÅłÅłÅłÅłÅłÅłÅłÅłÅłÅłÅłÅłÅłÅłÅłÅłÅłÅłÅłÅłÅłÅłÅłÅłÅłÅłÅłÅłÅłÅłÅłÅłÅłÅłÅłÅłÅłÅłÅłÅłÅłÅłÅłÅłÅłÅłÅłÅłÅłÅłÅłÅłÅłÅłÅłÅłÅłÅłÅłÅłÅłÅłÅłÅłÅłÅłÅłÅłÅłÅłÅłÅłÅłÅłÅłÅłÅłÅłÅłÅłÅłÅłÅłÅłÅłÅłÅłÅłÅłÅłÅłÅłÅłÅłÅłÅłÅłÅłÅłÅłÅłÅłÅłÅłÅłÅłÅłÅłÅłÅłÅłÅłÅłÅłÅłÅłÅłÅłÅłÅłÅłÅłÅłÅłÅłÅłÅłÅłÅłÅłÅłÅłÅłÅłÅłÅłÅłÅłÅłÅłÅłÅłÅłÅłÅłÅłÅłÅłÅłÅłÅłÅłÅłÅłÅłÅłÅłÅłÅłÅłÅłÅłÅłÅłÅłÅłÅłÅłÅłÅłÅłÅłÅł": 1072,
      "ÅłÅłÅłÅłÅłÅłÅłÆ": 1073,
      "Æ·ÅĹ": 1074,
      "Äł": 1075,
      "ÅłÅłÅłÅłÅłÅłÅłÅłÅłÅłÅłÅłÅłÅłÅ¢ÅłÅłÅłÅłÅłÅłÅłÅłÅłÅ£": 1076,
      "ÅłÅłÅłÅłÅłÅłÅłÅłÅ¡Å¡": 1077,
      "Å¾ÆĭÅłÅłÅłÅłÅłÅłÅłÅłÅłÅłÅłÅł": 1078,
      "Å«ÅŁ": 1079,
      "ÅłÅłÅłÅłÅłÅłÅłÅłÅłÅłÅłÅłÅłÅłÅłÅłÅłÅłÅłÅłÅłÅłÅłÅłÅłÅłÅłÅłÅłÅłÅłÅłÅłÅłÅłÅłÅłÅłÅłÅłÅłÅłÅłÅłÅłÅłÅłÅłÅłÅłÅłÅłÅłÅłÅłÅłÅłÅłÅłÅłÅłÅłÅłÅłÅłÅłÅłÅłÅłÅłÅłÅłÅłÅłÅłÅłÅłÅłÅłÅłÅłÅłÅłÅłÅłÅłÅłÅłÅłÅłÅłÅłÅłÅłÅłÅłÅłÅłÅłÅłÅłÅłÅłÅłÅłÅłÅłÅłÅłÅłÅłÅłÅłÅłÅłÅłÅłÅłÅłÅłÅłÅłÅłÅłÅłÅłÅłÅłÅłÅłÅłÅłÅłÅłÅłÅłÅłÅłÅłÅłÅłÅłÅłÅłÅłÅłÅłÅłÅłÅłÅłÅłÅłÅłÅłÅłÅłÅłÅłÅłÅłÅłÅłÅłÅłÅłÅłÅłÅłÅłÅłÅłÅłÅłÅłÅłÅłÅłÅłÅłÅłÅłÅłÅłÅłÅłÅłÅłÅłÅłÅłÅłÅłÅłÅłÅłÅłÅłÅłÅłÅłÅłÅłÅłÅłÅłÅłÅłÅłÅłÅłÅłÅłÅłÅłÅłÅłÅłÅłÅłÅłÅłÅłÅłÅłÅłÅłÅłÅłÅłÅłÅłÅłÅłÅłÅłÅłÅłÅłÅłÅłÅłÅłÅłÅłÅłÅłÅłÅłÅłÅłÅłÅłÅłÅłÅłÅłÅłÅłÅłÅłÅłÅłÅłÅłÅłÅłÅłÅłÅłÅłÅłÅłÅłÅłÅłÅłÅłÅłÅłÅłÅłÅłÅłÅłÅłÅłÅłÅłÅłÅłÅłÅłÅłÅłÅłÅłÅłÅłÅłÅłÅłÅłÅłÅłÅłÅłÅłÅłÅłÅłÅłÅłÅłÅłÅłÅłÅłÅłÅłÅłÅłÅłÅłÅłÅłÅłÅłÅłÅłÅłÅłÅłÅłÅłÅłÅłÅłÅłÅłÅłÅłÅłÅłÅłÅłÅłÅłÅłÅłÅłÅłÅłÅłÅłÅłÅłÅłÅłÅłÅłÅłÅłÅłÅłÅłÅłÅłÅłÅłÅłÅłÅłÅłÅłÅłÅłÅłÅłÅłÅłÅłÅłÅłÅłÅłÅłÅłÅłÅłÅłÅłÅłÅłÅłÅłÅłÅłÅłÅłÅłÅłÅłÅłÅłÅłÅłÅłÅłÅłÅłÅłÅłÅłÅłÅłÅłÅłÅłÅłÅłÅłÅłÅłÅłÅłÅłÅłÅłÅłÅłÅłÅłÅłÅłÅłÅłÅłÅłÅłÅłÅłÅłÅłÅłÅłÅłÅłÅłÅłÅłÅłÅłÅłÅłÅłÅłÅłÅłÅłÅłÅłÅłÅłÅłÅłÅłÅłÅłÅłÅłÅłÅłÅłÅłÅłÅłÅłÅłÅłÅłÅłÅłÅłÅłÅłÅłÅłÅłÅłÅłÅłÅłÅłÅłÅłÅłÅłÅłÅłÅłÅłÅłÅłÅłÅłÅłÅłÅłÅłÅłÅłÅłÅłÅłÅłÅłÅłÅłÅłÅłÅłÅłÅłÅłÅłÅłÅłÅłÅłÅłÅłÅłÅłÅłÅłÅłÅłÅłÅłÅłÅłÅłÅłÅłÅłÅłÅłÅłÅłÅłÅłÅłÅłÅłÅłÅłÅłÅłÅłÅłÅłÅłÅłÅłÅłÅłÅłÅłÅłÅłÅłÅłÅłÅłÅłÅłÅłÅłÅłÅłÅłÅłÅłÅłÅłÅłÅłÅłÅłÅłÅłÅłÅłÅłÅłÅłÅłÅłÅłÅłÅłÅłÅłÅłÅłÅłÅłÅłÅłÅłÅłÅłÅłÅłÅłÅłÅłÅłÅłÅłÅłÅłÅłÅłÅłÅłÅłÅłÅłÅłÅłÅłÅłÅłÅłÅłÅłÅłÅłÅłÅłÅłÅłÅłÅłÅłÅłÅłÅłÅłÅłÅłÅłÅłÅłÅłÅłÅłÅłÅłÅłÅłÅłÅłÅłÅłÅłÅłÅłÅłÅłÅłÅłÅłÅłÅłÅłÅłÅłÅłÅłÅłÅłÅłÅłÅłÅłÅłÅłÅłÅłÅłÅłÅłÅłÅłÅłÅłÅłÅłÅłÅłÅłÅłÅłÅłÅłÅłÅłÅłÅłÅłÅłÅłÅłÅłÅłÅłÅłÅłÅłÅłÅłÅłÅłÅłÅłÅłÅłÅłÅłÅłÅłÅłÅłÅłÅłÅłÅłÅłÅłÅłÅłÅłÅłÅłÅłÅłÅłÅłÅłÅłÅłÅłÅłÅłÅłÅłÅłÅłÅłÅłÅłÅłÅłÅłÅłÅłÅłÅłÅłÅłÅłÅłÅłÅłÅłÅłÅłÅłÅłÅłÅłÅłÅłÅłÅłÅłÅłÅłÅłÅłÅłÅłÅłÅłÅłÅłÅłÅłÅłÅłÅłÅłÅłÅłÅłÅłÅłÅłÅłÅłÅłÅłÅłÅłÅłÅłÅłÅłÅłÅłÅłÅłÅłÅłÅłÅłÅłÅłÅłÅłÅłÅłÅłÅłÅłÅłÅłÅłÅłÅłÅłÅłÅłÅłÅłÅłÅłÅłÅłÅłÅłÅłÅłÅłÅłÅłÅłÅłÅłÅłÅłÅłÅłÅłÅłÅłÅłÅłÅłÅłÅłÅłÅłÅłÅłÅłÅłÅłÅłÅłÅłÅłÅłÅłÅłÅłÅłÅłÅłÅłÅłÅłÅłÅłÅłÅłÅłÅłÅłÅłÅłÅłÅłÅłÅłÅłÅłÅłÅłÅłÅłÅłÅłÅłÅłÅłÅłÅłÅłÅłÅłÅłÅłÅłÅłÅłÅłÅłÅłÅłÅłÅłÅłÅłÅłÅłÅłÅłÅłÅłÅłÅłÅłÅłÅłÅłÅłÅłÅłÅłÅłÅłÅłÅłÅłÅłÅłÅłÅłÅłÅłÅłÅłÅłÅłÅłÅłÅłÅłÅłÅłÅłÅłÅłÅłÅłÅłÅłÅłÅłÅłÅłÅłÅłÅłÅłÅłÅłÅłÅłÅłÅłÅłÅłÅłÅłÅłÅłÅłÅłÅł": 1080,
      "ÅłÅŀÅ¡": 1081,
      "Æ·Åĺ": 1082,
      "ÅłÅłÅłÅłÅłÅłÅłÅłÅłÅłÅłÅłÅłÅłÅłÅłÅłÅłÅłÅłÅłÅłÅłÅłÅłÅłÅłÅłÅłÅłÅłÅłÅłÅłÅłÅłÅłÅłÅłÅłÅłÅłÅłÅłÅłÅłÅłÅłÅłÅłÅłÅłÅłÅłÅłÅłÅłÅłÅłÅłÅłÅłÅłÅłÅłÅłÅłÅłÅłÅłÅłÅłÅłÅłÅłÅłÅłÅłÅłÅłÅłÅłÅłÅłÅłÅłÅłÅłÅłÅłÅłÅłÅłÅłÅłÅłÅłÅłÅłÅłÅłÅłÅłÅłÅłÅłÅłÅłÅłÅłÅłÅłÅłÅłÅłÅłÅłÅłÅłÅłÅłÅłÅłÅłÅłÅłÅłÅłÅłÅłÅłÅłÅłÅłÅłÅłÅłÅłÅłÅłÅłÅłÅłÅłÅłÅłÅłÅłÅłÅłÅłÅłÅłÅłÅłÅłÅłÅłÅłÅłÅłÅłÅłÅłÅłÅłÅłÅłÅłÅłÅłÅłÅłÅłÅłÅłÅłÅłÅłÅłÅłÅłÅłÅłÅłÅłÅłÅłÅłÅłÅłÅłÅłÅłÅłÅłÅłÅłÅłÅłÅłÅłÅłÅłÅłÅłÅłÅłÅłÅłÅłÅłÅłÅłÅłÅłÅłÅłÅłÅłÅłÅłÅłÅłÅłÅłÅłÅłÅłÅłÅłÅłÅłÅłÅłÅłÅłÅłÅłÅłÅłÅłÅłÅłÅłÅłÅłÅłÅłÅłÅłÅłÅłÅłÅłÅłÅłÅłÅłÅłÅłÅłÅłÅłÅłÅłÅłÅłÅłÅłÅłÅłÅłÅłÅłÅłÅłÅłÅłÅłÅłÅłÅłÅłÅłÅłÅłÅłÅłÅłÅłÅłÅłÅłÅłÅłÅłÅłÅłÅłÅłÅłÅłÅłÅłÅłÅłÅłÅłÅłÅłÅłÅłÅłÅłÅłÅłÅłÅłÅłÅłÅłÅłÅłÅłÅłÅłÅłÅłÅłÅłÅłÅłÅłÅłÅłÅłÅłÅłÅłÅłÅłÅłÅłÅłÅłÅłÅłÅłÅłÅłÅłÅłÅłÅłÅłÅłÅłÅłÅłÅłÅłÅłÅłÅłÅłÅłÅłÅłÅłÅłÅłÅłÅłÅłÅłÅłÅłÅłÅłÅłÅłÅłÅłÅłÅłÅłÅłÅłÅłÅłÅłÅłÅłÅłÅłÅłÅłÅłÅłÅłÅłÅłÅłÅłÅłÅłÅłÅłÅłÅłÅłÅłÅłÅłÅłÅłÅłÅłÅłÅłÅłÅłÅłÅłÅłÅłÅłÅłÅłÅłÅłÅłÅłÅłÅłÅłÅłÅłÅłÅłÅłÅłÅłÅłÅłÅłÅłÅłÅłÅłÅłÅłÅłÅłÅłÅłÅłÅłÅłÅłÅłÅłÅłÅłÅłÅłÅłÅłÅłÅłÅłÅłÅłÅłÅłÅłÅłÅłÅłÅłÅłÅłÅłÅłÅłÅłÅłÅłÅłÅłÅłÅłÅłÅłÅłÅłÅłÅłÅłÅłÅłÅłÅłÅłÅłÅłÅłÅłÅłÅłÅłÅłÅłÅłÅłÅłÅłÅłÅłÅłÅłÅłÅłÅłÅłÅłÅłÅłÅłÅłÅłÅłÅłÅłÅłÅłÅłÅłÅłÅłÅłÅłÅłÅłÅłÅłÅłÅłÅłÅłÅłÅłÅłÅłÅłÅłÅłÅłÅłÅłÅłÅłÅłÅłÅłÅłÅłÅłÅłÅłÅłÅłÅłÅłÅłÅłÅłÅłÅłÅłÅłÅłÅłÅłÅłÅłÅłÅłÅłÅłÅłÅłÅłÅłÅłÅłÅłÅłÅłÅłÅłÅłÅłÅłÅłÅłÅłÅłÅłÅłÅłÅłÅłÅłÅłÅłÅłÅłÅłÅłÅłÅłÅłÅłÅłÅłÅłÅłÅłÅłÅłÅłÅłÅłÅłÅłÅłÅłÅłÅłÅłÅłÅłÅłÅłÅłÅłÅłÅłÅłÅłÅłÅłÅłÅłÅłÅłÅłÅłÅłÅłÅłÅłÅłÅłÅłÅłÅłÅłÅłÅł": 1083,
      "ÅŁÅłÅłÅłÅłÅłÅłÅłÅłÅłÅłÅłÅłÅłÅŁ": 1084,
      "ÅłÅĸ": 1085,
      "Å£ÅĿ": 1086,
      "ÅłÅłÅłÅłÅłÅłÅłÅłÅłÅłÅłÅłÅłÅłÅŁÅŁ": 1087,
      "ÅłÅłÅłÅłÅłÅłÅłÅłÅłÅłÅłÅłÅłÅłÅ¡ÅłÅłÅłÅłÅłÅłÅłÅłÅłÅ¢": 1088,
      "ÅŀÅ¤": 1089,
      "Æł": 1090,
      "ÅłÅŁÅ¡Å¡": 1091,
      "Å£ÅŁ": 1092,
      "ÆĭÅłÅłÅłÅłÅłÅłÅłÅłÅłÅłÅłÅłÅłÅł": 1093,
      "ÅłÅ¢Å¡": 1094,
      "ÅłÅłÅłÅłÅłÅłÅ¡ÅłÅłÅŁ": 1095,
      "Æ¤ÅĹÄĮ": 1096,
      "ÅłÅłÅ¡ÅŁ": 1097,
      "ÅłÅłÅłÅłÅłÅłÅłÅłÅłÅłÅłÅłÅłÅłÅłÅŀ": 1098,
      "ÅłÅłÅłÅłÅłÅłÅ¨": 1099,
      "ÅŁÅ¡ÅŁ": 1100,
      "ÅłÅłÅłÅłÅłÅłÅłÅłÅłÅłÅłÅłÅłÅłÅłÅłÅłÅłÅłÅłÅłÅłÅłÅłÅłÅłÅłÅłÅłÅłÅłÅłÅłÅłÅłÅłÅłÅłÅłÅłÅłÅłÅłÅłÅłÅłÅłÅłÅłÅłÅłÅłÅłÅłÅłÅłÅłÅłÅłÅłÅłÅłÅłÅłÅłÅłÅłÅłÅłÅłÅłÅłÅłÅłÅłÅłÅłÅłÅłÅłÅłÅłÅłÅłÅłÅłÅłÅłÅłÅłÅłÅłÅłÅłÅłÅłÅłÅłÅłÅłÅłÅłÅłÅłÅłÅłÅłÅłÅłÅłÅłÅłÅłÅłÅłÅłÅłÅłÅłÅłÅłÅłÅłÅłÅłÅłÅłÅłÅłÅłÅłÅłÅłÅłÅłÅłÅłÅłÅłÅłÅłÅłÅłÅłÅłÅłÅłÅłÅłÅłÅłÅłÅłÅłÅłÅłÅłÅłÅłÅłÅłÅłÅłÅłÅłÅłÅłÅłÅłÅłÅłÅłÅłÅłÅłÅłÅłÅłÅłÅłÅłÅłÅłÅłÅłÅłÅłÅłÅłÅłÅłÅłÅłÅłÅłÅłÅłÅłÅłÅłÅłÅłÅłÅłÅłÅłÅłÅłÅłÅłÅłÅłÅłÅłÅłÅłÅłÅłÅłÅłÅłÅłÅłÅłÅłÅłÅłÅłÅłÅłÅłÅłÅłÅłÅłÅłÅłÅłÅłÅłÅłÅłÅłÅłÅłÅłÅłÅłÅłÅłÅłÅłÅłÅłÅłÅłÅłÅłÅłÅłÅłÅłÅłÅłÅłÅłÅłÅłÅłÅłÅłÅłÅłÅłÅłÅłÅłÅłÅłÅłÅłÅłÅłÅłÅłÅłÅłÅłÅłÅłÅłÅłÅłÅłÅłÅłÅłÅłÅłÅłÅłÅłÅłÅłÅłÅłÅłÅłÅłÅłÅłÅłÅłÅłÅłÅłÅłÅłÅłÅłÅłÅłÅłÅłÅłÅłÅłÅłÅłÅłÅłÅłÅłÅłÅłÅłÅłÅłÅłÅłÅłÅłÅłÅłÅłÅłÅłÅłÅłÅłÅłÅłÅłÅłÅłÅłÅłÅłÅłÅłÅłÅłÅłÅłÅłÅłÅłÅłÅłÅłÅłÅłÅłÅłÅłÅłÅłÅłÅłÅłÅłÅłÅłÅłÅłÅłÅłÅłÅłÅłÅłÅłÅłÅłÅłÅłÅłÅłÅłÅłÅłÅłÅłÅłÅłÅłÅłÅłÅłÅłÅłÅłÅłÅłÅłÅłÅłÅłÅłÅłÅłÅłÅłÅłÅłÅłÅłÅłÅłÅłÅłÅłÅłÅłÅłÅłÅłÅłÅłÅłÅłÅłÅłÅłÅłÅłÅłÅłÅłÅłÅłÅłÅłÅłÅłÅłÅłÅłÅłÅłÅłÅłÅłÅłÅłÅłÅłÅłÅłÅłÅłÅłÅłÅłÅłÅłÅłÅłÅłÅłÅłÅłÅłÅłÅłÅłÅłÅłÅłÅłÅłÅłÅłÅłÅłÅłÅłÅłÅłÅłÅłÅłÅłÅłÅłÅłÅłÅłÅłÅłÅłÅłÅłÅłÅłÅłÅłÅłÅłÅłÅłÅłÅłÅłÅłÅłÅłÅłÅłÅłÅłÅłÅłÅłÅłÅłÅłÅłÅłÅłÅłÅłÅłÅłÅłÅłÅłÅłÅłÅłÅłÅłÅłÅłÅłÅłÅłÅłÅłÅłÅłÅłÅłÅłÅłÅłÅłÅłÅłÅłÅłÅłÅłÅłÅłÅłÅłÅłÅłÅłÅłÅłÅłÅłÅłÅłÅłÅłÅłÅłÅłÅłÅłÅłÅłÅłÅłÅłÅłÅłÅłÅłÅłÅłÅłÅłÅłÅłÅłÅłÅłÅłÅłÅłÅłÅłÅłÅłÅłÅłÅłÅłÅłÅłÅłÅłÅł": 1101,
      "ÅłÅłÅ¤": 1102,
      "ÆĹ": 1103,
      "ÅłÅłÅłÅłÅłÅłÅłÅłÅłÅłÅłÅłÅłÅłÅłÅłÅłÅłÅłÅłÅłÅłÅłÅłÅłÅłÅłÅłÅłÅłÅłÅłÅłÅłÅłÅłÅłÅłÅłÅłÅłÅłÅłÅłÅłÅłÅłÅłÅłÅłÅłÅłÅłÅłÅłÅłÅłÅłÅłÅłÅłÅłÅłÅ¡": 1104,
      "ÆŁ": 1105,
      "Æĺ": 1106,
      "ÅłÅłÅłÅłÅłÅłÅłÅłÅłÅłÅłÅłÅ¡ÅŁ": 1107,
      "ÅłÅłÅłÅłÅłÅłÅłÅłÅłÅłÅłÅłÅłÅłÅłÅłÅłÅłÅłÅłÅłÅłÅłÅłÅłÅłÅłÅłÅłÅłÅłÅłÅłÅłÅłÅłÅłÅłÅłÅłÅłÅłÅłÅłÅłÅłÅłÅłÅłÅłÅłÅłÅłÅłÅłÅłÅłÅłÅłÅłÅłÅłÅłÅłÅłÅłÅłÅłÅłÅłÅłÅłÅłÅłÅłÅłÅłÅłÅłÅłÅłÅłÅłÅłÅłÅłÅłÅłÅłÅłÅłÅłÅłÅłÅłÅłÅłÅłÅłÅłÅłÅłÅłÅłÅłÅłÅłÅłÅłÅłÅłÅłÅłÅłÅłÅłÅłÅłÅłÅłÅłÅłÅłÅłÅłÅłÅłÅłÅłÅłÅłÅłÅłÅłÅłÅłÅłÅłÅłÅłÅłÅłÅłÅłÅłÅłÅłÅłÅłÅłÅłÅłÅłÅłÅłÅłÅłÅłÅłÅłÅłÅłÅłÅłÅłÅłÅłÅłÅłÅłÅłÅłÅłÅłÅłÅłÅłÅłÅłÅłÅłÅłÅłÅłÅłÅłÅłÅłÅłÅłÅłÅłÅłÅłÅłÅłÅłÅłÅłÅłÅłÅłÅłÅłÅłÅłÅłÅłÅłÅłÅłÅłÅłÅłÅłÅłÅłÅłÅłÅłÅłÅłÅłÅłÅłÅłÅłÅłÅłÅłÅłÅłÅłÅłÅłÅłÅłÅłÅłÅłÅłÅłÅłÅłÅłÅłÅłÅłÅłÅłÅłÅłÅłÅłÅłÅłÅłÅłÅłÅłÅłÅłÅłÅłÅłÅłÅłÅłÅłÅłÅłÅłÅłÅłÅłÅłÅłÅłÅłÅłÅłÅłÅłÅłÅłÅłÅłÅłÅłÅłÅłÅłÅłÅłÅłÅłÅłÅłÅłÅłÅłÅłÅłÅłÅłÅłÅłÅłÅłÅłÅłÅłÅłÅłÅłÅłÅłÅłÅłÅłÅłÅłÅłÅłÅłÅłÅłÅłÅłÅłÅłÅłÅłÅłÅłÅłÅłÅłÅłÅłÅłÅłÅłÅłÅłÅłÅłÅłÅłÅłÅłÅłÅłÅłÅłÅłÅłÅłÅłÅłÅłÅłÅłÅłÅłÅłÅłÅłÅłÅłÅłÅłÅłÅłÅłÅłÅłÅłÅłÅłÅłÅłÅłÅłÅłÅłÅłÅłÅłÅłÅłÅłÅłÅłÅłÅłÅłÅłÅłÅłÅłÅłÅłÅłÅłÅłÅłÅłÅłÅłÅłÅłÅłÅłÅłÅłÅłÅłÅłÅłÅłÅłÅłÅłÅłÅłÅłÅłÅłÅłÅłÅłÅłÅłÅłÅłÅłÅłÅłÅłÅłÅłÅłÅłÅłÅłÅłÅłÅłÅłÅłÅłÅłÅłÅłÅłÅłÅłÅłÅłÅłÅłÅłÅłÅłÅłÅłÅłÅłÅłÅłÅłÅłÅłÅłÅłÅłÅłÅłÅłÅłÅłÅłÅłÅłÅłÅłÅłÅłÅłÅłÅłÅłÅłÅłÅłÅłÅłÅłÅłÅłÅłÅłÅłÅłÅłÅłÅłÅłÅłÅłÅłÅłÅłÅłÅłÅłÅłÅłÅłÅłÅłÅłÅłÅłÅłÅłÅłÅłÅłÅłÅłÅłÅłÅłÅłÅłÅłÅłÅłÅłÅłÅłÅłÅłÅłÅłÅłÅłÅłÅłÅłÅłÅłÅłÅłÅłÅłÅłÅłÅłÅłÅłÅłÅłÅłÅłÅłÅłÅłÅłÅłÅłÅłÅłÅłÅłÅłÅłÅłÅłÅłÅłÅłÅłÅłÅłÅłÅłÅłÅłÅłÅłÅłÅłÅłÅłÅłÅłÅłÅłÅłÅłÅłÅłÅłÅłÅłÅłÅłÅłÅłÅłÅłÅłÅłÅłÅłÅłÅłÅłÅłÅłÅłÅłÅłÅłÅłÅłÅłÅłÅłÅłÅłÅłÅłÅłÅłÅłÅłÅłÅłÅłÅłÅłÅłÅłÅłÅłÅłÅłÅłÅłÅłÅłÅłÅłÅłÅłÅłÅłÅłÅłÅłÅłÅłÅłÅłÅłÅłÅłÅłÅłÅłÅłÅłÅłÅłÅłÅłÅłÅłÅłÅłÅłÅłÅłÅłÅłÅłÅłÅłÅłÅłÅłÅłÅłÅłÅłÅłÅłÅłÅłÅłÅłÅłÅłÅłÅłÅłÅłÅłÅłÅłÅłÅłÅłÅłÅłÅłÅłÅłÅłÅłÅłÅłÅłÅłÅłÅłÅłÅłÅłÅłÅłÅłÅłÅłÅłÅłÅłÅłÅłÅłÅłÅłÅłÅłÅłÅłÅłÅłÅłÅłÅłÅłÅłÅłÅłÅłÅłÅłÅłÅłÅłÅłÅłÅłÅłÅłÅłÅłÅłÅłÅłÅłÅłÅłÅłÅłÅłÅłÅłÅłÅłÅłÅł": 1108,
      "ÅłÅłÅłÅłÅłÅłÅłÅłÅłÅłÅłÅłÅłÅłÅłÅłÅłÅłÅłÅłÅłÅłÅłÅłÅłÅłÅłÅłÅłÅłÅłÅ¢": 1109,
      "Æľ": 1110,
      "ÅŁÅľ": 1111,
      "ÆĻ": 1112,
      "Æļ": 1113,
      "ÅłÅłÅĽ": 1114,
      "ÅłÅ«": 1115,
      "Å¢Åľ": 1116,
      "ÅłÅŁÅłÅŁ": 1117,
      "ÅłÅłÅłÅłÅłÅłÅłÅłÅłÅłÅłÅłÅłÅłÅľ": 1118,
      "ÅłÅłÅłÅłÅłÅłÅłÅłÅłÅłÅłÅłÅłÅ¡Å¡": 1119,
      "ÅłÅłÅŁÅŁ": 1120,
      "ÅłÅłÅłÅłÅłÅłÅłÅ¥": 1121,
      "Å§Æ¤Äĩ": 1122,
      "ÅłÅłÅłÅłÅłÅłÅłÅłÅłÅ¥": 1123,
      "Å¢ÅłÅ¡": 1124,
      "ÅŀÅľ": 1125,
      "ÅłÅłÅłÅłÅłÅłÅłÅłÅłÅłÅłÅłÅłÅłÅłÅłÅłÅłÅłÅłÅłÅĿ": 1126,
      "ÅĿÅ¤": 1127,
      "Æŀ": 1128,
      "ÅłÅłÅłÅłÅłÅłÅ¥": 1129,
      "Äİ": 1130,
      "Å§Æ¤Ä": 1131,
      "Å¢Å¤": 1132,
      "ÅłÅłÅłÅłÅłÅłÅłÅłÅłÅłÅłÅłÅłÅ¥": 1133,
      "ÅĽÅ¡": 1134,
      "ÅłÅłÅłÅłÅłÅłÅłÅłÅłÅłÅłÅłÅłÅłÅłÅłÅłÅłÅłÅłÅłÅ¡ÅłÅłÅłÅłÅłÅłÅŁ": 1135,
      "Å¢ÅłÅŁ": 1136,
      "Å«ÅŁÅ¡": 1137,
      "ÅŀÅłÅ¡": 1138,
      "Å¼ÆĭÅłÅłÅłÅłÅłÅłÅłÅłÅłÅłÅłÅł": 1139,
      "ÅłÅłÅłÅłÅ¡Å¡": 1140,
      "ÅłÅ¡ÅłÅłÅłÅłÅłÅłÅłÅ¡": 1141,
      "ÆĿ": 1142,
      "ÅłÅłÅłÅłÅłÅłÅłÅłÅłÅłÅłÅłÅłÅĽ": 1143,
      "ÅłÅłÅłÅłÅłÅłÅ¡ÅłÅłÅłÅłÅłÅłÅłÅłÅłÅ¡": 1144,
      "ÅłÅłÅłÅłÅłÅłÅłÅłÅłÅłÅłÅłÅłÅłÅłÅłÅłÅłÅłÅłÅłÅłÅłÅłÅłÅłÅłÅłÅłÅŁ": 1145,
      "ÅłÅłÅłÅłÅłÅłÅłÅłÅłÅłÅ¡": 1146,
      "ÅłÅłÅłÅłÅłÅłÅłÅłÅŁÅ¡": 1147,
      "Æ¤Åĺ": 1148,
      "ÅłÅłÅłÅłÅłÅłÅłÅłÅłÅłÅłÅłÅłÅłÅłÅłÅłÅłÅłÅłÅłÅ¤": 1149,
      "Æ¦ÅĢ": 1150,
      "ÅĿÅŀ": 1151,
      "Å«Åŀ": 1152,
      "ÅłÅłÅłÅłÅłÅłÅłÅłÅłÅłÅłÅłÅłÅłÅłÅłÅłÅ¡": 1153,
      "ÅłÅłÅłÅłÅłÅłÅ¤": 1154,
      "Äı": 1155,
      "ÅłÅłÅłÅłÅłÅłÅłÅłÅłÅłÅłÅłÅłÅłÅłÅłÅłÅłÅłÅłÅłÅłÅ¡": 1156,
      "Å£Å£": 1157,
      "ÅłÅ¬": 1158,
      "ÅłÅłÅłÅłÅłÅłÅłÅłÅłÅłÅłÅłÅłÅłÅ£ÅłÅłÅłÅłÅłÅłÅłÅłÅłÅ¤": 1159,
      "ÄĲ": 1160,
      "ÅłÅłÅłÅłÅłÅłÅłÅłÅłÅłÅłÅłÅłÅłÅłÅłÅłÅłÅłÅłÅłÅłÅŁ": 1161,
      "Å¦Å¡": 1162,
      "ÅłÅłÅłÅłÅłÅłÅłÅłÅłÅłÅłÅłÅłÅłÅłÅłÅłÅłÅłÅłÅłÅłÅłÅłÅłÅłÅłÅłÅłÅłÅłÅŁÅłÅłÅłÅłÅłÅłÅłÅłÅłÅłÅłÅłÅłÅłÅłÅłÅłÅłÅłÅłÅłÅłÅłÅłÅłÅłÅłÅłÅłÅłÅłÅŁÅłÅłÅłÅłÅłÅłÅłÅłÅłÅłÅłÅłÅłÅłÅłÅłÅłÅłÅłÅłÅłÅłÅłÅłÅłÅłÅłÅłÅłÅłÅłÅłÅłÅłÅłÅłÅłÅłÅłÅłÅłÅłÅłÅłÅłÅłÅłÅłÅłÅłÅłÅłÅłÅłÅłÅłÅłÅłÅłÅłÅłÅłÅłÅłÅłÅłÅłÅłÅłÅłÅłÅłÅłÅłÅłÅłÅłÅłÅłÅłÅłÅłÅłÅłÅłÅłÅłÅłÅłÅłÅłÅłÅłÅłÅłÅłÅłÅłÅłÅłÅłÅłÅłÅłÅłÅłÅłÅłÅłÅłÅłÅłÅłÅłÅłÅłÅłÅłÅłÅłÅłÅłÅłÅłÅłÅłÅłÅłÅłÅłÅłÅłÅłÅłÅłÅłÅłÅłÅłÅłÅłÅłÅłÅłÅłÅłÅłÅłÅłÅłÅłÅłÅłÅłÅłÅłÅłÅłÅłÅłÅłÅłÅłÅłÅłÅłÅłÅłÅłÅłÅłÅłÅłÅłÅłÅłÅłÅłÅłÅłÅłÅłÅłÅłÅłÅłÅłÅłÅłÅłÅłÅłÅłÅłÅłÅłÅłÅłÅłÅłÅłÅłÅłÅłÅłÅłÅłÅłÅłÅłÅłÅłÅłÅłÅłÅłÅłÅłÅłÅłÅłÅłÅłÅłÅłÅłÅłÅłÅłÅłÅłÅłÅłÅłÅłÅłÅłÅłÅłÅłÅłÅłÅłÅłÅłÅłÅłÅłÅłÅłÅłÅłÅłÅłÅłÅłÅłÅłÅłÅłÅłÅłÅłÅłÅłÅłÅłÅłÅłÅłÅłÅłÅłÅłÅłÅłÅłÅłÅłÅłÅłÅłÅłÅłÅłÅłÅłÅłÅłÅłÅłÅłÅłÅłÅłÅłÅłÅłÅłÅłÅłÅłÅłÅłÅłÅłÅłÅłÅłÅłÅłÅłÅłÅłÅłÅłÅłÅłÅłÅłÅłÅłÅłÅłÅłÅłÅłÅłÅłÅłÅłÅłÅłÅłÅłÅłÅłÅłÅłÅłÅłÅłÅłÅłÅłÅłÅłÅłÅłÅłÅłÅłÅłÅłÅłÅłÅłÅłÅłÅłÅłÅłÅłÅłÅłÅłÅłÅłÅłÅłÅłÅłÅłÅłÅłÅłÅłÅłÅłÅłÅłÅłÅłÅłÅłÅłÅłÅłÅłÅłÅłÅłÅłÅłÅłÅłÅłÅłÅłÅłÅłÅłÅłÅłÅłÅłÅłÅłÅłÅłÅłÅłÅłÅłÅłÅłÅłÅłÅłÅłÅłÅłÅłÅłÅłÅłÅłÅłÅłÅłÅłÅłÅłÅłÅłÅłÅłÅłÅłÅłÅłÅłÅłÅłÅłÅłÅłÅłÅłÅłÅłÅłÅłÅłÅłÅłÅłÅłÅłÅłÅłÅłÅłÅłÅłÅłÅłÅłÅłÅłÅłÅłÅłÅłÅłÅłÅłÅłÅłÅłÅłÅłÅłÅłÅłÅłÅłÅłÅłÅłÅłÅłÅłÅłÅłÅłÅłÅłÅłÅłÅłÅłÅłÅłÅłÅłÅłÅłÅłÅłÅłÅłÅłÅłÅłÅłÅłÅłÅłÅłÅłÅłÅłÅłÅłÅłÅłÅłÅłÅłÅłÅłÅłÅłÅłÅłÅłÅłÅłÅłÅłÅłÅłÅłÅłÅłÅłÅłÅłÅłÅłÅłÅłÅłÅłÅłÅłÅłÅłÅłÅłÅłÅłÅłÅłÅłÅłÅłÅłÅłÅłÅłÅłÅłÅłÅłÅłÅłÅłÅłÅłÅłÅłÅłÅłÅłÅłÅłÅłÅłÅłÅłÅłÅłÅłÅłÅłÅłÅłÅłÅłÅłÅłÅłÅłÅłÅłÅłÅłÅłÅłÅłÅłÅłÅłÅłÅłÅłÅłÅłÅłÅłÅłÅłÅłÅłÅłÅłÅłÅłÅłÅłÅłÅłÅłÅłÅłÅłÅłÅł": 1163,
      "ÅľÅ¤": 1164,
      "Æ¦Ä¿": 1165,
      "ÅĿÅ¢": 1166,
      "ÅłÅłÅłÅłÅłÅłÅłÅłÅłÅłÅłÅłÅłÅłÅłÅŁÅłÅłÅłÅłÅłÅłÅłÅłÅłÅŁ": 1167,
      "ÆĭÅłÅłÅłÅłÅłÅłÅłÅłÅłÅłÅłÅłÅłÅłÅłÅłÅłÅłÅłÅłÅłÅłÅłÅłÅłÅłÅłÅłÅłÅłÅłÅłÅłÅłÅłÅłÅłÅłÅłÅłÅłÅłÅłÅłÅłÅłÅłÅłÅłÅłÅłÅłÅłÅłÅłÅłÅłÅłÅłÅłÅłÅłÅłÅłÅłÅłÅłÅłÅłÅłÅłÅłÅłÅłÅłÅłÅłÅłÅłÅłÅłÅłÅłÅłÅłÅłÅłÅłÅłÅłÅłÅłÅłÅłÅłÅłÅłÅłÅłÅłÅłÅłÅłÅłÅłÅłÅłÅłÅłÅłÅłÅłÅłÅłÅłÅłÅłÅłÅłÅłÅłÅłÅłÅłÅłÅłÅłÅłÅłÅłÅłÅłÅłÅłÅłÅłÅłÅłÅłÅłÅłÅłÅłÅłÅłÅłÅłÅłÅłÅłÅłÅłÅłÅłÅłÅłÅłÅłÅłÅłÅłÅłÅłÅłÅłÅłÅłÅłÅłÅłÅłÅłÅłÅłÅłÅłÅłÅłÅłÅłÅłÅłÅłÅłÅłÅłÅłÅłÅłÅłÅłÅłÅłÅłÅłÅłÅłÅłÅłÅłÅłÅłÅłÅłÅłÅłÅłÅłÅłÅłÅłÅłÅłÅłÅłÅłÅłÅłÅłÅłÅłÅłÅłÅłÅłÅłÅłÅłÅłÅłÅłÅłÅłÅłÅłÅłÅłÅłÅłÅłÅłÅłÅłÅłÅłÅłÅłÅłÅłÅłÅłÅłÅłÅłÅłÅłÅłÅłÅłÅłÅłÅłÅłÅłÅłÅłÅłÅłÅłÅłÅłÅłÅłÅłÅłÅłÅłÅłÅłÅłÅłÅłÅłÅłÅłÅłÅłÅłÅłÅłÅłÅłÅłÅłÅłÅłÅłÅłÅłÅłÅłÅłÅłÅłÅłÅłÅłÅłÅłÅłÅłÅłÅłÅłÅłÅłÅłÅłÅłÅłÅłÅłÅłÅłÅłÅłÅłÅłÅłÅłÅłÅłÅłÅłÅłÅłÅłÅłÅłÅłÅłÅłÅłÅłÅłÅłÅłÅłÅłÅłÅłÅłÅłÅłÅłÅłÅłÅłÅłÅłÅłÅłÅłÅłÅłÅłÅłÅłÅłÅłÅłÅłÅłÅłÅłÅłÅłÅłÅłÅłÅłÅłÅłÅłÅłÅłÅłÅłÅłÅłÅłÅłÅłÅłÅłÅłÅłÅłÅłÅłÅłÅłÅłÅłÅłÅłÅłÅłÅłÅłÅłÅłÅłÅłÅłÅłÅłÅłÅłÅłÅłÅłÅłÅłÅłÅłÅłÅłÅłÅłÅłÅłÅłÅłÅłÅłÅłÅłÅłÅłÅłÅłÅłÅłÅłÅłÅłÅłÅłÅłÅłÅłÅłÅłÅłÅłÅłÅłÅłÅłÅłÅłÅłÅłÅłÅłÅłÅłÅłÅłÅłÅłÅłÅłÅłÅłÅłÅłÅłÅłÅłÅłÅłÅłÅłÅłÅłÅłÅłÅłÅłÅłÅłÅłÅłÅłÅłÅłÅłÅłÅłÅłÅłÅłÅłÅłÅłÅłÅłÅłÅłÅłÅłÅłÅłÅłÅłÅłÅłÅłÅłÅłÅłÅłÅłÅłÅłÅłÅłÅłÅłÅłÅłÅłÅłÅłÅłÅłÅłÅłÅłÅłÅłÅłÅłÅłÅłÅłÅłÅłÅłÅłÅłÅłÅłÅłÅłÅłÅłÅłÅłÅłÅłÅłÅłÅłÅłÅłÅłÅłÅłÅłÅłÅłÅłÅłÅłÅłÅłÅłÅłÅłÅłÅłÅłÅłÅłÅłÅłÅłÅłÅłÅłÅłÅłÅłÅłÅłÅłÅłÅłÅłÅłÅłÅłÅłÅłÅłÅłÅłÅłÅłÅłÅłÅłÅłÅłÅłÅłÅłÅłÅłÅłÅłÅłÅłÅłÅłÅłÅłÅłÅłÅłÅłÅłÅłÅłÅłÅłÅłÅłÅłÅłÅłÅłÅłÅłÅłÅłÅłÅłÅłÅłÅłÅłÅłÅłÅłÅłÅłÅłÅłÅłÅłÅłÅłÅłÅłÅłÅłÅłÅłÅłÅłÅłÅłÅłÅłÅłÅłÅłÅłÅłÅłÅłÅłÅłÅłÅłÅłÅłÅłÅłÅłÅłÅłÅłÅłÅłÅłÅłÅłÅłÅłÅłÅłÅłÅłÅłÅłÅłÅłÅłÅłÅłÅłÅłÅłÅłÅłÅłÅłÅłÅłÅłÅłÅłÅłÅłÅłÅłÅłÅłÅłÅłÅłÅłÅłÅłÅłÅłÅłÅłÅłÅłÅłÅłÅłÅłÅłÅłÅłÅłÅłÅłÅłÅłÅłÅłÅłÅłÅłÅłÅłÅłÅłÅłÅłÅłÅłÅłÅłÅłÅłÅłÅłÅłÅłÅłÅłÅłÅłÅłÅłÅłÅłÅłÅłÅłÅłÅłÅłÅłÅłÅłÅłÅłÅłÅłÅłÅłÅłÅłÅłÅłÅłÅłÅłÅłÅłÅłÅłÅłÅłÅłÅłÅłÅłÅłÅłÅłÅłÅłÅłÅłÅłÅłÅłÅłÅłÅłÅłÅłÅłÅłÅłÅłÅłÅłÅłÅłÅłÅłÅłÅłÅłÅłÅłÅłÅłÅłÅłÅłÅłÅłÅłÅłÅłÅłÅłÅłÅłÅłÅłÅłÅłÅłÅłÅłÅłÅłÅłÅłÅłÅłÅłÅłÅłÅłÅłÅłÅłÅłÅłÅłÅłÅłÅłÅłÅłÅłÅłÅłÅłÅłÅłÅłÅłÅłÅłÅłÅłÅłÅłÅłÅłÅłÅłÅłÅłÅłÅłÅłÅłÅłÅłÅłÅłÅłÅłÅłÅłÅłÅłÅłÅłÅłÅłÅłÅłÅłÅłÅłÅłÅłÅłÅłÅłÅłÅłÅłÅłÅłÅłÅłÅłÅłÅłÅłÅłÅłÅłÅłÅłÅłÅłÅłÅłÅłÅłÅłÅłÅłÅłÅłÅłÅłÅłÅłÅłÅłÅłÅłÅłÅłÅłÅłÅłÅłÅłÅłÅłÅłÅłÅłÅłÅłÅłÅłÅłÅłÅłÅłÅłÅłÅłÅłÅłÅłÅłÅłÅłÅłÅł": 1168,
      "ÅłÅłÅłÅłÅłÅłÅłÅłÅłÅłÅłÅłÅłÅŁÅ¡": 1169,
      "ÅŁÅ¥": 1170,
      "ÅłÅłÅłÅłÅłÅłÅłÅłÅłÅłÅłÅłÅłÅłÅłÅłÅłÅłÅłÅłÅłÅłÅłÅłÅłÅłÅłÅłÅłÅ¡": 1171,
      "Å£Åŀ": 1172,
      "ÅłÅ¡ÅłÅłÅ¡": 1173,
      "ÅªÅŀ": 1174,
      "ÅłÅŁÅŁÅ¡": 1175,
      "ÅłÅłÅłÅłÅłÅłÅłÅłÅłÅłÅłÅłÅ¢": 1176,
      "ÅłÅłÅłÅłÅłÅłÅłÅłÅłÅłÅłÅłÅłÅłÅłÅłÅłÅłÅłÅłÅłÅłÅłÅłÅłÅłÅłÅłÅłÅłÅłÅ": 1177,
      "ÅłÅłÅļ": 1178,
      "Å£Åľ": 1179,
      "ÅłÅłÅ¥": 1180,
      "ÅłÅłÅłÅłÅłÅłÅłÅłÅłÅłÅŁ": 1181,
      "ÅłÅłÅłÅłÅłÅłÅĺ": 1182,
      "Ã«": 1183,
      "ÅłÅķ": 1184,
      "Å¢Åĺ": 1185,
      "ÅŁÅŁÅ¡": 1186,
      "ÅłÅłÅłÅłÅłÅłÅłÅłÅłÅłÅłÅłÅłÅłÅŁÅłÅłÅłÅłÅłÅłÅłÅłÅłÅŀ": 1187,
      "ÅłÅłÅłÅłÅłÅłÅłÅłÅłÅłÅłÅłÅłÅłÅłÅłÅłÅłÅłÅłÅłÅłÅłÅłÅłÅłÅłÅłÅłÅłÅłÅłÅłÅłÅłÅłÅłÅłÅłÅłÅłÅłÅłÅłÅłÅłÅłÅłÅłÅłÅłÅłÅłÅłÅłÅłÅłÅłÅłÅłÅłÅłÅłÅłÅłÅłÅłÅłÅłÅłÅłÅłÅłÅłÅłÅłÅłÅłÅłÅłÅłÅłÅłÅłÅłÅłÅłÅłÅłÅłÅłÅłÅłÅłÅłÅłÅłÅłÅłÅłÅłÅłÅłÅłÅłÅłÅłÅłÅłÅłÅłÅłÅłÅłÅłÅłÅłÅłÅłÅłÅłÅłÅłÅłÅłÅłÅłÅłÅłÅłÅłÅłÅłÅłÅłÅłÅłÅłÅłÅłÅłÅłÅłÅłÅłÅłÅłÅłÅłÅłÅłÅłÅłÅłÅłÅłÅłÅłÅłÅłÅłÅłÅłÅłÅłÅłÅłÅłÅłÅłÅłÅłÅłÅłÅłÅłÅłÅłÅłÅłÅłÅłÅłÅłÅłÅłÅłÅłÅłÅłÅłÅłÅłÅłÅłÅłÅłÅłÅłÅłÅłÅłÅłÅłÅłÅłÅłÅłÅłÅłÅłÅłÅłÅłÅłÅłÅłÅłÅłÅłÅłÅłÅłÅłÅłÅłÅłÅłÅłÅłÅłÅłÅłÅłÅłÅłÅłÅłÅłÅłÅłÅłÅłÅłÅłÅłÅłÅłÅłÅłÅłÅłÅłÅłÅłÅłÅłÅłÅłÅłÅłÅłÅłÅłÅłÅłÅłÅłÅłÅłÅłÅłÅłÅłÅłÅłÅłÅłÅłÅłÅłÅłÅłÅłÅłÅłÅłÅłÅłÅłÅłÅłÅłÅłÅłÅłÅłÅłÅłÅłÅłÅłÅłÅłÅłÅłÅłÅłÅłÅłÅłÅłÅłÅłÅłÅłÅłÅłÅłÅłÅłÅłÅłÅłÅłÅłÅłÅłÅłÅłÅłÅłÅłÅłÅłÅłÅłÅłÅłÅłÅłÅłÅłÅłÅłÅłÅłÅłÅłÅłÅłÅłÅłÅłÅłÅłÅłÅłÅłÅłÅłÅłÅłÅłÅłÅłÅłÅłÅłÅłÅłÅłÅłÅłÅłÅłÅłÅłÅłÅłÅłÅłÅłÅłÅłÅłÅłÅłÅłÅłÅłÅłÅłÅłÅłÅłÅłÅłÅłÅłÅłÅłÅłÅłÅłÅłÅłÅłÅłÅłÅłÅłÅłÅłÅłÅłÅłÅłÅłÅłÅłÅłÅłÅłÅłÅłÅłÅłÅłÅłÅłÅłÅłÅłÅłÅłÅłÅłÅłÅłÅłÅłÅłÅłÅłÅłÅłÅłÅłÅłÅłÅłÅłÅłÅłÅłÅłÅłÅłÅłÅłÅłÅłÅłÅłÅłÅłÅłÅłÅłÅłÅłÅłÅłÅłÅłÅłÅłÅłÅłÅłÅłÅłÅłÅłÅłÅłÅłÅłÅłÅłÅłÅłÅłÅłÅłÅłÅłÅłÅłÅłÅłÅłÅłÅłÅłÅłÅłÅłÅłÅłÅłÅłÅłÅłÅłÅłÅłÅłÅłÅłÅłÅłÅłÅłÅłÅłÅłÅłÅłÅłÅłÅłÅłÅłÅłÅłÅłÅłÅłÅłÅłÅłÅłÅłÅłÅłÅłÅłÅłÅłÅłÅłÅłÅłÅłÅłÅłÅłÅłÅłÅłÅłÅłÅłÅłÅłÅłÅłÅłÅłÅłÅłÅłÅłÅłÅłÅłÅłÅłÅłÅłÅłÅłÅłÅłÅłÅłÅłÅłÅłÅłÅłÅłÅłÅłÅłÅłÅłÅłÅłÅłÅłÅłÅłÅłÅłÅłÅłÅłÅłÅłÅłÅłÅłÅłÅłÅłÅłÅłÅłÅłÅłÅłÅłÅłÅłÅłÅłÅłÅłÅłÅłÅłÅłÅłÅłÅłÅłÅłÅłÅłÅłÅłÅłÅłÅłÅłÅłÅłÅłÅłÅłÅłÅłÅłÅłÅłÅłÅłÅłÅłÅłÅłÅłÅłÅłÅłÅłÅłÅłÅłÅłÅłÅłÅłÅłÅłÅłÅłÅłÅłÅłÅłÅłÅłÅłÅłÅłÅłÅłÅłÅłÅłÅłÅłÅłÅłÅłÅłÅłÅłÅłÅłÅłÅłÅłÅłÅłÅłÅłÅłÅłÅłÅłÅłÅłÅłÅłÅłÅłÅłÅłÅłÅłÅłÅłÅłÅłÅłÅłÅłÅłÅłÅłÅłÅłÅłÅłÅłÅłÅłÅłÅłÅłÅłÅłÅłÅłÅłÅłÅłÅłÅłÅł": 1188,
      "ÅłÅłÅłÅłÅłÅłÅĹ": 1189,
      "ÅłÅłÅłÅłÅłÅłÅłÅłÅłÅłÅłÅłÅłÅłÅłÅłÅłÅłÅłÅłÅłÅłÅłÅłÅłÅłÅłÅłÅłÅłÅłÅ¡ÅłÅłÅłÅłÅłÅłÅłÅłÅłÅłÅłÅłÅłÅłÅłÅłÅłÅłÅłÅłÅłÅłÅłÅłÅłÅłÅłÅłÅłÅłÅłÅłÅłÅłÅłÅłÅłÅłÅłÅłÅłÅłÅłÅłÅłÅłÅłÅłÅłÅłÅłÅłÅłÅłÅłÅłÅłÅłÅłÅłÅłÅłÅłÅłÅłÅłÅłÅłÅłÅłÅłÅłÅłÅłÅłÅłÅłÅłÅłÅłÅłÅłÅłÅłÅłÅłÅłÅłÅłÅłÅłÅłÅłÅłÅłÅłÅłÅłÅłÅłÅłÅłÅłÅłÅłÅłÅłÅłÅłÅłÅłÅłÅłÅłÅłÅłÅłÅłÅłÅłÅłÅłÅłÅłÅłÅłÅłÅłÅłÅłÅłÅłÅłÅłÅłÅłÅłÅłÅłÅłÅłÅłÅłÅłÅłÅłÅłÅłÅłÅłÅłÅłÅłÅłÅłÅłÅłÅłÅłÅłÅłÅłÅłÅłÅłÅłÅłÅłÅłÅłÅłÅłÅłÅłÅłÅłÅłÅłÅłÅłÅłÅłÅłÅłÅłÅłÅłÅłÅłÅłÅłÅłÅłÅłÅłÅłÅłÅłÅłÅłÅłÅłÅłÅłÅłÅłÅłÅłÅłÅłÅłÅłÅłÅłÅłÅłÅłÅłÅłÅłÅłÅłÅłÅłÅłÅłÅłÅłÅłÅłÅłÅłÅłÅłÅłÅłÅłÅłÅłÅłÅłÅłÅłÅłÅłÅłÅłÅłÅłÅłÅłÅłÅłÅłÅłÅłÅłÅłÅłÅłÅłÅłÅłÅłÅłÅłÅłÅłÅłÅłÅłÅłÅłÅłÅłÅłÅłÅłÅłÅłÅłÅłÅłÅłÅłÅłÅłÅłÅłÅłÅłÅłÅłÅłÅłÅłÅłÅłÅłÅłÅłÅłÅłÅłÅłÅłÅłÅłÅłÅłÅłÅłÅłÅłÅłÅłÅłÅłÅłÅłÅłÅłÅłÅłÅłÅłÅłÅłÅłÅłÅłÅłÅłÅłÅłÅłÅłÅłÅłÅłÅłÅłÅłÅłÅłÅłÅłÅłÅłÅłÅłÅłÅłÅłÅłÅłÅłÅłÅłÅłÅłÅłÅłÅłÅłÅłÅłÅłÅłÅłÅłÅłÅłÅłÅłÅłÅłÅłÅłÅłÅłÅłÅłÅłÅłÅłÅłÅłÅłÅłÅłÅłÅłÅłÅłÅłÅłÅłÅłÅłÅłÅłÅłÅłÅłÅłÅłÅłÅłÅłÅłÅłÅłÅłÅłÅłÅłÅłÅłÅłÅłÅłÅłÅłÅłÅłÅłÅłÅłÅłÅłÅłÅłÅłÅłÅłÅłÅłÅłÅłÅłÅłÅłÅłÅłÅłÅłÅłÅłÅłÅłÅłÅłÅłÅłÅłÅłÅłÅłÅłÅłÅłÅłÅłÅłÅłÅłÅłÅłÅłÅłÅłÅłÅłÅłÅłÅłÅłÅłÅłÅłÅłÅłÅłÅłÅłÅłÅłÅłÅłÅłÅłÅłÅłÅłÅłÅłÅłÅłÅłÅłÅłÅłÅłÅłÅłÅłÅłÅłÅłÅłÅłÅłÅłÅłÅłÅłÅłÅłÅłÅłÅłÅłÅłÅłÅłÅłÅłÅłÅłÅłÅłÅłÅłÅłÅłÅłÅłÅłÅłÅłÅłÅłÅłÅłÅłÅłÅłÅłÅłÅłÅłÅłÅłÅłÅłÅłÅłÅłÅłÅłÅłÅłÅłÅłÅłÅłÅłÅłÅłÅłÅłÅłÅłÅłÅłÅłÅłÅłÅłÅłÅłÅłÅłÅłÅłÅłÅłÅłÅłÅłÅłÅłÅłÅłÅłÅłÅłÅłÅłÅłÅłÅłÅłÅłÅłÅłÅłÅłÅłÅłÅłÅłÅłÅłÅłÅłÅłÅłÅłÅłÅłÅłÅłÅłÅłÅłÅłÅłÅłÅłÅłÅłÅłÅłÅłÅłÅłÅłÅłÅłÅłÅłÅłÅłÅłÅłÅłÅłÅłÅłÅłÅłÅłÅłÅłÅłÅłÅłÅłÅłÅłÅłÅłÅłÅłÅłÅłÅłÅłÅłÅłÅłÅłÅłÅłÅłÅłÅłÅłÅłÅłÅłÅłÅłÅłÅłÅłÅłÅłÅłÅłÅłÅłÅłÅłÅłÅłÅłÅłÅłÅłÅłÅł": 1190,
      "Å¡Å¡Å¡": 1191,
      "ÅłÅłÅłÅłÅłÅłÅłÅłÅłÅłÅłÅłÅłÅłÅŀÅłÅłÅłÅłÅłÅłÅłÅłÅłÅĿ": 1192,
      "ÅĻÇĵ": 1193,
      "ÅłÅłÅłÅłÅłÅłÅłÅłÅłÅłÅłÅłÅłÅłÅłÅłÅłÅłÅłÅłÅłÅ¡ÅłÅłÅłÅłÅłÅłÅłÅłÅłÅ¢": 1194,
      "ÅłÅłÅłÅłÅłÅŀ": 1195,
      "ÅŀÅ¥": 1196,
      "ÅłÅłÅłÅłÅłÅłÅłÅłÅłÅłÅłÅłÅłÅłÅłÅłÅłÅłÅłÅłÅłÅ¡ÅłÅłÅłÅłÅłÅłÅŁÅłÅłÅŁ": 1197,
      "ÅłÅłÅłÅłÅłÅłÅłÅľ": 1198,
      "ÅłÅłÅłÅłÅłÅłÅłÅłÅłÅłÅłÅłÅłÅłÅŁÅ¡": 1199,
      "ÅłÅłÅŁÅłÅ¡": 1200,
      "ÅłÅłÅłÅłÅłÅ¢": 1201,
      "ÅłÅłÅłÅłÅłÅłÅĽ": 1202,
      "ÅłÅłÅłÅłÅłÅłÅłÅłÅłÅłÅłÅłÅłÅłÅ¡ÅŁ": 1203,
      "ÅłÅłÅłÅŁÅ¡": 1204,
      "ÅłÅłÅłÅłÅłÅłÅłÅłÅŁÅŁ": 1205,
      "Å¤Åľ": 1206,
      "ÅŁÅĽ": 1207,
      "ÅłÅłÅłÅłÅłÅłÅłÅłÅłÅĽ": 1208,
      "ÅłÅłÅłÅłÅłÅłÅłÅłÅłÅłÅłÅłÅłÅłÅ¥": 1209,
      "Å¡Å£": 1210,
      "ÅłÅłÅłÅłÅłÅłÅłÅłÅłÅłÅłÅłÅłÅłÅłÅłÅłÅłÅłÅłÅłÅłÅłÅłÅłÅłÅłÅłÅłÅłÅłÅ¡ÅłÅłÅłÅłÅłÅłÅłÅłÅłÅłÅłÅłÅłÅłÅłÅłÅłÅłÅłÅłÅłÅłÅłÅłÅłÅłÅłÅłÅłÅłÅłÅłÅłÅłÅłÅłÅłÅłÅłÅłÅłÅłÅłÅłÅłÅłÅłÅłÅłÅłÅłÅłÅłÅłÅłÅłÅłÅłÅłÅłÅłÅłÅłÅłÅłÅłÅłÅłÅłÅłÅłÅłÅłÅłÅłÅłÅłÅłÅłÅłÅłÅłÅłÅłÅłÅłÅłÅłÅłÅłÅłÅłÅłÅłÅłÅłÅłÅłÅłÅłÅłÅłÅłÅłÅłÅłÅłÅłÅłÅłÅłÅłÅłÅłÅłÅłÅłÅłÅłÅłÅłÅłÅłÅłÅłÅłÅłÅłÅłÅłÅłÅłÅłÅłÅłÅłÅłÅłÅłÅłÅłÅłÅłÅłÅłÅłÅłÅłÅłÅłÅłÅłÅłÅłÅłÅłÅłÅłÅłÅłÅłÅłÅłÅłÅłÅłÅłÅłÅłÅłÅłÅłÅłÅłÅłÅłÅłÅłÅłÅłÅłÅłÅłÅłÅłÅłÅłÅłÅłÅłÅłÅłÅłÅłÅłÅłÅłÅłÅłÅłÅłÅłÅłÅłÅłÅłÅłÅłÅłÅłÅłÅłÅłÅłÅłÅłÅłÅłÅłÅłÅłÅłÅłÅłÅłÅłÅłÅłÅłÅłÅłÅłÅłÅłÅłÅłÅłÅłÅłÅłÅłÅłÅłÅłÅłÅłÅłÅłÅłÅłÅłÅłÅłÅłÅłÅłÅłÅłÅłÅłÅłÅłÅłÅłÅłÅłÅłÅłÅłÅłÅłÅłÅłÅłÅłÅłÅłÅłÅłÅłÅłÅłÅłÅłÅłÅłÅłÅłÅłÅłÅłÅłÅłÅłÅłÅłÅłÅłÅłÅłÅłÅłÅłÅłÅłÅłÅłÅłÅłÅłÅłÅłÅłÅłÅłÅłÅłÅłÅłÅłÅłÅłÅłÅłÅłÅłÅłÅłÅłÅłÅłÅłÅłÅłÅłÅłÅłÅłÅłÅłÅłÅłÅłÅłÅłÅłÅłÅłÅłÅłÅłÅłÅłÅłÅłÅłÅłÅłÅłÅłÅłÅłÅłÅłÅłÅłÅłÅłÅłÅłÅłÅłÅłÅłÅłÅłÅłÅłÅłÅłÅłÅłÅłÅłÅłÅłÅłÅłÅłÅłÅłÅłÅłÅłÅłÅłÅłÅłÅłÅłÅłÅłÅłÅłÅłÅłÅłÅłÅłÅłÅłÅłÅłÅłÅłÅłÅłÅłÅłÅłÅłÅłÅłÅłÅłÅłÅłÅłÅłÅłÅłÅłÅłÅłÅłÅłÅłÅłÅłÅłÅłÅłÅłÅłÅłÅłÅłÅłÅłÅłÅłÅłÅłÅłÅłÅłÅłÅłÅłÅłÅłÅłÅłÅłÅłÅłÅłÅłÅłÅłÅłÅłÅłÅłÅłÅłÅłÅłÅłÅłÅłÅłÅłÅłÅłÅłÅłÅłÅłÅłÅłÅłÅłÅłÅłÅłÅłÅłÅłÅłÅłÅłÅłÅłÅłÅłÅłÅłÅłÅłÅłÅłÅłÅłÅłÅłÅłÅłÅłÅłÅłÅłÅłÅłÅłÅłÅłÅłÅłÅłÅłÅłÅłÅłÅłÅłÅłÅłÅłÅłÅłÅłÅłÅłÅłÅłÅłÅłÅłÅłÅłÅłÅłÅłÅłÅłÅłÅłÅłÅłÅłÅłÅłÅłÅłÅłÅłÅłÅłÅłÅłÅłÅłÅłÅłÅłÅłÅłÅłÅłÅłÅłÅłÅłÅłÅłÅłÅłÅłÅłÅłÅłÅłÅłÅłÅłÅłÅłÅłÅłÅłÅłÅłÅłÅłÅłÅłÅłÅłÅłÅłÅłÅłÅłÅłÅłÅłÅłÅłÅłÅłÅłÅłÅłÅłÅłÅłÅłÅłÅłÅłÅłÅłÅłÅłÅłÅłÅłÅłÅłÅłÅłÅłÅłÅłÅłÅłÅłÅłÅłÅłÅłÅłÅłÅłÅłÅłÅłÅłÅłÅłÅłÅłÅłÅłÅłÅłÅłÅłÅłÅłÅł": 1211,
      "ÅłÅłÅłÅ£": 1212,
      "Å¡Åķ": 1213,
      "ÅłÅłÅłÅłÅłÅłÅłÅ¦": 1214,
      "ÅłÅĶ": 1215,
      "Å¬Åŀ": 1216,
      "ÅłÅłÅłÅłÅłÅłÅ´": 1217,
      "ÅłÅŃ": 1218,
      "Å¡ÅĿ": 1219,
      "ÅłÅłÅłÅłÅłÅłÅłÅłÅłÅłÅłÅłÅłÅłÅłÅłÅłÅłÅłÅłÅłÅłÅłÅłÅłÅłÅłÅłÅłÅłÅłÅłÅłÅłÅłÅłÅłÅłÅłÅłÅłÅłÅłÅłÅłÅłÅłÅłÅłÅłÅłÅłÅłÅłÅłÅłÅłÅłÅłÅłÅłÅłÅłÅłÅłÅłÅłÅłÅłÅłÅłÅłÅłÅłÅłÅłÅłÅłÅłÅłÅłÅłÅłÅłÅłÅłÅłÅłÅłÅłÅłÅłÅłÅłÅłÅłÅłÅłÅłÅłÅłÅłÅłÅłÅłÅłÅłÅłÅłÅłÅłÅłÅłÅłÅłÅłÅłÅłÅłÅłÅłÅłÅłÅłÅłÅłÅłÅłÅłÅłÅłÅłÅłÅłÅłÅłÅłÅłÅłÅłÅłÅłÅłÅłÅłÅłÅłÅłÅłÅłÅłÅłÅłÅłÅłÅłÅłÅłÅłÅłÅłÅłÅłÅłÅłÅłÅłÅłÅłÅłÅłÅłÅłÅłÅłÅłÅłÅłÅłÅłÅłÅłÅłÅłÅłÅłÅłÅłÅłÅłÅłÅłÅłÅłÅłÅłÅłÅłÅłÅłÅłÅłÅłÅłÅłÅłÅłÅłÅłÅłÅłÅłÅłÅłÅłÅłÅłÅłÅłÅłÅłÅłÅłÅłÅłÅłÅłÅłÅłÅłÅłÅłÅłÅłÅłÅłÅłÅłÅłÅłÅłÅłÅłÅłÅłÅłÅłÅłÅłÅłÅłÅłÅłÅłÅłÅłÅłÅłÅłÅłÅłÅłÅłÅłÅłÅłÅłÅłÅłÅłÅłÅłÅłÅłÅłÅłÅłÅłÅłÅłÅłÅłÅłÅłÅłÅłÅłÅłÅłÅłÅłÅłÅłÅłÅłÅłÅłÅłÅłÅłÅłÅłÅłÅłÅłÅłÅłÅłÅłÅłÅłÅłÅłÅłÅłÅłÅłÅłÅłÅłÅłÅłÅłÅłÅłÅłÅłÅłÅłÅłÅłÅłÅłÅłÅłÅłÅłÅłÅłÅłÅłÅłÅłÅłÅłÅłÅłÅłÅłÅłÅłÅłÅłÅłÅłÅłÅłÅłÅłÅłÅłÅłÅłÅłÅłÅłÅłÅłÅłÅłÅłÅłÅłÅłÅłÅłÅłÅłÅłÅłÅłÅłÅłÅłÅłÅłÅłÅłÅłÅłÅłÅłÅłÅłÅłÅłÅłÅłÅłÅłÅłÅłÅłÅłÅłÅłÅłÅłÅłÅłÅłÅłÅłÅłÅłÅłÅłÅłÅłÅłÅłÅłÅłÅłÅłÅłÅłÅłÅłÅłÅłÅłÅłÅłÅłÅłÅłÅłÅłÅłÅłÅłÅłÅłÅłÅłÅłÅłÅłÅłÅłÅłÅłÅłÅłÅłÅłÅłÅłÅłÅłÅłÅłÅłÅłÅłÅłÅłÅłÅłÅłÅłÅłÅłÅłÅłÅłÅłÅłÅłÅłÅłÅłÅłÅłÅłÅłÅłÅłÅłÅłÅłÅłÅłÅłÅłÅłÅłÅłÅłÅłÅłÅłÅłÅłÅłÅłÅłÅłÅłÅłÅłÅłÅłÅłÅłÅłÅłÅłÅłÅłÅłÅłÅłÅłÅłÅłÅłÅłÅłÅłÅłÅłÅłÅłÅłÅłÅłÅłÅłÅłÅłÅłÅłÅłÅłÅłÅłÅłÅłÅłÅłÅłÅłÅłÅłÅłÅłÅłÅłÅłÅłÅłÅłÅłÅłÅłÅłÅłÅłÅłÅłÅłÅłÅłÅłÅłÅłÅłÅłÅłÅłÅłÅłÅłÅłÅłÅłÅłÅłÅłÅłÅłÅłÅłÅłÅłÅłÅłÅłÅłÅłÅłÅłÅłÅłÅłÅłÅłÅłÅłÅłÅłÅłÅłÅłÅłÅłÅłÅłÅłÅłÅłÅłÅłÅłÅłÅłÅłÅłÅłÅłÅłÅłÅłÅłÅłÅłÅłÅłÅłÅłÅłÅłÅłÅłÅłÅłÅłÅłÅłÅłÅłÅłÅłÅłÅłÅłÅłÅłÅłÅłÅłÅłÅłÅłÅłÅłÅłÅłÅłÅłÅłÅłÅłÅłÅłÅłÅłÅłÅłÅłÅłÅłÅłÅłÅłÅłÅłÅłÅłÅłÅłÅłÅłÅłÅłÅłÅłÅłÅłÅłÅłÅłÅłÅłÅłÅłÅłÅłÅłÅłÅłÅłÅłÅłÅłÅłÅłÅłÅłÅłÅłÅłÅłÅłÅłÅłÅłÅłÅłÅłÅłÅłÅłÅłÅłÅłÅłÅłÅłÅłÅłÅłÅłÅłÅłÅłÅłÅłÅłÅłÅłÅłÅłÅłÅłÅłÅłÅłÅłÅłÅłÅłÅłÅłÅłÅłÅłÅłÅłÅłÅłÅłÅłÅłÅłÅłÅłÅłÅłÅłÅłÅłÅłÅłÅłÅłÅłÅłÅłÅłÅłÅłÅłÅłÅłÅłÅłÅł": 1220,
      "ÅłÅŁÅłÅłÅŁ": 1221,
      "ÅłÅłÅłÅłÅłÅłÅłÅłÅłÅ¦": 1222,
      "ÅłÅłÅ¡ÅłÅłÅłÅłÅłÅłÅłÅłÅłÅłÅłÅłÅłÅłÅłÅł": 1223,
      "Å¢ÅĽ": 1224,
      "ÄĪ": 1225,
      "ÅĿÅĿ": 1226,
      "Å£Å¤": 1227,
      "ÅłÅłÅłÅłÅłÅłÅłÅłÅłÅłÅłÅłÅłÅłÅłÅłÅłÅłÅłÅłÅłÅŁÅłÅłÅłÅłÅłÅłÅłÅłÅłÅŀ": 1228,
      "ÅķÅĻ": 1229,
      "Æµ": 1230,
      "ÅłÅ¡Å¢": 1231,
      "ÅłÅłÅłÅłÅłÅłÅłÅłÅłÅłÅłÅłÅłÅļ": 1232,
      "ÅłÅ®": 1233,
      "ÅłÅłÅłÅ¡Å¡": 1234,
      "ÆĴÅ§ÄŃÆĪÅ¹ÆĸÆĭÅªÅŁ": 1235,
      "ÅłÅłÅłÅłÅłÅłÅłÅłÅłÅłÅłÅłÅłÅ¦": 1236,
      "ÄĻÄĳ": 1237,
      "Äģ": 1238,
      "ÅłÅłÅłÅłÅłÅłÅłÅłÅłÅłÅłÅłÅłÅłÅłÅłÅłÅłÅłÅłÅłÅłÅłÅłÅłÅłÅłÅłÅłÅłÅłÅłÅłÅłÅłÅłÅłÅłÅłÅłÅłÅłÅłÅłÅłÅłÅłÅłÅłÅłÅłÅłÅłÅłÅłÅłÅłÅłÅłÅłÅłÅłÅłÅłÅłÅłÅłÅłÅłÅłÅłÅłÅłÅłÅłÅłÅłÅłÅłÅłÅłÅłÅłÅłÅłÅłÅłÅłÅłÅłÅłÅłÅłÅłÅłÅłÅłÅłÅłÅłÅłÅłÅłÅłÅłÅłÅłÅłÅłÅłÅłÅłÅłÅłÅłÅłÅłÅłÅłÅłÅłÅłÅłÅłÅłÅłÅłÅłÅłÅłÅłÅłÅłÅłÅłÅłÅłÅłÅłÅłÅłÅłÅłÅłÅłÅłÅłÅłÅłÅłÅłÅłÅłÅłÅłÅłÅłÅłÅłÅłÅłÅłÅłÅłÅłÅłÅłÅłÅłÅłÅłÅłÅłÅłÅłÅłÅłÅłÅłÅłÅłÅłÅłÅłÅłÅłÅłÅłÅłÅłÅłÅłÅłÅłÅłÅłÅłÅłÅłÅłÅłÅłÅłÅłÅłÅłÅłÅłÅłÅłÅłÅłÅłÅłÅłÅłÅłÅłÅłÅłÅłÅłÅłÅłÅłÅłÅłÅłÅłÅłÅłÅłÅłÅłÅłÅłÅłÅłÅłÅłÅłÅłÅłÅłÅłÅłÅłÅłÅłÅłÅłÅłÅłÅłÅłÅłÅłÅłÅłÅłÅłÅłÅłÅłÅłÅłÅłÅłÅłÅłÅłÅłÅłÅłÅłÅłÅłÅłÅłÅłÅłÅłÅłÅłÅłÅłÅłÅłÅłÅłÅłÅłÅłÅłÅłÅłÅłÅłÅłÅłÅłÅłÅłÅłÅłÅłÅłÅłÅłÅłÅłÅłÅłÅłÅłÅłÅłÅłÅłÅłÅłÅłÅłÅłÅłÅłÅłÅłÅłÅłÅłÅłÅłÅłÅłÅłÅłÅłÅłÅłÅłÅłÅłÅłÅłÅłÅłÅłÅłÅłÅłÅłÅłÅłÅłÅłÅłÅłÅłÅłÅłÅłÅłÅłÅłÅłÅłÅłÅłÅłÅłÅłÅłÅłÅłÅłÅłÅłÅłÅłÅłÅłÅłÅłÅłÅłÅłÅłÅłÅłÅłÅłÅłÅłÅłÅłÅłÅłÅłÅłÅłÅłÅłÅłÅłÅłÅłÅłÅłÅłÅłÅłÅłÅłÅłÅłÅłÅłÅłÅłÅłÅłÅłÅłÅłÅłÅłÅłÅłÅłÅłÅłÅłÅłÅłÅłÅłÅłÅłÅłÅłÅłÅłÅłÅłÅłÅłÅłÅłÅłÅłÅłÅłÅłÅłÅłÅłÅłÅłÅłÅłÅłÅłÅłÅłÅłÅłÅłÅłÅłÅłÅłÅłÅłÅłÅłÅłÅłÅłÅłÅłÅłÅłÅłÅłÅłÅłÅłÅłÅłÅłÅłÅłÅłÅłÅłÅłÅłÅłÅłÅłÅłÅłÅłÅłÅłÅłÅłÅłÅłÅłÅłÅłÅłÅłÅłÅłÅłÅłÅłÅłÅłÅłÅłÅłÅłÅłÅłÅłÅłÅłÅłÅłÅłÅłÅłÅłÅłÅłÅłÅłÅłÅłÅłÅłÅłÅłÅłÅłÅłÅłÅłÅłÅłÅłÅłÅłÅłÅłÅłÅłÅłÅłÅłÅłÅłÅłÅłÅłÅłÅłÅłÅłÅłÅłÅłÅłÅłÅłÅłÅłÅłÅłÅłÅłÅłÅłÅłÅłÅłÅłÅłÅłÅłÅłÅłÅłÅłÅłÅłÅłÅłÅłÅłÅłÅłÅłÅłÅłÅłÅłÅłÅłÅłÅłÅłÅłÅłÅłÅłÅłÅłÅłÅłÅłÅłÅłÅłÅłÅłÅłÅłÅłÅłÅłÅłÅłÅłÅłÅłÅłÅłÅłÅłÅłÅłÅłÅłÅłÅłÅłÅłÅłÅłÅłÅłÅłÅłÅłÅłÅłÅłÅłÅłÅłÅłÅłÅłÅłÅłÅłÅłÅłÅłÅłÅłÅłÅłÅłÅłÅłÅłÅłÅłÅłÅłÅłÅłÅłÅłÅłÅłÅłÅłÅłÅłÅłÅłÅłÅłÅłÅłÅłÅłÅłÅłÅłÅłÅłÅłÅłÅłÅłÅłÅłÅłÅłÅłÅłÅłÅłÅłÅłÅłÅłÅłÅłÅłÅłÅłÅłÅłÅłÅłÅłÅłÅłÅłÅłÅłÅłÅłÅłÅłÅłÅłÅłÅłÅłÅłÅłÅłÅłÅłÅłÅłÅłÅłÅłÅłÅłÅłÅłÅłÅłÅłÅłÅłÅłÅłÅłÅłÅłÅłÅłÅłÅłÅłÅłÅłÅłÅłÅłÅłÅłÅłÅłÅłÅłÅłÅłÅłÅłÅłÅłÅłÅłÅłÅłÅłÅłÅłÅłÅłÅłÅłÅłÅłÅłÅłÅłÅłÅłÅłÅłÅłÅłÅłÅł": 1239,
      "ÅļÅ¡": 1240,
      "ÅĶÅĻ": 1241,
      "ÅłÅ¢ÅŁ": 1242,
      "ÅłÅłÅłÅłÅłÅłÅłÅłÅłÅłÅłÅłÅłÅłÅłÅłÅłÅłÅłÅłÅłÅŁÅłÅłÅłÅłÅłÅłÅłÅłÅłÅ¢": 1243,
      "ÅłÅłÅłÅłÅłÅłÅłÅłÅłÅłÅłÅłÅłÅłÅłÅłÅłÅłÅłÅłÅłÅŀÅłÅłÅłÅłÅłÅłÅłÅłÅłÅ£": 1244,
      "ÅłÅłÅłÅłÅłÅłÅłÅłÅłÅłÅłÅłÅłÅłÅ¦": 1245,
      "Æ¦Åģ": 1246,
      "ÅłÅłÅ¡ÅłÅŁ": 1247,
      "Å¢Å¥": 1248,
      "ÅłÅłÅłÅłÅłÅłÅľ": 1249,
      "Äī": 1250,
      "Å¿ÆĭÅłÅłÅłÅłÅłÅłÅłÅłÅłÅłÅłÅł": 1251,
      "ÅłÅłÅłÅłÅłÅłÅłÅłÅłÅłÅłÅłÅłÅŁÅŁ": 1252,
      "ÅłÅłÅłÅłÅłÅłÅłÅłÅłÅłÅłÅłÅłÅłÅłÅłÅłÅłÅłÅłÅłÅłÅłÅłÅłÅłÅŁ": 1253,
      "ÅłÅłÅłÅłÅłÅłÅłÅłÅłÅłÅłÅłÅłÅłÅ¡Å¡": 1254,
      "Æ©": 1255,
      "Æª": 1256,
      "ÅŀÅĽ": 1257,
      "ÅłÅłÅłÅłÅłÅłÅłÅłÅłÅłÅłÅłÅłÅłÅłÅłÅłÅłÅłÅłÅłÅłÅłÅłÅłÅłÅłÅłÅłÅłÅłÅĿ": 1258,
      "ÅŁÅ¦": 1259,
      "ÅłÅłÅłÅłÅłÅłÅłÅĽ": 1260,
      "ÄĬÅĳ": 1261,
      "Æ«": 1262,
      "Æ´": 1263,
      "ÅĿÅľ": 1264,
      "Å§Å¡": 1265,
      "Ç«": 1266,
      "ÅŀÅ¡Å¡": 1267,
      "ÅłÅłÅłÅłÅłÅłÅłÅłÅłÅłÅłÅłÅłÅłÅłÅłÅłÅłÅłÅłÅłÅłÅłÅłÅłÅłÅ¡": 1268,
      "ÅłÅłÅłÅłÅłÅłÅłÅłÅłÅłÅłÅłÅłÅłÅłÅłÅłÅłÅłÅłÅłÅ¡ÅłÅłÅłÅłÅłÅłÅ¡ÅłÅłÅŁ": 1269,
      "ÅłÅłÅłÅłÅłÅłÅłÅłÅłÅłÅłÅłÅłÅłÅłÅłÅłÅłÅłÅłÅłÅłÅłÅłÅłÅ¡": 1270,
      "ÅłÅłÅłÅłÅłÅłÅłÅłÅłÅłÅłÅłÅ¡Å¡": 1271,
      "ÅŀÅłÅŁ": 1272,
      "Å£Åĺ": 1273,
      "Å¡ÅŁÅłÅłÅłÅ¡": 1274,
      "ÅłÅłÅłÅĿ": 1275,
      "ÅłÅłÅłÅłÅłÅłÅłÅłÅłÅłÅłÅłÅłÅłÅ¢ÅłÅłÅłÅłÅłÅłÅłÅłÅłÅ¢": 1276,
      "ÅĿÅ¥": 1277,
      "ÅłÅłÅłÅłÅłÅłÅłÅłÅłÅłÅłÅłÅłÅłÅłÅłÅłÅłÅłÅŀ": 1278,
      "ÅłÅłÅłÅłÅłÅłÅłÅłÅłÅłÅłÅłÅłÅłÅĽ": 1279,
      "ÅłÅłÅłÅłÅłÅłÅĮ": 1280,
      "ÅłÅłÅłÅłÅłÅłÅłÅłÅłÅłÅłÅłÅłÅłÅłÅłÅłÅłÅłÅłÅłÅłÅłÅłÅłÅłÅłÅłÅłÅłÅłÅŁÅłÅłÅłÅłÅłÅłÅłÅłÅłÅłÅłÅłÅłÅłÅłÅłÅłÅłÅłÅłÅłÅłÅłÅłÅłÅłÅłÅłÅłÅłÅłÅłÅłÅłÅłÅłÅłÅłÅłÅłÅłÅłÅłÅłÅłÅłÅłÅłÅłÅłÅłÅłÅłÅłÅłÅłÅłÅłÅłÅłÅłÅłÅłÅłÅłÅłÅłÅłÅłÅłÅłÅłÅłÅłÅłÅłÅłÅłÅłÅłÅłÅłÅłÅłÅłÅłÅłÅłÅłÅłÅłÅłÅłÅłÅłÅłÅłÅłÅłÅłÅłÅłÅłÅłÅłÅłÅłÅłÅłÅłÅłÅłÅłÅłÅłÅłÅłÅłÅłÅłÅłÅłÅłÅłÅłÅłÅłÅłÅłÅłÅłÅłÅłÅłÅłÅłÅłÅłÅłÅłÅłÅłÅłÅłÅłÅłÅłÅłÅłÅłÅłÅłÅłÅłÅłÅłÅłÅłÅłÅłÅłÅłÅłÅłÅłÅłÅłÅłÅłÅłÅłÅłÅłÅłÅłÅłÅłÅłÅłÅłÅłÅłÅłÅłÅłÅłÅłÅłÅłÅłÅłÅłÅłÅłÅłÅłÅłÅłÅłÅłÅłÅłÅłÅłÅłÅłÅłÅłÅłÅłÅłÅłÅłÅłÅłÅłÅłÅłÅłÅłÅłÅłÅłÅłÅłÅłÅłÅłÅłÅłÅłÅłÅłÅłÅłÅłÅłÅłÅłÅłÅłÅłÅłÅłÅłÅłÅłÅłÅłÅłÅłÅłÅłÅłÅłÅłÅłÅłÅłÅłÅłÅłÅłÅłÅłÅłÅłÅłÅłÅłÅłÅłÅłÅłÅłÅłÅłÅłÅłÅłÅłÅłÅłÅłÅłÅłÅłÅłÅłÅłÅłÅłÅłÅłÅłÅłÅłÅłÅłÅłÅłÅłÅłÅłÅłÅłÅłÅłÅłÅłÅłÅłÅłÅłÅłÅłÅłÅłÅłÅłÅłÅłÅłÅłÅłÅłÅłÅłÅłÅłÅłÅłÅłÅłÅłÅłÅłÅłÅłÅłÅłÅłÅłÅłÅłÅłÅłÅłÅłÅłÅłÅłÅłÅłÅłÅłÅłÅłÅłÅłÅłÅłÅłÅłÅłÅłÅłÅłÅłÅłÅłÅłÅłÅłÅłÅłÅłÅłÅłÅłÅłÅłÅłÅłÅłÅłÅłÅłÅłÅłÅłÅłÅłÅłÅłÅłÅłÅłÅłÅłÅłÅłÅłÅłÅłÅłÅłÅłÅłÅłÅłÅłÅłÅłÅłÅłÅłÅłÅłÅłÅłÅłÅłÅłÅłÅłÅłÅłÅłÅłÅłÅłÅłÅłÅłÅłÅłÅłÅłÅłÅłÅłÅłÅłÅłÅłÅłÅłÅłÅłÅłÅłÅłÅłÅłÅłÅłÅłÅłÅłÅłÅłÅłÅłÅłÅłÅłÅłÅłÅłÅłÅłÅłÅłÅłÅłÅłÅłÅłÅłÅłÅłÅłÅłÅłÅłÅłÅłÅłÅłÅłÅłÅłÅłÅłÅłÅłÅłÅłÅłÅłÅłÅłÅłÅłÅłÅłÅłÅłÅłÅłÅłÅłÅłÅłÅłÅłÅłÅłÅłÅłÅłÅłÅłÅłÅłÅłÅłÅłÅłÅłÅłÅłÅłÅłÅłÅłÅłÅłÅłÅłÅłÅłÅłÅłÅłÅłÅłÅłÅłÅłÅłÅłÅłÅłÅłÅłÅłÅłÅłÅłÅłÅłÅłÅłÅłÅłÅłÅłÅłÅłÅłÅłÅłÅłÅłÅłÅłÅłÅłÅłÅłÅłÅłÅłÅłÅłÅłÅłÅłÅłÅłÅłÅłÅłÅłÅłÅłÅłÅłÅłÅłÅłÅłÅłÅłÅłÅłÅłÅłÅłÅłÅłÅłÅłÅłÅłÅłÅłÅłÅłÅłÅłÅłÅłÅłÅłÅłÅłÅłÅłÅłÅłÅłÅłÅłÅłÅłÅłÅłÅłÅłÅłÅłÅłÅłÅłÅłÅłÅłÅłÅłÅłÅłÅłÅłÅłÅłÅłÅłÅłÅłÅłÅłÅłÅłÅłÅłÅłÅłÅłÅł": 1281,
      "ÅłÅłÅłÅłÅłÅłÅŁÅłÅłÅłÅłÅłÅłÅłÅłÅłÅŁ": 1282,
      "ÅłÅ¡ÅŁÅ¡": 1283,
      "Æ¨": 1284,
      "Å¨Æ¤Ä": 1285,
      "Å¤Å¢": 1286,
      "Æ¦ÅĤ": 1287,
      "ÅłÅłÅłÅłÅłÅłÅŁÅłÅłÅłÅłÅłÅłÅłÅłÅłÅłÅłÅłÅłÅłÅ¡ÅłÅłÅłÅłÅłÅłÅłÅłÅłÅ¡": 1288,
      "Å¡ÅŁÅŁ": 1289,
      "ÅŁÅłÅ¡Å¡": 1290,
      "ÅłÅłÅłÅłÅłÅłÅłÅłÅłÅłÅłÅłÅłÅłÅłÅłÅłÅłÅłÅłÅłÅłÅłÅłÅłÅŁ": 1291,
      "ÅłÅłÅ¦": 1292,
      "Æ¤ÅĽ": 1293,
      "ÆŃ": 1294,
      "Å£ÅĽ": 1295,
      "ÅłÅłÅłÅłÅłÅłÅłÅłÅłÅłÅłÅłÅłÅłÅłÅłÅłÅłÅłÅłÅŁÅ¡": 1296,
      "Å§Æ¤": 1297,
      "ÅłÅłÅłÅłÅłÅłÅłÅłÅłÅłÅłÅłÅłÅŁÅłÅłÅłÅłÅłÅłÅłÅłÅłÅŁ": 1298,
      "Å¤ÅŁ": 1299,
      "ÅłÅłÅ¡ÅłÅ¡": 1300,
      "ÅłÅłÅłÅ¡ÅŁ": 1301,
      "ÅľÅ¥": 1302,
      "ÅľÅŁ": 1303,
      "ÅłÅłÅłÅłÅłÅłÅłÅłÅłÅłÅłÅłÅłÅłÅ§": 1304,
      "ÅłÅłÅłÅłÅłÅłÅłÅłÅłÅłÅłÅłÅł": 1305,
      "Æ¦Ä¾": 1306,
      "ÅłÅłÅłÅłÅłÅłÅłÅłÅłÅłÅłÅłÅłÅłÅłÅłÅłÅłÅłÅłÅłÅŁÅłÅłÅłÅłÅłÅłÅłÅłÅłÅŁÅłÅłÅłÅłÅłÅłÅłÅłÅłÅłÅłÅłÅłÅłÅłÅłÅłÅłÅłÅłÅłÅŁÅłÅłÅłÅłÅłÅłÅłÅłÅłÅŁ": 1307,
      "ÅŁÅłÅ¡ÅłÅŁ": 1308,
      "Å¢ÅĻ": 1309,
      "Å¢Åļ": 1310,
      "ÅłÅłÅłÅłÅłÅłÅłÅłÅłÅłÅłÅłÅ¡ÅłÅłÅłÅłÅłÅłÅłÅłÅłÅ¡": 1311,
      "ÅłÅłÅłÅłÅłÅłÅłÅ¡ÅŁ": 1312,
      "ÅłÅłÅłÅłÅłÅłÅłÅłÅłÅłÅłÅłÅłÅĻ": 1313,
      "ÅłÅłÅłÅłÅłÅłÅ§": 1314,
      "Æ±": 1315,
      "ÅłÅłÅłÅłÅłÅłÅłÅ¡ÅłÅ": 1316,
      "Æ§": 1317,
      "ÅłÅ¡ÅłÅłÅłÅłÅ¡": 1318,
      "ÆĴÅ§ÄŃÆĪÅ¹ÆĸÆĭÅ«ÅŁ": 1319,
      "Æ°": 1320,
      "ÅłÅłÅłÅłÅłÅłÅ¡ÅłÅłÅłÅłÅłÅłÅłÅłÅłÅłÅłÅłÅłÅłÅ¡ÅłÅłÅłÅłÅłÅłÅłÅłÅłÅ¡": 1321,
      "Æ²": 1322,
      "ÅłÅłÅłÅłÅłÅłÅłÅ¡ÅłÅŁ": 1323,
      "ÅłÅłÅłÅłÅłÅłÅłÅ§": 1324,
      "Å¡Åľ": 1325,
      "ÅłÅłÅłÅłÅŀ": 1326,
      "ÅłÅłÅłÅłÅłÅłÅłÅłÅłÅłÅłÅłÅłÅłÅłÅłÅłÅłÅłÅłÅŁÅŁ": 1327,
      "ÅŀÅ¦": 1328,
      "ÅłÅłÅłÅłÅłÅłÅłÅłÅłÅłÅłÅłÅłÅłÅłÅłÅłÅłÅłÅłÅłÅłÅłÅłÅłÅłÅłÅłÅłÅłÅłÅ¡ÅłÅłÅłÅłÅłÅłÅłÅłÅłÅłÅłÅłÅłÅłÅłÅłÅłÅłÅłÅłÅłÅłÅłÅłÅłÅłÅłÅłÅłÅłÅłÅłÅłÅłÅłÅłÅłÅłÅłÅłÅłÅłÅłÅłÅłÅłÅłÅłÅłÅłÅłÅłÅłÅłÅłÅłÅłÅłÅłÅłÅłÅłÅłÅłÅłÅłÅłÅłÅłÅłÅłÅłÅłÅłÅłÅłÅłÅłÅłÅłÅłÅłÅłÅłÅłÅłÅłÅłÅłÅłÅłÅłÅłÅłÅłÅłÅłÅłÅłÅłÅłÅłÅłÅłÅłÅłÅłÅłÅłÅłÅłÅłÅłÅłÅłÅłÅłÅłÅłÅłÅłÅłÅłÅłÅłÅłÅłÅłÅłÅłÅłÅłÅłÅłÅłÅłÅłÅłÅłÅłÅłÅłÅłÅłÅłÅłÅłÅłÅłÅłÅłÅłÅłÅłÅłÅłÅłÅłÅłÅłÅłÅłÅłÅłÅłÅłÅłÅłÅłÅłÅłÅłÅłÅłÅłÅłÅłÅłÅłÅłÅłÅłÅłÅłÅłÅłÅłÅłÅłÅłÅłÅłÅłÅłÅłÅłÅłÅłÅłÅłÅłÅłÅłÅłÅłÅłÅłÅłÅłÅłÅłÅłÅłÅłÅłÅłÅłÅłÅłÅłÅłÅłÅłÅłÅłÅłÅłÅłÅłÅłÅłÅłÅłÅłÅłÅłÅłÅłÅłÅłÅłÅłÅłÅłÅłÅłÅłÅłÅłÅłÅłÅłÅłÅłÅłÅłÅłÅłÅłÅłÅłÅłÅłÅłÅłÅłÅłÅłÅłÅłÅłÅłÅłÅłÅłÅłÅłÅłÅłÅłÅłÅłÅłÅłÅłÅłÅłÅłÅłÅłÅłÅłÅłÅłÅłÅłÅłÅłÅłÅłÅłÅłÅłÅłÅłÅłÅłÅłÅłÅłÅłÅłÅłÅłÅłÅłÅłÅłÅłÅłÅłÅłÅłÅłÅłÅłÅłÅłÅłÅłÅłÅłÅłÅłÅłÅłÅłÅłÅłÅłÅłÅłÅłÅłÅłÅłÅłÅłÅłÅłÅłÅłÅłÅłÅłÅłÅłÅłÅłÅłÅłÅłÅłÅłÅłÅłÅłÅłÅłÅłÅłÅłÅłÅłÅłÅłÅłÅłÅłÅłÅłÅłÅłÅłÅłÅłÅłÅłÅłÅłÅłÅłÅłÅłÅłÅłÅłÅłÅłÅłÅłÅłÅłÅłÅłÅłÅłÅłÅłÅłÅłÅłÅłÅłÅłÅłÅłÅłÅłÅłÅłÅłÅłÅłÅłÅłÅłÅłÅłÅłÅłÅłÅłÅłÅłÅłÅłÅłÅłÅłÅłÅłÅłÅłÅłÅłÅłÅłÅłÅłÅłÅłÅłÅłÅłÅłÅłÅłÅłÅłÅłÅłÅłÅłÅłÅłÅłÅłÅłÅłÅłÅłÅłÅłÅłÅłÅłÅłÅłÅłÅłÅłÅłÅłÅłÅłÅłÅłÅłÅłÅłÅłÅłÅłÅłÅłÅłÅłÅłÅłÅłÅłÅłÅłÅłÅłÅłÅłÅłÅłÅłÅłÅłÅłÅłÅłÅłÅłÅłÅłÅłÅłÅłÅłÅłÅłÅłÅłÅłÅłÅłÅłÅłÅłÅłÅłÅłÅłÅłÅłÅłÅłÅłÅłÅłÅłÅłÅłÅłÅłÅłÅłÅłÅłÅłÅłÅłÅłÅłÅłÅłÅłÅłÅłÅłÅłÅłÅłÅłÅłÅłÅłÅłÅłÅłÅł": 1329,
      "ÅłÅłÅłÅłÅłÅłÅłÅłÅłÅłÅłÅłÅłÅłÅłÅłÅłÅłÅłÅłÅłÅłÅłÅłÅłÅłÅłÅłÅłÅłÅłÅŁÅłÅłÅłÅłÅłÅłÅłÅłÅłÅłÅłÅłÅłÅłÅłÅłÅłÅłÅłÅłÅłÅłÅłÅłÅłÅłÅłÅłÅłÅłÅłÅŁÅłÅłÅłÅłÅłÅłÅłÅłÅłÅłÅłÅłÅłÅłÅłÅłÅłÅłÅłÅłÅłÅłÅłÅłÅłÅłÅłÅłÅłÅłÅłÅŁÅłÅłÅłÅłÅłÅłÅłÅłÅłÅłÅłÅłÅłÅłÅłÅłÅłÅłÅłÅłÅłÅłÅłÅłÅłÅłÅłÅłÅłÅłÅłÅŁ": 1330,
      "ÅłÅłÅŁÅłÅłÅłÅłÅłÅłÅłÅłÅłÅłÅłÅłÅłÅłÅłÅł": 1331,
      "ÅłÅłÅłÅłÅłÅłÅłÅłÅłÅłÅłÅłÅłÅłÅłÅłÅłÅłÅłÅłÅłÅłÅłÅłÅłÅłÅłÅłÅłÅłÅłÅłÅłÅłÅłÅłÅłÅłÅłÅłÅłÅłÅłÅłÅłÅłÅłÅłÅłÅłÅłÅłÅłÅŁÅłÅłÅłÅłÅłÅłÅłÅłÅłÅŁ": 1332,
      "ÅłÅłÅłÅłÅłÅłÅłÅłÅłÅłÅłÅłÅłÅłÅłÅłÅłÅłÅłÅłÅłÅłÅłÅłÅłÅłÅłÅłÅłÅłÅłÅŁÅłÅłÅłÅłÅłÅłÅłÅłÅłÅłÅłÅłÅłÅłÅłÅłÅłÅłÅłÅłÅłÅłÅłÅłÅłÅłÅłÅłÅłÅłÅłÅłÅłÅłÅłÅłÅłÅłÅłÅłÅłÅłÅłÅłÅłÅłÅłÅłÅłÅłÅłÅłÅłÅłÅłÅłÅłÅłÅłÅłÅłÅłÅłÅłÅłÅłÅłÅłÅłÅłÅłÅłÅłÅłÅłÅłÅłÅłÅłÅłÅłÅłÅłÅłÅłÅłÅłÅłÅłÅłÅłÅłÅłÅłÅłÅłÅłÅłÅłÅłÅłÅłÅłÅłÅłÅłÅłÅłÅłÅłÅłÅłÅłÅłÅłÅłÅłÅłÅłÅłÅłÅłÅłÅłÅłÅłÅłÅłÅłÅłÅłÅłÅłÅłÅłÅłÅłÅłÅłÅłÅłÅłÅłÅłÅłÅłÅłÅłÅłÅłÅłÅłÅłÅłÅłÅłÅłÅłÅłÅłÅłÅłÅłÅłÅłÅłÅłÅłÅłÅłÅłÅłÅłÅłÅłÅłÅłÅłÅłÅłÅłÅłÅłÅłÅłÅłÅłÅłÅłÅłÅłÅłÅłÅłÅłÅłÅłÅłÅłÅłÅłÅłÅłÅłÅłÅłÅłÅłÅłÅłÅłÅłÅłÅłÅłÅłÅłÅłÅłÅłÅłÅłÅłÅłÅłÅłÅłÅłÅłÅłÅłÅłÅłÅłÅłÅłÅłÅłÅłÅłÅłÅłÅłÅłÅłÅłÅłÅłÅłÅłÅłÅłÅłÅłÅłÅłÅłÅłÅłÅłÅłÅłÅłÅłÅłÅłÅłÅłÅłÅłÅłÅłÅłÅłÅłÅłÅłÅłÅłÅłÅłÅłÅłÅłÅłÅłÅłÅłÅłÅłÅłÅłÅłÅłÅłÅłÅłÅłÅłÅłÅłÅłÅłÅłÅłÅłÅłÅłÅłÅłÅłÅłÅłÅłÅłÅłÅłÅłÅłÅłÅłÅłÅłÅłÅłÅłÅłÅłÅłÅłÅłÅłÅłÅłÅłÅłÅłÅłÅłÅłÅłÅłÅłÅłÅłÅłÅłÅłÅłÅłÅłÅłÅłÅłÅłÅłÅłÅłÅłÅłÅłÅłÅłÅłÅłÅłÅłÅłÅłÅłÅłÅłÅłÅłÅłÅłÅłÅłÅłÅłÅłÅłÅłÅłÅłÅłÅłÅłÅłÅłÅłÅłÅłÅłÅłÅłÅłÅłÅłÅłÅłÅłÅłÅłÅłÅłÅłÅłÅłÅłÅłÅłÅłÅłÅłÅłÅłÅłÅłÅłÅłÅłÅłÅłÅłÅłÅłÅłÅłÅłÅłÅłÅłÅłÅłÅłÅłÅłÅłÅłÅłÅłÅłÅłÅłÅłÅłÅłÅłÅłÅłÅłÅłÅłÅłÅłÅłÅłÅłÅłÅłÅłÅłÅłÅłÅłÅłÅłÅłÅłÅłÅłÅłÅłÅłÅłÅłÅłÅłÅłÅłÅłÅłÅłÅłÅłÅłÅłÅłÅłÅłÅłÅłÅłÅłÅłÅłÅłÅłÅłÅłÅłÅłÅłÅłÅłÅłÅłÅłÅłÅłÅłÅłÅłÅłÅłÅłÅłÅłÅłÅłÅłÅłÅłÅłÅłÅłÅłÅłÅłÅłÅłÅłÅłÅłÅłÅłÅłÅłÅłÅłÅłÅłÅłÅłÅłÅłÅłÅłÅłÅłÅłÅłÅłÅłÅłÅłÅłÅłÅłÅłÅłÅłÅłÅłÅłÅłÅłÅłÅłÅłÅłÅłÅłÅłÅłÅłÅłÅłÅłÅłÅłÅłÅłÅłÅłÅłÅłÅłÅłÅłÅłÅłÅłÅłÅłÅłÅłÅłÅłÅłÅłÅłÅłÅłÅłÅłÅłÅłÅłÅłÅłÅłÅłÅłÅłÅłÅłÅłÅłÅłÅłÅłÅłÅłÅłÅłÅłÅłÅłÅłÅłÅłÅłÅłÅłÅłÅłÅłÅłÅłÅłÅłÅłÅłÅłÅłÅłÅłÅłÅłÅłÅłÅłÅłÅłÅłÅłÅłÅłÅłÅłÅłÅłÅłÅłÅłÅłÅłÅłÅłÅłÅłÅłÅłÅłÅłÅłÅłÅłÅłÅłÅłÅłÅłÅłÅłÅłÅłÅłÅłÅłÅłÅłÅłÅłÅłÅłÅłÅłÅłÅłÅłÅł": 1333,
      "ÅłÅłÅŁÅłÅŁ": 1334,
      "Å£Åķ": 1335,
      "ÅłÅłÅłÅłÅłÅłÅłÅłÅłÅłÅłÅłÅłÅłÅłÅłÅłÅłÅłÅłÅłÅ¡ÅłÅłÅłÅłÅłÅłÅłÅłÅłÅŀ": 1336,
      "ÅłÅłÅłÅłÅłÅłÅłÅłÅłÅłÅłÅłÅłÅłÅłÅłÅłÅłÅłÅłÅłÅľ": 1337,
      "ÅłÅłÅłÅłÅłÅłÅłÅłÅłÅłÅłÅłÅłÅłÅłÅłÅłÅłÅłÅłÅłÅłÅłÅłÅłÅłÅłÅłÅłÅłÅłÅ¡ÅłÅłÅłÅłÅłÅłÅłÅłÅłÅłÅłÅłÅłÅłÅłÅłÅłÅłÅłÅłÅłÅłÅłÅłÅłÅłÅłÅłÅłÅłÅłÅłÅłÅłÅłÅłÅłÅłÅłÅłÅłÅłÅłÅłÅłÅłÅłÅłÅłÅłÅłÅłÅłÅłÅłÅłÅłÅłÅłÅłÅłÅłÅłÅłÅłÅłÅłÅłÅłÅłÅłÅłÅłÅłÅłÅłÅłÅłÅłÅłÅłÅłÅłÅłÅłÅłÅłÅłÅłÅłÅłÅłÅłÅłÅłÅłÅłÅłÅłÅłÅłÅłÅłÅłÅłÅłÅłÅłÅłÅłÅłÅłÅłÅłÅłÅłÅłÅłÅłÅłÅłÅłÅłÅłÅłÅłÅłÅłÅłÅłÅłÅłÅłÅłÅłÅłÅłÅłÅłÅłÅłÅłÅłÅłÅłÅłÅłÅłÅłÅłÅłÅłÅłÅłÅłÅłÅłÅłÅłÅłÅłÅłÅłÅłÅłÅłÅłÅłÅłÅłÅłÅłÅłÅłÅłÅłÅłÅłÅłÅłÅłÅłÅłÅłÅłÅłÅłÅłÅłÅłÅłÅłÅłÅłÅłÅłÅłÅłÅłÅłÅłÅłÅłÅłÅłÅłÅłÅłÅłÅłÅłÅłÅłÅłÅłÅłÅłÅłÅłÅłÅłÅłÅłÅłÅłÅłÅłÅłÅłÅłÅłÅłÅłÅłÅłÅłÅłÅłÅłÅłÅłÅłÅłÅłÅłÅłÅłÅłÅłÅłÅłÅłÅłÅłÅłÅłÅłÅłÅłÅłÅłÅłÅłÅłÅłÅłÅłÅłÅłÅłÅłÅłÅłÅłÅłÅłÅłÅłÅłÅłÅłÅłÅłÅłÅłÅłÅłÅłÅłÅłÅłÅłÅłÅłÅłÅłÅłÅłÅłÅłÅłÅłÅłÅłÅłÅłÅłÅłÅłÅłÅłÅłÅłÅłÅłÅłÅłÅłÅłÅłÅłÅłÅłÅłÅłÅłÅłÅłÅłÅłÅłÅłÅłÅłÅłÅłÅłÅłÅłÅłÅłÅłÅłÅłÅłÅłÅłÅłÅłÅłÅłÅłÅłÅłÅłÅłÅłÅłÅłÅłÅłÅłÅłÅłÅłÅłÅłÅłÅłÅłÅłÅłÅłÅłÅłÅłÅłÅłÅłÅłÅłÅłÅłÅłÅłÅłÅłÅłÅłÅłÅłÅłÅłÅłÅłÅłÅłÅłÅłÅłÅłÅłÅłÅłÅłÅłÅłÅłÅłÅłÅłÅłÅłÅłÅłÅłÅłÅłÅłÅłÅłÅłÅłÅłÅłÅłÅłÅłÅłÅłÅłÅłÅłÅłÅłÅłÅłÅłÅłÅłÅłÅłÅłÅłÅłÅłÅłÅłÅłÅłÅłÅłÅłÅłÅłÅłÅłÅłÅłÅłÅłÅłÅłÅłÅłÅłÅłÅłÅłÅłÅłÅłÅłÅłÅłÅłÅłÅłÅłÅłÅłÅłÅłÅłÅłÅłÅłÅłÅłÅłÅłÅłÅłÅłÅłÅłÅłÅłÅłÅłÅłÅłÅłÅłÅłÅłÅłÅłÅłÅłÅłÅłÅłÅłÅłÅłÅłÅłÅłÅłÅłÅłÅłÅłÅłÅłÅłÅłÅłÅłÅłÅłÅłÅłÅłÅłÅłÅłÅłÅłÅłÅłÅłÅłÅłÅłÅłÅłÅłÅłÅłÅłÅłÅłÅłÅłÅłÅłÅłÅłÅłÅłÅłÅłÅłÅłÅłÅłÅłÅłÅłÅłÅłÅłÅłÅłÅłÅłÅłÅłÅłÅłÅłÅłÅłÅłÅłÅłÅłÅłÅłÅłÅłÅłÅłÅłÅłÅłÅłÅłÅłÅłÅłÅłÅłÅłÅłÅłÅłÅłÅłÅłÅłÅłÅłÅłÅłÅłÅłÅłÅłÅłÅłÅłÅłÅłÅłÅłÅłÅłÅłÅłÅłÅłÅłÅłÅłÅłÅłÅłÅłÅłÅłÅłÅłÅłÅłÅłÅłÅłÅłÅł": 1338,
      "ÅłÅłÅ¡ÅłÅłÅłÅłÅ¡": 1339,
      "ÅłÅŁÅłÅłÅłÅłÅłÅłÅłÅŁ": 1340,
      "Æ³": 1341,
      "ÅĻÅ¡": 1342,
      "Å¤ÅĽ": 1343,
      "ÅłÅłÅłÅłÅłÅłÅłÅłÅłÅłÅłÅłÅłÅłÅĿÅłÅłÅłÅłÅłÅłÅłÅłÅłÅľ": 1344,
      "ÅłÅłÅłÅłÅłÅłÅł": 1345,
      "ÅłÅ¡ÅŁÅŁ": 1346,
      "ÅłÅ¯": 1347,
      "Å¢Åķ": 1348,
      "ÅłÅłÅłÅłÅłÅłÅłÅłÅłÅłÅłÅłÅłÅ§": 1349,
      "ÄĢÄĳÅłÅłÅłÅłÅłÅłÅłÅłÅłÅłÅłÅł": 1350,
      "Å¡Åĸ": 1351,
      "ÅŁÅ¡ÅłÅłÅłÅ¡": 1352,
      "ÄĺÄĳ": 1353,
      "ÅłÅłÅłÅłÅłÅłÅłÅłÅłÅłÅłÅłÅłÅłÅłÅłÅłÅłÅłÅłÅłÅłÅłÅłÅłÅłÅłÅłÅłÅłÅłÅ¡ÅłÅłÅłÅłÅłÅłÅłÅłÅłÅłÅłÅłÅłÅłÅłÅłÅłÅłÅłÅłÅłÅłÅłÅłÅłÅłÅłÅłÅłÅłÅłÅłÅłÅłÅłÅłÅłÅłÅłÅłÅłÅłÅłÅłÅłÅłÅłÅłÅłÅłÅłÅłÅłÅłÅłÅłÅłÅłÅłÅłÅłÅłÅłÅł": 1354,
      "ÅłÅłÅłÅłÅłÅłÅłÅłÅłÅłÅłÅłÅłÅłÅļ": 1355,
      "Å¤Å£": 1356,
      "ÅłÅŁÅ¢": 1357,
      "ÅłÅłÅłÅłÅ¢": 1358,
      "ÅłÅłÅłÅłÅłÅłÅłÅłÅłÅłÅłÅłÅłÅłÅłÅłÅłÅłÅłÅłÅłÅłÅłÅłÅłÅłÅłÅłÅłÅłÅłÅłÅłÅłÅłÅłÅłÅłÅłÅłÅłÅłÅłÅłÅłÅłÅłÅłÅłÅłÅłÅłÅłÅłÅłÅłÅłÅłÅłÅłÅłÅłÅłÅłÅłÅłÅłÅłÅłÅłÅłÅłÅłÅłÅłÅłÅłÅłÅłÅłÅłÅłÅłÅłÅłÅłÅłÅłÅłÅłÅłÅłÅłÅłÅłÅłÅłÅłÅłÅłÅłÅłÅłÅłÅłÅłÅłÅłÅłÅłÅłÅłÅłÅłÅłÅłÅłÅłÅłÅłÅłÅłÅłÅłÅłÅłÅłÅłÅłÅłÅłÅłÅłÅłÅłÅłÅłÅłÅłÅłÅłÅłÅłÅłÅłÅłÅłÅłÅłÅłÅłÅłÅłÅłÅłÅłÅłÅłÅłÅłÅłÅłÅłÅłÅłÅłÅłÅłÅłÅłÅłÅłÅłÅłÅłÅłÅłÅłÅłÅłÅłÅłÅłÅłÅłÅłÅłÅłÅłÅłÅłÅłÅłÅłÅłÅłÅłÅłÅłÅłÅłÅłÅłÅłÅłÅłÅłÅłÅłÅłÅłÅłÅłÅłÅłÅłÅłÅłÅłÅłÅłÅłÅłÅłÅłÅłÅłÅłÅłÅłÅłÅłÅłÅłÅłÅłÅłÅłÅłÅłÅłÅłÅłÅłÅłÅłÅłÅłÅłÅłÅłÅłÅłÅłÅłÅłÅłÅłÅłÅłÅłÅłÅłÅłÅłÅłÅłÅłÅłÅłÅłÅłÅłÅłÅłÅłÅłÅłÅłÅłÅłÅłÅłÅłÅłÅłÅłÅłÅłÅłÅłÅłÅłÅłÅłÅłÅłÅłÅłÅłÅłÅłÅłÅłÅłÅłÅłÅłÅłÅłÅłÅłÅłÅłÅłÅłÅłÅłÅłÅłÅłÅłÅłÅłÅłÅłÅłÅłÅłÅłÅłÅłÅłÅłÅłÅłÅłÅłÅłÅłÅłÅłÅłÅłÅłÅłÅłÅłÅłÅłÅłÅłÅłÅłÅłÅłÅłÅłÅłÅłÅłÅłÅłÅłÅłÅłÅłÅłÅłÅłÅłÅłÅłÅłÅłÅłÅłÅłÅłÅłÅłÅłÅłÅłÅłÅłÅłÅłÅłÅłÅłÅłÅłÅłÅłÅłÅłÅłÅłÅłÅłÅłÅłÅłÅłÅłÅłÅłÅłÅłÅłÅłÅłÅłÅłÅłÅłÅłÅłÅłÅłÅłÅłÅłÅłÅłÅłÅłÅłÅłÅłÅłÅłÅłÅłÅłÅłÅłÅłÅłÅłÅłÅłÅłÅłÅłÅłÅłÅłÅłÅłÅłÅłÅłÅłÅłÅłÅłÅłÅłÅłÅłÅłÅłÅłÅłÅłÅłÅłÅłÅłÅłÅłÅłÅłÅłÅłÅłÅłÅłÅłÅłÅłÅłÅłÅłÅłÅłÅłÅłÅłÅłÅłÅłÅłÅłÅłÅłÅłÅłÅłÅłÅłÅłÅłÅłÅłÅłÅłÅłÅłÅłÅłÅłÅłÅłÅłÅłÅłÅłÅłÅłÅłÅłÅłÅłÅłÅłÅłÅłÅłÅłÅłÅłÅłÅłÅłÅłÅłÅłÅłÅłÅłÅłÅłÅłÅłÅłÅłÅłÅłÅłÅłÅłÅłÅłÅłÅłÅłÅłÅłÅłÅłÅłÅłÅłÅłÅłÅłÅłÅłÅłÅłÅłÅłÅłÅłÅłÅłÅłÅłÅłÅłÅłÅłÅłÅłÅłÅłÅłÅłÅłÅłÅłÅłÅłÅłÅłÅłÅłÅłÅłÅłÅłÅłÅłÅłÅłÅłÅłÅłÅłÅłÅłÅłÅłÅłÅłÅłÅłÅłÅłÅłÅłÅłÅłÅłÅłÅłÅłÅłÅłÅłÅłÅłÅłÅłÅłÅłÅłÅłÅłÅłÅłÅłÅłÅłÅłÅłÅłÅłÅł": 1359,
      "ÅłÅĳ": 1360,
      "ÅĿÅĽ": 1361,
      "ÅłÅłÅłÅłÅłÅłÅłÅłÅłÅłÅłÅłÅłÅłÅłÅłÅłÅłÅłÅłÅłÅłÅłÅłÅłÅłÅłÅłÅłÅłÅłÅłÅłÅłÅłÅłÅłÅłÅłÅłÅłÅłÅłÅłÅłÅłÅłÅłÅłÅłÅłÅłÅłÅłÅłÅłÅłÅłÅłÅłÅłÅłÅłÅłÅłÅłÅłÅłÅłÅłÅłÅłÅłÅłÅłÅłÅłÅłÅłÅłÅłÅłÅłÅłÅłÅłÅłÅłÅłÅłÅłÅłÅłÅłÅłÅłÅłÅłÅłÅłÅłÅłÅłÅłÅłÅłÅłÅłÅłÅłÅłÅłÅłÅłÅł": 1362,
      "ÅłÅłÅłÅłÅŁÅŁ": 1363,
      "ÅĿÅ¦": 1364,
      "Å¡Å¡ÅłÅłÅłÅ¡": 1365,
      "ÄĤ": 1366,
      "ÅłÅŁÅ¡ÅŁ": 1367,
      "Äħ": 1368,
      "ÅłÅĵ": 1369,
      "Å¡Åĺ": 1370,
      "ÅŁÅļ": 1371,
      "ÆĴÅ§ÄŃÆĪÅ¹ÆĸÆĭÅ«ÅŁÅ¡": 1372,
      "ÅŀÅļ": 1373,
      "Å£Å¥": 1374,
      "ÅŀÅłÅ¢": 1375,
      "ÅłÅĴ": 1376,
      "ÅłÅłÅłÅłÅłÅłÅłÅłÅłÅłÅłÅłÅłÅłÅłÅłÅłÅłÅłÅłÅłÅ¢ÅłÅłÅłÅłÅłÅłÅłÅłÅłÅ¢": 1377,
      "ÅłÅłÅłÅłÅłÅłÅłÅłÅłÅłÅłÅłÅłÅłÅłÅłÅłÅłÅłÅłÅłÅłÅłÅłÅłÅłÅłÅłÅłÅłÅŁ": 1378,
      "ÅłÅłÅłÅłÅłÅłÅłÅłÅłÅłÅłÅłÅłÅłÅłÅłÅłÅłÅłÅłÅłÅłÅłÅłÅłÅłÅłÅłÅłÅłÅłÅłÅłÅłÅłÅłÅłÅłÅłÅłÅłÅłÅłÅłÅłÅłÅłÅłÅłÅłÅłÅłÅłÅłÅłÅłÅłÅłÅłÅłÅłÅłÅłÅłÅłÅłÅłÅłÅłÅłÅłÅłÅłÅłÅłÅłÅłÅłÅłÅłÅłÅłÅłÅłÅłÅłÅłÅłÅłÅłÅłÅłÅłÅłÅłÅłÅłÅłÅłÅłÅłÅłÅłÅłÅłÅłÅłÅłÅłÅłÅłÅłÅłÅłÅłÅłÅłÅłÅłÅłÅłÅłÅłÅłÅłÅłÅłÅłÅłÅłÅłÅłÅłÅłÅłÅłÅłÅłÅłÅłÅłÅłÅłÅłÅłÅłÅłÅłÅłÅłÅłÅłÅłÅłÅłÅłÅłÅłÅłÅłÅłÅłÅłÅłÅłÅłÅłÅłÅłÅłÅłÅłÅłÅłÅłÅłÅłÅłÅłÅłÅłÅłÅłÅłÅłÅłÅłÅłÅłÅłÅłÅłÅłÅłÅłÅłÅłÅłÅłÅłÅłÅłÅłÅłÅłÅłÅłÅłÅłÅłÅłÅłÅłÅłÅłÅłÅłÅłÅłÅłÅłÅłÅłÅłÅłÅłÅłÅłÅłÅłÅłÅłÅłÅłÅłÅłÅłÅłÅłÅłÅłÅłÅłÅłÅłÅłÅłÅłÅłÅłÅłÅłÅłÅłÅłÅłÅłÅłÅłÅłÅłÅłÅłÅłÅłÅłÅłÅłÅłÅłÅłÅłÅłÅłÅłÅłÅłÅłÅłÅłÅłÅłÅłÅłÅłÅłÅłÅłÅłÅłÅłÅłÅłÅłÅłÅłÅłÅłÅłÅłÅłÅłÅłÅłÅłÅłÅłÅłÅłÅłÅłÅłÅłÅłÅłÅłÅłÅłÅłÅłÅłÅłÅłÅłÅłÅłÅłÅłÅłÅłÅłÅłÅłÅłÅłÅłÅłÅłÅłÅłÅłÅłÅłÅłÅłÅłÅłÅłÅłÅłÅłÅłÅłÅłÅłÅłÅłÅłÅłÅłÅłÅłÅłÅłÅłÅłÅłÅłÅłÅłÅłÅłÅłÅłÅłÅłÅłÅłÅłÅłÅłÅłÅłÅłÅłÅłÅłÅłÅłÅłÅłÅłÅłÅłÅłÅłÅłÅłÅłÅłÅłÅłÅłÅłÅłÅłÅłÅłÅłÅłÅłÅłÅłÅłÅłÅłÅłÅłÅłÅłÅłÅłÅłÅłÅłÅłÅłÅłÅłÅłÅłÅłÅłÅłÅłÅłÅłÅłÅłÅłÅłÅłÅłÅłÅłÅłÅłÅłÅłÅłÅłÅłÅłÅłÅłÅłÅłÅłÅłÅłÅłÅłÅłÅłÅłÅłÅłÅłÅłÅłÅłÅłÅłÅłÅłÅłÅłÅłÅłÅłÅłÅłÅłÅłÅłÅłÅłÅłÅłÅłÅłÅłÅłÅłÅłÅłÅłÅłÅłÅłÅłÅłÅłÅłÅłÅłÅłÅłÅłÅłÅłÅłÅłÅłÅłÅłÅłÅłÅłÅłÅłÅłÅłÅłÅłÅłÅłÅłÅłÅłÅłÅłÅłÅłÅłÅłÅłÅłÅłÅłÅłÅłÅłÅłÅłÅłÅłÅłÅłÅłÅłÅłÅłÅłÅłÅłÅłÅłÅłÅłÅłÅłÅłÅłÅłÅłÅłÅłÅłÅłÅłÅłÅłÅłÅłÅłÅłÅłÅłÅłÅłÅłÅłÅłÅłÅłÅłÅłÅłÅłÅłÅłÅłÅłÅłÅłÅłÅłÅłÅłÅłÅłÅłÅłÅłÅłÅłÅłÅłÅłÅłÅłÅłÅłÅłÅłÅłÅłÅłÅłÅłÅłÅłÅłÅłÅłÅłÅłÅłÅłÅłÅłÅłÅłÅłÅłÅłÅłÅłÅłÅłÅłÅłÅłÅłÅłÅłÅłÅłÅłÅłÅłÅłÅłÅłÅłÅłÅłÅłÅłÅłÅłÅłÅłÅłÅłÅłÅłÅłÅłÅłÅłÅłÅłÅłÅłÅłÅłÅłÅłÅłÅłÅłÅłÅłÅłÅłÅłÅłÅłÅł": 1379,
      "ÅłÅłÅłÅłÅłÅłÅłÅłÅłÅļ": 1380,
      "Å¨Æ¤Äĩ": 1381,
      "Å£Åļ": 1382,
      "ÅĺÇĵ": 1383,
      "ÅłÅłÅłÅłÅłÅłÅłÅłÅłÅłÅłÅłÅłÅłÅ¤ÅłÅłÅłÅłÅłÅłÅłÅłÅłÅ¦": 1384,
      "ÅłÅłÅłÅłÅłÅłÅłÅłÅłÅłÅłÅłÅłÅłÅłÅłÅłÅłÅłÅŁÅ¡": 1385,
      "ÆĸÄĳ": 1386,
      "Å¡Å¤": 1387,
      "ÅłÅŀÅŁ": 1388,
      "Æ¤ÅļÄĮ": 1389,
      "ÅłÅłÅłÅłÅłÅłÅłÅ¨": 1390,
      "ÅłÅłÅłÅłÅłÅłÅłÅłÅłÅłÅłÅłÅłÅ¡ÅŁ": 1391,
      "ÅłÅłÅłÅłÅłÅłÅłÅłÅłÅ©": 1392,
      "Æ¯": 1393,
      "Å¥ÅĽ": 1394,
      "Æ¬": 1395,
      "Å¤ÅĹ": 1396,
      "ÅłÅłÅłÅłÅłÅłÅ¦": 1397,
      "Å¡ÅłÅŁ": 1398,
      "Å¥ÆĶ": 1399,
      "Æ¤Åĸ": 1400,
      "ÄĦ": 1401,
      "Å¡ÅĹ": 1402,
      "ÅłÅłÅłÅłÅłÅłÅłÅłÅłÅłÅłÅłÅłÅłÅłÅłÅłÅłÅłÅłÅłÅŁÅłÅłÅłÅłÅłÅłÅ¡": 1403,
      "ÅłÅ±": 1404,
      "ÅłÅ°": 1405,
      "ÅłÅ¡Å¡ÅŁ": 1406,
      "ÄĨ": 1407,
      "ÅłÅłÅłÅłÅłÅłÅłÅłÅłÅłÅłÅłÅłÅłÅłÅŁÅ¡": 1408,
      "ÅłÅłÅłÅłÅłÅŁÅ¡": 1409,
      "Äĥ": 1410,
      "ÅłÅłÅłÅłÅłÅłÅĻ": 1411,
      "ÅłÅłÅłÅłÅłÅłÅłÅ©": 1412,
      "Å¤Å¤": 1413,
      "ÅłÅłÅłÅłÅłÅłÅłÅłÅłÅ¨": 1414,
      "ÅłÅłÅłÅłÅłÅłÅłÅłÅłÅłÅłÅłÅłÅłÅłÅłÅłÅłÅłÅłÅłÅŁÅłÅłÅłÅłÅłÅłÅŁ": 1415,
      "ÅłÅ¢Å¢": 1416,
      "ÅłÅłÅłÅłÅłÅłÅłÅłÅłÅłÅłÅłÅłÅłÅłÅłÅłÅłÅłÅłÅłÅłÅłÅłÅłÅłÅłÅłÅłÅłÅłÅłÅłÅłÅłÅłÅłÅłÅłÅłÅłÅłÅłÅłÅłÅłÅłÅłÅłÅłÅłÅłÅłÅłÅłÅłÅłÅłÅłÅłÅłÅłÅłÅłÅłÅłÅłÅłÅłÅłÅłÅłÅłÅłÅłÅłÅłÅłÅłÅłÅłÅłÅłÅłÅłÅłÅłÅłÅłÅłÅłÅłÅłÅłÅłÅłÅłÅłÅłÅłÅłÅłÅłÅłÅłÅłÅłÅłÅłÅłÅłÅłÅłÅłÅłÅłÅłÅłÅłÅłÅłÅłÅłÅłÅłÅłÅłÅłÅłÅłÅłÅłÅłÅłÅłÅłÅłÅłÅłÅłÅłÅłÅłÅłÅłÅłÅłÅłÅłÅłÅłÅłÅłÅłÅłÅłÅłÅłÅłÅłÅłÅłÅłÅłÅłÅłÅłÅłÅłÅłÅłÅłÅłÅłÅłÅłÅłÅłÅłÅłÅłÅłÅłÅłÅłÅłÅłÅłÅłÅłÅłÅłÅłÅłÅłÅłÅłÅłÅłÅłÅłÅłÅłÅłÅłÅłÅłÅłÅłÅłÅłÅłÅłÅłÅłÅłÅłÅłÅłÅłÅłÅłÅłÅłÅłÅłÅłÅłÅłÅłÅłÅłÅłÅłÅłÅłÅłÅłÅłÅłÅłÅłÅłÅłÅłÅłÅłÅłÅłÅłÅłÅłÅłÅłÅłÅłÅłÅłÅłÅłÅłÅłÅłÅłÅłÅłÅłÅłÅłÅłÅłÅłÅłÅłÅłÅłÅłÅłÅłÅłÅłÅłÅłÅłÅłÅłÅłÅłÅłÅłÅłÅłÅłÅłÅłÅłÅłÅłÅłÅłÅłÅłÅłÅłÅłÅłÅłÅłÅłÅłÅłÅłÅłÅłÅłÅłÅłÅłÅłÅłÅłÅłÅłÅłÅłÅłÅłÅłÅłÅłÅłÅłÅłÅłÅłÅłÅłÅłÅłÅłÅłÅłÅłÅłÅłÅłÅłÅłÅłÅłÅłÅłÅłÅłÅłÅłÅłÅłÅłÅłÅłÅłÅłÅłÅłÅłÅłÅłÅłÅłÅłÅłÅłÅłÅłÅłÅłÅłÅłÅłÅłÅłÅłÅłÅłÅłÅłÅłÅłÅłÅłÅłÅłÅłÅłÅłÅłÅłÅłÅłÅłÅłÅłÅłÅłÅłÅłÅłÅłÅłÅłÅłÅłÅłÅłÅłÅłÅłÅłÅłÅłÅłÅłÅłÅłÅłÅłÅłÅłÅłÅłÅłÅłÅłÅłÅłÅłÅłÅłÅłÅłÅłÅłÅłÅłÅłÅłÅłÅłÅłÅłÅłÅłÅłÅłÅłÅłÅłÅłÅłÅłÅłÅłÅłÅłÅłÅłÅłÅłÅłÅłÅłÅłÅłÅłÅłÅłÅłÅłÅłÅłÅłÅłÅłÅłÅłÅłÅłÅłÅłÅłÅłÅłÅłÅłÅłÅłÅłÅłÅłÅłÅłÅłÅłÅłÅłÅłÅłÅłÅłÅłÅłÅłÅłÅłÅłÅłÅłÅłÅłÅłÅłÅłÅłÅłÅłÅłÅłÅłÅłÅłÅłÅłÅłÅłÅłÅłÅłÅłÅłÅłÅłÅłÅłÅłÅłÅłÅłÅłÅłÅłÅłÅłÅłÅłÅłÅłÅłÅłÅłÅłÅłÅłÅłÅłÅłÅłÅłÅłÅłÅłÅłÅłÅłÅłÅłÅłÅłÅłÅłÅłÅłÅłÅłÅłÅłÅłÅłÅłÅłÅłÅłÅłÅłÅłÅłÅłÅłÅłÅłÅłÅłÅłÅłÅłÅłÅłÅłÅłÅłÅłÅłÅłÅłÅłÅłÅłÅłÅłÅłÅłÅłÅłÅłÅłÅłÅłÅłÅłÅłÅłÅłÅłÅłÅłÅłÅłÅłÅłÅłÅłÅłÅłÅłÅłÅłÅłÅłÅłÅłÅłÅłÅłÅłÅłÅłÅłÅłÅłÅłÅłÅłÅłÅłÅłÅłÅłÅłÅłÅłÅłÅłÅłÅłÅłÅłÅłÅłÅłÅłÅłÅłÅłÅłÅłÅłÅłÅłÅłÅłÅłÅłÅłÅłÅłÅłÅłÅłÅłÅłÅłÅłÅłÅłÅłÅłÅłÅłÅłÅłÅłÅłÅłÅłÅłÅłÅłÅłÅłÅłÅłÅłÅł": 1417,
      "ÅłÅłÅłÅłÅłÅłÅłÅłÅłÅłÅłÅłÅłÅłÅłÅłÅłÅłÅłÅłÅłÅłÅłÅłÅłÅłÅłÅłÅłÅłÅ¡": 1418,
      "ÅłÅłÅĻ": 1419,
      "ÅłÅłÅłÅłÅłÅłÅłÅŁÅłÅ¡": 1420,
      "Å»ÆĭÅłÅłÅłÅłÅłÅłÅłÅłÅłÅłÅłÅł": 1421,
      "ÅŀÅŁÅ¡": 1422,
      "ÅłÅłÅłÅłÅłÅłÅłÅłÅłÅłÅłÅłÅłÅłÅłÅłÅłÅłÅłÅłÅłÅłÅłÅłÅłÅłÅłÅłÅłÅłÅłÅłÅłÅłÅłÅłÅłÅłÅłÅłÅłÅłÅłÅłÅłÅłÅłÅłÅłÅłÅłÅłÅłÅłÅłÅłÅłÅłÅłÅłÅłÅłÅłÅłÅłÅłÅłÅłÅłÅłÅłÅłÅłÅłÅłÅłÅłÅłÅłÅłÅłÅłÅłÅłÅłÅłÅłÅłÅłÅłÅłÅłÅłÅłÅłÅłÅłÅłÅłÅłÅłÅłÅłÅłÅłÅłÅłÅłÅłÅłÅłÅłÅłÅłÅłÅłÅłÅłÅłÅłÅłÅłÅłÅłÅłÅłÅłÅ¡": 1423,
      "ÅłÅłÅłÅłÅłÅłÅłÅłÅłÅłÅłÅłÅłÅĺ": 1424,
      "ÅłÅłÅłÅłÅłÅłÅłÅłÅłÅłÅłÅłÅłÅłÅłÅłÅłÅłÅłÅłÅłÅłÅłÅłÅłÅłÅłÅŁ": 1425,
      "ÅłÅłÅłÅłÅłÅłÅłÅłÅłÅłÅłÅłÅłÅłÅłÅłÅŁÅłÅłÅłÅłÅłÅłÅłÅłÅłÅŁ": 1426,
      "ÅłÅłÅłÅłÅłÅłÅłÅłÅłÅłÅłÅłÅłÅ¡ÅłÅłÅłÅłÅłÅłÅłÅłÅłÅ¡": 1427,
      "Å¡ÅĽ": 1428,
      "ÅľÅ¢": 1429,
      "Å¥ÅŁ": 1430,
      "ÅłÅłÅłÅłÅłÅłÅ¡Å¡": 1431,
      "ÅłÅ¢ÅłÅŁ": 1432,
      "ÅłÅłÅłÅłÅłÅłÅłÅłÅłÅłÅłÅłÅłÅ¨": 1433,
      "ÅłÅłÅłÅłÅłÅłÅłÅłÅ¢": 1434,
      "Æ®": 1435,
      "ÅłÅłÅłÅłÅłÅłÅ³": 1436,
      "ÅłÅłÅłÅłÅłÅłÅłÅłÅłÅłÅłÅłÅłÅłÅłÅłÅłÅłÅłÅłÅ¡ÅŁ": 1437,
      "ÅŁÅ¡ÅłÅłÅłÅŁ": 1438,
      "Å¡ÅłÅ¡": 1439,
      "Å§ÅŁ": 1440,
      "ÅłÅłÅłÅłÅłÅłÅłÅļ": 1441,
      "ÅłÅłÅłÅłÅłÅłÅłÅłÅłÅłÅłÅłÅłÅłÅłÅłÅłÅłÅłÅłÅłÅłÅłÅłÅłÅłÅłÅłÅłÅłÅłÅłÅłÅłÅłÅłÅłÅłÅłÅłÅłÅłÅłÅłÅłÅłÅłÅłÅłÅłÅłÅłÅłÅŁÅłÅłÅłÅłÅłÅłÅłÅłÅłÅ¡": 1442,
      "ÆĢÆĭÅłÅłÅłÅłÅłÅłÅłÅłÅłÅłÅłÅł": 1443,
      "ÅłÅłÅłÅłÅłÅłÅłÅłÅłÅłÅłÅłÅłÅłÅłÅĿ": 1444,
      "Å£ÅĹÅ¡ÆĴÅ§ÄŃÆĪÅ¹ÆĸÆĭÅ«ÅŁÅ¡": 1445,
      "ÅłÅłÅ¢Å¡": 1446,
      "Å£ÅłÅŁ": 1447,
      "ÅłÅ²": 1448,
      "ÅłÅŀÅ¢": 1449,
      "ÅłÅłÅłÅłÅłÅłÅłÅłÅłÅłÅłÅłÅłÅłÅłÅłÅłÅłÅłÅłÅłÅłÅłÅłÅłÅłÅłÅłÅłÅłÅłÅłÅłÅłÅłÅłÅłÅłÅłÅłÅłÅłÅłÅłÅłÅłÅłÅłÅłÅłÅłÅłÅłÅłÅłÅłÅłÅłÅłÅłÅłÅłÅłÅłÅłÅłÅłÅłÅłÅłÅłÅłÅłÅłÅłÅłÅłÅłÅłÅłÅłÅłÅłÅłÅłÅłÅłÅłÅłÅłÅłÅłÅłÅłÅłÅłÅłÅłÅłÅłÅłÅłÅłÅłÅłÅłÅłÅłÅłÅłÅłÅłÅłÅłÅłÅłÅłÅłÅłÅłÅłÅłÅłÅłÅłÅłÅłÅŁ": 1450,
      "ÅłÅłÅłÅłÅłÅłÅłÅłÅłÅłÅłÅłÅ£": 1451,
      "ÅłÅłÅĺ": 1452,
      "ÅłÅłÅłÅłÅłÅłÅłÅłÅłÅłÅłÅłÅłÅłÅłÅłÅłÅłÅłÅłÅłÅŁÅłÅłÅłÅłÅłÅłÅłÅłÅłÅ¡ÅłÅłÅłÅłÅłÅłÅłÅłÅłÅłÅłÅłÅłÅłÅłÅłÅłÅłÅłÅłÅłÅŁÅłÅłÅłÅłÅłÅłÅłÅłÅłÅ¡": 1453,
      "Ã¿": 1454,
      "Å¡ÅĻ": 1455,
      "Å¬ÅŁ": 1456,
      "ÅłÅŁÅłÅłÅłÅŁ": 1457,
      "ÅłÅłÅłÅłÅłÅłÅłÅłÅłÅłÅłÅłÅłÅłÅ¤ÅłÅłÅłÅłÅłÅłÅłÅłÅłÅ¥": 1458,
      "ÅľÅŀ": 1459,
      "ÅłÅłÅŁÅłÅłÅłÅłÅŁ": 1460,
      "Å¤Åŀ": 1461,
      "ÅłÅłÅłÅłÅłÅłÅłÅłÅłÅłÅłÅłÅłÅłÅłÅłÅłÅłÅłÅłÅłÅłÅłÅłÅłÅłÅłÅłÅłÅłÅłÅłÅłÅłÅłÅłÅłÅłÅłÅłÅłÅłÅłÅłÅłÅłÅłÅłÅłÅłÅłÅłÅłÅłÅłÅłÅłÅłÅłÅłÅłÅłÅłÅłÅłÅłÅłÅłÅłÅłÅłÅłÅłÅłÅłÅłÅłÅłÅłÅłÅłÅłÅłÅłÅłÅłÅłÅłÅłÅłÅłÅłÅłÅłÅłÅłÅłÅłÅłÅłÅłÅłÅłÅłÅłÅłÅłÅłÅłÅłÅłÅłÅłÅłÅłÅłÅłÅłÅłÅłÅłÅłÅłÅłÅłÅłÅłÅłÅłÅłÅłÅłÅłÅłÅłÅłÅłÅłÅłÅłÅłÅłÅłÅłÅłÅłÅłÅłÅłÅłÅłÅłÅłÅłÅłÅłÅłÅłÅłÅłÅłÅłÅłÅłÅłÅłÅłÅłÅłÅłÅłÅłÅłÅłÅłÅłÅłÅłÅłÅłÅłÅłÅłÅłÅłÅłÅłÅłÅłÅłÅłÅłÅłÅłÅłÅłÅłÅłÅłÅłÅłÅłÅłÅłÅłÅłÅłÅłÅłÅłÅłÅłÅłÅłÅłÅłÅłÅłÅłÅłÅłÅłÅłÅłÅłÅłÅłÅłÅłÅłÅłÅłÅłÅłÅłÅłÅłÅłÅłÅłÅłÅłÅłÅłÅłÅłÅłÅłÅłÅłÅłÅłÅłÅłÅłÅłÅłÅłÅłÅłÅłÅłÅłÅłÅłÅłÅłÅłÅłÅłÅłÅłÅłÅłÅłÅłÅłÅłÅłÅłÅłÅłÅłÅłÅłÅłÅłÅłÅłÅłÅłÅłÅłÅłÅłÅłÅłÅłÅłÅłÅłÅłÅłÅłÅłÅłÅłÅłÅłÅłÅłÅłÅłÅłÅłÅłÅłÅłÅłÅłÅłÅłÅłÅłÅłÅłÅłÅłÅłÅłÅłÅłÅłÅłÅłÅłÅłÅłÅłÅłÅłÅłÅłÅłÅłÅłÅłÅłÅłÅłÅłÅłÅłÅłÅłÅłÅłÅłÅłÅłÅłÅłÅłÅłÅłÅłÅłÅłÅłÅłÅłÅłÅłÅłÅłÅłÅłÅłÅłÅłÅłÅłÅłÅłÅłÅłÅłÅłÅłÅłÅłÅłÅłÅłÅłÅłÅłÅłÅłÅłÅłÅłÅłÅłÅłÅłÅłÅłÅłÅłÅłÅłÅłÅłÅłÅłÅłÅłÅłÅłÅłÅłÅłÅłÅłÅłÅłÅłÅłÅłÅłÅłÅłÅłÅłÅłÅłÅłÅłÅłÅłÅłÅłÅłÅłÅłÅłÅłÅłÅłÅłÅłÅłÅłÅłÅłÅłÅłÅłÅłÅłÅłÅłÅłÅłÅłÅłÅłÅłÅłÅłÅłÅłÅłÅłÅłÅłÅłÅłÅłÅłÅłÅłÅłÅłÅłÅłÅłÅłÅłÅłÅłÅłÅłÅłÅłÅłÅłÅłÅłÅłÅłÅłÅłÅłÅłÅłÅłÅłÅłÅłÅłÅłÅłÅłÅłÅłÅłÅłÅłÅłÅłÅłÅłÅłÅłÅłÅłÅłÅłÅłÅłÅłÅłÅłÅłÅłÅłÅłÅłÅłÅłÅłÅł": 1462,
      "ÅłÅłÅłÅłÅłÅłÅłÅłÅłÅłÅłÅłÅłÅłÅłÅłÅłÅłÅłÅłÅłÅłÅłÅłÅłÅłÅłÅłÅłÅłÅłÅłÅłÅłÅłÅłÅłÅłÅłÅłÅłÅłÅłÅłÅłÅłÅłÅłÅłÅłÅłÅłÅłÅłÅłÅłÅłÅłÅłÅłÅłÅłÅłÅłÅłÅłÅłÅłÅłÅłÅłÅłÅłÅłÅłÅłÅłÅłÅłÅłÅłÅłÅłÅłÅłÅłÅłÅłÅłÅłÅłÅłÅłÅłÅłÅłÅłÅłÅłÅłÅłÅłÅłÅłÅłÅłÅłÅłÅłÅłÅłÅłÅłÅłÅłÅłÅłÅłÅłÅłÅłÅłÅłÅłÅłÅłÅłÅłÅłÅłÅłÅłÅłÅłÅłÅłÅłÅłÅłÅłÅłÅłÅłÅłÅłÅłÅłÅłÅłÅłÅłÅłÅłÅłÅłÅłÅłÅłÅłÅłÅłÅłÅłÅłÅłÅłÅłÅłÅłÅłÅłÅłÅłÅłÅłÅłÅłÅłÅłÅłÅłÅłÅłÅłÅłÅłÅłÅłÅłÅłÅłÅłÅłÅłÅłÅłÅłÅłÅłÅłÅłÅłÅłÅłÅłÅłÅłÅłÅłÅłÅłÅłÅłÅłÅłÅłÅłÅłÅłÅłÅłÅłÅłÅłÅłÅłÅłÅłÅłÅłÅłÅłÅłÅłÅłÅłÅłÅłÅłÅłÅłÅłÅłÅłÅłÅłÅłÅłÅłÅłÅłÅłÅłÅłÅłÅłÅłÅłÅłÅłÅłÅłÅłÅłÅłÅłÅłÅłÅłÅłÅłÅłÅłÅłÅłÅłÅłÅłÅłÅłÅłÅłÅłÅłÅłÅłÅłÅłÅłÅłÅłÅłÅłÅłÅłÅłÅłÅłÅłÅłÅłÅłÅłÅłÅłÅłÅłÅłÅłÅłÅłÅłÅłÅłÅłÅłÅłÅłÅłÅłÅłÅłÅłÅłÅłÅłÅłÅłÅłÅłÅłÅłÅłÅłÅłÅłÅłÅłÅłÅłÅłÅłÅłÅłÅłÅłÅłÅłÅłÅłÅłÅłÅłÅłÅłÅłÅłÅłÅłÅłÅłÅłÅłÅłÅłÅłÅłÅłÅłÅłÅłÅłÅłÅłÅłÅłÅłÅłÅłÅłÅłÅłÅłÅłÅłÅłÅłÅłÅłÅłÅłÅłÅłÅłÅłÅłÅłÅłÅłÅłÅłÅłÅłÅłÅłÅłÅłÅłÅłÅłÅłÅłÅłÅłÅłÅłÅłÅłÅłÅłÅłÅłÅłÅłÅłÅłÅłÅłÅłÅłÅłÅłÅłÅłÅłÅłÅłÅłÅłÅłÅłÅłÅłÅłÅłÅłÅłÅłÅłÅłÅłÅłÅłÅłÅłÅłÅłÅłÅłÅłÅłÅłÅłÅłÅłÅłÅłÅłÅłÅłÅłÅłÅłÅłÅłÅłÅłÅłÅłÅłÅłÅłÅłÅłÅłÅłÅłÅłÅłÅłÅłÅłÅłÅłÅłÅłÅłÅłÅłÅłÅłÅłÅłÅłÅłÅłÅłÅłÅłÅłÅłÅłÅłÅłÅłÅłÅłÅłÅłÅłÅłÅłÅłÅłÅłÅłÅłÅłÅłÅłÅłÅłÅłÅłÅłÅłÅłÅłÅłÅłÅłÅłÅłÅłÅłÅłÅłÅłÅłÅłÅłÅłÅłÅłÅłÅłÅłÅłÅłÅłÅłÅłÅłÅłÅłÅłÅłÅłÅłÅłÅłÅłÅłÅłÅłÅłÅłÅłÅłÅłÅłÅłÅłÅłÅłÅłÅłÅłÅłÅłÅłÅłÅłÅłÅłÅłÅłÅłÅłÅłÅłÅłÅłÅłÅłÅłÅłÅłÅłÅłÅłÅłÅłÅłÅłÅłÅłÅłÅłÅłÅłÅłÅłÅłÅłÅłÅłÅłÅłÅłÅłÅłÅłÅłÅłÅłÅłÅłÅłÅłÅłÅłÅłÅłÅłÅłÅłÅłÅłÅłÅłÅłÅłÅłÅłÅłÅłÅłÅłÅłÅłÅł": 1463,
      "ÅłÅłÅłÅłÅłÅłÅłÅłÅłÅłÅłÅłÅłÅłÅłÅłÅłÅłÅłÅłÅłÅłÅłÅłÅłÅłÅłÅłÅłÅłÅłÅłÅłÅłÅłÅłÅłÅłÅłÅłÅłÅłÅłÅłÅłÅłÅłÅłÅłÅłÅłÅłÅłÅłÅłÅłÅłÅłÅłÅłÅłÅłÅłÅłÅłÅłÅłÅłÅłÅłÅłÅłÅłÅłÅłÅłÅłÅłÅłÅłÅłÅłÅłÅłÅłÅłÅłÅłÅłÅłÅłÅłÅłÅłÅłÅłÅłÅłÅłÅłÅłÅłÅłÅłÅłÅłÅłÅłÅłÅłÅłÅłÅłÅłÅłÅłÅłÅłÅłÅłÅłÅłÅłÅłÅłÅłÅłÅłÅłÅłÅłÅłÅłÅłÅłÅłÅłÅłÅłÅłÅłÅłÅłÅłÅłÅłÅłÅłÅłÅłÅłÅłÅłÅłÅłÅłÅłÅłÅłÅłÅłÅłÅłÅłÅłÅłÅłÅłÅłÅłÅłÅłÅłÅłÅłÅłÅłÅłÅłÅłÅłÅłÅłÅłÅłÅłÅłÅłÅłÅłÅłÅłÅłÅłÅłÅłÅłÅłÅłÅłÅłÅłÅłÅłÅłÅłÅłÅłÅłÅłÅłÅłÅłÅłÅłÅłÅłÅłÅłÅłÅłÅłÅłÅłÅłÅłÅłÅłÅłÅłÅłÅłÅłÅłÅłÅłÅłÅłÅłÅłÅłÅłÅłÅłÅłÅłÅłÅłÅłÅłÅłÅłÅłÅłÅłÅłÅłÅłÅłÅłÅłÅłÅłÅłÅłÅłÅłÅłÅłÅłÅłÅłÅłÅłÅłÅłÅłÅłÅłÅłÅłÅłÅłÅłÅłÅłÅłÅłÅłÅłÅłÅłÅłÅłÅłÅłÅłÅłÅłÅłÅłÅłÅłÅłÅłÅłÅłÅłÅłÅłÅłÅłÅłÅłÅłÅłÅłÅłÅłÅłÅłÅłÅłÅłÅłÅłÅłÅłÅłÅłÅłÅłÅłÅłÅłÅłÅłÅłÅłÅłÅłÅłÅłÅłÅłÅłÅłÅłÅłÅłÅłÅłÅłÅłÅłÅłÅłÅłÅłÅłÅłÅłÅłÅłÅłÅłÅłÅłÅłÅłÅłÅłÅłÅłÅłÅłÅłÅłÅłÅłÅłÅłÅłÅłÅłÅłÅłÅłÅłÅłÅłÅłÅłÅłÅłÅłÅłÅłÅłÅłÅłÅłÅłÅłÅłÅłÅłÅłÅłÅłÅłÅłÅłÅłÅłÅłÅłÅłÅłÅłÅłÅłÅłÅłÅłÅłÅłÅłÅłÅłÅłÅłÅłÅłÅłÅłÅłÅłÅłÅłÅłÅłÅłÅłÅłÅłÅłÅłÅłÅłÅłÅłÅłÅłÅłÅłÅłÅłÅłÅłÅłÅłÅłÅłÅłÅłÅłÅłÅłÅłÅłÅłÅłÅłÅłÅłÅłÅłÅłÅłÅłÅłÅłÅłÅłÅłÅłÅłÅłÅłÅłÅłÅłÅłÅłÅłÅłÅłÅłÅłÅłÅłÅłÅłÅłÅłÅłÅłÅłÅłÅłÅłÅłÅłÅłÅłÅłÅłÅłÅłÅłÅłÅłÅłÅłÅłÅłÅłÅłÅłÅłÅłÅłÅłÅłÅłÅłÅłÅłÅłÅłÅłÅłÅłÅłÅłÅłÅłÅłÅłÅłÅłÅłÅłÅłÅłÅłÅłÅłÅłÅłÅłÅłÅłÅłÅłÅłÅłÅłÅłÅłÅłÅłÅłÅłÅłÅłÅłÅłÅłÅłÅłÅłÅłÅłÅłÅłÅłÅłÅłÅłÅłÅłÅłÅłÅłÅłÅłÅłÅłÅłÅłÅłÅłÅłÅłÅłÅłÅłÅłÅłÅłÅłÅłÅłÅłÅłÅłÅłÅłÅłÅłÅłÅłÅłÅłÅłÅłÅłÅłÅłÅłÅłÅłÅłÅłÅł": 1464,
      "Å¢Å¦": 1465,
      "ÅłÅłÅłÅłÅłÅłÅłÅłÅłÅłÅłÅłÅłÅłÅłÅłÅłÅłÅłÅłÅłÅłÅłÅłÅłÅłÅłÅłÅłÅłÅłÅŁÅłÅłÅłÅłÅłÅłÅłÅłÅłÅłÅłÅłÅłÅłÅłÅłÅłÅłÅłÅłÅłÅłÅłÅłÅłÅłÅłÅłÅłÅłÅłÅłÅłÅłÅłÅłÅłÅłÅłÅłÅłÅłÅłÅłÅłÅłÅłÅłÅłÅłÅłÅłÅłÅłÅłÅłÅłÅłÅłÅłÅłÅłÅłÅł": 1466,
      "ÅłÅłÅłÅłÅłÅłÅłÅłÅłÅłÅłÅłÅłÅłÅłÅłÅłÅłÅłÅłÅłÅ¥": 1467,
      "ÅľÅĽ": 1468,
      "ÅłÅłÅłÅłÅłÅłÅłÅłÅłÅłÅłÅłÅłÅłÅłÅłÅłÅłÅłÅłÅłÅ¡ÅłÅłÅłÅłÅłÅłÅłÅłÅłÅ¡ÅłÅłÅłÅłÅłÅłÅłÅłÅłÅłÅłÅłÅłÅłÅłÅłÅłÅłÅłÅłÅłÅ¡ÅłÅłÅłÅłÅłÅłÅłÅłÅłÅ¡": 1469,
      "ÅłÅłÅłÅłÅłÅłÅłÅłÅłÅłÅłÅłÅłÅłÅłÅłÅłÅłÅłÅłÅłÅ¢ÅłÅłÅłÅłÅłÅłÅłÅłÅłÅĿ": 1470,
      "Å¥Åļ": 1471,
      "Æ¦Åĥ": 1472,
      "Å¡Å¨": 1473,
      "ÅŁÅ¡ÅłÅŁ": 1474,
      "ÅłÅłÅłÅłÅłÅłÅłÅłÅłÅłÅłÅłÅłÅłÅŀÅłÅłÅłÅłÅłÅłÅłÅłÅłÅŀ": 1475,
      "Å£ÅĻ": 1476,
      "ÅłÅłÅĹ": 1477,
      "Å¥Å¢": 1478,
      "ÅłÅłÅłÅłÅłÅłÅłÅłÅłÅ§": 1479,
      "ÅĿÅļ": 1480,
      "ÅłÅłÅłÅłÅłÅłÅłÅłÅŀ": 1481,
      "ÄĺÅ§Æ¤Äĩ": 1482,
      "ÅłÅłÅłÅłÅłÅłÅłÅłÅłÅłÅłÅłÅłÅłÅ¨": 1483,
      "ÇĤ": 1484,
      "ÅłÅłÅłÅłÅłÅłÅłÅłÅłÅłÅłÅłÅłÅłÅłÅ¢": 1485,
      "ÅłÅłÅłÅłÅłÅłÅłÅłÅłÅłÅłÅłÅłÅłÅłÅłÅłÅłÅłÅłÅłÅłÅłÅłÅłÅłÅłÅłÅłÅłÅłÅ¡ÅłÅłÅłÅłÅłÅłÅłÅłÅłÅłÅłÅłÅłÅłÅłÅłÅłÅłÅłÅłÅłÅłÅłÅłÅłÅłÅłÅłÅłÅłÅłÅłÅłÅłÅłÅłÅłÅłÅłÅłÅłÅłÅłÅłÅłÅłÅłÅłÅłÅłÅłÅłÅłÅłÅłÅłÅłÅłÅłÅłÅłÅłÅłÅłÅłÅłÅłÅłÅłÅłÅłÅłÅłÅłÅłÅłÅłÅłÅłÅłÅłÅłÅłÅłÅłÅłÅłÅłÅłÅłÅłÅłÅłÅłÅłÅłÅłÅłÅłÅłÅłÅłÅłÅłÅłÅłÅłÅłÅłÅłÅłÅłÅłÅłÅłÅłÅłÅłÅłÅłÅłÅłÅłÅłÅłÅłÅłÅłÅłÅłÅłÅłÅłÅłÅłÅłÅłÅłÅłÅłÅłÅłÅłÅłÅłÅłÅłÅłÅłÅłÅłÅłÅłÅłÅłÅłÅłÅłÅłÅłÅłÅłÅłÅłÅłÅłÅłÅłÅłÅłÅłÅłÅłÅłÅłÅłÅłÅłÅłÅłÅłÅłÅłÅłÅłÅłÅłÅłÅłÅłÅłÅłÅłÅłÅłÅłÅłÅłÅłÅłÅłÅłÅłÅłÅłÅłÅłÅłÅłÅłÅłÅłÅłÅłÅłÅłÅłÅłÅłÅłÅłÅłÅłÅłÅłÅłÅłÅłÅłÅłÅłÅłÅłÅłÅłÅłÅłÅłÅłÅłÅłÅłÅłÅłÅłÅłÅłÅłÅłÅłÅłÅłÅłÅłÅłÅłÅłÅłÅłÅłÅłÅłÅłÅłÅłÅłÅłÅłÅłÅłÅłÅłÅłÅłÅłÅłÅłÅłÅłÅłÅłÅłÅłÅłÅłÅłÅłÅłÅłÅłÅłÅłÅłÅłÅłÅłÅłÅłÅłÅłÅłÅłÅłÅłÅłÅłÅłÅłÅłÅłÅłÅłÅłÅłÅłÅłÅłÅłÅłÅłÅłÅłÅłÅłÅłÅłÅłÅłÅłÅłÅłÅłÅłÅłÅłÅłÅłÅłÅłÅłÅłÅłÅłÅłÅłÅłÅłÅłÅłÅłÅłÅłÅłÅłÅłÅłÅłÅłÅłÅłÅłÅłÅłÅłÅłÅłÅłÅłÅłÅłÅłÅłÅłÅłÅłÅłÅłÅłÅłÅłÅłÅłÅłÅłÅłÅłÅłÅłÅłÅłÅłÅłÅłÅłÅłÅłÅłÅłÅłÅłÅłÅłÅłÅłÅłÅłÅłÅłÅłÅłÅłÅłÅłÅłÅłÅłÅłÅłÅłÅłÅłÅłÅłÅłÅłÅłÅłÅłÅłÅłÅłÅłÅłÅłÅłÅłÅłÅłÅłÅłÅłÅłÅłÅłÅłÅłÅłÅłÅłÅłÅłÅłÅłÅłÅłÅłÅłÅłÅłÅłÅłÅłÅłÅłÅłÅłÅłÅłÅłÅłÅłÅłÅłÅłÅłÅłÅłÅłÅłÅłÅłÅłÅłÅłÅłÅłÅłÅłÅłÅłÅłÅłÅłÅłÅłÅłÅłÅłÅłÅłÅłÅłÅłÅłÅłÅłÅłÅłÅłÅłÅłÅłÅłÅłÅłÅłÅłÅłÅłÅłÅłÅłÅłÅłÅłÅłÅłÅłÅłÅłÅłÅłÅłÅłÅłÅłÅłÅłÅłÅłÅłÅłÅłÅłÅłÅłÅłÅłÅłÅłÅłÅłÅłÅłÅłÅłÅłÅłÅłÅłÅłÅłÅłÅłÅłÅłÅłÅłÅłÅłÅłÅłÅłÅłÅłÅłÅłÅłÅłÅłÅłÅłÅłÅłÅłÅłÅłÅłÅłÅłÅłÅłÅłÅłÅłÅłÅłÅłÅłÅłÅłÅłÅłÅłÅłÅłÅłÅłÅłÅłÅłÅłÅłÅłÅłÅłÅłÅłÅłÅłÅłÅłÅłÅłÅłÅłÅłÅłÅłÅłÅłÅłÅłÅłÅłÅłÅłÅłÅłÅłÅłÅłÅłÅłÅłÅłÅłÅłÅłÅłÅłÅłÅłÅłÅłÅłÅłÅłÅłÅłÅłÅł": 1486,
      "ÅłÅ³": 1487,
      "ÅłÅłÅłÅłÅłÅłÅłÅłÅłÅłÅłÅłÅłÅłÅłÅłÅłÅłÅłÅłÅłÅłÅłÅłÅłÅłÅłÅłÅłÅłÅłÅłÅłÅłÅłÅłÅłÅłÅłÅłÅłÅłÅłÅłÅłÅłÅłÅłÅłÅłÅłÅłÅłÅłÅłÅłÅłÅłÅłÅłÅłÅłÅłÅłÅłÅłÅłÅłÅłÅłÅłÅłÅłÅłÅłÅłÅłÅłÅłÅłÅłÅłÅłÅłÅłÅłÅłÅłÅłÅłÅłÅłÅłÅłÅłÅłÅłÅłÅłÅłÅłÅłÅłÅłÅłÅłÅłÅłÅłÅłÅłÅłÅłÅłÅłÅłÅłÅłÅłÅłÅłÅłÅłÅłÅłÅłÅłÅłÅłÅłÅłÅłÅłÅłÅłÅłÅłÅłÅłÅłÅłÅłÅłÅłÅłÅłÅłÅłÅłÅłÅłÅłÅłÅłÅłÅłÅłÅłÅłÅłÅłÅłÅłÅłÅłÅłÅłÅłÅłÅłÅłÅłÅłÅłÅłÅłÅłÅłÅłÅłÅłÅłÅłÅłÅłÅłÅłÅłÅłÅłÅłÅłÅłÅłÅłÅłÅłÅłÅłÅłÅłÅłÅłÅłÅłÅłÅłÅłÅłÅłÅłÅłÅłÅłÅłÅłÅłÅłÅłÅłÅłÅłÅłÅłÅłÅłÅłÅłÅłÅłÅłÅłÅłÅłÅłÅłÅłÅłÅłÅłÅłÅłÅłÅłÅłÅłÅłÅłÅłÅłÅłÅłÅłÅłÅłÅłÅłÅłÅłÅłÅłÅłÅłÅłÅłÅłÅłÅłÅłÅłÅłÅłÅłÅłÅłÅłÅłÅłÅłÅłÅłÅłÅłÅłÅłÅłÅłÅłÅłÅłÅłÅłÅłÅłÅłÅłÅłÅłÅłÅłÅłÅłÅłÅłÅłÅłÅłÅłÅłÅłÅłÅłÅłÅłÅłÅłÅłÅłÅłÅłÅłÅłÅłÅłÅłÅłÅłÅłÅłÅłÅłÅłÅłÅłÅłÅłÅłÅłÅłÅłÅłÅłÅłÅłÅłÅłÅłÅłÅłÅłÅłÅłÅłÅłÅłÅłÅłÅłÅłÅłÅłÅłÅłÅłÅłÅłÅłÅłÅłÅłÅłÅłÅłÅłÅłÅłÅłÅłÅłÅłÅłÅłÅłÅłÅłÅłÅłÅłÅłÅłÅłÅłÅłÅłÅłÅłÅłÅłÅłÅłÅłÅłÅłÅłÅłÅłÅłÅłÅłÅłÅłÅłÅłÅłÅłÅłÅłÅłÅłÅłÅłÅłÅłÅłÅłÅłÅłÅłÅłÅłÅłÅłÅłÅłÅłÅłÅłÅłÅłÅłÅłÅłÅłÅłÅłÅłÅłÅłÅłÅłÅłÅłÅłÅłÅłÅłÅłÅłÅłÅłÅłÅłÅłÅłÅłÅłÅłÅłÅłÅłÅłÅłÅłÅłÅłÅłÅłÅłÅłÅłÅłÅłÅłÅłÅłÅłÅłÅłÅłÅłÅłÅłÅłÅłÅłÅłÅłÅłÅłÅłÅłÅłÅłÅłÅłÅłÅłÅłÅłÅłÅłÅłÅłÅłÅłÅłÅłÅłÅłÅłÅłÅłÅłÅłÅłÅłÅłÅłÅłÅłÅłÅłÅłÅłÅłÅłÅłÅłÅłÅłÅłÅłÅłÅłÅłÅłÅłÅłÅłÅłÅłÅłÅłÅłÅłÅłÅłÅłÅłÅłÅłÅłÅł": 1488,
      "ÅľÅ¦": 1489,
      "ÅłÅ¡Åŀ": 1490,
      "ÅłÅłÅłÅłÅłÅłÅłÅłÅłÅłÅłÅłÅłÅłÅª": 1491,
      "Å©ÅŁ": 1492,
      "ÅłÅłÅłÅłÅłÅłÅ±": 1493,
      "ÄŃÆĬ": 1494,
      "Æ¦Ä½": 1495,
      "ÅłÅłÅłÅłÅłÅłÅłÅłÅłÅłÅłÅłÅłÅłÅ©": 1496,
      "ÅľÅ£": 1497,
      "ÅŀÅ§": 1498,
      "ÅľÅĿ": 1499,
      "ÅłÅłÅłÅłÅłÅłÅłÅłÅłÅłÅłÅłÅ¤": 1500,
      "ÅłÅı": 1501,
      "ÅłÅ´": 1502,
      "ÅłÅłÅłÅłÅłÅłÅį": 1503,
      "ÅłÅłÅłÅłÅłÅłÅłÅĻ": 1504,
      "ÅłÅŀÅłÅŁ": 1505,
      "ÆĴÅ¨": 1506,
      "ÅŁÅłÅłÅłÅłÅŁ": 1507,
      "Å¡Åļ": 1508,
      "ÅłÅłÅ¡ÅłÅłÅłÅłÅłÅłÅłÅłÅłÅłÅłÅłÅłÅłÅłÅłÅłÅłÅłÅłÅłÅłÅłÅłÅłÅłÅłÅłÅŁ": 1509,
      "ÅłÅłÅ¡ÅłÅłÅłÅłÅłÅłÅłÅłÅłÅłÅłÅłÅłÅłÅłÅłÅłÅłÅłÅłÅłÅłÅłÅłÅłÅłÅłÅłÅ¡": 1510,
      "ÅłÅłÅłÅłÅłÅłÅłÅłÅłÅłÅłÅłÅłÅłÅłÅ¡ÅłÅłÅłÅłÅłÅłÅłÅłÅłÅ¡": 1511,
      "ÅłÅ¢ÅłÅłÅłÅłÅłÅłÅłÅ¡": 1512,
      "Å¦ÅŁ": 1513,
      "ÆĴÅ§ÄŃÆĪÅ¹ÆĸÆĭÅª": 1514,
      "Å¡Å¡ÅŁ": 1515,
      "ÅłÅłÅłÅłÅłÅłÅłÅłÅłÅłÅłÅłÅłÅłÅłÅłÅłÅłÅłÅłÅłÅłÅłÅłÅłÅłÅłÅłÅ¢": 1516,
      "Å¤ÅĿ": 1517,
      "ÅłÅłÅ¨": 1518,
      "Å¡Å¥": 1519,
      "ÅłÅłÅłÅłÅłÅłÅłÅłÅłÅłÅłÅłÅłÅłÅłÅłÅłÅłÅłÅłÅłÅłÅłÅłÅłÅłÅłÅłÅłÅłÅł": 1520,
      "ÅłÅłÅłÅłÅłÅłÅłÅłÅłÅłÅłÅłÅłÅłÅłÅłÅłÅłÅłÅłÅłÅłÅłÅłÅłÅłÅłÅłÅłÅłÅłÅĽ": 1521,
      "ÅłÅłÅłÅ¡ÅłÅłÅłÅ¡": 1522,
      "Å¤Åļ": 1523,
      "Çħ": 1524,
      "ÅłÅłÅłÅłÅłÅłÅłÅłÅłÅłÅłÅłÅłÅłÅłÅłÅłÅłÅłÅłÅłÅłÅłÅłÅłÅłÅłÅłÅłÅłÅłÅłÅłÅłÅłÅłÅłÅłÅ¡": 1525,
      "ÅŀÅłÅłÅłÅłÅłÅłÅłÅł": 1526,
      "Å£ÅłÅ¡": 1527,
      "ÅłÅłÅłÅłÅłÅłÅı": 1528,
      "ÅłÅŁÅŀ": 1529,
      "Å¡ÅŁÅłÅ¡": 1530,
      "ÅłÅłÅłÅłÅłÅłÅłÅłÅłÅłÅłÅłÅłÅłÅłÅłÅłÅłÅłÅłÅłÅłÅłÅłÅłÅłÅłÅłÅłÅłÅłÅłÅłÅłÅłÅłÅłÅłÅłÅłÅłÅłÅłÅłÅłÅłÅłÅłÅłÅłÅłÅłÅłÅłÅłÅłÅłÅłÅłÅłÅłÅłÅłÅłÅłÅłÅłÅłÅłÅłÅłÅłÅłÅłÅłÅłÅłÅłÅłÅłÅłÅłÅłÅłÅłÅłÅłÅłÅłÅłÅłÅłÅłÅłÅłÅłÅłÅłÅłÅłÅłÅłÅłÅłÅłÅłÅłÅłÅłÅłÅłÅłÅłÅłÅłÅłÅłÅłÅłÅłÅłÅłÅłÅłÅłÅłÅłÅłÅłÅłÅłÅłÅłÅłÅłÅłÅłÅłÅłÅłÅłÅłÅłÅłÅłÅłÅłÅłÅłÅłÅłÅłÅłÅłÅłÅłÅłÅłÅłÅłÅłÅłÅłÅłÅłÅłÅłÅłÅłÅłÅłÅłÅłÅłÅłÅłÅłÅłÅłÅłÅłÅłÅłÅłÅłÅłÅłÅłÅłÅłÅłÅłÅłÅłÅłÅłÅłÅłÅłÅłÅłÅłÅłÅłÅłÅłÅłÅłÅłÅłÅłÅłÅłÅłÅłÅłÅłÅłÅłÅłÅłÅłÅłÅłÅłÅłÅłÅłÅłÅłÅłÅłÅłÅłÅłÅłÅłÅłÅłÅłÅłÅłÅłÅłÅłÅłÅłÅłÅłÅłÅłÅłÅłÅłÅłÅłÅłÅłÅłÅłÅłÅłÅłÅłÅłÅłÅłÅłÅłÅłÅłÅłÅłÅłÅłÅłÅłÅłÅłÅłÅłÅłÅłÅłÅłÅłÅłÅłÅłÅłÅłÅłÅłÅłÅłÅłÅłÅłÅłÅłÅłÅłÅłÅłÅłÅłÅłÅłÅłÅłÅłÅłÅłÅłÅłÅłÅłÅłÅłÅłÅłÅłÅłÅłÅłÅłÅłÅłÅłÅłÅłÅłÅłÅłÅłÅłÅłÅłÅłÅłÅłÅłÅłÅłÅłÅłÅłÅłÅłÅłÅłÅłÅłÅłÅłÅłÅłÅłÅłÅłÅłÅłÅłÅłÅłÅłÅłÅłÅłÅłÅłÅłÅłÅłÅłÅłÅłÅłÅłÅłÅłÅłÅłÅłÅłÅłÅłÅłÅłÅłÅłÅłÅłÅłÅłÅłÅłÅłÅłÅłÅłÅłÅłÅłÅłÅłÅłÅłÅłÅłÅłÅłÅłÅłÅłÅłÅłÅłÅłÅłÅłÅłÅłÅłÅłÅłÅłÅłÅłÅłÅłÅłÅłÅłÅłÅłÅłÅłÅłÅłÅłÅłÅłÅłÅłÅłÅłÅłÅłÅłÅłÅłÅłÅłÅłÅłÅłÅłÅłÅłÅłÅłÅłÅłÅłÅłÅłÅłÅłÅłÅłÅłÅłÅłÅłÅłÅłÅłÅłÅłÅłÅłÅłÅłÅłÅłÅłÅłÅłÅłÅłÅłÅłÅłÅłÅłÅłÅłÅłÅłÅłÅłÅłÅłÅłÅłÅłÅłÅłÅłÅłÅłÅłÅłÅłÅłÅłÅłÅłÅłÅłÅłÅłÅłÅłÅłÅłÅłÅłÅłÅłÅłÅłÅłÅłÅłÅłÅłÅłÅłÅłÅłÅłÅłÅłÅłÅłÅłÅłÅłÅłÅłÅłÅłÅłÅłÅłÅłÅłÅłÅłÅłÅłÅłÅłÅłÅłÅłÅłÅłÅłÅłÅłÅłÅłÅłÅłÅłÅłÅłÅłÅłÅłÅłÅłÅłÅłÅłÅłÅłÅłÅłÅłÅłÅłÅłÅłÅłÅłÅłÅłÅłÅłÅłÅłÅłÅłÅłÅłÅłÅłÅłÅłÅłÅłÅłÅłÅłÅłÅłÅłÅłÅłÅłÅłÅłÅłÅłÅłÅłÅłÅłÅłÅłÅłÅłÅłÅłÅłÅłÅłÅłÅłÅłÅłÅłÅłÅłÅłÅłÅłÅłÅłÅłÅłÅłÅłÅłÅłÅłÅłÅłÅłÅłÅłÅłÅłÅłÅłÅłÅłÅłÅłÅłÅłÅłÅłÅłÅłÅłÅłÅłÅłÅłÅłÅłÅłÅłÅłÅłÅłÅłÅłÅłÅłÅłÅłÅłÅłÅłÅłÅłÅłÅłÅłÅłÅłÅłÅłÅłÅłÅłÅłÅłÅłÅłÅłÅłÅłÅłÅłÅłÅłÅłÅłÅłÅłÅłÅłÅłÅłÅłÅłÅłÅłÅłÅłÅłÅłÅłÅłÅłÅłÅłÅłÅłÅłÅłÅłÅłÅłÅłÅłÅłÅłÅłÅłÅłÅłÅłÅłÅłÅłÅłÅłÅłÅłÅłÅłÅłÅłÅłÅłÅłÅłÅłÅłÅłÅłÅłÅłÅłÅłÅłÅłÅłÅłÅłÅłÅłÅłÅłÅłÅłÅłÅłÅłÅłÅłÅłÅłÅłÅłÅłÅłÅłÅłÅłÅłÅłÅłÅłÅłÅłÅłÅłÅłÅłÅłÅłÅłÅłÅłÅłÅłÅłÅłÅłÅłÅłÅłÅłÅłÅłÅłÅłÅłÅłÅłÅłÅłÅłÅłÅłÅłÅłÅłÅłÅłÅłÅłÅłÅłÅłÅłÅłÅłÅłÅłÅłÅłÅłÅłÅł": 1531,
      "ÅłÅĲ": 1532,
      "ÅłÅ¢ÅłÅ¡": 1533,
      "ÅłÅłÅłÅłÅłÅłÅłÅłÅłÅłÅłÅłÅłÅłÅłÅłÅłÅłÅłÅłÅłÅłÅłÅłÅłÅłÅłÅłÅłÅłÅłÅłÅłÅłÅłÅłÅłÅłÅłÅłÅłÅłÅłÅłÅłÅłÅłÅłÅłÅłÅłÅłÅłÅłÅłÅłÅłÅłÅłÅłÅłÅłÅłÅłÅłÅłÅłÅłÅłÅłÅłÅłÅłÅłÅłÅłÅłÅłÅłÅłÅłÅłÅłÅłÅłÅłÅłÅłÅłÅłÅłÅłÅłÅłÅłÅłÅłÅłÅłÅłÅłÅłÅłÅłÅłÅłÅłÅłÅłÅłÅłÅłÅłÅłÅłÅłÅłÅłÅłÅłÅłÅłÅłÅłÅłÅłÅłÅłÅłÅłÅłÅłÅłÅłÅłÅłÅłÅłÅłÅłÅłÅłÅłÅłÅłÅłÅłÅłÅłÅłÅłÅłÅłÅłÅłÅłÅłÅłÅłÅłÅłÅłÅłÅłÅłÅłÅłÅłÅłÅłÅłÅłÅłÅłÅłÅłÅłÅłÅłÅłÅłÅłÅłÅłÅłÅłÅłÅłÅłÅłÅłÅłÅłÅłÅłÅłÅłÅłÅłÅłÅłÅłÅłÅłÅłÅłÅłÅłÅłÅłÅłÅłÅłÅłÅłÅłÅłÅłÅłÅłÅłÅłÅłÅłÅłÅłÅłÅłÅłÅłÅłÅłÅłÅłÅłÅłÅłÅłÅłÅłÅłÅłÅłÅłÅłÅłÅłÅłÅłÅłÅłÅłÅłÅłÅłÅłÅłÅłÅłÅłÅłÅłÅłÅłÅłÅłÅłÅłÅłÅłÅłÅłÅłÅłÅłÅłÅłÅłÅłÅłÅłÅłÅłÅłÅłÅłÅłÅłÅłÅłÅłÅłÅłÅłÅłÅłÅłÅłÅłÅłÅłÅłÅłÅłÅłÅłÅłÅłÅłÅłÅłÅłÅłÅłÅłÅłÅłÅłÅłÅłÅłÅłÅłÅłÅłÅłÅłÅłÅłÅłÅłÅłÅłÅłÅłÅłÅłÅłÅłÅłÅłÅłÅłÅłÅłÅłÅłÅłÅłÅłÅłÅłÅłÅłÅłÅłÅłÅłÅłÅłÅłÅłÅłÅłÅłÅłÅłÅłÅłÅłÅłÅłÅłÅłÅłÅłÅłÅłÅłÅłÅłÅłÅłÅłÅłÅłÅłÅłÅłÅłÅłÅłÅłÅłÅłÅłÅłÅłÅłÅłÅłÅłÅłÅłÅłÅłÅłÅłÅłÅłÅłÅłÅłÅłÅłÅłÅłÅłÅłÅłÅłÅłÅłÅłÅłÅłÅłÅłÅłÅłÅłÅłÅłÅłÅłÅłÅłÅłÅłÅłÅłÅłÅłÅłÅłÅłÅłÅłÅłÅłÅłÅłÅłÅłÅłÅłÅłÅłÅłÅłÅłÅłÅłÅłÅłÅłÅłÅłÅłÅłÅłÅłÅłÅłÅłÅłÅłÅłÅłÅłÅłÅłÅłÅłÅłÅłÅłÅłÅłÅłÅłÅłÅłÅłÅłÅłÅłÅłÅłÅłÅłÅłÅłÅłÅłÅłÅłÅłÅłÅłÅłÅłÅłÅłÅłÅłÅłÅłÅłÅłÅłÅłÅłÅłÅłÅłÅłÅłÅłÅłÅłÅłÅłÅłÅłÅłÅłÅłÅłÅłÅłÅłÅłÅłÅłÅłÅłÅłÅłÅłÅłÅłÅłÅłÅłÅłÅłÅłÅłÅłÅłÅłÅłÅłÅłÅłÅłÅłÅłÅłÅłÅłÅłÅłÅłÅłÅłÅłÅłÅłÅłÅłÅłÅłÅłÅłÅłÅłÅłÅłÅłÅłÅłÅłÅłÅłÅłÅłÅłÅłÅłÅłÅłÅłÅłÅłÅłÅłÅłÅłÅłÅłÅłÅłÅłÅłÅłÅłÅłÅłÅłÅłÅłÅłÅłÅłÅłÅłÅłÅłÅłÅłÅłÅłÅłÅłÅłÅłÅłÅłÅłÅłÅłÅłÅłÅłÅłÅłÅłÅłÅłÅłÅłÅłÅłÅłÅłÅłÅłÅłÅłÅłÅłÅłÅłÅłÅłÅłÅłÅłÅłÅłÅłÅłÅłÅłÅłÅłÅłÅłÅłÅłÅłÅłÅłÅłÅłÅłÅłÅłÅłÅłÅłÅłÅłÅłÅłÅłÅłÅłÅłÅłÅłÅłÅłÅłÅłÅłÅłÅłÅłÅłÅłÅłÅłÅłÅłÅłÅłÅłÅłÅłÅłÅłÅłÅłÅłÅłÅłÅłÅłÅłÅłÅłÅłÅłÅłÅłÅłÅłÅłÅłÅłÅłÅłÅłÅłÅłÅłÅłÅłÅłÅłÅłÅłÅłÅłÅłÅłÅłÅłÅłÅłÅłÅłÅłÅłÅłÅłÅłÅłÅłÅłÅłÅłÅłÅłÅłÅłÅłÅłÅłÅłÅłÅłÅłÅłÅłÅłÅłÅłÅłÅłÅłÅłÅłÅłÅłÅłÅłÅłÅłÅłÅłÅłÅłÅłÅłÅłÅłÅłÅłÅłÅłÅłÅłÅłÅłÅłÅłÅłÅłÅłÅłÅłÅłÅłÅłÅłÅłÅłÅłÅłÅłÅłÅłÅłÅłÅłÅłÅłÅłÅłÅłÅłÅłÅłÅłÅłÅłÅł": 1534,
      "ÅłÅłÅłÅłÅłÅłÅłÅłÅłÅłÅłÅłÅłÅłÅłÅłÅłÅłÅłÅłÅłÅłÅłÅłÅłÅłÅłÅłÅłÅłÅłÅłÅłÅłÅłÅłÅłÅłÅŁ": 1535,
      "ÅłÅłÅ§": 1536,
      "ÅłÅłÅłÅłÅłÅłÅłÅłÅłÅłÅłÅłÅłÅłÅłÅłÅłÅłÅłÅłÅłÅ¢ÅłÅłÅłÅłÅłÅłÅłÅłÅłÅ£": 1537,
      "ÅĽÅ¥": 1538,
      "ÅľÅľ": 1539,
      "ÅłÅłÅłÅłÅłÅłÅłÅłÅłÅłÅłÅłÅłÅłÅłÅłÅłÅłÅłÅłÅłÅ¡ÅłÅłÅłÅłÅłÅłÅłÅłÅłÅŁÅłÅłÅłÅłÅłÅłÅłÅłÅłÅłÅłÅłÅłÅłÅłÅłÅłÅłÅłÅłÅłÅ¡ÅłÅłÅłÅłÅłÅłÅłÅłÅłÅŁ": 1540,
      "ÅłÅłÅłÅłÅłÅłÅłÅłÅłÅłÅłÅłÅłÅłÅłÅłÅłÅłÅłÅłÅłÅłÅłÅłÅłÅłÅłÅłÅłÅłÅłÅłÅłÅłÅłÅłÅłÅłÅłÅłÅłÅłÅłÅłÅłÅłÅłÅłÅłÅłÅłÅłÅłÅłÅłÅłÅłÅłÅłÅłÅłÅłÅłÅłÅłÅłÅłÅłÅłÅłÅłÅłÅłÅłÅłÅłÅłÅłÅłÅłÅłÅłÅłÅłÅłÅłÅłÅłÅłÅłÅłÅłÅłÅłÅłÅłÅłÅłÅłÅłÅłÅłÅłÅłÅłÅłÅłÅłÅłÅłÅłÅłÅłÅłÅłÅłÅłÅłÅłÅłÅłÅłÅłÅłÅłÅłÅłÅłÅłÅłÅłÅłÅłÅłÅłÅłÅłÅłÅłÅłÅłÅłÅłÅłÅłÅłÅłÅłÅłÅłÅłÅłÅłÅłÅłÅłÅłÅłÅłÅłÅłÅłÅłÅłÅłÅłÅłÅłÅłÅłÅłÅłÅłÅłÅłÅłÅłÅłÅłÅłÅłÅłÅłÅłÅłÅłÅłÅłÅłÅłÅłÅłÅłÅłÅłÅłÅłÅłÅłÅłÅłÅłÅłÅłÅłÅłÅłÅłÅłÅłÅłÅłÅłÅłÅłÅłÅłÅłÅłÅłÅłÅłÅłÅłÅłÅłÅłÅłÅłÅłÅłÅłÅłÅłÅłÅłÅłÅłÅłÅłÅłÅłÅłÅłÅłÅłÅłÅłÅłÅłÅłÅłÅłÅłÅłÅłÅłÅłÅłÅłÅłÅłÅłÅłÅłÅłÅłÅłÅłÅłÅłÅłÅłÅłÅłÅłÅłÅłÅłÅłÅłÅłÅłÅłÅłÅłÅłÅłÅłÅłÅłÅłÅłÅłÅłÅłÅłÅłÅłÅłÅłÅłÅłÅłÅłÅłÅłÅłÅłÅłÅłÅłÅłÅłÅłÅłÅłÅłÅłÅłÅłÅłÅłÅłÅłÅłÅłÅłÅłÅłÅłÅłÅłÅłÅłÅłÅłÅłÅłÅłÅłÅłÅłÅłÅłÅłÅłÅłÅłÅłÅłÅłÅłÅłÅłÅłÅłÅłÅłÅłÅłÅłÅłÅłÅłÅłÅłÅłÅłÅłÅłÅłÅłÅłÅłÅłÅłÅłÅłÅłÅłÅłÅłÅłÅłÅłÅłÅłÅłÅłÅłÅłÅłÅłÅłÅłÅłÅłÅłÅłÅłÅłÅłÅłÅłÅłÅłÅłÅłÅłÅłÅłÅłÅłÅłÅłÅłÅłÅłÅłÅłÅłÅłÅłÅłÅłÅłÅłÅłÅłÅłÅłÅłÅłÅłÅłÅłÅłÅłÅłÅłÅłÅłÅłÅłÅłÅłÅłÅłÅłÅłÅłÅłÅłÅłÅłÅłÅłÅłÅłÅłÅłÅłÅłÅłÅłÅłÅłÅłÅłÅłÅłÅłÅłÅłÅłÅłÅłÅłÅłÅłÅłÅłÅłÅłÅłÅłÅłÅłÅłÅłÅłÅłÅłÅłÅłÅłÅłÅłÅłÅłÅłÅłÅłÅłÅłÅłÅłÅłÅłÅłÅłÅłÅłÅłÅłÅłÅłÅłÅłÅłÅłÅłÅłÅłÅłÅłÅłÅłÅłÅłÅłÅłÅłÅłÅłÅłÅłÅłÅłÅłÅłÅłÅłÅłÅłÅłÅłÅłÅłÅłÅłÅłÅłÅłÅłÅłÅłÅłÅłÅłÅłÅłÅłÅłÅłÅłÅłÅłÅłÅłÅłÅłÅłÅłÅłÅłÅłÅłÅłÅłÅłÅłÅłÅłÅłÅłÅłÅłÅłÅłÅłÅłÅłÅłÅłÅłÅłÅłÅłÅłÅłÅłÅłÅłÅłÅłÅłÅłÅłÅłÅłÅłÅłÅłÅłÅłÅłÅłÅłÅłÅłÅłÅłÅłÅłÅłÅłÅłÅłÅłÅłÅłÅłÅłÅłÅłÅłÅłÅłÅłÅłÅłÅłÅłÅłÅłÅłÅłÅłÅłÅłÅłÅłÅłÅłÅłÅłÅłÅłÅłÅłÅłÅłÅłÅłÅłÅłÅłÅłÅłÅłÅłÅłÅłÅłÅłÅłÅłÅłÅłÅłÅłÅłÅłÅłÅłÅłÅłÅłÅłÅłÅłÅłÅłÅłÅłÅłÅłÅłÅłÅłÅłÅłÅłÅłÅłÅłÅłÅłÅłÅłÅłÅłÅłÅłÅłÅłÅłÅłÅłÅłÅłÅłÅłÅłÅłÅłÅłÅłÅłÅłÅłÅłÅłÅłÅłÅłÅłÅłÅłÅłÅłÅłÅłÅłÅłÅłÅłÅłÅłÅłÅłÅłÅłÅłÅłÅłÅłÅłÅłÅłÅłÅłÅłÅłÅłÅłÅłÅłÅłÅłÅłÅłÅłÅłÅłÅłÅłÅł": 1541,
      "ÅłÅŀÅłÅ¡": 1542,
      "ÅłÅĿÅ¡": 1543,
      "ÅĽÅŁ": 1544,
      "ÅŀÅĻ": 1545,
      "Æ¦Ä¼": 1546,
      "Ãµ": 1547,
      "ÅłÅłÅłÅłÅłÅłÅłÅłÅłÅłÅłÅłÅŁÅ¡": 1548,
      "Å¦Æ¤Ä": 1549,
      "ÅŁÅłÅłÅłÅŁÅ¡": 1550,
      "ÅłÅłÅłÅłÅłÅłÅłÅłÅłÅª": 1551,
      "ÅŁÅ¡Å¡ÅŁ": 1552,
      "ÅłÅµ": 1553,
      "ÅłÅłÅłÅłÅłÅłÅłÅłÅłÅłÅłÅłÅłÅłÅłÅłÅłÅłÅłÅłÅłÅ¡ÅłÅłÅłÅłÅłÅłÅŀ": 1554,
      "ÅłÅłÅłÅłÅłÅłÅłÅłÅłÅłÅłÅłÅ¡ÅłÅ¡ÅłÅłÅłÅłÅłÅłÅłÅ¡": 1555,
      "ÅłÅłÅłÅłÅ¡ÅłÅłÅ¡": 1556,
      "ÅłÅłÅłÅłÅłÅłÅłÅłÅłÅłÅłÅłÅłÅłÅłÅłÅłÅłÅłÅłÅłÅłÅłÅłÅłÅłÅłÅłÅłÅłÅłÅłÅłÅłÅłÅłÅłÅłÅłÅłÅłÅłÅłÅłÅłÅłÅłÅłÅłÅłÅłÅłÅłÅłÅłÅłÅłÅłÅłÅłÅ¡": 1557,
      "ÅŁÅłÅłÅŁ": 1558,
      "ÅłÅłÅłÅłÅłÅłÅłÅłÅłÅłÅłÅłÅłÅĹ": 1559,
      "ÅłÅłÅłÅłÅłÅłÅłÅłÅłÅĺ": 1560,
      "ÅĽÅ¦": 1561,
      "ÅłÅłÅłÅłÅłÅłÅłÅłÅłÅłÅłÅłÅłÅ©": 1562,
      "ÅłÅłÅłÅłÅłÅłÅłÅłÅłÅłÅłÅłÅłÅłÅłÅłÅłÅłÅłÅ¢": 1563,
      "Å¾Æĭ": 1564,
      "ÅłÅłÅłÅłÅłÅłÅłÅĺ": 1565,
      "ÅłÅłÅłÅłÅłÅłÅłÅłÅłÅłÅłÅłÅłÅłÅłÅłÅłÅłÅłÅłÅłÅłÅłÅłÅłÅłÅłÅłÅłÅłÅłÅľ": 1566,
      "ÅłÅłÅłÅłÅłÅłÅłÅłÅłÅłÅłÅłÅłÅłÅłÅłÅłÅłÅłÅłÅłÅłÅłÅłÅłÅłÅłÅłÅŀ": 1567,
      "ÅłÅŁÅłÅłÅłÅłÅłÅłÅłÅ¡": 1568,
      "ÅłÅłÅłÅłÅłÅłÅłÅłÅłÅłÅłÅłÅłÅłÅłÅłÅłÅłÅłÅłÅłÅ¦": 1569,
      "ÅĻÇĵÆģ": 1570,
      "Å½ÆĭÅłÅłÅłÅłÅłÅłÅłÅłÅłÅłÅłÅłÅłÅł": 1571,
      "Å¤Åĺ": 1572,
      "Å¤Åĸ": 1573,
      "Ä¶Æ¤ÅĹÄĮ": 1574,
      "ÅłÅłÅłÅłÅłÅłÅłÅłÅłÅłÅłÅłÅłÅłÅłÅłÅłÅłÅłÅłÅłÅłÅłÅłÅłÅłÅłÅłÅłÅłÅłÅŁÅłÅłÅłÅłÅłÅłÅłÅłÅłÅłÅłÅłÅłÅłÅłÅłÅłÅłÅłÅłÅłÅłÅłÅłÅłÅłÅłÅłÅłÅłÅłÅłÅłÅłÅłÅłÅłÅłÅłÅłÅłÅłÅłÅłÅłÅłÅłÅłÅłÅłÅłÅłÅłÅłÅłÅłÅłÅłÅłÅłÅłÅłÅłÅłÅłÅłÅłÅłÅłÅłÅłÅłÅłÅłÅłÅłÅłÅłÅłÅłÅłÅłÅłÅłÅłÅłÅłÅłÅłÅłÅłÅłÅłÅłÅłÅłÅłÅłÅłÅłÅłÅłÅłÅłÅłÅłÅłÅłÅłÅłÅłÅłÅłÅłÅłÅłÅłÅłÅłÅłÅłÅłÅłÅłÅłÅłÅłÅłÅłÅłÅłÅłÅłÅłÅłÅłÅłÅłÅłÅłÅłÅłÅłÅłÅłÅłÅłÅłÅłÅłÅłÅłÅłÅłÅłÅłÅłÅłÅłÅłÅłÅłÅłÅłÅłÅłÅłÅłÅłÅłÅłÅłÅłÅłÅłÅłÅłÅłÅłÅłÅłÅłÅłÅłÅłÅłÅłÅłÅłÅłÅłÅłÅłÅłÅłÅłÅłÅłÅłÅłÅłÅłÅłÅłÅłÅłÅłÅłÅłÅłÅłÅłÅłÅłÅłÅłÅłÅłÅłÅłÅłÅłÅłÅłÅłÅłÅłÅłÅłÅłÅłÅłÅłÅłÅłÅłÅłÅłÅłÅłÅłÅłÅłÅłÅłÅłÅłÅłÅłÅłÅłÅłÅłÅłÅłÅłÅłÅłÅłÅłÅłÅłÅłÅłÅłÅłÅłÅłÅłÅłÅłÅłÅłÅłÅłÅłÅłÅłÅłÅłÅłÅłÅłÅłÅłÅłÅłÅłÅłÅłÅłÅłÅłÅłÅłÅłÅłÅłÅłÅłÅłÅłÅłÅłÅłÅłÅłÅłÅłÅłÅłÅłÅłÅłÅłÅłÅłÅłÅłÅłÅłÅłÅłÅłÅłÅłÅłÅłÅłÅłÅłÅłÅłÅłÅłÅłÅłÅłÅłÅłÅłÅłÅłÅłÅłÅłÅłÅłÅłÅłÅłÅłÅłÅłÅłÅłÅłÅłÅłÅłÅłÅłÅłÅłÅłÅłÅłÅłÅłÅłÅłÅłÅłÅłÅłÅłÅłÅłÅłÅłÅłÅłÅłÅłÅłÅłÅłÅłÅłÅłÅłÅłÅłÅłÅłÅłÅłÅłÅłÅłÅłÅłÅłÅłÅłÅłÅłÅłÅłÅłÅłÅłÅłÅłÅłÅłÅłÅłÅłÅłÅłÅłÅłÅłÅłÅłÅłÅłÅłÅłÅłÅłÅłÅłÅłÅłÅłÅłÅłÅłÅłÅłÅłÅłÅłÅłÅłÅłÅłÅłÅłÅłÅłÅłÅłÅłÅłÅłÅłÅłÅłÅłÅłÅłÅłÅłÅłÅłÅłÅłÅłÅłÅłÅłÅłÅłÅłÅłÅłÅłÅłÅłÅłÅłÅłÅłÅłÅłÅłÅłÅłÅłÅłÅłÅłÅłÅłÅłÅłÅłÅłÅłÅłÅłÅłÅłÅłÅłÅłÅłÅłÅłÅłÅłÅłÅłÅłÅłÅłÅłÅłÅłÅłÅłÅłÅłÅłÅłÅłÅłÅłÅłÅłÅłÅłÅłÅłÅłÅłÅłÅłÅłÅłÅłÅłÅłÅłÅłÅłÅłÅłÅłÅłÅłÅłÅłÅłÅłÅłÅłÅłÅłÅłÅłÅłÅłÅłÅłÅłÅłÅłÅłÅłÅłÅłÅłÅłÅłÅłÅłÅłÅłÅłÅłÅłÅłÅłÅłÅłÅłÅłÅłÅłÅłÅłÅłÅłÅłÅłÅłÅłÅłÅłÅłÅłÅłÅłÅłÅłÅłÅłÅłÅłÅłÅłÅłÅłÅłÅłÅłÅłÅłÅłÅłÅłÅłÅłÅłÅłÅłÅłÅłÅłÅłÅłÅłÅłÅłÅłÅłÅłÅłÅłÅłÅłÅłÅłÅłÅłÅłÅłÅł": 1575,
      "ÅłÅłÅłÅłÅłÅłÅłÅłÅłÅłÅłÅłÅŁÅŁ": 1576,
      "ÅŁÅĺ": 1577,
      "ÅŀÅłÅłÅłÅłÅłÅłÅłÅłÅ¡": 1578,
      "ÅłÅłÅłÅłÅłÅłÅłÅłÅłÅłÅłÅłÅłÅłÅĻ": 1579,
      "ÅłÅİ": 1580,
      "ÅĿÅ§": 1581,
      "Å¨Å¡": 1582,
      "ÅłÅłÅłÅłÅŁÅ¡": 1583,
      "ÅŁÅĻ": 1584,
      "ÅŁÅ§": 1585,
      "ÅŁÅ¡ÅłÅłÅłÅłÅłÅłÅłÅ¡": 1586,
      "ÅłÅłÅłÅłÅłÅłÅ¡ÅłÅłÅŀ": 1587,
      "ÅĢÅ¾": 1588,
      "ÅłÅłÅłÅłÅłÅłÆĵ": 1589,
      "ÅłÅŁÅłÅłÅ¡": 1590,
      "ÅłÅłÅłÅłÅłÅłÅŁÅłÅłÅłÅłÅłÅłÅłÅłÅłÅłÅłÅłÅłÅłÅŁÅłÅłÅłÅłÅłÅłÅłÅłÅłÅŁ": 1591,
      "Å¦Æ¤": 1592,
      "ÅłÅłÅłÅłÅłÅłÅłÅłÅłÅłÅłÅłÅłÅłÅłÅłÅłÅłÅłÅłÅłÅłÅłÅłÅłÅłÅłÅłÅłÅłÅłÅłÅłÅłÅłÅłÅłÅłÅłÅłÅłÅłÅłÅłÅłÅłÅłÅłÅłÅłÅłÅłÅłÅłÅłÅłÅłÅłÅłÅłÅłÅłÅłÅłÅłÅłÅłÅłÅłÅłÅłÅłÅłÅłÅłÅłÅłÅłÅłÅłÅłÅłÅłÅłÅłÅłÅłÅłÅłÅłÅłÅłÅłÅłÅłÅłÅłÅłÅłÅłÅłÅłÅłÅłÅłÅłÅłÅłÅłÅłÅłÅłÅłÅłÅłÅłÅłÅłÅłÅłÅłÅłÅłÅłÅłÅłÅłÅłÅłÅłÅłÅłÅłÅłÅłÅłÅłÅłÅłÅłÅłÅłÅłÅłÅłÅłÅłÅłÅłÅłÅłÅłÅłÅłÅłÅłÅłÅłÅłÅłÅłÅłÅłÅłÅłÅłÅłÅłÅłÅłÅłÅłÅłÅłÅłÅłÅłÅłÅłÅłÅłÅłÅłÅłÅłÅłÅłÅłÅłÅłÅłÅłÅłÅłÅłÅłÅłÅłÅłÅłÅłÅłÅłÅłÅłÅłÅłÅłÅłÅłÅłÅłÅłÅłÅłÅłÅłÅłÅłÅłÅłÅłÅłÅłÅłÅłÅłÅłÅłÅłÅłÅłÅłÅłÅłÅłÅłÅłÅłÅłÅłÅłÅłÅłÅłÅłÅłÅłÅłÅłÅłÅłÅłÅłÅłÅłÅłÅłÅłÅłÅłÅłÅłÅłÅłÅłÅłÅłÅłÅłÅłÅłÅłÅłÅłÅłÅłÅłÅłÅłÅłÅłÅłÅłÅłÅłÅłÅłÅłÅłÅłÅłÅłÅłÅłÅłÅłÅłÅłÅłÅłÅłÅłÅłÅłÅłÅłÅłÅłÅłÅłÅłÅłÅłÅłÅłÅłÅłÅłÅłÅłÅłÅłÅłÅłÅłÅłÅłÅłÅłÅłÅłÅłÅłÅłÅłÅłÅłÅłÅłÅłÅłÅłÅłÅłÅłÅłÅłÅłÅłÅłÅłÅłÅłÅłÅłÅłÅłÅłÅłÅłÅłÅłÅłÅłÅłÅłÅłÅłÅłÅłÅłÅłÅłÅłÅłÅłÅłÅłÅłÅłÅłÅłÅłÅłÅłÅłÅłÅłÅłÅłÅłÅłÅłÅłÅłÅłÅłÅłÅłÅłÅłÅłÅłÅłÅłÅłÅłÅłÅłÅłÅłÅłÅłÅłÅłÅłÅłÅłÅłÅłÅłÅłÅłÅłÅłÅłÅłÅłÅłÅłÅłÅłÅłÅłÅłÅłÅłÅłÅłÅłÅłÅłÅłÅłÅłÅłÅłÅłÅłÅłÅłÅłÅłÅłÅłÅłÅłÅłÅłÅłÅłÅłÅłÅłÅłÅłÅłÅłÅłÅłÅłÅłÅłÅłÅłÅłÅłÅłÅłÅłÅłÅłÅłÅłÅłÅłÅłÅłÅłÅłÅłÅłÅłÅłÅłÅłÅłÅłÅłÅłÅłÅłÅłÅłÅłÅłÅłÅłÅłÅłÅłÅłÅłÅłÅłÅłÅłÅłÅłÅłÅłÅłÅłÅłÅłÅłÅłÅłÅłÅłÅłÅłÅłÅłÅłÅłÅłÅłÅłÅłÅłÅłÅłÅłÅłÅłÅłÅłÅłÅłÅłÅłÅłÅłÅłÅłÅłÅłÅłÅłÅłÅłÅłÅłÅłÅłÅłÅłÅłÅłÅłÅłÅłÅłÅłÅłÅłÅłÅłÅłÅłÅłÅłÅłÅłÅłÅłÅłÅłÅłÅłÅłÅłÅłÅłÅłÅłÅłÅłÅłÅłÅłÅłÅłÅłÅłÅłÅłÅłÅłÅłÅłÅłÅłÅłÅłÅłÅłÅłÅłÅłÅłÅłÅłÅłÅłÅłÅłÅłÅłÅłÅłÅłÅłÅłÅłÅłÅłÅłÅłÅłÅłÅłÅłÅłÅłÅłÅłÅłÅłÅłÅłÅłÅłÅłÅłÅłÅłÅłÅłÅłÅłÅłÅłÅłÅłÅłÅłÅłÅłÅłÅłÅłÅłÅłÅłÅłÅłÅłÅłÅłÅłÅłÅłÅłÅłÅłÅłÅłÅłÅłÅłÅłÅłÅłÅłÅłÅłÅłÅłÅłÅłÅłÅłÅłÅłÅłÅłÅłÅłÅłÅłÅłÅłÅłÅłÅłÅłÅłÅłÅłÅłÅłÅłÅłÅłÅłÅłÅłÅłÅłÅłÅłÅłÅłÅłÅłÅłÅłÅłÅłÅłÅłÅłÅłÅłÅł": 1593,
      "ÅłÅłÅłÅłÅłÅłÅ®": 1594,
      "ÅłÅłÅłÅłÅłÅłÅłÅłÅłÅłÅłÅłÅłÅłÅłÅłÅłÅłÅłÅłÅłÅĽ": 1595,
      "ÇĨ": 1596,
      "ÅłÅłÅŁÅłÅłÅłÅŁ": 1597,
      "Å¦Åļ": 1598,
      "ÅłÅ£Å¡": 1599,
      "ÄļÄĳ": 1600,
      "ÅĿÅĻ": 1601,
      "ÅłÅłÅłÅłÅłÅłÅłÅłÅłÅłÅłÅłÅłÅłÅłÅłÅłÅłÅłÅłÅłÅ¡ÅłÅłÅłÅłÅłÅłÅ¢": 1602,
      "Ä¶Æ¤Åļ": 1603,
      "Å¢Å¡Å¡": 1604,
      "ÅľÅļ": 1605,
      "ÅłÅłÅłÅłÅłÅłÅłÅłÅłÅłÅłÅłÅłÅłÅłÅłÅłÅłÅłÅĿ": 1606,
      "Å¢ÅłÅŀ": 1607,
      "ÅłÅłÅłÅłÅłÅłÅłÅłÅłÅłÅłÅłÅłÅłÅłÅłÅłÅłÅłÅłÅłÅłÅłÅłÅłÅłÅłÅłÅłÅłÅłÅłÅłÅłÅłÅłÅłÅłÅłÅłÅłÅłÅłÅłÅłÅłÅłÅłÅłÅłÅłÅłÅłÅłÅłÅłÅłÅłÅłÅłÅłÅłÅłÅłÅłÅłÅłÅłÅłÅłÅłÅłÅłÅłÅłÅłÅłÅłÅłÅłÅłÅłÅłÅłÅłÅłÅłÅłÅłÅłÅłÅłÅłÅłÅłÅłÅłÅłÅłÅłÅłÅłÅłÅłÅłÅłÅłÅłÅłÅłÅłÅłÅłÅłÅłÅłÅłÅłÅłÅłÅłÅłÅłÅłÅłÅłÅłÅłÅłÅłÅłÅłÅłÅłÅłÅłÅłÅłÅłÅłÅłÅłÅłÅłÅłÅłÅłÅłÅłÅłÅłÅłÅłÅłÅłÅłÅłÅłÅłÅłÅłÅłÅłÅłÅłÅłÅłÅłÅłÅłÅłÅłÅłÅłÅłÅłÅłÅłÅłÅłÅłÅłÅłÅłÅłÅłÅłÅłÅłÅłÅłÅłÅłÅłÅłÅłÅłÅłÅłÅłÅłÅłÅłÅłÅłÅłÅłÅłÅłÅłÅłÅłÅłÅłÅłÅłÅłÅłÅłÅłÅłÅłÅłÅłÅłÅłÅłÅłÅłÅłÅłÅłÅłÅłÅłÅłÅłÅłÅłÅłÅłÅłÅłÅłÅłÅłÅłÅłÅłÅłÅłÅłÅłÅłÅłÅłÅłÅłÅłÅłÅłÅłÅłÅłÅłÅłÅłÅłÅłÅłÅłÅłÅłÅłÅłÅłÅłÅłÅłÅłÅłÅłÅłÅłÅłÅłÅłÅłÅłÅłÅłÅłÅłÅłÅłÅłÅłÅłÅłÅłÅłÅłÅłÅłÅłÅłÅłÅłÅłÅłÅłÅłÅłÅłÅłÅłÅłÅłÅłÅłÅłÅłÅłÅłÅłÅłÅłÅłÅłÅłÅłÅłÅłÅłÅłÅłÅłÅłÅłÅłÅłÅłÅłÅłÅłÅłÅłÅłÅłÅłÅłÅłÅłÅłÅłÅłÅłÅłÅłÅłÅłÅłÅłÅłÅłÅłÅłÅłÅłÅłÅłÅłÅłÅłÅłÅłÅłÅłÅłÅłÅłÅłÅłÅłÅłÅłÅłÅłÅłÅłÅłÅłÅłÅłÅłÅłÅłÅłÅłÅłÅłÅłÅłÅłÅłÅłÅłÅłÅłÅłÅłÅłÅłÅłÅłÅłÅłÅłÅłÅłÅłÅłÅłÅłÅłÅłÅłÅłÅłÅłÅłÅłÅłÅłÅłÅłÅłÅłÅłÅłÅłÅłÅłÅłÅłÅłÅłÅłÅłÅłÅłÅłÅłÅłÅłÅłÅłÅłÅłÅłÅłÅłÅłÅłÅłÅłÅłÅłÅłÅłÅłÅłÅłÅłÅłÅłÅłÅłÅłÅłÅłÅłÅłÅłÅłÅłÅłÅłÅłÅłÅłÅłÅłÅłÅłÅłÅłÅłÅłÅłÅłÅłÅłÅłÅłÅłÅłÅłÅłÅłÅłÅłÅłÅłÅłÅłÅłÅłÅłÅłÅłÅłÅłÅłÅłÅłÅłÅłÅłÅłÅłÅłÅłÅłÅłÅłÅłÅłÅłÅłÅłÅłÅłÅłÅłÅłÅłÅłÅłÅłÅłÅłÅłÅłÅłÅłÅłÅłÅłÅłÅłÅłÅłÅłÅłÅłÅłÅłÅłÅłÅłÅłÅłÅłÅłÅłÅłÅłÅłÅłÅłÅłÅłÅłÅłÅłÅłÅłÅłÅłÅłÅłÅłÅłÅłÅłÅłÅłÅłÅłÅłÅłÅłÅłÅłÅłÅłÅłÅłÅłÅłÅłÅłÅłÅłÅłÅłÅłÅłÅłÅłÅłÅłÅłÅłÅłÅłÅłÅłÅłÅłÅłÅłÅłÅłÅłÅłÅłÅłÅłÅłÅłÅłÅłÅłÅłÅłÅłÅłÅłÅłÅłÅłÅłÅłÅłÅłÅłÅłÅłÅłÅłÅłÅłÅłÅłÅłÅłÅłÅłÅłÅłÅłÅłÅłÅłÅłÅłÅłÅłÅłÅłÅłÅłÅłÅłÅłÅłÅłÅłÅłÅłÅłÅłÅłÅłÅłÅłÅłÅłÅłÅłÅłÅłÅłÅłÅłÅłÅłÅłÅłÅłÅłÅłÅłÅłÅłÅłÅłÅłÅłÅłÅłÅłÅłÅłÅłÅłÅłÅłÅłÅłÅłÅłÅłÅłÅłÅłÅłÅłÅłÅłÅłÅłÅłÅłÅłÅłÅłÅłÅłÅłÅłÅłÅłÅłÅłÅłÅłÅłÅłÅłÅłÅłÅłÅłÅłÅłÅłÅłÅłÅłÅłÅłÅłÅłÅłÅłÅłÅłÅłÅłÅłÅłÅłÅłÅłÅłÅłÅłÅłÅłÅłÅłÅłÅłÅłÅłÅłÅłÅłÅłÅłÅłÅłÅłÅłÅłÅłÅłÅłÅłÅłÅłÅłÅłÅłÅłÅłÅłÅłÅłÅłÅłÅłÅłÅłÅłÅłÅłÅłÅłÅłÅłÅłÅłÅłÅłÅłÅłÅłÅłÅłÅłÅłÅłÅłÅł": 1608,
      "ÅłÅłÅłÅłÅłÅłÅłÅłÅłÅłÅłÅłÅłÅłÅłÅłÅłÅłÅłÅłÅłÅłÅłÅłÅłÅłÅłÅłÅłÅłÅłÅŁÅłÅłÅłÅłÅłÅłÅłÅłÅłÅłÅłÅłÅłÅłÅłÅłÅłÅłÅłÅłÅłÅłÅłÅłÅłÅłÅłÅłÅłÅłÅłÅ¡": 1609,
      "Æ¤ÅĻ": 1610,
      "ÅŁÅ¡ÅłÅ¡": 1611,
      "Å¦ÅĻ": 1612,
      "Å¥Å£": 1613,
      "ÅłÅłÅłÅłÅłÅłÅ¬": 1614,
      "ÄŃÆī": 1615,
      "ÅłÅłÅłÅłÅłÅłÅłÅłÅłÅłÅłÅłÅłÅłÅłÅłÅłÅłÅłÅłÅłÅłÅłÅłÅłÅłÅłÅłÅłÅłÅłÅŁÅłÅłÅłÅłÅłÅłÅłÅłÅłÅłÅłÅłÅłÅłÅłÅłÅłÅłÅłÅłÅłÅłÅłÅłÅłÅłÅłÅłÅłÅłÅłÅłÅłÅłÅłÅłÅłÅłÅłÅłÅłÅłÅłÅłÅłÅłÅłÅłÅłÅłÅłÅłÅłÅłÅłÅłÅłÅłÅłÅłÅłÅłÅłÅłÅłÅłÅłÅłÅłÅłÅłÅłÅłÅłÅłÅłÅłÅłÅłÅłÅłÅłÅłÅłÅłÅłÅłÅłÅłÅłÅłÅłÅłÅłÅłÅłÅłÅłÅłÅłÅłÅłÅłÅłÅłÅłÅłÅłÅłÅłÅłÅłÅłÅłÅłÅłÅłÅłÅłÅłÅłÅłÅłÅłÅłÅłÅłÅłÅłÅłÅłÅłÅłÅłÅłÅłÅłÅłÅłÅłÅłÅłÅłÅłÅłÅłÅłÅłÅłÅłÅłÅłÅłÅłÅłÅłÅłÅłÅłÅłÅłÅłÅłÅłÅłÅłÅłÅłÅłÅłÅłÅłÅłÅłÅłÅłÅłÅłÅłÅłÅłÅłÅłÅłÅłÅłÅłÅłÅłÅłÅłÅłÅłÅłÅłÅłÅłÅłÅłÅłÅłÅłÅłÅłÅłÅłÅłÅłÅłÅłÅłÅłÅłÅłÅłÅłÅłÅłÅłÅłÅłÅłÅłÅłÅłÅłÅłÅłÅłÅłÅłÅłÅłÅłÅłÅłÅłÅłÅłÅłÅłÅłÅłÅłÅłÅłÅłÅłÅłÅłÅłÅłÅłÅłÅłÅłÅłÅłÅłÅłÅłÅłÅłÅłÅłÅłÅłÅłÅłÅłÅłÅłÅłÅłÅłÅłÅłÅłÅłÅłÅłÅłÅłÅłÅłÅłÅłÅłÅłÅłÅłÅłÅłÅłÅłÅłÅłÅłÅłÅłÅłÅłÅłÅłÅłÅłÅłÅłÅłÅłÅłÅłÅłÅłÅłÅłÅłÅłÅłÅłÅłÅłÅłÅłÅłÅłÅłÅłÅłÅłÅłÅłÅłÅłÅłÅłÅłÅłÅłÅłÅłÅłÅłÅłÅłÅłÅłÅłÅłÅłÅłÅłÅłÅłÅłÅłÅłÅłÅłÅłÅłÅłÅłÅłÅłÅłÅłÅłÅłÅłÅłÅłÅłÅłÅłÅłÅłÅłÅłÅłÅłÅłÅłÅłÅłÅłÅłÅłÅłÅłÅłÅłÅłÅłÅłÅłÅłÅłÅłÅłÅłÅłÅłÅłÅłÅłÅłÅłÅłÅłÅłÅłÅłÅłÅłÅłÅłÅłÅłÅłÅłÅłÅłÅłÅłÅłÅłÅłÅłÅłÅłÅłÅłÅłÅłÅłÅłÅłÅłÅłÅłÅłÅłÅłÅłÅłÅłÅłÅłÅłÅłÅłÅłÅłÅłÅłÅłÅłÅłÅłÅłÅłÅłÅłÅłÅłÅłÅłÅłÅłÅłÅłÅłÅłÅłÅłÅłÅłÅłÅłÅłÅłÅłÅłÅłÅłÅłÅłÅłÅłÅłÅłÅłÅłÅłÅłÅłÅłÅłÅłÅłÅłÅłÅłÅłÅłÅłÅłÅłÅłÅłÅłÅłÅłÅłÅłÅłÅłÅłÅłÅłÅłÅłÅłÅłÅłÅłÅłÅłÅłÅłÅłÅłÅłÅłÅłÅłÅłÅłÅłÅłÅłÅłÅłÅłÅłÅłÅłÅłÅłÅłÅłÅłÅłÅłÅłÅłÅłÅłÅłÅłÅłÅłÅłÅłÅłÅłÅłÅłÅłÅłÅłÅłÅłÅłÅł": 1616,
      "Æ¤ÄĩÅº": 1617,
      "ÅłÅłÅłÅłÅłÅłÅĶ": 1618,
      "ÅłÅłÅĸ": 1619,
      "ÅłÅłÅłÅłÅłÅłÅłÅłÅłÅłÅłÅłÅłÅłÅłÅłÅłÅłÅłÅłÅłÅłÅłÅłÅłÅłÅłÅłÅłÅłÅłÅŁÅłÅłÅłÅłÅłÅłÅłÅłÅłÅłÅłÅłÅłÅłÅłÅłÅłÅłÅłÅłÅłÅłÅłÅłÅłÅłÅłÅłÅłÅłÅłÅłÅłÅłÅłÅłÅłÅłÅłÅłÅłÅłÅłÅłÅłÅłÅłÅłÅłÅłÅłÅłÅłÅłÅłÅłÅłÅłÅłÅłÅłÅłÅłÅłÅłÅłÅłÅłÅłÅłÅłÅłÅłÅłÅłÅłÅłÅłÅłÅłÅłÅłÅłÅłÅłÅłÅłÅłÅłÅłÅłÅłÅłÅłÅłÅłÅłÅłÅłÅłÅłÅłÅłÅłÅłÅłÅłÅłÅłÅłÅłÅłÅłÅłÅłÅłÅłÅłÅłÅłÅłÅłÅłÅłÅłÅłÅłÅłÅłÅłÅłÅłÅłÅłÅłÅłÅłÅłÅłÅłÅłÅłÅłÅłÅłÅłÅłÅłÅłÅłÅłÅłÅłÅłÅłÅłÅłÅłÅłÅłÅłÅłÅłÅłÅłÅłÅłÅłÅłÅłÅłÅłÅłÅłÅłÅłÅłÅłÅłÅłÅłÅłÅłÅłÅłÅłÅłÅłÅłÅłÅłÅłÅłÅłÅłÅłÅłÅłÅłÅłÅłÅłÅłÅłÅłÅłÅłÅłÅłÅłÅłÅłÅłÅłÅłÅłÅłÅłÅłÅłÅłÅłÅłÅłÅłÅłÅłÅłÅłÅłÅłÅłÅłÅłÅłÅłÅłÅłÅłÅłÅłÅłÅłÅłÅłÅłÅłÅłÅłÅłÅłÅłÅłÅłÅłÅłÅłÅłÅłÅłÅłÅłÅłÅłÅłÅłÅłÅłÅłÅłÅłÅłÅłÅłÅłÅłÅłÅłÅłÅłÅłÅłÅłÅłÅłÅłÅłÅłÅłÅłÅłÅłÅłÅłÅłÅłÅłÅłÅłÅłÅłÅłÅłÅłÅłÅłÅłÅłÅłÅłÅłÅłÅłÅłÅłÅłÅłÅłÅłÅłÅłÅłÅłÅłÅłÅłÅłÅłÅłÅłÅłÅłÅłÅłÅłÅłÅłÅłÅłÅłÅłÅłÅłÅłÅłÅłÅłÅłÅłÅłÅłÅłÅłÅłÅłÅłÅłÅłÅłÅłÅłÅłÅłÅłÅłÅłÅłÅłÅłÅłÅłÅłÅłÅłÅłÅłÅłÅłÅłÅłÅłÅłÅłÅłÅłÅłÅłÅłÅłÅłÅłÅłÅłÅłÅłÅłÅłÅłÅłÅłÅłÅłÅłÅłÅłÅłÅłÅłÅłÅłÅłÅłÅłÅłÅłÅłÅłÅłÅłÅłÅłÅłÅłÅłÅłÅłÅłÅłÅłÅłÅłÅłÅłÅłÅłÅłÅłÅłÅłÅłÅłÅłÅłÅłÅłÅłÅłÅłÅłÅłÅłÅłÅłÅłÅłÅłÅłÅłÅłÅłÅłÅłÅłÅłÅłÅłÅłÅłÅłÅłÅłÅłÅłÅłÅłÅłÅłÅłÅłÅłÅłÅłÅłÅłÅłÅłÅłÅłÅłÅłÅłÅłÅłÅłÅłÅłÅłÅłÅłÅłÅłÅłÅłÅłÅłÅłÅłÅłÅłÅłÅłÅłÅłÅłÅłÅłÅłÅłÅłÅłÅłÅłÅłÅłÅłÅłÅłÅłÅłÅłÅłÅłÅłÅłÅłÅłÅłÅłÅłÅłÅłÅłÅłÅłÅłÅłÅłÅłÅłÅłÅłÅłÅłÅłÅłÅłÅłÅłÅłÅłÅłÅłÅłÅłÅłÅłÅłÅłÅłÅłÅłÅłÅłÅłÅłÅłÅłÅłÅłÅłÅłÅłÅłÅłÅłÅłÅłÅłÅłÅłÅłÅłÅłÅłÅłÅłÅłÅłÅłÅłÅłÅłÅłÅłÅłÅłÅłÅłÅłÅłÅłÅłÅłÅłÅłÅłÅłÅłÅłÅłÅłÅłÅłÅłÅłÅłÅłÅłÅłÅłÅłÅłÅłÅłÅłÅłÅłÅłÅłÅłÅłÅłÅłÅłÅłÅłÅłÅłÅłÅłÅłÅłÅłÅłÅłÅłÅłÅłÅłÅłÅłÅłÅłÅłÅłÅłÅłÅłÅłÅłÅłÅłÅłÅłÅłÅłÅłÅłÅłÅłÅłÅłÅłÅłÅłÅłÅłÅłÅłÅłÅł": 1620,
      "ÅłÅłÅłÅłÅłÅłÅłÅłÅłÅłÅłÅłÅłÅłÅłÅłÅŀ": 1621,
      "Å¢ÅłÅłÅłÅłÅłÅłÅłÅł": 1622,
      "ÅłÅłÅłÅłÅłÅłÅ¢ÅłÅłÅłÅłÅłÅłÅłÅłÅłÅłÅłÅłÅłÅłÅ¡ÅłÅłÅłÅłÅłÅłÅłÅłÅłÅ¡": 1623,
      "ÅłÅłÅłÅłÅłÅłÅłÅłÅłÅłÅłÅłÅłÅłÅłÅłÅłÅłÅłÅłÅłÅŀÅłÅłÅłÅłÅłÅłÅłÅłÅłÅĿ": 1624,
      "ÅŁÅ¡Å¡ÅłÅłÅłÅ¡": 1625,
      "ÅłÅłÅłÅłÅłÅłÅłÅłÅłÅłÅłÅłÅłÅłÅłÅłÅłÅłÅłÅŁÅłÅ¡": 1626,
      "ÅłÅŁÅ¡ÅłÅ¡": 1627,
      "ÇĦ": 1628,
      "ÅŁÅķ": 1629,
      "ÅłÅłÅłÅłÅłÅłÄŃ": 1630,
      "ÆĴÅ§ÄŃÆĪÅ¹ÆĸÆĭÅ«Åŀ": 1631,
      "ÅŁÅĹ": 1632,
      "Å¢ÅłÅłÅłÅłÅłÅłÅłÅłÅłÅłÅłÅłÅłÅ¡": 1633,
      "ÅłÅłÅŁÅłÅłÅłÅłÅłÅłÅłÅłÅłÅłÅłÅłÅłÅłÅłÅłÅłÅłÅłÅłÅłÅłÅłÅłÅłÅłÅłÅłÅ¡": 1634,
      "ÅłÅłÅłÅłÅłÅłÅłÅª": 1635,
      "ÅłÅłÅłÅłÅłÅłÅłÅłÅłÅłÅłÅłÅłÅłÅłÅłÅłÅłÅłÅłÅłÅłÅłÅłÅłÅłÅłÅłÅłÅłÅłÅ¡ÅłÅłÅłÅłÅłÅłÅłÅłÅłÅłÅłÅłÅłÅłÅłÅłÅłÅłÅłÅłÅłÅłÅłÅłÅłÅłÅłÅłÅłÅłÅłÅłÅłÅłÅłÅłÅłÅłÅłÅłÅłÅłÅłÅłÅłÅłÅłÅłÅłÅłÅłÅłÅłÅłÅłÅłÅłÅłÅłÅłÅłÅłÅłÅłÅłÅłÅłÅłÅłÅłÅłÅłÅłÅłÅłÅłÅłÅłÅłÅłÅłÅłÅłÅłÅłÅłÅłÅłÅłÅłÅłÅłÅłÅłÅłÅłÅłÅłÅłÅłÅłÅłÅłÅłÅłÅłÅłÅłÅłÅłÅłÅłÅłÅłÅłÅłÅłÅłÅłÅłÅłÅłÅłÅłÅłÅłÅłÅłÅłÅłÅłÅłÅłÅłÅłÅłÅłÅłÅłÅłÅłÅłÅłÅłÅłÅłÅłÅłÅłÅłÅłÅłÅłÅłÅłÅłÅłÅłÅłÅłÅłÅłÅłÅłÅłÅłÅłÅłÅłÅłÅłÅłÅłÅłÅłÅłÅłÅłÅłÅłÅłÅłÅłÅłÅłÅłÅłÅłÅłÅłÅłÅłÅłÅłÅłÅłÅłÅłÅłÅłÅłÅłÅłÅłÅłÅłÅłÅłÅłÅłÅłÅłÅłÅłÅłÅłÅłÅłÅłÅłÅłÅłÅłÅłÅłÅłÅłÅłÅłÅłÅłÅłÅłÅłÅłÅłÅłÅłÅłÅłÅłÅłÅłÅłÅłÅłÅłÅłÅłÅłÅłÅłÅłÅłÅłÅłÅłÅłÅłÅłÅłÅłÅłÅłÅłÅłÅłÅłÅłÅłÅłÅłÅłÅłÅłÅłÅłÅłÅłÅłÅłÅłÅłÅłÅłÅłÅłÅłÅłÅłÅłÅłÅłÅłÅłÅłÅłÅłÅłÅłÅłÅłÅłÅłÅłÅłÅłÅłÅłÅłÅłÅłÅłÅłÅłÅłÅłÅłÅłÅłÅłÅłÅłÅłÅłÅłÅłÅłÅłÅłÅłÅłÅłÅłÅłÅłÅłÅłÅłÅłÅłÅłÅłÅłÅłÅłÅłÅłÅłÅłÅłÅłÅłÅłÅłÅłÅłÅłÅłÅłÅłÅłÅłÅłÅłÅłÅłÅłÅłÅłÅłÅłÅłÅłÅłÅłÅłÅłÅłÅłÅłÅłÅłÅłÅłÅłÅłÅłÅłÅłÅłÅłÅłÅłÅłÅłÅłÅłÅłÅłÅłÅłÅłÅłÅłÅłÅłÅłÅłÅłÅłÅłÅłÅłÅłÅłÅłÅłÅłÅłÅłÅłÅłÅłÅłÅłÅłÅłÅłÅłÅłÅłÅłÅłÅłÅłÅłÅłÅłÅłÅłÅłÅłÅłÅłÅłÅłÅłÅłÅłÅłÅłÅłÅłÅłÅłÅłÅłÅłÅłÅłÅłÅłÅłÅłÅłÅłÅłÅłÅłÅłÅłÅłÅłÅłÅłÅłÅłÅłÅłÅłÅłÅłÅłÅłÅłÅłÅłÅłÅłÅłÅłÅłÅłÅłÅłÅłÅłÅłÅłÅłÅłÅłÅłÅłÅłÅłÅłÅłÅłÅłÅłÅłÅłÅłÅłÅłÅłÅłÅłÅłÅłÅłÅłÅłÅłÅłÅłÅłÅłÅłÅłÅłÅłÅłÅłÅłÅłÅłÅłÅłÅłÅłÅłÅłÅłÅłÅłÅłÅłÅłÅłÅłÅłÅłÅłÅłÅłÅłÅłÅłÅłÅłÅłÅłÅłÅłÅłÅłÅłÅłÅłÅłÅłÅłÅłÅłÅłÅłÅłÅłÅłÅłÅłÅłÅłÅłÅłÅłÅłÅłÅłÅłÅłÅłÅłÅłÅłÅłÅłÅłÅłÅłÅłÅłÅłÅłÅłÅłÅłÅłÅłÅłÅłÅłÅłÅłÅłÅłÅłÅłÅłÅłÅłÅłÅłÅłÅłÅłÅłÅłÅłÅłÅłÅłÅłÅłÅłÅłÅłÅłÅłÅłÅłÅłÅłÅłÅłÅłÅłÅłÅłÅłÅłÅłÅłÅłÅłÅłÅłÅłÅłÅłÅłÅłÅłÅłÅłÅłÅłÅłÅłÅłÅłÅłÅłÅłÅłÅłÅłÅłÅłÅłÅłÅłÅłÅłÅłÅłÅłÅł": 1636,
      "Å¤ÅĻ": 1637,
      "ÆĴÅ§ÄŃÆĪÅ¼ÆĸÆĭÅªÅŁ": 1638,
      "Çģ": 1639,
      "ÅłÅłÅłÅłÅłÅłÅłÅłÅłÅłÅłÅłÅłÅłÅłÅłÅłÅłÅłÅłÅłÅłÅłÅłÅłÅłÅłÅłÅłÅłÅłÅ£": 1640,
      "ÅłÅłÅłÅłÅłÅłÅłÅłÅłÅłÅłÅłÅłÅłÅłÅłÅłÅłÅłÅłÅłÅłÅłÅłÅłÅłÅłÅłÅłÅłÅłÅ¡ÅłÅłÅłÅłÅłÅłÅłÅłÅłÅłÅłÅłÅłÅłÅłÅłÅłÅłÅłÅłÅłÅłÅłÅłÅłÅłÅłÅłÅłÅłÅłÅłÅłÅłÅłÅłÅłÅłÅłÅłÅłÅłÅłÅłÅłÅłÅłÅłÅłÅłÅłÅłÅłÅłÅłÅłÅłÅłÅłÅłÅłÅłÅłÅłÅłÅłÅłÅłÅłÅłÅłÅłÅłÅłÅłÅłÅłÅłÅłÅłÅłÅłÅłÅłÅłÅłÅłÅłÅłÅłÅłÅłÅłÅłÅłÅłÅłÅłÅłÅłÅłÅłÅłÅłÅłÅłÅłÅłÅłÅłÅłÅłÅłÅłÅłÅłÅłÅłÅłÅłÅłÅłÅłÅłÅłÅłÅłÅłÅłÅłÅłÅłÅłÅłÅłÅłÅłÅłÅłÅłÅłÅłÅłÅłÅłÅłÅłÅłÅłÅłÅłÅłÅłÅłÅłÅłÅłÅłÅłÅłÅłÅłÅłÅłÅłÅłÅłÅłÅłÅłÅłÅłÅłÅłÅłÅłÅłÅłÅłÅłÅłÅłÅłÅłÅłÅłÅłÅłÅłÅłÅłÅłÅłÅłÅłÅłÅłÅłÅłÅłÅłÅłÅłÅłÅłÅłÅłÅłÅłÅłÅłÅłÅłÅłÅłÅłÅłÅłÅłÅłÅłÅłÅłÅłÅłÅłÅłÅłÅłÅłÅłÅłÅłÅłÅłÅłÅłÅłÅłÅłÅłÅłÅłÅłÅłÅłÅłÅłÅłÅłÅłÅłÅłÅłÅłÅłÅłÅłÅłÅłÅłÅłÅłÅłÅłÅłÅłÅłÅłÅłÅłÅłÅłÅłÅłÅłÅłÅłÅłÅłÅłÅłÅłÅłÅłÅłÅłÅłÅłÅłÅłÅłÅłÅłÅłÅłÅłÅłÅłÅłÅłÅłÅłÅłÅłÅłÅłÅłÅłÅłÅłÅłÅłÅłÅłÅłÅłÅłÅłÅłÅłÅłÅłÅłÅłÅłÅłÅłÅłÅłÅłÅłÅłÅłÅłÅłÅłÅłÅłÅłÅłÅłÅłÅłÅłÅłÅłÅłÅłÅłÅłÅłÅłÅłÅłÅłÅłÅłÅłÅłÅłÅłÅłÅłÅłÅłÅłÅłÅłÅłÅłÅłÅłÅłÅłÅłÅłÅłÅłÅłÅłÅłÅłÅłÅłÅłÅłÅłÅłÅłÅłÅłÅłÅłÅłÅłÅłÅłÅłÅłÅłÅłÅłÅłÅłÅłÅłÅłÅłÅłÅłÅłÅłÅłÅłÅłÅłÅłÅłÅłÅłÅłÅłÅłÅłÅłÅłÅłÅłÅłÅłÅłÅłÅłÅłÅłÅłÅłÅłÅłÅłÅłÅłÅłÅłÅłÅłÅłÅłÅłÅłÅłÅłÅłÅłÅłÅłÅłÅłÅłÅłÅłÅłÅłÅłÅłÅłÅłÅłÅłÅłÅłÅłÅłÅłÅłÅłÅłÅłÅłÅłÅłÅłÅłÅłÅłÅłÅłÅłÅłÅłÅłÅłÅłÅłÅłÅłÅłÅłÅłÅłÅłÅłÅłÅłÅłÅłÅłÅłÅłÅłÅłÅłÅłÅłÅłÅłÅłÅłÅłÅłÅłÅłÅłÅłÅłÅłÅłÅłÅłÅłÅłÅłÅłÅłÅłÅłÅłÅłÅłÅłÅłÅłÅłÅłÅłÅłÅłÅłÅłÅłÅłÅłÅłÅłÅłÅłÅłÅłÅłÅłÅłÅłÅłÅłÅłÅłÅłÅłÅłÅłÅłÅłÅłÅłÅłÅłÅłÅłÅłÅłÅłÅłÅłÅłÅłÅłÅłÅłÅłÅłÅłÅłÅłÅłÅłÅłÅłÅłÅłÅłÅłÅłÅłÅłÅłÅłÅłÅłÅłÅłÅłÅłÅłÅłÅłÅłÅłÅłÅłÅłÅłÅłÅłÅłÅłÅłÅłÅłÅłÅłÅłÅłÅłÅłÅłÅłÅłÅłÅłÅłÅłÅłÅłÅłÅłÅłÅłÅłÅłÅłÅłÅłÅłÅłÅłÅłÅłÅłÅłÅłÅłÅłÅłÅłÅłÅłÅłÅłÅłÅłÅłÅłÅłÅłÅłÅłÅłÅłÅłÅłÅłÅłÅłÅłÅłÅłÅłÅłÅłÅłÅłÅłÅłÅłÅłÅłÅłÅłÅłÅłÅłÅłÅłÅłÅłÅłÅłÅłÅłÅłÅłÅłÅłÅłÅłÅłÅłÅłÅłÅłÅłÅłÅłÅłÅłÅłÅłÅłÅłÅłÅłÅłÅłÅłÅłÅłÅłÅłÅłÅłÅłÅłÅłÅłÅłÅłÅł": 1641,
      "ÅłÅĮ": 1642,
      "ÅłÅłÅłÅ¤": 1643,
      "ÅŁÅ¡Å¡Å¡": 1644,
      "Å¨Æ¤": 1645,
      "ÅłÅłÅłÅłÅłÅłÅłÅłÅłÅłÅłÅłÅłÅłÅłÅłÅłÅłÅłÅłÅ¡Å¡": 1646,
      "ÅłÅłÅłÅłÅłÅłÅłÅłÅłÅłÅłÅłÅłÅłÅłÅłÅłÅłÅŁÅłÅłÅłÅłÅłÅłÅłÅłÅłÅŁ": 1647,
      "ÅłÅłÅłÅłÅłÅłÅłÅłÅłÅłÅłÅłÅłÅłÅªÅłÅłÅłÅłÅłÅłÅłÅłÅłÅ": 1648,
      "ÅłÅłÅłÅłÅłÅłÅłÅłÅłÅłÅłÅłÅłÅłÅłÅłÅłÅłÅłÅłÅłÅłÅłÅŁÅłÅłÅłÅłÅłÅłÅłÅ¡": 1649,
      "ÄĳÅłÅłÅłÅłÅłÅłÅłÅłÅłÅłÅłÅłÅłÅłÅłÅłÅłÅłÅłÅłÅłÅłÅłÅłÅłÅłÅłÅłÅłÅłÅłÅłÅłÅłÅłÅłÅłÅłÅłÅłÅłÅłÅłÅłÅłÅłÅłÅłÅłÅłÅłÅłÅłÅłÅłÅłÅłÅłÅłÅłÅłÅłÅłÅłÅłÅłÅłÅłÅłÅłÅłÅłÅłÅłÅłÅłÅłÅłÅłÅłÅłÅłÅłÅłÅłÅłÅłÅłÅłÅłÅłÅłÅłÅłÅłÅłÅłÅłÅłÅłÅłÅłÅłÅłÅłÅłÅłÅłÅłÅłÅłÅłÅłÅłÅłÅłÅłÅłÅłÅłÅłÅłÅłÅłÅłÅłÅłÅłÅłÅłÅłÅłÅłÅłÅłÅłÅłÅłÅłÅłÅłÅłÅłÅłÅłÅłÅłÅłÅłÅłÅłÅłÅłÅłÅłÅłÅłÅłÅłÅłÅłÅłÅłÅłÅłÅłÅłÅłÅłÅłÅłÅłÅłÅłÅłÅłÅłÅłÅłÅłÅłÅłÅłÅłÅłÅłÅłÅłÅłÅłÅłÅłÅłÅłÅłÅłÅłÅłÅłÅłÅłÅłÅłÅłÅłÅłÅłÅłÅłÅłÅłÅłÅłÅłÅłÅłÅłÅłÅłÅłÅłÅłÅłÅłÅłÅłÅłÅłÅłÅłÅłÅłÅłÅłÅłÅłÅłÅłÅłÅłÅłÅłÅłÅłÅłÅłÅłÅłÅłÅłÅłÅłÅłÅłÅłÅłÅłÅłÅłÅłÅłÅłÅłÅłÅłÅłÅłÅłÅłÅłÅłÅłÅłÅłÅłÅłÅłÅłÅłÅłÅłÅłÅłÅłÅłÅłÅłÅłÅłÅłÅłÅłÅłÅłÅłÅłÅłÅłÅłÅłÅłÅłÅłÅłÅłÅłÅłÅłÅłÅłÅłÅłÅłÅłÅłÅłÅłÅłÅłÅłÅłÅłÅłÅłÅłÅłÅłÅłÅłÅłÅłÅłÅłÅłÅłÅłÅłÅłÅłÅłÅłÅłÅłÅłÅłÅłÅłÅłÅłÅłÅłÅłÅłÅłÅłÅłÅłÅłÅłÅłÅłÅłÅłÅłÅłÅłÅłÅłÅłÅłÅłÅłÅłÅłÅłÅłÅłÅłÅłÅłÅłÅłÅłÅłÅłÅłÅłÅłÅłÅłÅłÅłÅłÅłÅłÅłÅłÅłÅłÅłÅłÅłÅłÅłÅłÅłÅłÅłÅłÅłÅłÅłÅłÅłÅłÅłÅłÅłÅłÅłÅłÅłÅłÅłÅłÅłÅłÅłÅłÅłÅłÅłÅłÅłÅłÅłÅłÅłÅłÅłÅłÅłÅłÅłÅłÅłÅłÅłÅłÅłÅłÅłÅłÅłÅłÅłÅłÅłÅłÅłÅłÅłÅłÅłÅłÅłÅłÅłÅłÅłÅłÅłÅłÅłÅłÅłÅłÅłÅłÅłÅłÅłÅłÅłÅłÅłÅłÅłÅłÅłÅłÅłÅłÅłÅłÅłÅłÅłÅłÅłÅłÅłÅłÅłÅłÅłÅłÅłÅłÅłÅłÅłÅłÅłÅłÅłÅłÅłÅłÅłÅłÅłÅłÅłÅłÅłÅłÅłÅłÅłÅłÅłÅłÅłÅłÅłÅłÅłÅłÅłÅłÅłÅłÅłÅłÅłÅłÅłÅłÅłÅłÅłÅłÅłÅłÅłÅłÅłÅłÅłÅłÅłÅłÅłÅłÅłÅłÅłÅłÅłÅłÅłÅłÅłÅłÅłÅłÅłÅłÅłÅłÅłÅłÅłÅłÅłÅłÅłÅłÅłÅłÅłÅłÅłÅłÅłÅłÅłÅłÅłÅłÅłÅłÅłÅłÅłÅłÅłÅłÅłÅłÅłÅłÅłÅłÅłÅłÅłÅłÅłÅłÅłÅłÅłÅłÅłÅłÅłÅłÅłÅłÅłÅłÅłÅłÅłÅłÅłÅłÅłÅłÅłÅłÅłÅłÅłÅłÅłÅłÅłÅłÅłÅłÅłÅłÅłÅłÅłÅłÅłÅłÅłÅłÅłÅłÅłÅłÅłÅłÅłÅłÅłÅłÅłÅłÅłÅłÅłÅłÅłÅłÅłÅłÅłÅłÅłÅłÅłÅłÅłÅłÅłÅłÅłÅłÅłÅłÅłÅłÅłÅłÅłÅłÅłÅłÅłÅłÅłÅłÅłÅłÅłÅłÅłÅłÅłÅłÅłÅłÅłÅłÅłÅłÅłÅłÅłÅłÅłÅłÅłÅłÅłÅłÅłÅłÅłÅłÅłÅłÅłÅłÅłÅłÅłÅłÅłÅłÅłÅłÅłÅłÅłÅłÅłÅłÅłÅłÅłÅłÅłÅłÅłÅłÅłÅłÅłÅłÅłÅłÅłÅłÅłÅłÅłÅłÅłÅłÅłÅłÅłÅłÅłÅłÅłÅłÅłÅłÅłÅłÅłÅłÅłÅłÅłÅłÅłÅłÅłÅłÅłÅłÅłÅłÅłÅłÅłÅłÅłÅłÅłÅłÅłÅłÅłÅłÅłÅłÅłÅłÅłÅłÅłÅłÅłÅłÅłÅłÅłÅłÅłÅłÅłÅłÅłÅłÅłÅłÅłÅłÅłÅłÅłÅłÅłÅłÅłÅłÅłÅłÅłÅłÅłÅłÅłÅłÅłÅłÅłÅłÅłÅłÅłÅłÅłÅłÅłÅłÅłÅłÅłÅłÅłÅłÅłÅłÅłÅłÅłÅłÅłÅłÅłÅłÅłÅłÅłÅłÅłÅłÅłÅłÅłÅłÅłÅłÅłÅłÅłÅłÅłÅłÅłÅłÅłÅłÅłÅłÅłÅłÅłÅłÅłÅłÅłÅłÅłÅłÅłÅłÅłÅłÅłÅłÅłÅłÅłÅłÅłÅłÅłÅłÅłÅłÅłÅłÅłÅłÅłÅłÅłÅłÅłÅłÅłÅłÅłÅłÅłÅłÅłÅłÅłÅłÅłÅłÅłÅłÅłÅłÅłÅłÅłÅłÅłÅłÅłÅłÅłÅłÅłÅłÅłÅłÅłÅłÅłÅłÅłÅłÅłÅłÅłÅłÅłÅłÅłÅłÅłÅłÅłÅłÅłÅłÅłÅłÅłÅłÅłÅłÅłÅłÅłÅłÅł": 1650,
      "Å¡ÅķÅ¥ÆĶ": 1651,
      "ÅłÅłÅłÅłÅłÅłÅłÅłÅłÅłÅłÅłÅłÅłÅ«": 1652,
      "Å©Å¡": 1653,
      "Æ¹": 1654,
      "ÅłÅį": 1655,
      "ÅłÅŁÅłÅ¡Å¡": 1656,
      "ÄĽÄĳ": 1657,
      "Æ½": 1658,
      "ÅłÅłÅłÅłÅłÅłÅłÅłÅłÅłÅłÅłÅłÅłÅłÅłÅłÅłÅłÅłÅłÅłÅłÅłÅłÅłÅłÅłÅłÅłÅłÅŀÅłÅłÅłÅłÅłÅłÅłÅłÅłÅłÅłÅłÅłÅłÅłÅłÅłÅłÅłÅłÅłÅłÅłÅłÅłÅłÅłÅłÅłÅłÅłÅŀ": 1659,
      "ÅłÅłÅłÅłÅłÅłÅłÅłÅłÅłÅłÅłÅłÅłÅŁÅłÅłÅłÅłÅłÅłÅłÅłÅłÅŁÅłÅłÅłÅłÅłÅłÅ¡": 1660,
      "ÅłÅłÅłÅłÅłÅłÅ¡ÅłÅłÅŁÅłÅłÅłÅłÅŁ": 1661,
      "ÅłÅłÅłÅłÅłÅłÅłÅłÅłÅłÅłÅłÅ¥": 1662,
      "ÅŁÅłÅłÅłÅłÅłÅłÅłÅłÅłÅłÅłÅłÅłÅ¡": 1663,
      "ÅĿÅĺ": 1664,
      "ÅłÅłÅłÅłÅłÅ£": 1665,
      "ÅłÅłÅłÅ¡ÅłÅ¡": 1666,
      "ÅĶÅĺ": 1667,
      "ÅŀÅ¨": 1668,
      "ÅŁÅłÅłÅłÅłÅłÅłÅłÅ¡": 1669,
      "ÅłÅŁÅłÅ¢": 1670,
      "ÆĴÅ§ÄŃÆĪÅ¼ÆĸÆĭÅ«ÅŁ": 1671,
      "ÅłÅłÅłÅłÅłÅłÅ¢ÅłÅłÅłÅłÅłÅłÅłÅłÅłÅ¢": 1672,
      "Ç¾": 1673,
      "ÅłÅłÅ¡ÅłÅłÅ¡": 1674,
      "ÅłÅłÅłÅłÅłÅłÅłÅŁÅ¡": 1675,
      "ÇĴ": 1676,
      "Æ·ÅĹÅĶÅĻ": 1677,
      "Æ¸": 1678,
      "Å¤Å¥": 1679,
      "Å£Å¦": 1680,
      "ÅłÅłÅłÅłÅłÅłÅłÅłÅłÅłÅłÅłÅłÅłÅľÅłÅłÅłÅłÅłÅłÅłÅłÅłÅļ": 1681,
      "ÅłÅłÅłÅłÅłÅłÅļ": 1682,
      "Ã¶": 1683,
      "ÅłÅłÅłÅłÅ¡ÅŁ": 1684,
      "ÅłÅłÅłÅłÅłÅłÅłÅłÅłÅłÅłÅłÅłÅłÅłÅłÅłÅłÅłÅłÅłÅ§": 1685,
      "ÅŁÅłÅ¢": 1686,
      "ÅłÅłÅłÅ¡ÅłÅŁ": 1687,
      "ÅłÅłÅłÅłÅłÅłÅłÅłÅłÅłÅłÅłÅŁÅłÅłÅłÅłÅłÅłÅłÅłÅłÅŁ": 1688,
      "ÅłÅłÅłÅŁÅłÅŁ": 1689,
      "ÅłÅłÅłÅłÅłÅłÅłÅłÅłÅłÅłÅłÅłÅłÅ£ÅłÅłÅłÅłÅłÅłÅłÅłÅłÅ¥": 1690,
      "ÅŁÅ¨": 1691,
      "ÅłÅłÅłÅłÅłÅłÅłÅłÅłÅłÅłÅłÅłÅłÅłÅłÅłÅłÅłÅłÅłÅłÅłÅłÅłÅłÅłÅłÅłÅłÅłÅĹ": 1692,
      "ÅłÅĭ": 1693,
      "ÆģÆĭÅłÅłÅłÅłÅłÅłÅłÅłÅłÅłÅłÅł": 1694,
      "ÅłÅłÅłÅłÅłÅłÅłÅŁÅłÅ¢": 1695,
      "ÅĿÅłÅ¡": 1696,
      "ÅłÅłÅłÅłÅłÅ¡ÅŁ": 1697,
      "ÅŃÅŀ": 1698,
      "ÅļÅ§": 1699,
      "Ä¶Æ¤ÅĹ": 1700,
      "ÅŁÅłÅŁÅłÅŁ": 1701,
      "ÅĻÅ¨": 1702,
      "ÅłÅłÅłÅłÅłÅłÅłÅłÅłÅłÅłÅłÅłÅłÅłÅłÅłÅłÅłÅłÅłÅłÅłÅłÅłÅłÅłÅłÅłÅłÅłÅłÅłÅłÅłÅłÅłÅłÅłÅłÅłÅłÅłÅłÅłÅłÅłÅłÅłÅłÅłÅłÅłÅłÅłÅłÅłÅłÅłÅłÅłÅłÅłÅłÅłÅłÅłÅłÅłÅłÅłÅłÅłÅłÅłÅłÅłÅłÅłÅłÅłÅłÅłÅłÅłÅłÅłÅłÅłÅłÅłÅłÅłÅłÅłÅłÅłÅłÅłÅłÅłÅłÅłÅłÅłÅłÅłÅłÅłÅłÅłÅłÅłÅłÅłÅłÅłÅł": 1703,
      "ÅłÅłÅłÅłÅłÅłÅłÅłÅłÅłÅłÅłÅłÅª": 1704,
      "Æ¼": 1705,
      "Å¢ÅłÅłÅłÅ¢": 1706,
      "Ã²": 1707,
      "ÅłÅ¡ÅłÅłÅŁ": 1708,
      "ÅłÅłÅłÅłÅłÅłÅŀÅłÅłÅłÅłÅłÅłÅłÅłÅłÅłÅłÅłÅłÅłÅ¡ÅłÅłÅłÅłÅłÅłÅłÅłÅłÅ¡": 1709,
      "ÅłÅłÅłÅłÅłÅłÅłÅłÅłÅĻ": 1710,
      "ÅŀÅ¢Å¡": 1711,
      "ÅłÅłÅłÅłÅłÅłÅŁÅłÅłÅłÅłÅłÅłÅłÅłÅłÅłÅłÅłÅłÅłÅłÅłÅłÅłÅłÅłÅłÅłÅłÅłÅ¡": 1712,
      "ÅłÅłÅłÅłÅłÅłÅłÅłÅłÅłÅłÅłÅłÅłÅłÅłÅłÅłÅłÅłÅłÅŀÅłÅłÅłÅłÅłÅłÅłÅłÅłÅŀ": 1713,
      "Å¤Å¦": 1714,
      "ÅĿÅĹ": 1715,
      "ÅłÅłÅłÅłÅłÅłÅĴ": 1716,
      "ÅĿÅ¨": 1717,
      "ÅłÅłÅłÅłÅłÅłÅłÅłÅłÅłÅłÅłÅłÅłÅ§ÅłÅłÅłÅłÅłÅłÅłÅłÅłÅª": 1718,
      "ÅŀÅĺ": 1719,
      "ÅľÅ§": 1720,
      "ÅłÅłÅłÅłÅłÅłÅłÅłÅłÅłÅłÅłÅłÅłÅłÅłÅłÅłÅłÅłÅłÅłÅłÅłÅłÅłÅłÅłÅłÅłÅłÅłÅłÅłÅłÅłÅłÅłÅłÅłÅłÅłÅłÅłÅłÅłÅłÅłÅłÅłÅłÅłÅłÅłÅłÅłÅłÅłÅłÅłÅłÅłÅłÅłÅłÅłÅłÅłÅłÅłÅłÅłÅłÅłÅłÅłÅłÅłÅłÅłÅłÅłÅłÅłÅłÅłÅłÅłÅłÅłÅłÅłÅłÅłÅłÅłÅłÅłÅłÅłÅłÅłÅłÅłÅłÅłÅłÅłÅłÅłÅłÅłÅłÅłÅłÅłÅłÅłÅłÅłÅłÅłÅłÅłÅłÅłÅłÅłÅłÅłÅłÅłÅłÅłÅłÅłÅłÅłÅłÅłÅłÅłÅłÅłÅłÅłÅłÅłÅłÅłÅłÅłÅłÅłÅłÅłÅłÅłÅłÅłÅłÅłÅłÅłÅłÅłÅłÅłÅłÅłÅłÅłÅłÅłÅłÅłÅłÅłÅłÅłÅłÅłÅłÅłÅłÅłÅłÅłÅłÅłÅłÅłÅłÅłÅłÅłÅłÅłÅłÅłÅłÅłÅłÅłÅłÅłÅłÅłÅłÅłÅłÅłÅłÅłÅłÅłÅłÅłÅłÅłÅłÅłÅłÅłÅłÅłÅłÅłÅłÅłÅłÅłÅłÅłÅłÅłÅłÅłÅłÅłÅłÅłÅłÅłÅłÅłÅłÅłÅłÅłÅłÅłÅłÅłÅłÅłÅłÅłÅłÅłÅłÅłÅłÅłÅłÅłÅłÅłÅłÅłÅłÅłÅłÅłÅłÅłÅłÅłÅłÅłÅłÅłÅłÅłÅłÅłÅłÅłÅłÅłÅłÅłÅłÅłÅłÅłÅłÅłÅłÅłÅłÅłÅłÅłÅłÅłÅłÅłÅłÅłÅłÅłÅłÅłÅłÅłÅłÅłÅłÅłÅłÅłÅłÅłÅłÅłÅłÅłÅłÅłÅłÅłÅłÅłÅłÅłÅłÅłÅłÅłÅłÅłÅłÅłÅłÅłÅłÅłÅłÅłÅłÅłÅłÅłÅłÅłÅłÅłÅłÅłÅłÅłÅłÅłÅłÅłÅłÅłÅłÅłÅłÅłÅłÅłÅłÅłÅłÅłÅłÅłÅłÅłÅłÅłÅłÅłÅłÅłÅłÅłÅłÅłÅłÅłÅłÅłÅłÅłÅłÅłÅłÅłÅłÅłÅłÅłÅłÅłÅłÅłÅłÅłÅłÅłÅłÅłÅłÅłÅłÅłÅłÅłÅłÅłÅłÅłÅłÅłÅłÅłÅłÅłÅłÅłÅłÅłÅłÅłÅłÅłÅłÅłÅłÅłÅłÅłÅłÅłÅłÅłÅłÅłÅłÅłÅłÅłÅłÅłÅłÅłÅłÅłÅłÅłÅłÅłÅłÅłÅłÅłÅłÅłÅłÅłÅłÅłÅłÅłÅłÅłÅłÅłÅłÅłÅłÅłÅłÅłÅłÅłÅłÅłÅłÅłÅłÅłÅłÅłÅłÅłÅłÅłÅłÅłÅłÅłÅłÅłÅłÅłÅłÅłÅłÅłÅłÅłÅłÅłÅłÅłÅłÅłÅłÅłÅłÅłÅłÅłÅłÅłÅłÅłÅłÅłÅłÅłÅłÅłÅłÅłÅłÅłÅłÅłÅłÅłÅłÅłÅłÅłÅłÅłÅłÅłÅłÅłÅłÅłÅłÅłÅłÅłÅłÅłÅłÅłÅłÅłÅłÅłÅłÅłÅłÅłÅłÅłÅłÅłÅłÅłÅłÅłÅłÅłÅłÅłÅłÅłÅłÅłÅłÅłÅłÅłÅłÅłÅłÅłÅłÅłÅłÅłÅłÅłÅłÅłÅłÅłÅłÅłÅłÅłÅłÅłÅłÅłÅłÅłÅłÅłÅłÅłÅłÅłÅłÅłÅłÅłÅłÅłÅłÅłÅłÅłÅłÅłÅłÅłÅłÅłÅłÅłÅłÅłÅłÅłÅłÅłÅłÅłÅłÅłÅłÅłÅłÅłÅłÅłÅłÅłÅłÅłÅłÅłÅłÅłÅłÅłÅłÅłÅłÅłÅłÅłÅłÅłÅłÅłÅłÅłÅłÅłÅłÅłÅłÅłÅłÅłÅłÅłÅłÅłÅłÅłÅłÅłÅłÅłÅłÅłÅłÅłÅłÅłÅłÅłÅłÅłÅłÅłÅłÅłÅłÅłÅłÅłÅłÅłÅłÅłÅłÅłÅłÅłÅłÅłÅłÅłÅłÅłÅłÅłÅłÅłÅłÅłÅłÅłÅłÅłÅłÅłÅłÅłÅłÅłÅłÅłÅłÅłÅłÅłÅłÅłÅłÅłÅłÅł": 1721,
      "Å¢Å§": 1722,
      "ÇĢ": 1723,
      "ÅłÅłÅłÅłÅłÅłÅłÅłÅłÅłÅłÅłÅłÅĸ": 1724,
      "ÅŁÅłÅłÅłÅłÅłÅłÅłÅłÅłÅłÅłÅłÅłÅŀ": 1725,
      "ÅłÅłÅŁÅ¡Å¡": 1726,
      "ÅļÅ¦": 1727,
      "ÅłÅłÅŀÅ¡": 1728,
      "Å½Æĭ": 1729,
      "ÅŀÅ¡ÅŁ": 1730,
      "ÅłÅ¸": 1731,
      "ÅłÅłÅłÅłÅłÅłÅłÅ«": 1732,
      "Æ·Åĸ": 1733,
      "ÅŀÅĹ": 1734,
      "ÅłÅłÅŁÅŁÅłÅłÅłÅŁ": 1735,
      "Å¬ÅĿ": 1736,
      "Æ¿": 1737,
      "Å¡Å¦": 1738,
      "ÄĬÅĴ": 1739,
      "ÅŁÅłÅłÅłÅłÅłÅłÅłÅł": 1740,
      "Æº": 1741,
      "ÅłÅłÅłÅłÅłÅłÅłÅłÅłÅłÅłÅłÅłÅłÅłÅłÅłÅłÅłÅłÅłÅļ": 1742,
      "ÅħÄĢ": 1743,
      "ÅłÅłÅłÅłÅłÅłÅłÅłÅłÅłÅłÅłÅłÅłÅłÅłÅłÅłÅ¡ÅłÅłÅłÅłÅłÅłÅłÅłÅłÅ¡": 1744,
      "Å¡Å§": 1745,
      "ÅºÆĭÅłÅłÅłÅłÅłÅłÅłÅłÅłÅłÅłÅł": 1746,
      "ÅłÅ·": 1747,
      "ÅłÅ¡Å£": 1748,
      "ÅłÅłÅłÅłÅłÅłÅłÅłÅłÅłÅłÅłÅłÅłÅłÅłÅłÅłÅłÅ¡ÅłÅŁ": 1749,
      "Æ·ÅĻ": 1750,
      "ÅłÅłÅłÅłÅłÅłÅłÅłÅłÅłÅłÅłÅłÅłÅłÅłÅłÅłÅłÅłÅłÅłÅłÅłÅłÅłÅłÅłÅłÅłÅłÅłÅłÅłÅłÅłÅłÅłÅłÅłÅłÅłÅłÅłÅłÅłÅłÅłÅłÅłÅłÅłÅłÅłÅłÅłÅłÅłÅłÅłÅłÅłÅłÅ¡ÅłÅłÅłÅłÅłÅłÅłÅłÅłÅłÅłÅłÅłÅłÅłÅłÅłÅłÅłÅłÅłÅłÅłÅłÅłÅłÅłÅłÅłÅłÅłÅłÅłÅłÅłÅłÅłÅłÅłÅłÅłÅłÅłÅłÅłÅłÅłÅłÅłÅłÅłÅłÅłÅłÅłÅłÅłÅłÅłÅłÅłÅłÅłÅłÅłÅłÅłÅłÅłÅłÅłÅłÅłÅłÅłÅłÅłÅłÅłÅłÅłÅłÅłÅłÅłÅłÅłÅłÅłÅłÅłÅłÅłÅłÅłÅłÅłÅłÅłÅłÅłÅłÅłÅłÅłÅłÅłÅłÅłÅłÅłÅłÅłÅłÅłÅłÅłÅłÅłÅłÅłÅłÅłÅłÅłÅłÅłÅłÅłÅłÅłÅłÅłÅłÅłÅłÅłÅłÅłÅłÅłÅłÅłÅłÅłÅłÅłÅłÅłÅłÅłÅłÅłÅłÅłÅłÅłÅłÅłÅłÅłÅłÅłÅłÅłÅłÅłÅłÅłÅłÅłÅłÅłÅłÅłÅłÅłÅłÅłÅłÅłÅłÅłÅłÅłÅłÅłÅłÅłÅłÅłÅłÅłÅłÅłÅłÅłÅłÅłÅłÅłÅłÅłÅłÅłÅłÅłÅłÅłÅłÅłÅłÅłÅłÅłÅłÅłÅłÅłÅłÅłÅłÅłÅłÅłÅłÅłÅłÅłÅłÅłÅłÅłÅłÅłÅłÅłÅłÅłÅłÅłÅłÅłÅłÅłÅłÅłÅłÅłÅłÅłÅłÅłÅłÅłÅłÅłÅłÅłÅłÅłÅłÅłÅłÅłÅłÅłÅłÅłÅłÅłÅłÅłÅłÅłÅłÅłÅłÅłÅłÅłÅłÅłÅłÅłÅłÅłÅłÅłÅłÅłÅłÅłÅłÅłÅłÅłÅłÅłÅłÅłÅłÅłÅłÅłÅłÅłÅłÅłÅłÅłÅłÅłÅłÅłÅłÅłÅłÅłÅłÅłÅłÅłÅłÅłÅłÅłÅłÅłÅłÅłÅłÅłÅłÅłÅłÅłÅłÅłÅłÅłÅłÅłÅłÅłÅłÅłÅłÅłÅłÅłÅłÅłÅłÅłÅłÅłÅłÅłÅłÅłÅłÅłÅłÅłÅłÅłÅłÅłÅłÅłÅłÅłÅłÅłÅłÅłÅłÅłÅłÅłÅłÅłÅłÅłÅłÅłÅłÅłÅłÅłÅłÅłÅłÅłÅłÅłÅłÅłÅłÅłÅłÅłÅłÅłÅłÅłÅłÅłÅłÅłÅłÅłÅłÅłÅłÅłÅłÅłÅłÅłÅłÅłÅłÅłÅłÅłÅłÅłÅłÅłÅłÅłÅłÅłÅłÅłÅłÅłÅłÅłÅłÅłÅłÅłÅłÅłÅłÅłÅłÅłÅłÅłÅłÅłÅłÅłÅłÅłÅłÅłÅłÅłÅłÅłÅłÅłÅłÅłÅłÅłÅłÅłÅłÅłÅłÅłÅłÅłÅłÅłÅłÅłÅłÅłÅłÅłÅłÅłÅłÅłÅłÅłÅłÅłÅłÅłÅłÅłÅłÅłÅłÅłÅłÅłÅłÅłÅłÅłÅłÅłÅłÅłÅłÅłÅłÅłÅłÅłÅłÅłÅłÅłÅłÅłÅłÅłÅłÅłÅłÅłÅłÅłÅłÅłÅłÅłÅłÅłÅłÅłÅłÅłÅłÅłÅłÅłÅłÅłÅłÅłÅłÅłÅłÅłÅłÅłÅłÅłÅłÅłÅłÅłÅłÅłÅłÅłÅłÅłÅłÅłÅłÅłÅłÅłÅłÅłÅłÅłÅłÅłÅłÅłÅłÅłÅłÅłÅłÅłÅłÅłÅłÅłÅłÅłÅłÅłÅłÅłÅłÅłÅłÅłÅłÅłÅłÅłÅłÅłÅłÅłÅłÅłÅłÅłÅłÅłÅłÅłÅłÅłÅłÅłÅłÅłÅłÅł": 1751,
      "ÅłÅłÅłÅłÅłÅłÅłÅłÅłÅłÅłÅłÅłÅłÅ¥ÅłÅłÅłÅłÅłÅłÅłÅłÅłÅ§": 1752,
      "ÅłÅłÅłÅłÅłÅłÅłÅłÅłÅłÅłÅłÅłÅłÅłÅłÅŁÅłÅ¡": 1753,
      "Çĥ": 1754,
      "ÅłÅłÅłÅłÅłÅłÅłÅłÅłÅłÅłÅłÅłÅłÅłÅłÅłÅłÅłÅłÅłÅłÅłÅłÅłÅłÅłÅłÅłÅłÅłÅŁÅłÅłÅłÅłÅłÅłÅłÅłÅłÅłÅłÅłÅłÅłÅłÅłÅłÅłÅłÅłÅłÅłÅłÅłÅłÅłÅłÅłÅłÅłÅłÅłÅłÅłÅłÅłÅłÅłÅłÅłÅłÅłÅłÅłÅłÅłÅłÅłÅłÅłÅłÅłÅłÅłÅłÅłÅłÅłÅłÅłÅłÅłÅłÅłÅłÅłÅłÅłÅłÅłÅłÅłÅłÅłÅłÅłÅłÅłÅłÅłÅłÅłÅłÅłÅłÅłÅłÅłÅłÅłÅłÅłÅłÅłÅłÅłÅłÅłÅłÅłÅłÅłÅłÅłÅłÅłÅłÅłÅłÅłÅłÅłÅłÅłÅłÅłÅłÅłÅłÅłÅłÅłÅłÅłÅłÅłÅłÅłÅłÅłÅłÅłÅłÅłÅłÅłÅłÅłÅłÅłÅłÅłÅłÅłÅłÅłÅłÅłÅłÅłÅłÅłÅłÅłÅłÅłÅłÅłÅłÅłÅłÅłÅłÅłÅłÅłÅłÅłÅłÅłÅłÅłÅłÅłÅłÅłÅłÅłÅłÅłÅłÅłÅłÅłÅłÅłÅłÅłÅłÅłÅłÅłÅłÅłÅłÅłÅłÅłÅłÅłÅłÅłÅłÅłÅłÅłÅłÅłÅłÅłÅłÅłÅłÅłÅłÅłÅłÅłÅłÅłÅłÅłÅłÅłÅłÅłÅłÅłÅłÅłÅłÅłÅłÅłÅłÅłÅłÅłÅłÅłÅłÅłÅłÅłÅłÅłÅłÅłÅłÅłÅłÅłÅłÅłÅłÅłÅłÅłÅłÅłÅłÅłÅłÅłÅłÅłÅłÅłÅłÅłÅłÅłÅłÅłÅłÅłÅłÅłÅłÅłÅłÅłÅłÅłÅłÅłÅłÅłÅłÅłÅłÅłÅłÅłÅłÅłÅłÅłÅłÅłÅłÅłÅłÅłÅłÅłÅłÅłÅłÅłÅłÅłÅłÅłÅłÅłÅłÅłÅłÅłÅłÅłÅłÅłÅłÅłÅłÅłÅłÅłÅłÅłÅłÅłÅłÅłÅłÅłÅłÅłÅłÅłÅłÅłÅłÅłÅłÅłÅłÅłÅłÅłÅłÅłÅłÅłÅłÅłÅłÅłÅłÅłÅłÅłÅłÅłÅłÅłÅłÅłÅłÅłÅłÅłÅłÅłÅłÅłÅłÅłÅłÅłÅłÅłÅłÅłÅłÅłÅłÅłÅłÅłÅłÅłÅłÅłÅłÅłÅłÅłÅłÅłÅłÅłÅłÅłÅłÅłÅłÅłÅłÅłÅłÅłÅłÅłÅłÅłÅłÅłÅłÅłÅłÅłÅłÅłÅłÅłÅłÅłÅłÅłÅłÅłÅłÅłÅłÅłÅłÅłÅłÅłÅłÅłÅłÅłÅłÅłÅłÅłÅłÅłÅłÅłÅłÅłÅłÅłÅłÅłÅłÅłÅłÅłÅłÅłÅłÅłÅłÅłÅłÅłÅłÅłÅłÅłÅłÅłÅłÅłÅłÅłÅłÅłÅłÅłÅłÅłÅłÅłÅłÅłÅłÅłÅłÅłÅłÅłÅłÅłÅłÅłÅłÅłÅłÅłÅłÅłÅłÅłÅłÅłÅłÅłÅłÅłÅłÅłÅłÅłÅłÅłÅłÅłÅłÅłÅłÅłÅłÅłÅłÅłÅłÅłÅłÅłÅłÅłÅłÅłÅłÅłÅłÅłÅłÅłÅłÅłÅłÅłÅłÅłÅłÅłÅłÅłÅłÅłÅłÅłÅłÅłÅłÅłÅłÅłÅłÅłÅłÅłÅłÅłÅłÅłÅłÅłÅłÅłÅłÅłÅłÅłÅłÅłÅłÅłÅłÅłÅłÅłÅłÅłÅłÅłÅłÅłÅłÅłÅłÅłÅłÅłÅłÅłÅłÅłÅłÅłÅłÅłÅłÅłÅłÅłÅłÅłÅłÅłÅłÅłÅłÅłÅłÅłÅłÅłÅłÅłÅłÅłÅłÅłÅłÅłÅłÅłÅłÅłÅłÅłÅłÅłÅłÅłÅłÅłÅłÅłÅłÅłÅłÅłÅłÅłÅłÅłÅłÅłÅłÅłÅłÅł": 1755,
      "ÅŁÅĸ": 1756,
      "ÅłÅłÅłÅłÅłÅłÅłÅłÅłÆ": 1757,
      "ÅĽÅ¢": 1758,
      "ÅłÅłÅłÅľ": 1759,
      "Å¡ÅłÅłÅłÅłÅłÅłÅłÅł": 1760,
      "Å¡ÅŁÅłÅ¡Å¡": 1761,
      "ÅŁÅłÅŀ": 1762,
      "Æ¾": 1763,
      "ÅľÅĻ": 1764,
      "ÅĹÅļ": 1765,
      "ÅłÅ¹": 1766,
      "ÅłÅłÅłÅłÅłÅłÅłÅłÅłÅłÅłÅłÅłÅłÅŃ": 1767,
      "Ã´": 1768,
      "ÅłÅ¶": 1769,
      "ÅĽÅ¤": 1770,
      "ÄĺÅ§Æ¤": 1771,
      "ÅłÅŀÅłÅłÅłÅŁ": 1772,
      "ÅłÅłÅłÅłÅłÅłÅłÅłÅłÅłÅłÅłÅłÅłÅłÅłÅłÅłÅłÅłÅłÅłÅłÅłÅłÅłÅłÅłÅŁÅłÅłÅłÅłÅłÅłÅłÅłÅłÅłÅłÅłÅłÅłÅłÅłÅłÅłÅłÅłÅłÅłÅłÅłÅłÅłÅłÅłÅłÅłÅłÅłÅłÅłÅłÅłÅłÅłÅłÅłÅłÅłÅłÅłÅłÅłÅłÅłÅłÅłÅłÅłÅłÅłÅłÅłÅłÅłÅłÅłÅłÅłÅłÅłÅłÅłÅłÅłÅłÅłÅłÅłÅłÅłÅłÅłÅłÅłÅłÅłÅłÅłÅłÅłÅłÅłÅłÅłÅłÅłÅłÅłÅłÅłÅłÅłÅłÅłÅłÅłÅłÅłÅłÅłÅłÅłÅłÅłÅłÅłÅłÅłÅłÅłÅłÅłÅłÅłÅłÅłÅłÅłÅłÅłÅłÅłÅłÅłÅłÅłÅłÅłÅłÅłÅłÅłÅłÅłÅłÅłÅłÅłÅłÅłÅłÅłÅłÅłÅłÅłÅłÅłÅłÅłÅłÅłÅłÅłÅłÅłÅłÅłÅłÅłÅłÅłÅłÅłÅłÅłÅłÅłÅłÅłÅłÅłÅłÅłÅłÅłÅłÅłÅłÅłÅłÅłÅłÅłÅłÅłÅłÅłÅłÅłÅłÅłÅłÅłÅłÅłÅłÅłÅłÅłÅłÅłÅłÅłÅłÅłÅłÅłÅłÅłÅłÅłÅłÅłÅłÅłÅłÅłÅłÅłÅłÅłÅłÅłÅłÅłÅłÅłÅłÅłÅłÅłÅłÅłÅłÅłÅłÅłÅłÅłÅłÅłÅłÅłÅłÅłÅłÅłÅłÅłÅłÅłÅłÅłÅłÅłÅłÅłÅłÅłÅłÅłÅłÅłÅłÅłÅłÅłÅłÅłÅłÅłÅłÅłÅłÅłÅłÅłÅłÅłÅłÅłÅłÅłÅłÅłÅłÅłÅłÅłÅłÅłÅłÅłÅłÅłÅłÅłÅłÅłÅłÅłÅłÅłÅłÅłÅłÅłÅłÅłÅłÅłÅłÅłÅłÅłÅłÅłÅłÅłÅłÅłÅłÅłÅłÅłÅłÅłÅłÅłÅłÅłÅłÅłÅłÅłÅłÅłÅłÅłÅłÅłÅłÅłÅłÅłÅłÅłÅłÅłÅłÅłÅłÅłÅłÅłÅłÅłÅłÅłÅłÅłÅłÅłÅłÅłÅłÅłÅłÅłÅłÅłÅłÅłÅłÅłÅłÅłÅłÅłÅłÅłÅłÅłÅłÅłÅłÅłÅłÅłÅłÅłÅłÅłÅłÅłÅłÅłÅłÅłÅłÅłÅłÅłÅłÅłÅłÅłÅłÅłÅłÅłÅłÅłÅłÅłÅłÅłÅłÅłÅłÅłÅłÅłÅłÅłÅłÅłÅłÅłÅłÅłÅłÅłÅłÅłÅłÅłÅłÅłÅłÅłÅłÅłÅłÅłÅłÅłÅłÅłÅłÅłÅłÅłÅłÅłÅłÅłÅłÅłÅłÅłÅłÅłÅłÅłÅłÅłÅłÅłÅłÅłÅłÅłÅłÅłÅłÅłÅłÅłÅłÅłÅłÅłÅłÅłÅłÅłÅłÅłÅłÅłÅłÅłÅłÅłÅłÅłÅłÅłÅłÅłÅłÅłÅłÅłÅłÅłÅłÅłÅłÅłÅłÅłÅłÅłÅłÅłÅłÅłÅłÅłÅłÅłÅłÅłÅłÅłÅłÅłÅłÅłÅłÅłÅłÅłÅłÅłÅłÅłÅłÅłÅłÅłÅłÅłÅłÅłÅłÅłÅłÅłÅłÅłÅłÅłÅłÅłÅłÅłÅłÅłÅłÅłÅłÅłÅłÅłÅłÅłÅłÅłÅłÅłÅłÅłÅłÅłÅłÅłÅłÅłÅłÅłÅłÅłÅłÅłÅłÅłÅłÅłÅłÅłÅłÅłÅłÅłÅłÅłÅłÅłÅłÅłÅłÅłÅłÅłÅłÅłÅłÅłÅłÅłÅłÅłÅłÅłÅłÅłÅłÅłÅłÅłÅłÅł": 1773,
      "ÅŀÅ©": 1774,
      "ÅłÅłÅłÅłÅłÅłÅłÅłÅłÅłÅłÅłÅłÅłÅłÅłÅłÅłÅłÅłÅłÅŀÅłÅłÅłÅłÅłÅłÅłÅłÅłÅ¢": 1775,
      "Å¢Å¡ÅŁ": 1776,
      "ÅĽÅľ": 1777,
      "ÅłÅłÅłÅłÅłÅłÅłÅłÅłÅłÅłÅłÅłÅłÅłÅłÅłÅłÅłÅłÅłÅłÅłÅłÅłÅłÅłÅłÅłÅłÅłÅ¡ÅłÅłÅłÅłÅłÅłÅłÅłÅłÅłÅłÅłÅłÅłÅłÅłÅłÅłÅłÅłÅłÅłÅłÅłÅłÅłÅłÅłÅłÅłÅłÅłÅłÅłÅłÅłÅłÅłÅłÅłÅłÅłÅłÅłÅłÅłÅłÅłÅłÅłÅłÅłÅłÅłÅłÅłÅłÅłÅłÅłÅłÅłÅłÅłÅłÅłÅłÅłÅłÅłÅłÅłÅłÅłÅłÅłÅłÅłÅłÅłÅłÅłÅłÅłÅłÅłÅłÅłÅłÅłÅłÅłÅłÅłÅłÅłÅłÅłÅłÅłÅłÅłÅłÅłÅłÅłÅłÅłÅłÅłÅłÅłÅłÅłÅłÅłÅłÅłÅłÅłÅłÅłÅłÅłÅłÅłÅłÅłÅłÅłÅłÅłÅłÅłÅłÅłÅłÅłÅłÅłÅłÅłÅłÅłÅłÅłÅłÅłÅłÅłÅłÅłÅłÅłÅłÅłÅłÅłÅłÅłÅłÅłÅłÅłÅłÅłÅłÅłÅłÅłÅłÅłÅłÅłÅłÅłÅłÅłÅłÅłÅłÅłÅłÅłÅłÅłÅłÅłÅłÅłÅłÅłÅłÅłÅłÅłÅłÅłÅłÅłÅłÅłÅłÅłÅłÅłÅłÅłÅłÅłÅłÅłÅłÅłÅłÅłÅłÅłÅłÅłÅłÅłÅłÅłÅłÅłÅłÅłÅłÅłÅłÅłÅłÅłÅłÅłÅłÅłÅłÅłÅłÅłÅłÅłÅłÅłÅłÅłÅłÅłÅłÅłÅłÅłÅłÅłÅłÅłÅłÅłÅłÅłÅłÅłÅłÅłÅłÅłÅłÅłÅłÅłÅłÅłÅłÅłÅłÅłÅłÅłÅłÅłÅłÅłÅłÅłÅłÅłÅłÅłÅłÅłÅłÅłÅłÅłÅłÅłÅłÅłÅłÅłÅłÅłÅłÅłÅłÅłÅłÅłÅłÅłÅłÅłÅłÅłÅłÅłÅłÅłÅłÅłÅłÅłÅłÅłÅłÅłÅłÅłÅłÅłÅłÅłÅłÅłÅłÅłÅłÅłÅłÅłÅłÅłÅłÅłÅłÅłÅłÅłÅłÅłÅłÅłÅłÅłÅłÅłÅłÅłÅłÅłÅłÅłÅłÅłÅłÅłÅłÅłÅłÅłÅłÅłÅłÅłÅłÅłÅłÅłÅłÅłÅłÅłÅłÅłÅłÅłÅłÅłÅłÅłÅłÅłÅłÅłÅłÅłÅłÅłÅłÅłÅłÅłÅłÅłÅłÅłÅłÅłÅłÅłÅłÅłÅłÅłÅłÅłÅłÅłÅłÅłÅłÅłÅłÅłÅłÅłÅłÅłÅłÅłÅłÅłÅłÅłÅłÅłÅłÅłÅłÅłÅłÅłÅłÅłÅłÅłÅłÅłÅłÅłÅłÅłÅłÅłÅłÅłÅłÅłÅłÅłÅłÅłÅłÅłÅłÅłÅłÅłÅłÅłÅłÅłÅłÅłÅłÅłÅłÅłÅłÅłÅłÅłÅłÅłÅłÅłÅłÅłÅłÅłÅłÅłÅłÅłÅłÅłÅłÅłÅłÅłÅłÅłÅłÅłÅłÅłÅłÅłÅłÅłÅłÅłÅłÅłÅłÅłÅłÅłÅłÅłÅłÅłÅłÅłÅłÅłÅłÅłÅłÅłÅłÅłÅłÅłÅłÅłÅłÅłÅłÅłÅłÅłÅłÅłÅłÅłÅłÅłÅłÅłÅłÅłÅłÅłÅłÅłÅłÅłÅłÅłÅłÅłÅłÅłÅłÅłÅłÅłÅłÅłÅłÅłÅłÅłÅłÅłÅłÅłÅłÅłÅłÅłÅłÅłÅłÅłÅłÅłÅłÅłÅłÅłÅłÅłÅłÅłÅłÅłÅłÅłÅłÅłÅłÅłÅłÅłÅłÅłÅłÅłÅłÅłÅłÅłÅłÅłÅłÅłÅłÅłÅłÅłÅłÅłÅłÅłÅłÅłÅłÅłÅłÅłÅłÅłÅłÅłÅłÅłÅłÅłÅłÅłÅłÅłÅłÅłÅłÅłÅłÅłÅłÅłÅłÅłÅłÅłÅłÅłÅłÅłÅłÅłÅłÅłÅłÅłÅłÅłÅłÅłÅłÅłÅłÅłÅłÅłÅłÅłÅłÅłÅłÅł": 1778,
      "ÅłÅłÅłÅłÅłÅłÅłÅłÅłÅłÅłÅłÅłÅłÅłÅłÅłÅłÅłÅ¡Å¡": 1779,
      "ÅŁÅłÅ¡ÅŁ": 1780,
      "Çĳ": 1781,
      "Å£Å§": 1782,
      "ÅłÅłÅłÅłÅłÅłÅłÅłÅłÅłÅłÅłÅłÅłÅłÅłÅłÅłÅłÅłÅłÅłÅłÅłÅłÅłÅłÅłÅłÅłÅłÅ¡ÅłÅłÅłÅłÅłÅłÅłÅłÅłÅłÅłÅłÅłÅłÅłÅłÅłÅłÅłÅłÅłÅłÅłÅłÅłÅłÅłÅłÅłÅłÅłÅ¡ÅłÅłÅłÅłÅłÅłÅłÅłÅłÅłÅłÅłÅłÅłÅłÅłÅłÅłÅłÅłÅłÅłÅłÅłÅłÅłÅłÅłÅłÅłÅłÅ¡": 1783,
      "ÄĳÅłÅłÅłÅłÅłÅłÅłÅłÅłÅłÅłÅłÅ¡": 1784,
      "Æ»": 1785,
      "ÅłÅłÅŁÅłÅłÅ¡": 1786,
      "Å©Æ¤Ä": 1787,
      "ÅłÅłÅłÅłÅłÅłÅłÅłÅłÅłÅłÅłÅłÅłÅłÅłÅłÅłÅłÅłÅłÅ¢ÅłÅłÅłÅłÅłÅłÅłÅłÅłÅŀ": 1788,
      "ÆĭÅłÅłÅłÅłÅłÅłÅłÅłÅłÅłÅłÅłÅ¡": 1789,
      "ÅłÅłÅłÅłÅłÅłÅłÅłÅłÅłÅłÅłÅŀ": 1790,
      "ÅŀÅłÅłÅłÅłÅłÅłÅłÅłÅłÅłÅłÅłÅłÅ¡": 1791,
      "Å¾ÆĭÅłÅłÅłÅłÅłÅłÅłÅłÅłÅłÅłÅłÅłÅł": 1792,
      "ÅłÅłÅłÅłÅłÅłÅłÅłÅłÅłÅłÅłÅłÅłÅłÅłÅłÅłÅłÅłÅłÅłÅłÅłÅłÅłÅłÅłÅłÅłÅłÅłÅłÅłÅłÅłÅłÅłÅłÅłÅłÅłÅłÅłÅłÅłÅłÅłÅłÅłÅłÅłÅłÅłÅłÅłÅłÅłÅłÅłÅłÅłÅłÅŁÅłÅłÅłÅłÅłÅłÅłÅłÅłÅłÅłÅłÅłÅłÅłÅłÅłÅłÅłÅłÅłÅłÅłÅłÅłÅłÅłÅłÅłÅłÅłÅłÅłÅłÅłÅłÅłÅłÅłÅłÅłÅłÅłÅłÅłÅłÅłÅłÅłÅłÅłÅłÅłÅłÅłÅłÅłÅłÅłÅłÅłÅłÅłÅłÅłÅłÅłÅłÅłÅłÅłÅłÅłÅłÅłÅłÅłÅłÅłÅłÅłÅłÅłÅłÅłÅłÅłÅłÅłÅłÅłÅłÅłÅłÅłÅłÅłÅłÅłÅłÅłÅłÅłÅłÅłÅłÅłÅłÅłÅłÅłÅłÅłÅłÅłÅłÅłÅłÅłÅłÅłÅłÅłÅłÅłÅłÅłÅłÅłÅłÅłÅłÅłÅłÅłÅłÅłÅłÅłÅłÅłÅłÅłÅłÅłÅłÅłÅłÅłÅłÅłÅłÅłÅłÅłÅłÅłÅłÅłÅłÅłÅłÅłÅłÅłÅłÅłÅłÅłÅłÅłÅłÅłÅłÅłÅłÅłÅłÅłÅłÅłÅłÅłÅłÅłÅłÅłÅłÅłÅłÅłÅłÅłÅłÅłÅłÅłÅłÅłÅłÅłÅłÅłÅłÅłÅłÅłÅłÅłÅłÅłÅłÅłÅłÅłÅłÅłÅłÅłÅłÅłÅłÅłÅłÅłÅłÅłÅłÅłÅłÅłÅłÅłÅłÅłÅłÅłÅłÅłÅłÅłÅłÅłÅłÅłÅłÅłÅłÅłÅłÅłÅłÅłÅłÅłÅłÅłÅłÅłÅłÅłÅłÅłÅłÅłÅłÅłÅłÅłÅłÅłÅłÅłÅłÅłÅłÅłÅłÅłÅłÅłÅłÅłÅłÅłÅłÅłÅłÅłÅłÅłÅłÅłÅłÅłÅłÅłÅłÅłÅłÅłÅłÅłÅłÅłÅłÅłÅłÅłÅłÅłÅłÅłÅłÅłÅłÅłÅłÅłÅłÅłÅłÅłÅłÅłÅłÅłÅłÅłÅłÅłÅłÅłÅłÅłÅłÅłÅłÅłÅłÅłÅłÅłÅłÅłÅłÅłÅłÅłÅłÅłÅłÅłÅłÅłÅłÅłÅłÅłÅłÅłÅłÅłÅłÅłÅłÅłÅłÅłÅłÅłÅłÅłÅłÅłÅłÅłÅłÅłÅłÅłÅłÅłÅłÅłÅłÅłÅłÅłÅłÅłÅłÅłÅłÅłÅłÅłÅłÅłÅłÅłÅłÅłÅłÅłÅłÅłÅłÅłÅłÅłÅłÅłÅłÅłÅłÅłÅłÅłÅłÅłÅłÅłÅłÅłÅłÅłÅłÅłÅłÅłÅłÅłÅłÅłÅłÅłÅłÅłÅłÅłÅłÅłÅłÅłÅłÅłÅłÅłÅłÅłÅłÅłÅłÅłÅłÅłÅłÅłÅłÅłÅłÅłÅłÅłÅłÅłÅłÅłÅłÅłÅłÅłÅłÅłÅłÅłÅłÅłÅłÅłÅłÅłÅłÅłÅłÅłÅłÅłÅłÅłÅłÅłÅłÅłÅłÅłÅłÅłÅłÅłÅłÅłÅłÅłÅłÅłÅłÅłÅłÅłÅłÅłÅłÅłÅłÅłÅłÅłÅłÅłÅłÅłÅłÅłÅłÅłÅłÅłÅłÅłÅłÅłÅłÅłÅłÅłÅłÅłÅłÅłÅłÅłÅłÅłÅłÅłÅłÅłÅłÅłÅłÅłÅłÅłÅłÅłÅłÅłÅłÅłÅłÅłÅłÅłÅłÅłÅłÅłÅłÅłÅłÅłÅłÅłÅłÅłÅłÅłÅłÅłÅłÅłÅłÅłÅłÅłÅłÅłÅłÅłÅłÅłÅłÅłÅłÅłÅłÅłÅłÅłÅłÅłÅłÅłÅłÅłÅłÅłÅłÅłÅłÅłÅłÅłÅłÅłÅłÅłÅłÅłÅłÅłÅłÅłÅłÅł": 1793,
      "Å¢ÅłÅ¢": 1794,
      "ÇĬ": 1795,
      "ÆĴÅ§ÄŃÆĪÅ¹ÆĸÆĭÅªÅŀ": 1796,
      "ÅłÅłÅŀÅŁ": 1797,
      "Ã¾": 1798,
      "ÅłÅłÅłÅłÅłÅłÅłÅłÅłÅłÅłÅłÅłÅłÅłÅłÅłÅłÅłÅłÅłÅłÅłÅłÅłÅłÅłÅłÅłÅłÅłÅŁÅłÅłÅłÅłÅłÅłÅłÅłÅłÅłÅłÅłÅłÅłÅłÅłÅłÅłÅłÅłÅłÅłÅłÅłÅłÅłÅłÅłÅłÅłÅłÅłÅłÅłÅłÅłÅłÅłÅłÅłÅłÅłÅłÅłÅłÅłÅłÅłÅłÅłÅłÅłÅłÅłÅłÅłÅłÅłÅłÅłÅłÅłÅłÅłÅłÅłÅłÅłÅłÅłÅłÅłÅłÅłÅłÅłÅłÅłÅłÅłÅłÅłÅłÅłÅłÅłÅłÅłÅłÅłÅłÅłÅłÅłÅłÅłÅłÅłÅłÅłÅłÅłÅłÅłÅłÅłÅłÅłÅłÅłÅłÅłÅłÅłÅłÅłÅłÅłÅłÅłÅłÅłÅłÅłÅłÅłÅłÅłÅłÅłÅłÅłÅłÅłÅłÅłÅłÅłÅłÅłÅłÅłÅłÅłÅłÅłÅłÅłÅłÅłÅłÅłÅłÅłÅłÅłÅłÅłÅłÅłÅłÅłÅłÅłÅłÅłÅłÅłÅłÅłÅłÅłÅłÅłÅłÅłÅłÅłÅłÅłÅłÅłÅłÅłÅłÅłÅłÅłÅłÅłÅłÅłÅłÅłÅłÅłÅłÅłÅłÅłÅłÅłÅłÅłÅłÅłÅłÅłÅłÅłÅłÅłÅłÅłÅłÅłÅłÅłÅłÅłÅłÅłÅłÅłÅłÅłÅłÅłÅłÅłÅłÅłÅłÅłÅłÅłÅłÅłÅłÅłÅłÅłÅłÅłÅłÅłÅłÅłÅłÅłÅłÅłÅłÅłÅłÅłÅłÅłÅłÅłÅłÅłÅłÅłÅłÅłÅłÅłÅłÅłÅłÅłÅłÅłÅłÅłÅłÅłÅłÅłÅłÅłÅłÅłÅłÅłÅłÅłÅłÅłÅłÅłÅłÅłÅłÅłÅłÅłÅłÅłÅłÅłÅłÅłÅłÅłÅłÅłÅłÅłÅłÅłÅłÅłÅłÅłÅłÅłÅłÅłÅłÅłÅłÅłÅłÅłÅłÅłÅłÅłÅłÅłÅłÅłÅłÅłÅłÅłÅłÅłÅłÅłÅłÅłÅłÅłÅłÅłÅłÅłÅłÅłÅłÅłÅłÅłÅłÅłÅłÅłÅłÅłÅłÅłÅłÅłÅłÅłÅłÅłÅłÅłÅłÅłÅłÅłÅłÅłÅłÅłÅłÅłÅłÅłÅłÅłÅłÅłÅłÅłÅłÅłÅłÅłÅłÅłÅłÅłÅłÅłÅłÅłÅłÅłÅłÅłÅłÅłÅłÅłÅłÅłÅłÅłÅłÅłÅłÅłÅłÅłÅłÅłÅłÅłÅłÅłÅłÅłÅłÅłÅłÅłÅłÅłÅłÅłÅłÅłÅłÅłÅłÅłÅłÅłÅłÅłÅłÅłÅłÅłÅłÅłÅłÅłÅłÅłÅłÅłÅłÅłÅłÅłÅłÅłÅłÅłÅłÅłÅłÅłÅłÅłÅłÅłÅłÅłÅłÅłÅłÅłÅłÅłÅłÅłÅłÅłÅłÅłÅłÅłÅłÅłÅłÅłÅłÅłÅłÅłÅłÅłÅłÅłÅłÅłÅłÅłÅłÅłÅłÅłÅłÅłÅłÅłÅłÅłÅłÅłÅłÅłÅłÅłÅłÅłÅłÅłÅłÅłÅłÅłÅłÅłÅłÅłÅłÅłÅłÅłÅłÅłÅłÅłÅłÅłÅłÅłÅłÅłÅłÅłÅłÅłÅłÅłÅłÅłÅłÅłÅłÅłÅłÅłÅłÅłÅłÅłÅłÅłÅłÅłÅłÅłÅłÅłÅłÅłÅłÅłÅłÅłÅłÅłÅłÅłÅłÅłÅłÅłÅłÅłÅłÅłÅłÅłÅłÅłÅłÅłÅłÅłÅłÅłÅłÅłÅłÅłÅłÅłÅłÅłÅłÅłÅłÅłÅłÅłÅłÅłÅłÅłÅłÅłÅłÅłÅłÅłÅłÅłÅłÅłÅłÅłÅłÅłÅłÅłÅłÅłÅłÅłÅłÅłÅłÅłÅłÅłÅłÅłÅłÅłÅłÅłÅłÅłÅłÅłÅłÅłÅłÅłÅłÅłÅłÅłÅłÅłÅłÅłÅłÅłÅłÅłÅłÅłÅłÅłÅłÅłÅłÅłÅłÅłÅłÅłÅłÅłÅłÅłÅłÅłÅłÅłÅłÅłÅłÅłÅłÅłÅłÅłÅłÅłÅłÅłÅłÅłÅłÅłÅłÅłÅłÅłÅłÅłÅłÅłÅłÅłÅłÅłÅłÅłÅłÅłÅłÅłÅłÅłÅłÅłÅłÅłÅłÅłÅłÅłÅłÅłÅłÅłÅłÅłÅłÅłÅłÅłÅłÅłÅłÅłÅłÅłÅłÅłÅł": 1799,
      "Å¢ÅŁÅŁ": 1800,
      "ÅłÅłÅłÅłÅłÅłÅłÅłÅłÅłÅłÅłÅłÅłÅłÅłÅłÅłÅłÅłÅłÅłÅłÅłÅŁÅłÅłÅłÅłÅłÅłÅ¡": 1801,
      "ÅłÅłÅ©": 1802,
      "Å¥Åĺ": 1803,
      "ÅłÅłÅŁÅłÅłÅłÅłÅłÅłÅłÅłÅłÅłÅłÅłÅłÅłÅłÅłÅłÅłÅłÅłÅłÅłÅłÅłÅłÅłÅłÅłÅŁ": 1804,
      "Ã¬": 1805,
      "Å¥Å¤": 1806,
      "ÅłÅłÅ¡ÅłÅłÅłÅłÅłÅłÅłÅłÅłÅłÅłÅłÅłÅłÅłÅłÅŁ": 1807,
      "ÅłÅłÅłÅłÅłÅłÅłÅłÅłÅłÅłÅłÅłÅłÅłÅłÅłÅŀ": 1808,
      "ÅłÅłÅłÅłÅłÅłÅłÅ¡Å¡": 1809,
      "ÅĽÅ£": 1810,
      "ÅłÅłÅ¡ÅŁÅŁ": 1811,
      "Å«Å¡": 1812,
      "ÅłÅłÅłÅłÅłÅłÅłÅłÅłÅłÅłÅłÅłÅŁÅ¢": 1813,
      "ÅĽÅļ": 1814,
      "ÅłÅłÅłÅłÅłÅłÅłÅłÅłÅłÅłÅłÅłÅłÅłÅłÅ¡ÅłÅłÅłÅłÅłÅłÅłÅłÅłÅ¡": 1815,
      "ÅłÅłÅłÅłÅłÅłÅłÅłÅłÅłÅłÅłÅłÅłÅłÅłÅłÅłÅłÅłÅłÅŁÅłÅłÅłÅłÅłÅłÅłÅłÅłÅŁÅłÅłÅłÅłÅłÅłÅłÅłÅłÅłÅłÅłÅłÅłÅłÅłÅłÅłÅłÅłÅłÅ¡ÅłÅłÅłÅłÅłÅłÅłÅłÅłÅ¡": 1816,
      "ÅĿÅłÅŁ": 1817,
      "Å¥Åľ": 1818,
      "ÅłÅłÅłÅłÅłÅłÅłÅĹ": 1819,
      "ÆĴÅ¦": 1820,
      "Å¼Æĭ": 1821,
      "Å¥Åŀ": 1822,
      "ÅłÅłÅłÅłÅłÅłÅłÅłÅłÅłÅłÅłÅłÅłÅ©ÅłÅłÅłÅłÅłÅłÅłÅłÅłÅ": 1823,
      "ÅŁÅ©": 1824,
      "ÅłÅłÅłÅłÅłÅłÅłÅ¬": 1825,
      "ÅĻÅ§": 1826,
      "ÅĽÅ§": 1827,
      "ÅłÅłÅłÅłÅłÅłÅłÅłÅłÅłÅłÅłÅłÅłÅ¦ÅłÅłÅłÅłÅłÅłÅłÅłÅłÅ¨": 1828,
      "ÅłÅłÅłÅłÅłÅłÅłÅłÅłÅłÅłÅłÅłÅłÅłÅłÅłÅłÅłÅłÅłÅłÅłÅłÅłÅłÅłÅłÅłÅłÅłÅłÅłÅłÅłÅłÅłÅłÅłÅłÅłÅłÅłÅłÅłÅłÅłÅłÅłÅłÅłÅłÅłÅłÅłÅłÅłÅłÅłÅłÅłÅłÅłÅłÅłÅłÅłÅłÅłÅłÅłÅłÅłÅłÅłÅłÅłÅłÅłÅłÅłÅłÅłÅłÅłÅłÅłÅłÅłÅłÅłÅłÅłÅłÅłÅłÅłÅłÅłÅłÅłÅłÅłÅłÅłÅłÅłÅłÅłÅłÅłÅłÅłÅłÅłÅłÅłÅłÅłÅłÅłÅłÅłÅłÅłÅłÅłÅŁÅłÅłÅłÅłÅłÅłÅłÅłÅłÅłÅłÅłÅłÅłÅłÅłÅłÅłÅłÅłÅłÅłÅłÅłÅłÅłÅłÅłÅłÅłÅłÅłÅłÅłÅłÅłÅłÅłÅłÅłÅłÅłÅłÅłÅłÅłÅłÅłÅłÅłÅłÅłÅłÅłÅłÅłÅłÅłÅłÅłÅłÅłÅłÅłÅłÅłÅłÅłÅłÅłÅłÅłÅłÅłÅłÅłÅłÅłÅłÅłÅłÅłÅłÅłÅłÅłÅłÅłÅłÅłÅłÅłÅłÅłÅłÅłÅłÅłÅłÅłÅłÅłÅłÅłÅłÅłÅłÅłÅłÅłÅłÅłÅłÅłÅłÅłÅłÅłÅłÅłÅłÅłÅłÅłÅłÅłÅłÅłÅłÅłÅłÅłÅłÅłÅłÅłÅłÅłÅłÅłÅłÅłÅłÅłÅłÅłÅłÅłÅłÅłÅłÅłÅłÅłÅłÅłÅłÅłÅłÅłÅłÅłÅłÅłÅłÅłÅłÅłÅłÅłÅłÅłÅłÅłÅłÅłÅłÅłÅłÅłÅłÅłÅłÅłÅłÅłÅłÅłÅłÅłÅłÅłÅłÅłÅłÅłÅłÅłÅłÅłÅłÅłÅłÅłÅłÅłÅłÅłÅłÅłÅłÅłÅłÅłÅłÅłÅłÅłÅłÅłÅłÅłÅłÅłÅłÅłÅłÅłÅłÅłÅłÅłÅłÅłÅłÅłÅłÅłÅłÅłÅłÅłÅłÅłÅłÅłÅłÅłÅłÅłÅłÅłÅłÅłÅłÅłÅłÅłÅłÅłÅłÅłÅłÅłÅłÅłÅłÅłÅłÅłÅłÅłÅłÅłÅłÅłÅłÅłÅłÅłÅłÅłÅłÅłÅłÅłÅłÅłÅłÅłÅłÅłÅłÅłÅłÅłÅłÅłÅłÅłÅłÅłÅłÅłÅłÅłÅłÅłÅłÅłÅłÅłÅłÅłÅłÅłÅłÅłÅłÅłÅłÅłÅłÅłÅłÅłÅłÅłÅłÅłÅłÅłÅłÅłÅłÅłÅłÅłÅłÅłÅłÅłÅłÅłÅłÅłÅłÅłÅłÅłÅłÅłÅłÅłÅłÅłÅłÅłÅłÅłÅłÅłÅłÅłÅłÅłÅłÅłÅłÅłÅłÅłÅłÅłÅłÅłÅłÅłÅłÅłÅłÅłÅłÅłÅłÅłÅłÅłÅłÅłÅłÅłÅłÅłÅłÅłÅłÅłÅłÅłÅłÅłÅłÅłÅłÅłÅłÅłÅłÅłÅłÅłÅłÅłÅłÅłÅłÅłÅłÅłÅłÅłÅłÅłÅłÅłÅłÅłÅłÅłÅłÅłÅłÅłÅłÅłÅłÅłÅłÅłÅłÅłÅłÅłÅłÅłÅłÅłÅłÅłÅłÅłÅłÅłÅłÅłÅłÅłÅłÅłÅłÅłÅłÅłÅłÅłÅłÅłÅłÅłÅłÅłÅłÅłÅłÅłÅłÅłÅłÅłÅłÅłÅłÅłÅłÅłÅłÅłÅłÅłÅłÅłÅłÅłÅłÅłÅłÅłÅłÅłÅłÅłÅłÅłÅłÅłÅłÅłÅłÅłÅłÅłÅłÅłÅłÅłÅłÅłÅłÅłÅłÅłÅłÅłÅłÅłÅłÅłÅłÅłÅłÅłÅłÅłÅłÅłÅłÅłÅłÅłÅłÅłÅłÅłÅłÅłÅłÅłÅłÅłÅłÅłÅłÅłÅłÅłÅłÅłÅłÅłÅłÅłÅłÅłÅłÅłÅłÅłÅłÅłÅłÅłÅłÅłÅłÅłÅłÅłÅłÅłÅłÅłÅłÅłÅłÅłÅłÅłÅłÅłÅłÅłÅłÅłÅłÅłÅłÅłÅłÅłÅłÅłÅłÅłÅłÅłÅłÅłÅłÅłÅłÅłÅłÅłÅłÅłÅłÅłÅłÅł": 1829,
      "ÅłÆ·": 1830,
      "ÄĺÅ¨Æ¤Ä": 1831,
      "ÅľÅĺ": 1832,
      "ÅľÅ¨": 1833,
      "ÅłÅłÅ¡ÅŁÅ¡": 1834,
      "ÅłÅłÅłÅłÅłÅłÅłÅłÅłÅłÅłÅłÅłÅŁÅłÅ¡": 1835,
      "ÅłÅłÅłÅłÅłÅłÅłÅłÅłÅłÅłÅłÅłÅłÅłÅłÅłÅłÅłÅłÅłÅłÅłÅ¡ÅłÅłÅłÅłÅłÅłÅłÅŁ": 1836,
      "Æ·ÅĺÅķÅĻ": 1837,
      "ÅłÅłÅłÅłÅłÅłÅłÅłÅłÅłÅłÅłÅłÅłÅłÅłÅŁÅŁ": 1838,
      "Å¢Å¨": 1839,
      "ÅłÅŀÅ¡ÅŁ": 1840,
      "Å¥ÅĿ": 1841,
      "Å£ÅĶ": 1842,
      "ÅĽÅŀ": 1843,
      "ÅłÅłÅłÅłÅłÅłÅłÅłÅłÅłÅłÅłÅłÅłÅłÅłÅłÅłÅłÅłÅŁÅłÅłÅłÅłÅłÅłÅłÅłÅłÅŁ": 1844,
      "Å¦ÆĶ": 1845,
      "ÅłÅłÅłÅłÅłÅłÅłÅłÅłÅłÅłÅłÅłÅłÅĺ": 1846,
      "Å¥ÅĻ": 1847,
      "ÅłÅłÅłÅłÅłÅłÅłÅłÅłÅłÅłÅłÅłÅłÅłÅŁÅŁ": 1848,
      "Ä¿Å¾": 1849,
      "Å¦Åŀ": 1850,
      "ÅłÅłÅłÅłÅłÅłÅłÅłÅłÅłÅłÅłÅłÅķ": 1851,
      "Çª": 1852,
      "ÆĭÅ«ÅŁÅ¡": 1853,
      "ÅłÅŁÅłÅłÅłÅłÅ¡": 1854,
      "Å¹ÆĭÅłÅłÅłÅłÅłÅłÅłÅłÅłÅłÅłÅł": 1855,
      "Æ¤ÅĺÄĮ": 1856,
      "ÅłÅłÅłÅłÅłÅłÅłÅłÅłÅłÅłÅłÅłÅłÅłÅłÅłÅłÅłÅłÅłÅŁÅłÅłÅłÅłÅłÅłÅ¡ÅłÅłÅ¡": 1857,
      "ÅłÅłÅłÅłÅłÅłÅłÅłÅłÅłÅłÅłÅłÅłÅ¨ÅłÅłÅłÅłÅłÅłÅłÅłÅłÅ": 1858,
      "ÅłÅłÅłÅłÅłÅłÅłÅłÅŁÅ¢": 1859,
      "ÅłÅłÅłÅłÅłÅłÅłÅłÅłÅłÅłÅłÅłÅłÅłÅłÅłÅłÅłÅłÅłÅłÅłÅłÅłÅłÅłÅłÅłÅłÅłÅłÅłÅłÅłÅłÅłÅłÅłÅłÅłÅłÅłÅłÅłÅłÅłÅłÅłÅłÅłÅłÅłÅłÅłÅłÅłÅłÅłÅłÅłÅłÅłÅłÅłÅłÅłÅłÅłÅłÅłÅłÅłÅłÅłÅłÅłÅłÅłÅłÅłÅłÅłÅłÅłÅłÅłÅłÅłÅłÅłÅłÅłÅłÅłÅłÅłÅłÅłÅłÅłÅłÅłÅłÅłÅłÅłÅłÅłÅłÅłÅłÅłÅłÅłÅłÅłÅłÅłÅłÅłÅłÅłÅłÅłÅłÅłÅłÅłÅłÅłÅłÅłÅłÅłÅłÅłÅłÅłÅłÅłÅłÅłÅłÅłÅłÅłÅłÅłÅłÅłÅłÅłÅłÅłÅłÅłÅłÅłÅłÅłÅłÅłÅłÅłÅłÅłÅłÅłÅłÅłÅłÅłÅłÅłÅłÅłÅłÅłÅłÅłÅłÅłÅłÅłÅłÅłÅłÅłÅłÅłÅłÅłÅłÅłÅłÅłÅłÅłÅłÅłÅłÅłÅłÅłÅłÅłÅłÅłÅłÅłÅłÅłÅłÅłÅłÅłÅłÅłÅłÅłÅłÅłÅłÅłÅłÅłÅłÅłÅłÅłÅłÅłÅłÅłÅłÅłÅłÅłÅłÅłÅłÅłÅłÅłÅłÅłÅłÅłÅłÅłÅłÅłÅłÅłÅłÅłÅłÅłÅłÅłÅłÅłÅłÅłÅłÅłÅłÅłÅłÅłÅłÅłÅłÅłÅłÅłÅłÅłÅłÅłÅłÅłÅłÅłÅłÅłÅłÅłÅłÅłÅłÅłÅłÅłÅłÅłÅłÅłÅłÅłÅłÅłÅłÅłÅłÅłÅłÅłÅłÅłÅłÅłÅłÅłÅłÅłÅłÅłÅłÅłÅłÅłÅłÅłÅłÅłÅłÅłÅłÅłÅłÅłÅłÅłÅłÅłÅłÅłÅłÅłÅłÅłÅłÅłÅłÅłÅłÅłÅłÅłÅłÅłÅłÅłÅłÅłÅłÅłÅłÅłÅłÅłÅłÅłÅłÅłÅłÅłÅłÅłÅłÅłÅłÅłÅłÅłÅłÅłÅłÅłÅłÅłÅłÅłÅłÅłÅłÅłÅłÅłÅłÅłÅłÅłÅłÅłÅłÅłÅłÅłÅłÅłÅłÅłÅłÅłÅłÅłÅłÅłÅłÅłÅłÅłÅłÅłÅłÅłÅłÅłÅłÅłÅłÅłÅłÅłÅłÅłÅłÅłÅłÅłÅłÅłÅłÅłÅłÅłÅłÅłÅłÅłÅłÅłÅłÅłÅłÅłÅłÅłÅłÅłÅłÅłÅłÅłÅłÅłÅłÅłÅłÅłÅłÅłÅłÅłÅłÅłÅłÅłÅłÅłÅłÅłÅłÅłÅłÅłÅłÅłÅłÅłÅłÅłÅłÅłÅłÅłÅłÅłÅłÅłÅłÅłÅłÅłÅłÅłÅłÅłÅłÅłÅłÅłÅłÅłÅłÅłÅłÅłÅłÅłÅłÅłÅłÅłÅłÅłÅłÅłÅłÅłÅłÅłÅłÅłÅłÅłÅłÅłÅłÅłÅłÅłÅłÅłÅłÅłÅłÅłÅłÅłÅłÅłÅłÅłÅłÅłÅłÅłÅłÅłÅłÅłÅłÅłÅłÅłÅłÅłÅłÅłÅłÅłÅłÅłÅłÅłÅłÅłÅłÅłÅłÅłÅłÅłÅłÅłÅłÅłÅłÅłÅłÅłÅłÅłÅłÅłÅłÅłÅłÅłÅłÅłÅłÅłÅłÅłÅłÅłÅłÅłÅłÅłÅłÅłÅłÅłÅłÅłÅłÅłÅłÅłÅłÅłÅłÅłÅłÅłÅłÅłÅłÅłÅłÅłÅłÅłÅłÅłÅłÅłÅłÅłÅłÅłÅłÅłÅłÅłÅłÅłÅłÅłÅłÅłÅłÅłÅłÅłÅłÅłÅłÅłÅłÅłÅłÅłÅłÅłÅłÅłÅłÅłÅłÅłÅłÅłÅłÅłÅłÅłÅłÅłÅłÅłÅłÅłÅłÅłÅłÅłÅłÅłÅłÅłÅłÅłÅłÅłÅłÅłÅłÅłÅłÅłÅłÅłÅłÅłÅłÅłÅłÅłÅłÅłÅłÅłÅłÅłÅłÅłÅłÅłÅłÅłÅłÅłÅłÅłÅłÅłÅłÅł": 1860,
      "Å¹ÄĻ": 1861,
      "ÅłÅłÅłÅłÅłÅłÅłÅłÅłÅłÅłÅłÅłÅ«": 1862,
      "Å¼ÆĭÅłÅłÅłÅłÅłÅłÅłÅłÅłÅłÅłÅłÅłÅł": 1863,
      "ÅłÅłÅłÅłÅłÅ¡Å¡": 1864,
      "ÅłÅłÅłÅłÅłÅłÅłÅłÅłÅłÅłÅłÅłÅłÅ¬": 1865,
      "ÅĽÅĿ": 1866,
      "Å«ÅŁÅ¢": 1867,
      "ÅłÅłÅłÅłÅłÅłÅłÅłÅłÅłÅłÅłÅłÅłÅłÅłÅłÅłÅłÅłÅłÅłÅłÅłÅłÅłÅłÅłÅłÅłÅłÅ¡ÅłÅłÅłÅłÅłÅłÅłÅłÅłÅłÅłÅłÅłÅłÅłÅłÅłÅłÅłÅłÅłÅłÅłÅłÅłÅłÅłÅłÅłÅłÅłÅłÅłÅłÅłÅłÅłÅłÅłÅłÅłÅłÅłÅłÅłÅłÅłÅłÅłÅłÅłÅłÅłÅłÅłÅłÅłÅłÅłÅłÅłÅłÅłÅłÅłÅłÅłÅłÅłÅłÅłÅłÅłÅłÅłÅłÅłÅłÅłÅłÅłÅłÅłÅłÅłÅłÅłÅłÅłÅłÅłÅłÅłÅłÅłÅłÅłÅłÅłÅłÅłÅłÅłÅłÅłÅłÅłÅłÅłÅłÅłÅłÅłÅłÅłÅłÅłÅłÅłÅłÅłÅłÅłÅłÅłÅłÅłÅłÅłÅłÅłÅłÅłÅłÅłÅłÅłÅłÅłÅłÅłÅłÅłÅłÅłÅłÅłÅłÅłÅłÅłÅłÅłÅłÅłÅłÅłÅłÅłÅłÅłÅłÅłÅłÅłÅłÅłÅłÅłÅłÅłÅłÅłÅłÅłÅłÅłÅłÅłÅłÅłÅłÅłÅłÅłÅłÅłÅłÅłÅłÅłÅłÅłÅłÅłÅłÅłÅłÅłÅłÅłÅłÅłÅłÅłÅłÅłÅłÅłÅłÅłÅłÅłÅłÅłÅłÅłÅłÅłÅłÅłÅłÅłÅłÅłÅłÅłÅłÅłÅłÅłÅłÅłÅłÅłÅłÅłÅłÅłÅłÅłÅłÅłÅłÅłÅłÅłÅłÅłÅłÅłÅłÅłÅłÅłÅłÅłÅłÅłÅłÅłÅłÅłÅłÅłÅłÅłÅłÅłÅłÅłÅłÅłÅłÅłÅłÅłÅłÅłÅłÅłÅłÅłÅłÅłÅłÅłÅłÅłÅłÅłÅłÅłÅłÅłÅłÅłÅłÅłÅłÅłÅłÅłÅłÅłÅłÅłÅłÅłÅłÅłÅłÅłÅłÅłÅłÅłÅłÅłÅłÅłÅłÅłÅłÅłÅłÅłÅłÅłÅłÅłÅłÅłÅłÅłÅłÅłÅłÅłÅłÅłÅłÅłÅłÅłÅłÅłÅłÅłÅłÅłÅłÅłÅłÅłÅłÅłÅłÅłÅłÅłÅłÅłÅłÅłÅłÅłÅłÅłÅłÅłÅłÅłÅłÅłÅłÅłÅłÅłÅłÅłÅłÅłÅłÅłÅłÅłÅłÅłÅłÅłÅłÅłÅłÅłÅłÅłÅłÅłÅłÅłÅłÅłÅłÅłÅłÅłÅłÅłÅłÅłÅłÅłÅłÅłÅłÅłÅłÅłÅłÅłÅłÅłÅłÅłÅłÅłÅłÅłÅłÅłÅłÅłÅłÅłÅłÅłÅłÅłÅłÅłÅłÅłÅłÅłÅłÅłÅłÅłÅłÅłÅłÅłÅłÅłÅłÅłÅłÅłÅłÅłÅłÅłÅłÅłÅłÅłÅłÅłÅłÅłÅłÅłÅłÅłÅłÅłÅłÅłÅłÅłÅłÅłÅłÅłÅłÅłÅłÅłÅłÅłÅłÅłÅłÅłÅłÅłÅłÅłÅłÅłÅłÅłÅłÅłÅłÅłÅłÅłÅłÅłÅłÅłÅłÅłÅłÅłÅłÅłÅłÅłÅłÅłÅłÅłÅłÅłÅłÅłÅłÅłÅłÅłÅłÅłÅłÅłÅłÅłÅłÅłÅłÅłÅłÅłÅłÅłÅłÅłÅłÅłÅłÅłÅłÅłÅłÅłÅłÅłÅłÅłÅłÅłÅłÅłÅłÅłÅłÅłÅłÅłÅłÅłÅłÅłÅłÅłÅłÅłÅłÅłÅłÅłÅłÅłÅłÅłÅł": 1868,
      "ÅłÅŀÅłÅłÅłÅłÅłÅłÅłÅŁ": 1869,
      "ÅŃÅĿ": 1870,
      "Ãº": 1871,
      "ÅłÅłÅłÅłÅłÅłÅłÅłÅłÅłÅłÅłÅłÅłÅ«ÅłÅłÅłÅłÅłÅłÅłÅłÅłÅ": 1872,
      "ÅłÅłÅłÅłÅłÅłÅ¡ÅłÅłÅłÅłÅłÅłÅłÅłÅłÅłÅłÅłÅłÅłÅłÅłÅłÅłÅłÅłÅłÅłÅłÅłÅłÅłÅłÅłÅłÅłÅłÅłÅłÅłÅłÅłÅłÅłÅłÅłÅłÅłÅłÅłÅłÅłÅłÅłÅłÅłÅłÅłÅłÅłÅłÅłÅłÅłÅłÅłÅłÅłÅłÅłÅłÅłÅłÅłÅłÅłÅłÅłÅłÅłÅłÅłÅłÅłÅłÅłÅłÅłÅłÅłÅłÅłÅłÅłÅłÅłÅłÅłÅłÅłÅłÅłÅłÅłÅłÅłÅłÅłÅłÅłÅłÅłÅłÅłÅłÅłÅłÅłÅłÅłÅłÅłÅłÅłÅłÅłÅłÅłÅłÅłÅłÅłÅłÅłÅłÅłÅłÅłÅłÅłÅłÅłÅłÅłÅłÅłÅłÅłÅłÅłÅłÅłÅłÅłÅłÅłÅłÅłÅłÅłÅłÅłÅłÅłÅłÅłÅłÅłÅłÅłÅłÅłÅłÅłÅłÅłÅłÅłÅłÅłÅłÅłÅłÅłÅłÅłÅłÅłÅłÅłÅłÅłÅłÅłÅłÅłÅłÅłÅłÅłÅłÅłÅłÅłÅłÅłÅłÅłÅłÅłÅłÅłÅłÅłÅłÅłÅłÅłÅłÅłÅłÅłÅłÅłÅłÅłÅłÅłÅłÅłÅłÅłÅłÅłÅłÅłÅłÅłÅłÅłÅłÅłÅłÅłÅłÅłÅłÅłÅłÅłÅłÅłÅłÅłÅłÅłÅłÅłÅłÅłÅłÅłÅłÅłÅłÅłÅłÅłÅłÅłÅłÅłÅłÅłÅłÅłÅłÅłÅłÅłÅłÅłÅłÅłÅłÅłÅłÅłÅłÅłÅłÅłÅłÅłÅłÅłÅłÅłÅłÅłÅłÅłÅłÅłÅłÅłÅłÅłÅłÅłÅłÅłÅłÅłÅłÅłÅłÅłÅłÅłÅłÅłÅłÅłÅłÅłÅłÅłÅłÅłÅłÅłÅłÅłÅłÅłÅłÅłÅłÅłÅłÅłÅłÅłÅłÅłÅłÅłÅłÅłÅłÅłÅłÅłÅłÅłÅłÅłÅłÅłÅłÅłÅłÅłÅłÅłÅłÅłÅłÅłÅłÅłÅłÅłÅłÅłÅłÅłÅłÅłÅłÅłÅłÅłÅłÅłÅłÅłÅłÅłÅłÅłÅłÅłÅłÅłÅłÅłÅłÅłÅłÅłÅłÅłÅłÅłÅłÅłÅłÅłÅłÅłÅłÅłÅłÅłÅłÅłÅłÅłÅłÅłÅłÅłÅłÅłÅłÅłÅłÅłÅłÅłÅłÅłÅłÅłÅłÅłÅłÅłÅłÅłÅłÅłÅłÅłÅłÅłÅłÅłÅłÅłÅłÅłÅłÅłÅłÅłÅłÅłÅłÅłÅłÅłÅłÅłÅłÅłÅłÅłÅłÅłÅłÅłÅłÅłÅłÅłÅłÅłÅłÅłÅłÅłÅłÅłÅłÅłÅłÅłÅłÅłÅłÅłÅłÅłÅłÅłÅłÅłÅłÅłÅłÅłÅłÅłÅłÅłÅłÅłÅłÅłÅłÅłÅłÅłÅłÅłÅłÅłÅłÅłÅłÅłÅłÅłÅłÅłÅłÅłÅłÅłÅłÅłÅłÅłÅłÅłÅłÅłÅłÅłÅłÅłÅłÅłÅłÅłÅłÅłÅłÅłÅłÅłÅłÅłÅłÅłÅłÅłÅłÅłÅłÅłÅłÅłÅłÅłÅłÅłÅłÅłÅłÅłÅłÅłÅłÅłÅłÅłÅłÅłÅłÅłÅłÅłÅłÅłÅłÅłÅłÅłÅłÅłÅłÅłÅłÅłÅłÅłÅłÅłÅłÅłÅłÅłÅłÅłÅłÅłÅłÅłÅłÅłÅłÅłÅłÅłÅłÅłÅłÅłÅłÅłÅłÅł": 1873,
      "ÅŀÅłÅłÅŁ": 1874,
      "ÅłÅłÅłÅłÅłÅłÅłÅłÅłÅłÅłÅłÅłÅłÅłÅłÅłÅłÅłÅłÅłÅŁÅłÅłÅłÅłÅłÅłÅłÅłÅłÅ¡ÅłÅłÅłÅłÅłÅłÅłÅłÅłÅłÅłÅłÅłÅłÅłÅłÅłÅłÅłÅłÅłÅ¡ÅłÅłÅłÅłÅłÅłÅłÅłÅłÅŁ": 1875,
      "ÅłÅłÅłÅŁÅłÅ¡": 1876,
      "ÅłÅłÅłÅłÅłÅĿ": 1877,
      "ÅĹÅ¡": 1878,
      "ÅłÅłÅłÅłÅłÅłÅłÅłÅłÅłÅłÅłÅłÅłÅłÅłÅłÅłÅłÅ¡ÅŁ": 1879,
      "ÅłÅłÅłÅłÅłÅłÅłÅłÅłÅłÅłÅłÅłÅłÅłÅłÅłÅłÅłÅłÅłÅłÅłÅłÅłÅłÅłÅłÅłÅłÅłÅłÅłÅłÅłÅłÅłÅłÅłÅłÅłÅłÅłÅłÅłÅłÅłÅłÅłÅłÅłÅłÅłÅłÅłÅłÅłÅłÅłÅłÅłÅłÅłÅłÅłÅłÅłÅłÅłÅłÅłÅłÅłÅłÅłÅłÅłÅłÅłÅłÅłÅłÅłÅłÅłÅłÅłÅłÅłÅłÅłÅłÅłÅłÅłÅłÅłÅłÅłÅłÅłÅłÅłÅłÅłÅłÅłÅłÅłÅłÅłÅłÅłÅłÅłÅłÅłÅłÅłÅłÅłÅłÅłÅłÅłÅłÅłÅłÅłÅłÅłÅłÅłÅłÅłÅłÅłÅłÅłÅłÅłÅłÅłÅłÅłÅłÅłÅłÅłÅłÅłÅłÅłÅłÅłÅłÅłÅłÅłÅłÅłÅłÅłÅłÅłÅłÅłÅłÅłÅłÅłÅłÅłÅłÅłÅłÅłÅłÅłÅłÅłÅłÅłÅłÅłÅłÅłÅłÅłÅłÅłÅłÅłÅłÅłÅłÅłÅłÅłÅłÅłÅłÅłÅłÅłÅłÅłÅłÅłÅłÅłÅłÅłÅłÅłÅłÅłÅłÅłÅłÅłÅłÅłÅłÅłÅłÅłÅłÅłÅłÅłÅłÅłÅłÅłÅłÅłÅłÅłÅłÅłÅłÅłÅłÅłÅłÅłÅłÅłÅłÅłÅłÅłÅłÅłÅłÅłÅłÅłÅłÅłÅłÅłÅłÅłÅłÅłÅłÅłÅłÅłÅłÅłÅłÅłÅłÅłÅłÅłÅłÅłÅłÅłÅłÅłÅłÅłÅłÅłÅłÅłÅłÅłÅłÅłÅłÅłÅłÅłÅłÅłÅłÅłÅłÅłÅłÅłÅłÅłÅłÅłÅłÅłÅłÅłÅłÅłÅłÅłÅłÅłÅłÅłÅłÅłÅłÅłÅłÅłÅłÅłÅłÅłÅłÅłÅłÅłÅłÅłÅłÅłÅłÅłÅłÅłÅłÅłÅłÅłÅłÅłÅłÅłÅłÅłÅłÅłÅłÅłÅłÅłÅłÅłÅłÅłÅłÅłÅłÅłÅłÅłÅłÅłÅłÅłÅłÅłÅłÅłÅłÅłÅłÅłÅłÅłÅłÅłÅłÅłÅłÅłÅłÅłÅłÅłÅłÅłÅłÅłÅłÅłÅłÅłÅłÅłÅłÅłÅłÅłÅłÅłÅłÅłÅłÅłÅłÅłÅłÅłÅłÅłÅłÅłÅłÅłÅłÅłÅłÅłÅłÅłÅłÅłÅłÅłÅłÅłÅłÅłÅłÅłÅłÅłÅłÅłÅłÅłÅłÅłÅłÅłÅłÅłÅłÅłÅłÅłÅłÅłÅłÅłÅłÅłÅłÅłÅłÅłÅłÅłÅłÅłÅłÅłÅłÅłÅłÅłÅłÅłÅłÅłÅłÅłÅłÅłÅłÅłÅłÅłÅłÅłÅłÅłÅłÅłÅłÅłÅłÅłÅłÅłÅłÅłÅłÅłÅłÅłÅłÅłÅłÅłÅłÅłÅłÅłÅłÅłÅłÅłÅłÅłÅłÅłÅłÅłÅłÅłÅłÅłÅłÅłÅłÅłÅłÅłÅłÅłÅłÅłÅłÅłÅłÅłÅłÅłÅłÅłÅłÅłÅłÅłÅłÅłÅłÅłÅłÅłÅłÅłÅłÅłÅłÅłÅłÅłÅłÅłÅłÅłÅłÅłÅłÅłÅłÅłÅłÅłÅłÅłÅłÅłÅłÅłÅłÅłÅłÅłÅłÅłÅłÅłÅłÅłÅłÅłÅłÅłÅłÅłÅłÅłÅłÅłÅłÅłÅłÅłÅłÅłÅłÅłÅłÅłÅłÅłÅłÅłÅłÅłÅłÅłÅłÅłÅłÅłÅłÅłÅłÅłÅłÅłÅłÅłÅłÅłÅłÅłÅłÅłÅłÅłÅłÅłÅłÅłÅłÅłÅłÅłÅłÅłÅłÅłÅłÅłÅłÅłÅłÅł": 1880,
      "Ä·Æ¤Åļ": 1881,
      "ÅŀÅĸ": 1882,
      "ÅĽÅĽ": 1883,
      "ÅļÆĩ": 1884,
      "ÅłÅłÅłÅłÅłÅłÅłÅ¡ÅłÅ¡": 1885,
      "ÅĵÅĺ": 1886,
      "ÅĸÅĻ": 1887,
      "ÅłÅłÅłÅłÅłÅłÅłÅłÅłÅłÅłÅłÅłÅłÅŁÅŀ": 1888,
      "Ä¹Äĭ": 1889,
      "Å¡Å¡ÅłÅŁÅ¡": 1890,
      "Æ¤Åķ": 1891,
      "ÅłÅłÅłÅłÅłÅłÅłÅłÅłÅłÅłÅłÅłÅłÅłÅłÅłÅłÅłÅłÅłÅłÅłÅłÅłÅłÅłÅłÅłÅłÅłÅłÅłÅłÅłÅłÅłÅłÅłÅłÅłÅłÅłÅłÅłÅłÅłÅłÅłÅłÅłÅłÅłÅłÅłÅłÅłÅłÅłÅłÅłÅłÅłÅłÅłÅłÅłÅłÅłÅłÅłÅłÅłÅłÅłÅłÅłÅłÅłÅłÅłÅłÅłÅłÅłÅłÅłÅłÅłÅłÅłÅłÅłÅłÅłÅłÅłÅłÅłÅłÅłÅłÅłÅłÅłÅłÅłÅłÅłÅłÅłÅłÅłÅłÅłÅłÅłÅłÅłÅłÅłÅłÅłÅłÅłÅłÅłÅłÅłÅłÅłÅłÅłÅłÅłÅłÅłÅłÅłÅłÅłÅłÅłÅłÅłÅłÅłÅłÅłÅłÅłÅłÅłÅłÅłÅłÅłÅłÅłÅłÅłÅłÅłÅłÅłÅłÅłÅłÅłÅłÅłÅłÅłÅłÅłÅłÅłÅłÅłÅłÅłÅłÅłÅłÅłÅłÅłÅłÅłÅłÅłÅłÅłÅłÅłÅłÅłÅłÅłÅłÅłÅłÅłÅłÅłÅłÅłÅłÅłÅłÅłÅłÅłÅłÅłÅłÅłÅłÅłÅłÅłÅłÅłÅłÅłÅłÅłÅłÅłÅłÅłÅłÅłÅłÅłÅłÅłÅłÅłÅłÅłÅłÅłÅłÅłÅłÅłÅłÅłÅłÅłÅłÅłÅłÅłÅłÅłÅłÅłÅłÅłÅłÅłÅłÅłÅłÅłÅłÅłÅłÅłÅłÅłÅłÅłÅłÅłÅłÅłÅłÅłÅłÅłÅłÅłÅłÅłÅłÅłÅłÅłÅłÅłÅłÅłÅłÅłÅłÅłÅłÅłÅłÅłÅłÅłÅłÅłÅłÅłÅłÅłÅłÅłÅłÅłÅłÅłÅłÅłÅłÅłÅłÅłÅłÅłÅłÅłÅłÅłÅłÅłÅłÅłÅłÅłÅłÅłÅłÅłÅłÅłÅłÅłÅłÅłÅłÅłÅłÅłÅłÅłÅłÅłÅłÅłÅłÅłÅłÅłÅłÅłÅłÅłÅłÅłÅłÅłÅłÅłÅłÅłÅłÅłÅłÅłÅłÅłÅłÅłÅłÅłÅłÅłÅłÅłÅłÅłÅłÅłÅłÅłÅłÅłÅłÅłÅłÅłÅłÅłÅłÅłÅłÅłÅłÅłÅłÅłÅłÅłÅłÅłÅłÅłÅłÅłÅłÅłÅłÅłÅłÅłÅłÅłÅłÅłÅłÅłÅłÅłÅłÅłÅłÅłÅłÅłÅłÅłÅłÅłÅłÅłÅłÅłÅłÅłÅłÅłÅłÅłÅłÅłÅłÅłÅłÅłÅłÅłÅłÅłÅłÅłÅłÅłÅłÅłÅłÅłÅłÅłÅłÅłÅłÅłÅłÅłÅłÅłÅłÅłÅłÅłÅłÅłÅłÅłÅłÅłÅłÅłÅłÅłÅłÅłÅłÅłÅłÅłÅłÅłÅłÅłÅłÅłÅłÅłÅłÅłÅłÅłÅłÅłÅłÅłÅłÅłÅłÅłÅłÅłÅłÅłÅłÅłÅłÅłÅłÅłÅłÅłÅłÅłÅłÅłÅłÅłÅłÅłÅłÅłÅłÅłÅłÅłÅłÅłÅłÅłÅłÅłÅłÅłÅłÅłÅłÅłÅłÅłÅłÅłÅłÅłÅłÅłÅłÅłÅłÅłÅłÅłÅłÅłÅłÅł": 1892,
      "ÆĴÅ§ÄŃÆĪÅ¹ÆĸÆĭÅ©": 1893,
      "Å¦Å¢": 1894,
      "Æ·ÅĹÅķÅĻ": 1895,
      "Ã½": 1896,
      "Å§ÅĻ": 1897,
      "Ã»": 1898,
      "ÅłÅłÅłÅłÅŁÅłÅłÅŁ": 1899,
      "Æ¤ÅĽÄĮ": 1900,
      "Å¦ÅĿ": 1901,
      "ÇĮ": 1902,
      "ÅłÅłÅ¡ÅłÅłÅłÅ¡": 1903,
      "ÅĺÅ¡": 1904,
      "ÅłÅłÅłÅłÅłÅłÅłÅłÅłÅłÅłÅłÅłÅłÅłÅłÅłÅłÅłÅłÅłÅłÅłÅłÅłÅłÅłÅłÅłÅłÅłÅŁÅłÅłÅłÅłÅłÅłÅłÅłÅłÅłÅłÅłÅłÅłÅłÅłÅłÅłÅłÅłÅłÅłÅłÅłÅłÅłÅłÅłÅłÅłÅłÅ¡ÅłÅłÅłÅłÅłÅłÅłÅłÅłÅłÅłÅłÅłÅłÅłÅłÅłÅłÅłÅłÅłÅłÅłÅłÅłÅłÅłÅłÅłÅłÅłÅŁ": 1905,
      "ÅłÅłÅĽÅłÅłÅłÅłÅłÅłÅłÅłÅłÅłÅłÅłÅłÅłÅłÅłÅłÅłÅłÅłÅłÅ£": 1906,
      "ÅłÅłÅ¡ÅłÅłÅłÅłÅłÅłÅłÅłÅłÅłÅłÅłÅłÅłÅłÅłÅłÅł": 1907,
      "Å¤Åķ": 1908,
      "Å¥ÅĹ": 1909,
      "ÅłÅłÅ¡Å¢": 1910,
      "ÅĸÅļ": 1911,
      "Ä·Æ¤ÅĹÄĮ": 1912,
      "ÅłÅłÅłÅłÅłÅłÅłÅłÅłÅłÅłÅłÅłÅłÅłÅŁÅłÅ¡": 1913,
      "ÄĺÅ§Æ¤Ä": 1914,
      "Çĭ": 1915,
      "Å©Æ¤": 1916,
      "Å®Åŀ": 1917,
      "Ã¼": 1918,
      "ÅłÅłÅłÅłÅłÅłÅłÅłÅłÅłÅłÅłÅłÅ¡Å¢": 1919,
      "ÄĳÅ¬": 1920,
      "Ã°": 1921,
      "ÅŁÅ¡Å¢": 1922,
      "Ä¶ÄĬÅĳ": 1923,
      "ÅĿÅ©": 1924,
      "ÅłÅłÅłÅłÅłÅłÅłÅłÅłÅłÅłÅłÅłÅłÅłÅłÅłÅłÅłÅłÅłÅ¡ÅłÅłÅłÅłÅłÅłÅ¡ÅłÅłÅŀ": 1925,
      "Çĩ": 1926,
      "ÅłÅłÅłÅłÅłÅłÅłÅłÅłÅłÅłÅłÅłÅłÅłÅłÅłÅłÅłÅłÅłÅłÅłÅłÅłÅłÅłÅłÅłÅłÅłÅłÅłÅłÅłÅłÅłÅłÅłÅłÅłÅłÅłÅłÅłÅłÅłÅłÅłÅłÅłÅłÅłÅłÅłÅłÅłÅłÅłÅłÅłÅłÅłÅłÅłÅłÅłÅłÅłÅłÅłÅłÅłÅłÅłÅłÅłÅłÅłÅłÅłÅłÅłÅłÅłÅłÅłÅłÅłÅłÅłÅłÅłÅłÅłÅłÅłÅłÅłÅłÅłÅłÅłÅłÅłÅłÅłÅłÅłÅłÅłÅłÅłÅłÅłÅłÅłÅłÅłÅłÅłÅłÅłÅłÅłÅłÅłÅłÅłÅłÅłÅłÅłÅłÅłÅłÅłÅłÅłÅłÅłÅłÅłÅłÅłÅłÅłÅłÅłÅłÅłÅłÅłÅłÅłÅłÅłÅłÅłÅłÅłÅłÅłÅłÅłÅłÅłÅłÅłÅłÅłÅłÅłÅłÅłÅłÅłÅłÅłÅłÅłÅłÅłÅłÅłÅłÅłÅłÅłÅłÅłÅłÅłÅłÅłÅłÅłÅłÅłÅłÅłÅłÅłÅłÅłÅłÅłÅłÅłÅłÅłÅłÅłÅłÅłÅłÅłÅłÅłÅłÅłÅłÅłÅłÅłÅłÅłÅłÅłÅłÅłÅłÅłÅłÅłÅłÅłÅłÅłÅłÅłÅłÅłÅłÅłÅłÅłÅłÅłÅłÅłÅłÅłÅłÅłÅłÅłÅłÅłÅłÅłÅłÅłÅłÅłÅłÅłÅłÅłÅłÅłÅłÅłÅłÅłÅłÅłÅłÅłÅłÅłÅłÅłÅłÅłÅłÅłÅłÅłÅłÅłÅłÅłÅłÅłÅłÅłÅłÅłÅłÅłÅłÅłÅłÅłÅłÅłÅłÅłÅłÅłÅłÅłÅłÅłÅłÅłÅłÅłÅłÅłÅłÅłÅłÅłÅłÅłÅłÅłÅłÅłÅłÅłÅłÅłÅłÅłÅłÅłÅłÅłÅłÅłÅłÅłÅłÅłÅłÅłÅłÅłÅłÅłÅłÅłÅłÅłÅłÅłÅłÅłÅłÅłÅłÅłÅłÅłÅłÅłÅłÅłÅłÅłÅłÅłÅłÅłÅłÅłÅłÅłÅłÅłÅłÅłÅłÅłÅłÅłÅłÅłÅłÅłÅłÅłÅłÅłÅłÅłÅłÅłÅłÅłÅłÅłÅłÅłÅłÅłÅłÅłÅłÅłÅłÅłÅłÅłÅłÅłÅłÅłÅłÅłÅłÅłÅłÅłÅłÅłÅłÅłÅłÅłÅłÅłÅłÅłÅłÅłÅłÅłÅłÅłÅłÅłÅłÅłÅłÅłÅłÅłÅłÅłÅłÅłÅłÅłÅłÅłÅłÅłÅłÅłÅłÅłÅłÅłÅłÅłÅłÅłÅłÅłÅłÅłÅłÅłÅłÅłÅłÅłÅłÅłÅłÅłÅłÅłÅłÅłÅłÅłÅłÅłÅłÅłÅłÅłÅłÅłÅłÅłÅłÅłÅłÅłÅłÅłÅłÅłÅłÅłÅłÅłÅłÅłÅłÅłÅłÅłÅłÅłÅłÅłÅłÅłÅłÅłÅłÅłÅłÅłÅłÅłÅłÅłÅłÅłÅłÅłÅłÅłÅłÅłÅłÅłÅłÅłÅłÅłÅłÅłÅłÅłÅłÅłÅłÅłÅłÅłÅłÅłÅłÅłÅłÅłÅłÅłÅłÅłÅłÅłÅłÅłÅłÅłÅłÅłÅłÅłÅłÅłÅłÅłÅłÅłÅłÅłÅłÅłÅłÅłÅłÅłÅłÅłÅłÅłÅłÅłÅłÅłÅłÅłÅłÅłÅłÅłÅłÅłÅłÅłÅłÅłÅłÅłÅłÅłÅłÅłÅłÅłÅłÅłÅłÅłÅłÅłÅłÅłÅłÅłÅłÅłÅłÅłÅłÅłÅłÅłÅłÅłÅłÅłÅłÅłÅłÅłÅłÅłÅłÅłÅłÅłÅłÅłÅłÅłÅłÅłÅłÅłÅłÅłÅłÅłÅłÅłÅłÅłÅłÅłÅłÅłÅłÅłÅłÅłÅłÅłÅłÅłÅłÅłÅłÅłÅłÅłÅłÅłÅłÅłÅłÅłÅłÅłÅłÅłÅłÅłÅłÅłÅłÅłÅłÅłÅłÅłÅłÅłÅłÅłÅłÅłÅłÅłÅłÅłÅłÅłÅłÅłÅłÅłÅłÅłÅłÅłÅłÅłÅłÅłÅłÅłÅłÅłÅłÅłÅłÅłÅłÅłÅłÅłÅłÅłÅłÅłÅłÅłÅłÅłÅłÅłÅłÅłÅłÅłÅłÅłÅłÅłÅłÅłÅłÅłÅłÅłÅłÅłÅłÅłÅłÅłÅłÅłÅłÅłÅłÅłÅłÅłÅłÅłÅłÅłÅłÅłÅłÅłÅłÅłÅłÅłÅłÅłÅłÅłÅłÅłÅłÅłÅłÅłÅłÅłÅłÅłÅłÅłÅłÅłÅłÅłÅłÅłÅłÅłÅłÅłÅłÅłÅłÅłÅłÅłÅłÅłÅłÅłÅłÅłÅłÅłÅłÅłÅłÅłÅłÅłÅłÅłÅłÅłÅłÅłÅłÅłÅłÅłÅłÅłÅłÅłÅłÅłÅłÅłÅłÅłÅłÅłÅłÅłÅłÅłÅłÅłÅłÅłÅłÅłÅłÅłÅłÅłÅłÅłÅłÅłÅł": 1927,
      "ÅłÅłÅŁÅłÅłÅŁ": 1928,
      "ÅŁÅŁÅłÅłÅłÅŁ": 1929,
      "ÅłÅłÅłÅłÅłÅłÅłÅłÅłÅłÅłÅłÅłÅłÅłÅłÅłÅłÅłÅłÅłÅłÅłÅłÅłÅłÅłÅłÅłÅłÅłÅ¡ÅłÅłÅłÅłÅłÅłÅłÅłÅłÅłÅłÅłÅłÅłÅłÅłÅłÅłÅłÅłÅłÅłÅłÅłÅłÅłÅłÅłÅłÅłÅłÅłÅłÅłÅłÅłÅłÅłÅłÅłÅłÅłÅłÅłÅłÅłÅłÅłÅłÅłÅłÅłÅłÅłÅłÅłÅłÅłÅłÅłÅłÅłÅłÅłÅłÅłÅłÅłÅłÅłÅłÅłÅłÅłÅłÅłÅłÅłÅłÅłÅłÅłÅłÅłÅłÅłÅłÅłÅłÅłÅłÅłÅłÅłÅłÅłÅłÅłÅłÅłÅłÅłÅłÅłÅłÅłÅłÅłÅłÅłÅłÅłÅłÅłÅłÅłÅłÅłÅłÅłÅłÅłÅłÅłÅłÅłÅłÅłÅłÅłÅłÅłÅłÅłÅłÅłÅłÅłÅłÅłÅłÅłÅłÅłÅłÅłÅłÅłÅłÅłÅłÅłÅłÅłÅłÅłÅłÅłÅłÅłÅłÅłÅłÅłÅłÅłÅłÅłÅłÅłÅłÅłÅłÅłÅłÅłÅłÅłÅłÅłÅłÅłÅłÅłÅłÅłÅłÅłÅłÅłÅłÅłÅłÅłÅłÅłÅłÅłÅłÅłÅłÅłÅłÅłÅłÅłÅłÅłÅłÅłÅłÅłÅłÅłÅłÅłÅłÅłÅłÅłÅłÅłÅłÅłÅłÅłÅłÅłÅłÅłÅłÅłÅłÅłÅłÅłÅłÅłÅłÅłÅłÅłÅłÅłÅłÅłÅłÅłÅłÅłÅłÅłÅłÅłÅłÅłÅłÅłÅłÅłÅłÅłÅłÅłÅłÅłÅłÅłÅłÅłÅłÅłÅłÅłÅłÅłÅłÅłÅłÅłÅłÅłÅłÅłÅłÅłÅłÅłÅłÅłÅłÅłÅłÅłÅłÅłÅłÅłÅłÅłÅłÅłÅłÅłÅłÅłÅłÅłÅłÅłÅłÅłÅłÅłÅłÅłÅłÅłÅłÅłÅłÅłÅłÅłÅłÅłÅłÅłÅłÅłÅłÅłÅłÅłÅłÅłÅłÅłÅłÅłÅłÅłÅłÅłÅłÅłÅłÅłÅłÅłÅłÅłÅłÅłÅłÅłÅłÅłÅłÅłÅłÅłÅłÅłÅłÅłÅłÅłÅłÅłÅłÅłÅłÅłÅłÅłÅłÅłÅłÅłÅłÅłÅłÅłÅłÅłÅłÅłÅłÅłÅłÅłÅłÅłÅłÅłÅłÅłÅłÅłÅłÅłÅłÅłÅłÅłÅłÅłÅłÅłÅłÅłÅłÅłÅłÅłÅłÅłÅłÅłÅłÅłÅłÅłÅłÅłÅłÅłÅłÅłÅłÅłÅłÅłÅłÅłÅłÅłÅłÅłÅłÅłÅłÅłÅłÅłÅłÅłÅłÅłÅłÅłÅłÅłÅłÅłÅłÅłÅłÅłÅłÅłÅłÅłÅłÅłÅłÅłÅłÅłÅłÅłÅłÅłÅłÅłÅłÅłÅłÅłÅłÅłÅłÅłÅłÅłÅłÅłÅłÅłÅłÅłÅłÅłÅłÅłÅłÅłÅłÅłÅłÅłÅłÅłÅłÅłÅłÅłÅłÅłÅłÅłÅłÅłÅłÅłÅłÅłÅłÅłÅłÅłÅłÅłÅłÅłÅłÅłÅłÅłÅłÅłÅłÅłÅłÅłÅłÅłÅłÅłÅłÅłÅłÅłÅłÅłÅłÅłÅłÅłÅłÅłÅłÅłÅłÅłÅłÅłÅłÅłÅłÅłÅłÅłÅłÅłÅłÅłÅłÅłÅłÅłÅłÅłÅłÅłÅłÅłÅłÅłÅłÅłÅłÅłÅłÅłÅłÅłÅłÅłÅłÅłÅłÅłÅłÅłÅłÅłÅłÅłÅłÅłÅłÅłÅłÅłÅłÅłÅłÅłÅłÅłÅłÅłÅłÅłÅłÅłÅłÅłÅłÅłÅłÅłÅłÅłÅłÅłÅłÅłÅłÅłÅłÅłÅłÅłÅłÅłÅłÅłÅłÅłÅłÅłÅłÅłÅłÅłÅłÅłÅłÅłÅłÅłÅłÅłÅłÅłÅł": 1930,
      "Ã¸": 1931,
      "ÅªÅ¡": 1932,
      "ÅłÅłÅłÅłÅłÅłÅłÅłÅłÅłÅłÅłÅ¢Å¡": 1933,
      "ÅłÅłÅłÅłÅłÅłÅ¡ÅłÅłÅłÅłÅłÅłÅłÅłÅłÅ¡ÅłÅłÅłÅłÅłÅłÅłÅłÅłÅłÅłÅłÅłÅłÅ¡": 1934,
      "ÅłÅłÅłÅłÅłÅłÅłÅłÅłÅłÅłÅłÅłÅłÅªÅłÅłÅłÅłÅłÅłÅłÅłÅłÅ®": 1935,
      "Å¢ÅłÅłÅłÅłÅłÅłÅłÅłÅłÅłÅłÅłÅłÅŁ": 1936,
      "ÅłÅłÅłÅłÅłÅłÅłÅłÅłÅłÅłÅłÅłÅłÅłÅłÅłÅłÅłÅłÅłÅŁÅłÅłÅłÅłÅłÅłÅŀ": 1937,
      "ÅŁÅłÅłÅłÅłÅ¡": 1938,
      "ÅłÅłÅłÅłÅłÅłÅłÅłÅłÅłÅłÅłÅłÅłÅłÅłÅŁÅłÅłÅłÅłÅłÅłÅłÅłÅłÅ¡": 1939,
      "Å¤Å§": 1940,
      "ÅłÅłÅłÅłÅłÅłÅłÅłÅłÅłÅłÅłÅłÅłÅłÅłÅłÅłÅłÅ¡ÅłÅłÅłÅłÅłÅłÅłÅłÅłÅ¡": 1941,
      "ÅłÅłÅłÅłÅłÅłÅłÅłÅłÅłÅłÅłÅłÅłÅłÅłÅłÅłÅłÅłÅłÅłÅłÅłÅ¡ÅłÅłÅłÅłÅłÅłÅŁ": 1942,
      "Ä¸Äĭ": 1943,
      "ÅŀÅłÅłÅłÅłÅłÅłÅłÅłÅłÅłÅłÅłÅłÅŁ": 1944,
      "ÅŀÅłÅ¡Å¡": 1945,
      "ÅłÅłÅłÅłÅłÅłÅłÅłÅłÅłÅłÅłÅłÅłÅłÅłÅłÅłÅłÅłÅłÅłÅłÅłÅłÅłÅłÅłÅłÅłÅłÅłÅłÅłÅłÅłÅłÅłÅłÅłÅłÅłÅłÅłÅłÅłÅłÅłÅłÅłÅłÅłÅłÅłÅłÅłÅłÅłÅłÅłÅłÅłÅłÅłÅłÅłÅłÅłÅłÅłÅłÅłÅłÅłÅłÅłÅłÅłÅłÅłÅłÅłÅłÅłÅłÅłÅłÅłÅłÅłÅłÅłÅłÅłÅłÅłÅłÅłÅłÅłÅłÅłÅłÅłÅłÅłÅłÅłÅłÅłÅłÅłÅłÅłÅłÅłÅłÅłÅłÅłÅłÅłÅłÅłÅłÅłÅłÅ¡ÅłÅłÅłÅłÅłÅłÅłÅłÅłÅłÅłÅłÅłÅłÅłÅłÅłÅłÅłÅłÅłÅłÅłÅłÅłÅłÅłÅłÅłÅłÅłÅłÅłÅłÅłÅłÅłÅłÅłÅłÅłÅłÅłÅłÅłÅłÅłÅłÅłÅłÅłÅłÅłÅłÅłÅłÅłÅłÅłÅłÅłÅłÅłÅłÅłÅłÅłÅłÅłÅłÅłÅłÅłÅłÅłÅłÅłÅłÅłÅłÅłÅłÅłÅłÅłÅłÅłÅłÅłÅłÅłÅłÅłÅłÅłÅłÅłÅłÅłÅłÅłÅłÅłÅłÅłÅłÅłÅłÅłÅłÅłÅłÅłÅłÅłÅłÅłÅłÅłÅłÅłÅłÅłÅłÅłÅłÅłÅłÅłÅłÅłÅłÅłÅłÅłÅłÅłÅłÅłÅłÅłÅłÅłÅłÅłÅłÅłÅłÅłÅłÅłÅłÅłÅłÅłÅłÅłÅłÅłÅłÅłÅłÅłÅłÅłÅłÅłÅłÅłÅłÅłÅłÅłÅłÅłÅłÅłÅłÅłÅłÅłÅłÅłÅłÅłÅłÅłÅłÅłÅłÅłÅłÅłÅłÅłÅłÅłÅłÅłÅłÅłÅłÅłÅłÅłÅłÅłÅłÅłÅłÅłÅłÅłÅłÅłÅłÅłÅłÅłÅłÅłÅłÅłÅłÅłÅłÅłÅłÅłÅłÅłÅłÅłÅłÅłÅłÅłÅłÅłÅłÅłÅłÅłÅłÅłÅłÅłÅłÅłÅłÅłÅłÅłÅłÅłÅłÅłÅłÅłÅłÅłÅłÅłÅłÅłÅłÅłÅłÅłÅłÅłÅłÅłÅłÅłÅłÅłÅłÅłÅłÅłÅłÅłÅłÅłÅłÅłÅłÅłÅłÅłÅłÅłÅłÅłÅłÅłÅłÅłÅłÅłÅłÅłÅłÅłÅłÅłÅłÅłÅłÅłÅłÅłÅłÅłÅłÅłÅłÅłÅłÅłÅłÅłÅłÅłÅłÅłÅłÅłÅłÅłÅłÅłÅłÅłÅłÅłÅłÅłÅłÅłÅłÅłÅłÅłÅłÅłÅłÅłÅłÅłÅłÅłÅłÅłÅłÅłÅłÅłÅłÅłÅłÅłÅłÅłÅłÅłÅłÅłÅłÅłÅłÅłÅłÅłÅłÅłÅłÅłÅłÅłÅłÅłÅłÅłÅłÅłÅłÅłÅłÅłÅłÅłÅłÅłÅłÅłÅłÅłÅłÅłÅłÅłÅłÅłÅłÅłÅłÅłÅłÅłÅłÅłÅłÅłÅłÅłÅłÅłÅłÅłÅłÅłÅłÅłÅłÅłÅłÅłÅłÅłÅłÅłÅłÅłÅłÅłÅłÅłÅłÅłÅłÅłÅłÅłÅłÅłÅłÅłÅłÅłÅłÅłÅłÅłÅłÅłÅłÅłÅłÅłÅłÅłÅłÅłÅłÅłÅłÅłÅłÅłÅłÅłÅłÅłÅłÅłÅłÅłÅłÅłÅłÅłÅłÅłÅłÅłÅłÅłÅłÅłÅłÅłÅłÅłÅłÅłÅłÅłÅłÅłÅłÅłÅłÅłÅłÅłÅłÅłÅłÅłÅłÅłÅłÅłÅłÅłÅłÅłÅłÅłÅłÅłÅłÅłÅłÅłÅłÅłÅłÅłÅłÅłÅłÅłÅłÅłÅłÅłÅłÅłÅłÅłÅłÅłÅłÅłÅłÅłÅłÅłÅłÅłÅłÅłÅłÅłÅłÅłÅłÅłÅłÅłÅłÅłÅłÅłÅłÅłÅłÅłÅłÅłÅłÅłÅłÅłÅłÅłÅłÅłÅłÅłÅłÅłÅłÅłÅłÅłÅłÅłÅłÅłÅłÅłÅłÅłÅłÅłÅłÅłÅłÅłÅłÅłÅłÅłÅłÅłÅłÅłÅłÅłÅłÅłÅłÅłÅłÅłÅł": 1946,
      "ÅłÅłÅłÅłÅłÅłÄ®": 1947,
      "ÅłÅłÅłÅłÅłÅłÅłÅłÅłÅĹ": 1948,
      "Ã±": 1949,
      "Æ¡Äĩ": 1950,
      "Ã·": 1951,
      "Å«ÅĿ": 1952,
      "ÅłÅ½": 1953,
      "Å¢ÅĹÅ¡": 1954,
      "Å¥Å¥": 1955,
      "Çİ": 1956,
      "ÅłÅº": 1957,
      "ÅłÅłÅłÅłÅłÅłÅłÅłÅłÅłÅłÅłÅłÅłÅłÅłÅłÅłÅłÅľ": 1958,
      "ÅłÅłÅłÅłÅłÅłÅłÅłÅłÅłÅłÅłÅłÅłÅłÅłÅłÅłÅłÅłÅłÅłÅłÅłÅłÅłÅłÅłÅłÅłÅłÅĺ": 1959,
      "ÄĳÅŃ": 1960,
      "Å¦Å¤": 1961,
      "ÅĻÇĵÆģÄĳ": 1962,
      "ÅŁÅ¡ÅłÅłÅłÅłÅ¡": 1963,
      "ÅłÅłÅĿÅłÅłÅłÅłÅłÅłÅłÅłÅłÅłÅłÅłÅłÅłÅłÅłÅłÅłÅłÅłÅłÅ¢": 1964,
      "Å§Åĺ": 1965,
      "ÅłÅłÅłÅłÅłÅłÅłÅłÅłÅłÅłÅłÅ¡ÅŁÅłÅłÅłÅłÅłÅłÅłÅłÅ¡ÅŁ": 1966,
      "Ç¥": 1967,
      "ÅłÅ¼": 1968,
      "ÅŁÅĶ": 1969,
      "Å¢ÅĶ": 1970,
      "ÅłÅłÅłÅ¡ÅłÅłÅłÅłÅłÅłÅłÅłÅłÅłÅłÅłÅłÅłÅłÅŁ": 1971,
      "ÅłÅłÅłÅłÅłÅłÅłÅłÅłÅłÅłÅłÅłÅłÅłÅłÅłÅłÅłÅłÅłÅŁÅłÅłÅłÅłÅłÅłÅ¢": 1972,
      "ÅłÅłÅłÅłÅłÅłÅłÅ®": 1973,
      "ÅŀÅłÅŀ": 1974,
      "Ç£": 1975,
      "ÇĲ": 1976,
      "ÅŁÅŁÅłÅ¡": 1977,
      "ÅłÅłÅłÅłÅłÅłÅłÅłÅłÅłÅłÅłÅłÅłÅłÅłÅłÅłÅłÅłÅłÅłÅłÅłÅłÅłÅłÅłÅłÅłÅłÅŁÅłÅłÅłÅłÅłÅłÅłÅłÅłÅłÅłÅłÅłÅłÅłÅłÅłÅłÅłÅłÅłÅłÅłÅłÅłÅłÅłÅłÅłÅłÅłÅŁÅłÅłÅłÅłÅłÅłÅłÅłÅłÅłÅłÅłÅłÅłÅłÅłÅłÅłÅłÅłÅłÅłÅłÅłÅłÅłÅłÅłÅłÅłÅłÅłÅłÅłÅłÅłÅłÅłÅłÅłÅłÅłÅłÅłÅłÅłÅłÅłÅłÅłÅłÅłÅłÅłÅłÅłÅłÅłÅłÅłÅłÅłÅłÅłÅłÅłÅłÅłÅłÅłÅłÅłÅłÅłÅłÅłÅłÅłÅłÅłÅłÅłÅłÅłÅłÅłÅłÅłÅłÅłÅłÅłÅłÅłÅłÅłÅłÅłÅłÅłÅłÅłÅłÅłÅłÅłÅłÅłÅłÅłÅłÅłÅłÅłÅłÅłÅłÅłÅłÅłÅłÅłÅłÅłÅłÅłÅłÅłÅłÅłÅłÅłÅłÅłÅłÅłÅłÅłÅłÅłÅłÅłÅłÅłÅłÅłÅłÅłÅłÅłÅłÅłÅłÅłÅłÅłÅłÅłÅłÅłÅłÅłÅłÅłÅłÅłÅłÅłÅłÅłÅłÅłÅłÅłÅłÅłÅłÅłÅłÅłÅłÅłÅłÅłÅłÅłÅłÅłÅłÅłÅłÅłÅłÅłÅłÅłÅłÅłÅłÅłÅłÅłÅłÅłÅłÅłÅłÅłÅłÅłÅłÅłÅłÅłÅłÅłÅłÅłÅłÅłÅłÅłÅłÅłÅłÅłÅłÅłÅłÅłÅłÅłÅłÅłÅłÅłÅłÅłÅłÅłÅłÅłÅłÅłÅłÅłÅłÅłÅłÅłÅłÅłÅłÅłÅłÅłÅłÅłÅłÅłÅłÅłÅłÅłÅłÅłÅłÅłÅłÅłÅłÅłÅłÅłÅłÅłÅłÅłÅłÅłÅłÅłÅłÅłÅłÅłÅłÅłÅłÅłÅłÅłÅłÅłÅłÅłÅłÅłÅłÅłÅłÅłÅłÅłÅłÅłÅłÅłÅłÅłÅłÅłÅłÅłÅłÅłÅłÅłÅłÅłÅłÅłÅłÅłÅłÅłÅłÅłÅłÅłÅłÅłÅłÅłÅłÅłÅłÅłÅłÅłÅłÅłÅłÅłÅłÅłÅłÅłÅłÅłÅłÅłÅłÅłÅłÅłÅłÅłÅłÅłÅłÅłÅłÅłÅłÅłÅłÅłÅłÅłÅłÅłÅłÅłÅłÅłÅłÅłÅłÅłÅłÅłÅłÅłÅłÅłÅłÅłÅłÅłÅłÅłÅłÅłÅłÅłÅłÅłÅłÅłÅłÅłÅłÅłÅłÅłÅłÅłÅłÅłÅłÅłÅłÅłÅłÅłÅłÅłÅłÅłÅłÅłÅłÅłÅłÅłÅłÅłÅłÅłÅłÅłÅłÅłÅłÅłÅłÅłÅłÅłÅłÅłÅłÅłÅłÅłÅłÅłÅłÅłÅłÅłÅłÅłÅłÅłÅłÅłÅłÅłÅłÅłÅłÅłÅłÅłÅłÅłÅłÅłÅłÅłÅłÅłÅłÅłÅłÅłÅłÅłÅłÅłÅłÅłÅłÅłÅłÅłÅłÅłÅłÅłÅłÅłÅłÅłÅłÅłÅłÅłÅłÅłÅłÅłÅłÅłÅłÅłÅłÅłÅłÅłÅłÅłÅłÅłÅłÅłÅłÅłÅłÅłÅłÅłÅłÅłÅłÅłÅłÅłÅłÅłÅłÅłÅłÅłÅłÅłÅłÅłÅłÅłÅłÅłÅłÅłÅłÅłÅłÅłÅłÅłÅłÅłÅłÅłÅłÅłÅłÅłÅłÅłÅłÅłÅłÅłÅłÅłÅłÅłÅłÅłÅłÅłÅłÅłÅłÅłÅłÅłÅłÅłÅłÅłÅłÅłÅłÅłÅłÅłÅłÅłÅłÅłÅłÅłÅłÅłÅłÅłÅłÅłÅłÅłÅłÅłÅłÅłÅłÅłÅłÅłÅłÅłÅłÅłÅłÅłÅłÅłÅłÅłÅłÅłÅłÅłÅłÅłÅłÅłÅłÅłÅłÅłÅłÅłÅłÅłÅłÅłÅłÅłÅłÅłÅłÅłÅłÅłÅłÅłÅłÅłÅłÅłÅłÅłÅłÅłÅłÅłÅłÅłÅłÅłÅłÅłÅłÅłÅłÅłÅłÅłÅłÅłÅłÅłÅłÅłÅłÅłÅłÅłÅłÅłÅłÅłÅłÅłÅłÅłÅłÅłÅłÅłÅłÅłÅłÅłÅłÅłÅłÅłÅłÅł": 1978,
      "ÅłÅłÅłÅłÅłÅłÅłÅłÅłÅłÅłÅłÅłÅłÅłÅłÅ¢": 1979,
      "ÅłÅłÅłÅłÅłÅłÅłÅłÅłÅłÅłÅłÅłÅłÅłÅľ": 1980,
      "Å§Åŀ": 1981,
      "Å¨ÅŁ": 1982,
      "ÅłÅłÅłÅłÅłÅłÅłÅłÅłÅłÅłÅłÅłÅ¬": 1983,
      "ÅłÅłÅłÅłÅłÅłÅłÅłÅłÅłÅłÅłÅłÅłÅłÅłÅłÅłÅłÅłÅłÅłÅłÅłÅłÅłÅłÅłÅłÅłÅłÅłÅłÅłÅłÅłÅłÅłÅłÅłÅłÅłÅłÅłÅłÅłÅłÅłÅłÅłÅłÅłÅłÅłÅłÅłÅłÅłÅłÅłÅłÅłÅłÅłÅłÅłÅłÅłÅłÅłÅłÅłÅłÅłÅłÅłÅłÅłÅłÅłÅłÅłÅłÅłÅłÅłÅłÅłÅłÅłÅłÅłÅłÅłÅłÅłÅłÅłÅłÅłÅłÅłÅłÅłÅłÅłÅłÅłÅłÅłÅłÅłÅłÅłÅłÅłÅłÅłÅłÅłÅłÅłÅłÅłÅłÅłÅłÅłÅłÅłÅłÅłÅłÅłÅłÅłÅłÅłÅłÅłÅłÅłÅłÅłÅłÅłÅłÅłÅłÅłÅłÅłÅłÅłÅłÅłÅłÅłÅłÅłÅłÅłÅłÅłÅłÅłÅłÅłÅłÅłÅłÅłÅłÅłÅłÅłÅłÅłÅłÅłÅłÅłÅłÅłÅłÅłÅłÅłÅłÅłÅłÅłÅłÅłÅłÅłÅłÅłÅłÅłÅłÅłÅłÅłÅłÅłÅłÅłÅłÅłÅłÅłÅłÅłÅłÅłÅłÅłÅłÅłÅłÅłÅłÅłÅłÅłÅłÅłÅłÅłÅłÅłÅłÅłÅłÅłÅłÅłÅłÅłÅłÅłÅłÅłÅłÅłÅłÅłÅłÅłÅłÅłÅłÅłÅłÅłÅłÅłÅłÅłÅłÅłÅłÅłÅłÅłÅłÅłÅłÅłÅłÅłÅłÅłÅłÅłÅłÅłÅłÅłÅłÅłÅłÅłÅłÅłÅłÅłÅłÅłÅłÅłÅłÅłÅłÅłÅłÅłÅłÅłÅłÅłÅłÅłÅłÅłÅłÅłÅłÅłÅłÅłÅłÅłÅłÅłÅłÅłÅłÅłÅłÅłÅłÅłÅłÅłÅłÅłÅłÅłÅłÅłÅłÅłÅłÅłÅłÅłÅłÅłÅłÅłÅłÅłÅłÅłÅłÅłÅłÅłÅłÅłÅłÅłÅłÅłÅłÅłÅłÅłÅłÅłÅłÅłÅłÅłÅłÅłÅłÅłÅłÅłÅłÅłÅłÅłÅłÅłÅłÅłÅłÅłÅłÅłÅłÅłÅłÅłÅłÅłÅłÅłÅłÅłÅłÅłÅłÅłÅłÅłÅłÅłÅłÅłÅłÅłÅłÅłÅłÅłÅłÅłÅłÅłÅłÅłÅłÅłÅłÅłÅłÅłÅłÅłÅłÅłÅłÅłÅłÅłÅłÅłÅłÅłÅłÅłÅłÅłÅłÅłÅłÅłÅłÅłÅłÅłÅłÅłÅłÅłÅłÅłÅłÅłÅłÅłÅłÅłÅłÅłÅłÅłÅłÅłÅłÅłÅłÅłÅłÅłÅłÅłÅłÅłÅłÅłÅłÅłÅłÅłÅłÅłÅłÅłÅłÅłÅłÅłÅłÅłÅłÅłÅłÅłÅłÅłÅłÅłÅłÅłÅłÅłÅłÅłÅłÅłÅłÅłÅłÅłÅłÅłÅłÅłÅłÅłÅłÅłÅłÅłÅłÅłÅłÅłÅłÅłÅłÅłÅłÅłÅłÅłÅłÅłÅłÅłÅłÅłÅłÅłÅłÅłÅłÅłÅłÅłÅłÅłÅłÅłÅłÅłÅłÅłÅłÅłÅłÅłÅłÅłÅłÅłÅłÅłÅłÅłÅłÅłÅłÅłÅłÅłÅłÅłÅłÅłÅłÅłÅłÅłÅłÅłÅłÅłÅłÅłÅłÅłÅłÅłÅłÅłÅłÅłÅłÅłÅłÅłÅłÅłÅłÅłÅłÅłÅłÅłÅłÅłÅłÅłÅłÅłÅłÅłÅłÅłÅłÅłÅłÅłÅłÅłÅłÅłÅłÅłÅłÅłÅłÅłÅłÅłÅłÅłÅłÅłÅłÅłÅłÅłÅłÅłÅłÅłÅłÅłÅłÅłÅłÅłÅłÅłÅłÅłÅłÅłÅłÅłÅłÅłÅłÅłÅłÅłÅłÅłÅłÅłÅłÅłÅłÅłÅłÅłÅłÅłÅłÅłÅłÅłÅłÅłÅłÅłÅłÅł": 1984,
      "ÅłÅłÅĶ": 1985,
      "ÅłÅłÅłÅłÅłÅłÅłÅłÅŁÅŀ": 1986,
      "ÅłÅłÅłÅłÅłÅłÅłÅŁÅłÅŁ": 1987,
      "Å¸ÆĭÅłÅłÅłÅłÅłÅłÅłÅłÅłÅłÅłÅł": 1988,
      "ÅłÅłÅłÅłÅłÅłÅłÅłÅłÅłÅłÅłÅłÅłÅłÅłÅłÅłÅłÅłÅłÅłÅłÅłÅłÅłÅłÅłÅłÅłÅłÅŁÅłÅłÅłÅłÅłÅłÅłÅłÅłÅłÅłÅłÅłÅłÅłÅłÅłÅłÅłÅłÅłÅłÅłÅłÅłÅłÅłÅłÅłÅłÅłÅłÅłÅłÅłÅłÅłÅłÅłÅłÅłÅłÅłÅłÅłÅłÅłÅłÅłÅłÅłÅłÅłÅłÅłÅłÅłÅłÅłÅłÅłÅłÅłÅłÅłÅłÅłÅłÅłÅłÅłÅłÅłÅłÅłÅłÅłÅłÅłÅłÅłÅłÅłÅłÅłÅłÅłÅłÅłÅłÅłÅłÅłÅłÅłÅłÅłÅłÅłÅłÅłÅłÅłÅłÅłÅłÅłÅłÅłÅłÅłÅłÅłÅłÅłÅłÅłÅłÅłÅłÅłÅłÅłÅłÅłÅłÅłÅłÅłÅłÅłÅłÅłÅłÅłÅłÅłÅłÅłÅłÅłÅłÅłÅłÅłÅłÅłÅłÅłÅłÅłÅłÅłÅłÅłÅłÅłÅłÅłÅłÅłÅłÅłÅłÅłÅłÅłÅłÅłÅłÅłÅłÅłÅłÅłÅłÅłÅłÅłÅłÅłÅłÅłÅłÅłÅłÅłÅłÅłÅłÅłÅłÅłÅłÅłÅłÅłÅłÅłÅłÅłÅłÅłÅłÅłÅłÅłÅłÅłÅłÅłÅłÅłÅłÅłÅłÅłÅłÅłÅłÅłÅłÅłÅłÅłÅłÅłÅłÅłÅłÅłÅłÅłÅłÅłÅłÅłÅłÅłÅłÅłÅłÅłÅłÅłÅłÅłÅłÅłÅłÅłÅłÅłÅłÅłÅłÅłÅłÅłÅłÅłÅłÅłÅłÅłÅłÅłÅłÅłÅłÅłÅłÅłÅłÅłÅłÅłÅłÅłÅłÅłÅłÅłÅłÅłÅłÅłÅłÅłÅłÅłÅłÅłÅłÅłÅłÅłÅłÅłÅłÅłÅłÅłÅłÅłÅłÅłÅłÅłÅłÅłÅłÅłÅłÅłÅłÅłÅłÅłÅłÅłÅłÅłÅłÅłÅłÅłÅłÅłÅłÅłÅłÅłÅłÅłÅłÅłÅłÅłÅłÅłÅłÅłÅłÅłÅłÅłÅłÅłÅłÅłÅłÅłÅłÅłÅłÅłÅłÅłÅłÅłÅłÅłÅłÅłÅłÅłÅłÅłÅłÅłÅłÅłÅłÅłÅłÅłÅłÅłÅłÅłÅłÅłÅłÅłÅłÅłÅłÅłÅłÅłÅłÅłÅłÅłÅłÅłÅłÅłÅłÅłÅłÅłÅłÅłÅłÅłÅłÅłÅłÅłÅłÅłÅłÅłÅłÅłÅłÅłÅłÅłÅłÅłÅłÅłÅłÅłÅłÅłÅłÅłÅłÅłÅłÅłÅłÅłÅłÅłÅłÅłÅłÅłÅłÅłÅłÅłÅłÅłÅłÅłÅłÅłÅłÅłÅłÅłÅłÅłÅłÅłÅłÅłÅłÅłÅłÅłÅłÅłÅłÅłÅłÅłÅłÅłÅłÅłÅłÅłÅłÅłÅłÅłÅłÅłÅłÅłÅłÅłÅłÅłÅłÅłÅłÅłÅłÅłÅłÅłÅłÅłÅłÅłÅłÅłÅłÅłÅłÅłÅłÅłÅłÅłÅłÅłÅłÅłÅłÅłÅłÅłÅłÅłÅłÅłÅłÅłÅłÅłÅłÅłÅłÅłÅłÅłÅłÅłÅłÅłÅłÅłÅłÅłÅłÅłÅłÅłÅłÅłÅłÅłÅłÅłÅłÅłÅłÅłÅłÅłÅłÅłÅłÅłÅłÅłÅłÅłÅłÅłÅłÅłÅłÅłÅłÅłÅłÅłÅłÅłÅłÅłÅłÅłÅłÅłÅłÅłÅłÅłÅłÅłÅłÅłÅłÅłÅłÅłÅłÅłÅłÅłÅłÅłÅłÅłÅłÅłÅłÅłÅłÅłÅłÅłÅłÅłÅłÅłÅłÅłÅłÅłÅłÅłÅłÅłÅłÅłÅłÅłÅłÅłÅłÅłÅłÅłÅłÅłÅłÅłÅłÅłÅłÅłÅłÅłÅłÅłÅłÅłÅłÅłÅłÅłÅłÅłÅłÅłÅłÅłÅłÅłÅłÅłÅłÅłÅłÅłÅłÅłÅłÅłÅłÅłÅłÅłÅłÅłÅłÅłÅłÅłÅłÅłÅłÅłÅłÅłÅłÅłÅłÅłÅłÅłÅłÅłÅłÅłÅłÅłÅłÅłÅłÅłÅłÅłÅłÅłÅłÅłÅłÅłÅłÅłÅłÅłÅłÅłÅłÅłÅłÅłÅłÅłÅłÅłÅłÅłÅłÅłÅłÅłÅłÅłÅłÅłÅłÅłÅłÅłÅłÅłÅłÅłÅłÅłÅłÅłÅł": 1989,
      "ÅłÅłÅłÅłÅłÅłÅłÅłÅłÅłÅłÅłÅłÅłÅłÅłÅłÅłÅłÅłÅŁÅłÅłÅłÅłÅłÅłÅłÅłÅłÅ¡": 1990,
      "ÅłÅłÅłÅłÅłÅłÅłÅłÅłÅłÅłÅłÅłÅłÅŃÅłÅłÅłÅłÅłÅłÅłÅłÅłÅ": 1991,
      "ÇĪ": 1992,
      "ÅłÅłÅłÅłÅłÅ¡ÅłÅłÅŁÅŁÅłÅłÅłÅŁ": 1993,
      "ÅłÅłÅłÅłÅłÅłÅłÅłÅłÅłÅłÅłÅłÅłÅłÅłÅłÅłÅłÅłÅłÅĿÅłÅłÅłÅłÅłÅłÅłÅłÅłÅ¤": 1994,
      "ÅłÅ¢Å£": 1995,
      "ÅłÅłÅłÅłÅłÅłÅłÅŃ": 1996,
      "ÅłÆĳ": 1997,
      "ÅłÅłÅłÅłÅłÅłÅłÅłÅłÅłÅłÅłÅłÅłÅłÅłÅłÅłÅłÅłÅłÅ¡ÅłÅłÅłÅłÅłÅłÅłÅłÅłÅ¡ÅłÅłÅłÅłÅłÅłÅ¡": 1998,
      "ÅłÅłÅłÅłÅłÅłÅłÅłÅłÅłÅłÅłÅłÅłÅłÅłÅłÅłÅłÅłÅłÅłÅłÅłÅłÅłÅłÅłÅłÅłÅłÅŀÅłÅłÅłÅłÅłÅłÅłÅłÅłÅłÅłÅłÅłÅłÅłÅłÅłÅłÅłÅłÅłÅłÅłÅłÅłÅłÅłÅłÅłÅłÅłÅŁ": 1999,
      "ÅłÅłÅłÅłÅłÅłÅłÅłÅłÅłÅłÅłÅłÅłÅłÅ¡Å¡": 2000,
      "ÅĿÅĸ": 2001,
      "Å¤ÅłÅŁ": 2002,
      "ÅļÅ¢": 2003,
      "Å¦Åĺ": 2004,
      "Ä¸Æ¤ÅĹ": 2005,
      "ÅłÅłÅłÅłÅłÅłÅłÅłÅłÅłÅłÅłÅłÅłÅłÅłÅłÅłÅłÅłÅłÅ¢ÅłÅłÅłÅłÅłÅłÅ¢": 2006,
      "ÅłÅłÅłÅłÅłÅłÅłÅłÅłÅłÅłÅłÅłÅłÅłÅłÅłÅłÅłÅłÅłÅłÅłÅłÅłÅłÅłÅłÅ¡ÅłÅłÅłÅłÅłÅłÅłÅłÅłÅłÅłÅłÅłÅłÅłÅłÅłÅłÅłÅłÅłÅłÅłÅłÅłÅłÅłÅłÅłÅłÅłÅłÅłÅłÅłÅłÅłÅłÅłÅłÅłÅłÅłÅłÅłÅłÅłÅłÅłÅłÅłÅłÅłÅłÅłÅłÅłÅłÅłÅłÅłÅłÅłÅłÅłÅłÅłÅłÅłÅłÅłÅłÅłÅłÅłÅłÅłÅłÅłÅłÅłÅłÅłÅłÅłÅłÅłÅłÅłÅłÅłÅłÅłÅłÅłÅłÅłÅłÅłÅłÅłÅłÅłÅłÅłÅłÅłÅłÅłÅłÅłÅłÅłÅłÅłÅłÅłÅłÅłÅłÅłÅłÅłÅłÅłÅłÅłÅłÅłÅłÅłÅłÅłÅłÅłÅłÅłÅłÅłÅłÅłÅłÅłÅłÅłÅłÅłÅłÅłÅłÅłÅłÅłÅłÅłÅłÅłÅłÅłÅłÅłÅłÅłÅłÅłÅłÅłÅłÅłÅłÅłÅłÅłÅłÅłÅłÅłÅłÅłÅłÅłÅłÅłÅłÅłÅłÅłÅłÅłÅłÅłÅłÅłÅłÅłÅłÅłÅłÅłÅłÅłÅłÅłÅłÅłÅłÅłÅłÅłÅłÅłÅłÅłÅłÅłÅłÅłÅłÅłÅłÅłÅłÅłÅłÅłÅłÅłÅłÅłÅłÅłÅłÅłÅłÅłÅłÅłÅłÅłÅłÅłÅłÅłÅłÅłÅłÅłÅłÅłÅłÅłÅłÅłÅłÅłÅłÅłÅłÅłÅłÅłÅłÅłÅłÅłÅłÅłÅłÅłÅłÅłÅłÅłÅłÅłÅłÅłÅłÅłÅłÅłÅłÅłÅłÅłÅłÅłÅłÅłÅłÅłÅłÅłÅłÅłÅłÅłÅłÅłÅłÅłÅłÅłÅłÅłÅłÅłÅłÅłÅłÅłÅłÅłÅłÅłÅłÅłÅłÅłÅłÅłÅłÅłÅłÅłÅłÅłÅłÅłÅłÅłÅłÅłÅłÅłÅłÅłÅłÅłÅłÅłÅłÅłÅłÅłÅłÅłÅłÅłÅłÅłÅłÅłÅłÅłÅłÅłÅłÅłÅłÅłÅłÅłÅłÅłÅłÅłÅłÅłÅłÅłÅłÅłÅłÅłÅłÅłÅłÅłÅłÅłÅłÅłÅłÅłÅłÅłÅłÅłÅłÅłÅłÅłÅłÅłÅłÅłÅłÅłÅłÅłÅłÅłÅłÅłÅłÅłÅłÅłÅłÅłÅłÅłÅłÅłÅłÅłÅłÅłÅłÅłÅłÅłÅłÅłÅłÅłÅłÅłÅłÅłÅłÅłÅłÅłÅłÅłÅłÅłÅłÅłÅłÅłÅłÅłÅłÅłÅłÅłÅłÅłÅłÅłÅłÅłÅłÅłÅłÅłÅłÅłÅłÅłÅłÅłÅłÅłÅłÅłÅłÅłÅłÅłÅłÅłÅłÅłÅłÅłÅłÅłÅłÅłÅłÅłÅłÅłÅłÅłÅłÅłÅłÅłÅłÅłÅłÅłÅłÅłÅłÅłÅłÅłÅłÅłÅłÅłÅłÅłÅłÅłÅłÅłÅłÅłÅłÅłÅłÅłÅłÅłÅłÅłÅłÅłÅłÅłÅłÅłÅłÅłÅłÅłÅłÅłÅłÅłÅłÅłÅłÅłÅłÅłÅłÅłÅłÅłÅłÅłÅłÅłÅłÅłÅłÅłÅłÅłÅłÅłÅłÅłÅłÅłÅłÅłÅłÅłÅłÅłÅłÅłÅłÅłÅłÅłÅłÅłÅłÅłÅłÅłÅłÅłÅłÅłÅłÅłÅłÅłÅłÅłÅłÅłÅłÅłÅłÅłÅłÅłÅłÅłÅłÅłÅłÅłÅłÅłÅłÅłÅłÅłÅłÅłÅłÅłÅłÅłÅłÅłÅłÅłÅłÅłÅłÅłÅłÅłÅłÅłÅł": 2007,
      "Ä¬Æī": 2008,
      "ÅłÅłÅłÅłÅłÅłÅłÅłÅłÅłÅłÅłÅłÅłÅľÅłÅłÅłÅłÅłÅłÅłÅłÅłÅĽ": 2009,
      "ÆĴÅ©": 2010,
      "ÅłÅłÅłÅłÅłÅłÅłÅłÅłÅłÅłÅłÅłÅłÅłÅ¡ÅŁ": 2011,
      "ÅłÅłÅ¡ÅłÅłÅŁ": 2012,
      "ÅļÅŁ": 2013,
      "ÅłÅłÅłÅłÅłÅłÅłÅłÅłÅłÅłÅłÅłÅłÅłÅłÅłÅłÅłÅŁÅłÅłÅłÅłÅłÅłÅłÅłÅłÅ¡": 2014,
      "ÅłÅłÅłÅłÅłÅłÅłÅłÅłÅłÅłÅłÅłÅłÅłÅłÅłÅłÅłÅłÅłÅłÅłÅłÅłÅłÅłÅłÅłÅłÅłÅłÅłÅłÅłÅłÅłÅłÅłÅłÅłÅłÅłÅłÅłÅłÅłÅłÅłÅłÅłÅłÅłÅłÅłÅłÅłÅłÅłÅłÅłÅłÅłÅŁÅłÅłÅłÅłÅłÅłÅłÅłÅłÅłÅłÅłÅłÅłÅłÅłÅłÅłÅłÅłÅłÅłÅłÅłÅłÅłÅłÅłÅłÅłÅłÅłÅłÅłÅłÅłÅłÅłÅłÅłÅłÅłÅłÅłÅłÅłÅłÅłÅłÅłÅłÅłÅłÅłÅłÅłÅłÅłÅłÅłÅłÅłÅłÅłÅłÅłÅłÅłÅłÅłÅłÅłÅłÅłÅłÅłÅłÅłÅłÅłÅłÅłÅłÅłÅłÅłÅłÅłÅłÅłÅłÅłÅłÅłÅłÅłÅłÅłÅłÅłÅłÅłÅłÅłÅłÅłÅłÅłÅłÅłÅłÅłÅłÅłÅłÅłÅłÅłÅłÅłÅłÅłÅłÅłÅłÅłÅłÅłÅłÅłÅłÅłÅłÅłÅłÅłÅłÅłÅłÅłÅłÅłÅłÅłÅłÅłÅłÅłÅłÅłÅłÅłÅłÅłÅłÅłÅłÅłÅłÅłÅłÅłÅłÅłÅłÅłÅłÅłÅłÅłÅłÅłÅłÅłÅłÅłÅłÅłÅłÅłÅłÅłÅłÅłÅłÅłÅłÅłÅłÅłÅłÅłÅłÅłÅłÅłÅłÅłÅłÅłÅłÅłÅłÅłÅłÅłÅłÅłÅłÅłÅłÅłÅłÅłÅłÅłÅłÅłÅłÅłÅłÅłÅłÅłÅłÅłÅłÅłÅłÅłÅłÅłÅłÅłÅłÅłÅłÅłÅłÅłÅłÅłÅłÅłÅłÅłÅłÅłÅłÅłÅłÅłÅłÅłÅłÅłÅłÅłÅłÅłÅłÅłÅłÅłÅłÅłÅłÅłÅłÅłÅłÅłÅłÅłÅłÅłÅłÅłÅłÅłÅłÅłÅłÅłÅłÅłÅłÅłÅłÅłÅłÅłÅłÅłÅłÅłÅłÅłÅłÅłÅłÅłÅłÅłÅłÅłÅłÅłÅłÅłÅłÅłÅłÅłÅłÅłÅłÅłÅłÅłÅłÅłÅłÅłÅłÅłÅłÅłÅłÅłÅłÅłÅłÅłÅłÅłÅłÅłÅłÅłÅłÅłÅłÅłÅłÅłÅłÅłÅłÅłÅłÅłÅłÅłÅłÅłÅłÅłÅłÅłÅłÅłÅłÅłÅłÅłÅłÅłÅłÅłÅłÅłÅłÅłÅłÅłÅłÅłÅłÅłÅłÅłÅłÅłÅłÅłÅłÅłÅłÅłÅłÅłÅłÅłÅłÅłÅłÅłÅłÅłÅłÅłÅłÅłÅłÅłÅłÅłÅłÅłÅłÅłÅłÅłÅłÅłÅłÅłÅłÅłÅłÅłÅłÅłÅłÅłÅłÅłÅłÅłÅłÅłÅłÅłÅłÅłÅłÅłÅłÅłÅłÅłÅłÅłÅłÅłÅłÅłÅłÅłÅłÅłÅłÅłÅłÅłÅłÅłÅłÅłÅłÅłÅłÅłÅłÅłÅłÅłÅłÅłÅłÅłÅłÅłÅłÅłÅłÅłÅłÅłÅłÅłÅłÅłÅłÅłÅłÅłÅłÅłÅłÅłÅłÅłÅłÅłÅłÅłÅłÅłÅłÅłÅłÅłÅłÅłÅłÅłÅłÅłÅłÅłÅłÅłÅłÅłÅłÅłÅłÅłÅłÅłÅłÅłÅłÅłÅłÅłÅłÅłÅłÅłÅłÅłÅłÅłÅłÅłÅłÅłÅłÅłÅłÅłÅłÅłÅłÅłÅłÅłÅłÅłÅłÅłÅłÅłÅłÅłÅłÅłÅłÅłÅł": 2015,
      "Æ¤ÅĸÄĮ": 2016,
      "ÅĽÅ¨": 2017,
      "ÅłÆģ": 2018,
      "ÅłÅłÅŁÅłÅłÅłÅłÅłÅłÅłÅłÅłÅłÅłÅłÅłÅłÅłÅłÅłÅłÅłÅłÅłÅłÅłÅłÅłÅłÅłÅłÅłÅłÅłÅł": 2019,
      "Å£ÅłÅŀ": 2020,
      "ÅłÅłÅłÅłÅłÅłÅłÅłÅłÅłÅłÅłÅłÅłÅłÅłÅłÅłÅłÅłÅłÅłÅłÅłÅłÅłÅłÅłÅłÅłÅłÅ¡ÅłÅłÅłÅłÅłÅłÅłÅłÅłÅłÅłÅłÅłÅłÅłÅłÅłÅłÅłÅłÅłÅłÅłÅłÅłÅłÅłÅłÅłÅłÅłÅłÅłÅłÅłÅłÅłÅłÅłÅłÅłÅłÅłÅłÅłÅłÅłÅłÅłÅłÅłÅłÅłÅłÅłÅłÅłÅłÅłÅłÅłÅłÅłÅłÅłÅłÅłÅłÅłÅłÅłÅłÅłÅłÅłÅłÅłÅłÅłÅłÅłÅłÅłÅłÅłÅłÅłÅłÅłÅłÅłÅłÅłÅłÅłÅłÅłÅłÅłÅłÅłÅłÅłÅłÅłÅłÅłÅłÅłÅłÅłÅłÅłÅłÅłÅłÅłÅłÅłÅłÅłÅłÅłÅłÅłÅłÅłÅłÅłÅłÅłÅłÅłÅłÅłÅłÅłÅłÅłÅłÅłÅłÅłÅłÅłÅłÅłÅłÅłÅłÅłÅłÅłÅłÅłÅłÅłÅłÅłÅłÅłÅłÅłÅłÅłÅłÅłÅłÅłÅłÅłÅłÅłÅłÅłÅłÅłÅłÅłÅłÅłÅłÅłÅłÅłÅłÅłÅłÅłÅłÅłÅłÅłÅłÅłÅłÅłÅłÅłÅłÅłÅłÅłÅłÅłÅłÅłÅłÅłÅłÅłÅłÅłÅłÅłÅłÅłÅłÅłÅłÅłÅłÅłÅłÅłÅłÅłÅłÅłÅłÅłÅłÅłÅłÅłÅłÅłÅłÅłÅłÅłÅłÅłÅłÅłÅłÅłÅłÅłÅłÅłÅłÅłÅłÅłÅłÅłÅłÅłÅłÅłÅłÅłÅłÅłÅłÅłÅłÅłÅłÅłÅłÅłÅłÅłÅłÅłÅłÅłÅłÅłÅłÅłÅłÅłÅłÅłÅłÅłÅłÅłÅłÅłÅłÅłÅłÅłÅłÅłÅłÅłÅłÅłÅłÅłÅłÅłÅłÅłÅłÅłÅłÅłÅłÅłÅłÅłÅłÅłÅłÅłÅłÅłÅłÅłÅłÅłÅłÅłÅłÅłÅłÅłÅłÅłÅłÅłÅłÅłÅłÅłÅłÅłÅłÅłÅłÅłÅłÅłÅłÅłÅłÅłÅłÅłÅłÅłÅłÅłÅłÅłÅłÅłÅłÅłÅłÅłÅłÅłÅłÅłÅłÅłÅłÅłÅłÅłÅłÅłÅłÅłÅłÅłÅłÅłÅłÅłÅłÅłÅłÅłÅłÅłÅłÅłÅłÅłÅłÅłÅłÅłÅłÅłÅłÅłÅłÅłÅłÅłÅłÅłÅłÅłÅłÅłÅłÅłÅłÅłÅłÅłÅłÅłÅłÅłÅłÅłÅłÅłÅłÅłÅłÅłÅłÅłÅłÅłÅłÅłÅłÅłÅłÅłÅłÅłÅłÅłÅłÅłÅłÅłÅłÅłÅłÅłÅłÅłÅłÅłÅłÅłÅłÅłÅłÅłÅłÅłÅłÅłÅłÅłÅłÅłÅłÅłÅłÅłÅłÅłÅłÅłÅłÅłÅłÅłÅłÅłÅłÅłÅłÅłÅłÅłÅłÅłÅłÅłÅłÅłÅłÅłÅłÅłÅłÅłÅłÅłÅłÅłÅłÅłÅłÅłÅłÅłÅłÅłÅłÅłÅłÅłÅłÅłÅłÅłÅłÅłÅłÅłÅłÅłÅłÅłÅłÅłÅłÅłÅłÅłÅłÅłÅłÅłÅłÅłÅłÅłÅłÅłÅłÅłÅłÅłÅłÅłÅłÅłÅłÅłÅłÅłÅłÅłÅłÅłÅłÅłÅłÅłÅłÅłÅłÅłÅłÅłÅłÅłÅłÅłÅłÅłÅłÅłÅłÅłÅłÅłÅłÅłÅłÅłÅłÅłÅłÅłÅłÅłÅłÅłÅłÅłÅłÅłÅłÅłÅłÅłÅłÅłÅłÅłÅłÅłÅłÅłÅłÅłÅłÅłÅłÅłÅłÅłÅłÅłÅłÅłÅłÅłÅłÅłÅłÅłÅłÅłÅłÅłÅłÅłÅłÅłÅłÅłÅłÅłÅłÅłÅłÅłÅłÅłÅłÅłÅłÅłÅłÅłÅłÅłÅłÅłÅłÅłÅłÅłÅłÅłÅłÅłÅłÅłÅłÅłÅłÅłÅłÅłÅłÅłÅłÅłÅłÅłÅłÅłÅłÅłÅłÅłÅłÅłÅłÅłÅłÅłÅłÅłÅłÅłÅłÅłÅłÅłÅłÅłÅłÅłÅłÅłÅłÅłÅłÅłÅłÅłÅł": 2021,
      "ÅĽÅĻ": 2022,
      "ÅłÅłÅłÅłÅłÅłÅłÅłÅłÅłÅłÅłÅłÅĶ": 2023,
      "ÅłÅ£ÅŁ": 2024,
      "ÅłÅłÅłÅłÅłÅłÅłÅłÅłÅłÅłÅłÅłÅłÅłÅłÅłÅłÅłÅłÅłÅłÅłÅłÅłÅłÅłÅłÅłÅłÅłÅłÅłÅłÅłÅłÅłÅłÅłÅłÅłÅłÅłÅłÅłÅłÅłÅłÅłÅłÅłÅłÅłÅłÅłÅłÅłÅłÅłÅłÅłÅłÅłÅłÅłÅłÅłÅłÅłÅłÅłÅłÅłÅłÅłÅłÅłÅłÅłÅłÅłÅłÅłÅłÅłÅłÅłÅłÅłÅłÅłÅłÅłÅłÅłÅłÅłÅłÅłÅłÅłÅłÅłÅłÅłÅłÅłÅłÅłÅłÅłÅłÅłÅłÅłÅłÅłÅłÅłÅłÅłÅłÅłÅłÅłÅłÅłÅłÅłÅłÅłÅłÅłÅłÅłÅłÅłÅłÅłÅłÅłÅłÅłÅłÅłÅłÅłÅłÅłÅłÅłÅłÅłÅłÅłÅłÅłÅłÅłÅłÅłÅłÅłÅłÅłÅłÅłÅłÅłÅłÅłÅłÅłÅłÅłÅłÅłÅłÅłÅłÅłÅłÅłÅłÅłÅłÅłÅłÅłÅłÅłÅłÅłÅłÅłÅłÅłÅłÅłÅłÅłÅłÅłÅłÅłÅłÅłÅłÅłÅłÅłÅłÅłÅłÅłÅłÅłÅłÅłÅłÅłÅłÅłÅłÅłÅłÅłÅłÅłÅłÅłÅłÅłÅłÅłÅłÅłÅłÅłÅłÅłÅłÅłÅłÅłÅłÅłÅłÅłÅłÅłÅłÅłÅłÅłÅłÅłÅłÅłÅłÅłÅłÅłÅłÅłÅłÅłÅłÅłÅłÅłÅłÅłÅłÅłÅłÅłÅłÅłÅłÅłÅłÅłÅłÅłÅłÅłÅłÅłÅłÅłÅłÅłÅłÅłÅłÅłÅłÅłÅłÅłÅłÅłÅłÅłÅłÅłÅłÅłÅłÅłÅłÅłÅłÅłÅłÅłÅłÅłÅłÅłÅłÅłÅłÅłÅłÅłÅłÅłÅłÅłÅłÅłÅłÅłÅłÅłÅłÅłÅłÅłÅłÅłÅłÅłÅłÅłÅłÅłÅłÅłÅłÅłÅłÅłÅłÅłÅłÅłÅłÅłÅłÅłÅłÅłÅłÅłÅłÅłÅłÅłÅłÅłÅłÅłÅłÅłÅłÅłÅłÅłÅłÅłÅłÅłÅłÅłÅłÅłÅłÅłÅłÅłÅłÅłÅłÅłÅłÅłÅłÅłÅłÅłÅłÅłÅłÅłÅłÅłÅłÅłÅłÅłÅłÅłÅłÅłÅłÅłÅłÅłÅłÅłÅłÅłÅłÅłÅłÅłÅłÅłÅłÅłÅłÅłÅłÅłÅłÅłÅłÅłÅłÅłÅłÅłÅłÅłÅłÅłÅłÅłÅłÅłÅłÅłÅłÅłÅłÅłÅłÅłÅłÅłÅłÅłÅłÅłÅłÅłÅłÅłÅłÅłÅłÅłÅłÅłÅłÅłÅłÅłÅłÅłÅłÅłÅłÅłÅłÅłÅłÅłÅłÅłÅłÅłÅłÅłÅłÅłÅłÅłÅłÅłÅłÅłÅłÅłÅłÅłÅłÅłÅłÅłÅłÅłÅłÅłÅłÅłÅłÅłÅłÅłÅłÅłÅłÅłÅłÅłÅłÅłÅłÅłÅłÅłÅłÅłÅłÅłÅłÅłÅłÅłÅłÅłÅłÅłÅłÅłÅłÅłÅłÅłÅłÅłÅłÅłÅłÅłÅłÅłÅłÅłÅłÅłÅłÅłÅłÅłÅłÅłÅłÅłÅłÅłÅłÅłÅłÅłÅłÅłÅłÅłÅłÅłÅłÅłÅłÅłÅłÅłÅłÅłÅłÅłÅłÅłÅłÅłÅłÅłÅłÅłÅłÅłÅłÅłÅłÅłÅłÅłÅłÅłÅłÅłÅłÅłÅłÅłÅłÅłÅłÅłÅłÅłÅłÅłÅłÅłÅłÅłÅłÅłÅłÅłÅłÅłÅłÅłÅłÅłÅłÅłÅłÅłÅłÅłÅłÅłÅłÅłÅłÅłÅłÅłÅłÅłÅłÅłÅłÅłÅłÅłÅłÅłÅłÅłÅłÅłÅłÅłÅłÅłÅłÅłÅłÅłÅłÅłÅłÅłÅłÅłÅłÅłÅłÅłÅłÅłÅłÅłÅłÅłÅłÅłÅłÅłÅłÅłÅłÅłÅłÅłÅłÅłÅłÅłÅłÅłÅłÅłÅłÅłÅłÅłÅłÅłÅł": 2025,
      "ÅļÅ¨": 2026,
      "ÅłÅ»": 2027,
      "ÅłÅĬ": 2028,
      "Ã¹": 2029,
      "ÅļÅ¥": 2030,
      "ÅłÅłÅłÅłÅłÅłÅłÅłÅłÅłÅłÅłÅłÅłÅłÅłÅłÅłÅłÅłÅłÅŁÅłÅłÅłÅłÅłÅłÅŁÅłÅłÅ¡": 2031,
      "ÅłÅłÅłÅłÅłÅłÄ¯": 2032,
      "ÄļÅ§Æ¤Ä": 2033,
      "Ç«Æ¦": 2034,
      "ÅłÅłÅłÅĽ": 2035,
      "Å£Å¡Å¡": 2036,
      "ÅłÅłÅłÅłÅłÅłÅłÅłÅ¡Å¢": 2037,
      "ÅłÅłÅłÅłÅłÅłÅłÅłÅłÅłÅłÅłÅłÅłÅłÅłÅłÅłÅłÅłÅŀ": 2038,
      "ÅłÅłÅłÅłÅłÅłÅłÅłÅłÅłÅłÅłÅłÅłÅłÅłÅłÅłÅłÅłÅłÅłÅłÅłÅłÅłÅłÅłÅłÅłÅłÅļ": 2039,
      "ÅłÅłÅłÅłÅłÅłÅłÅłÅłÅłÅłÅłÅłÅłÅłÅłÅłÅłÅłÅłÅłÅłÅłÅłÅłÅłÅłÅłÅłÅłÅłÅŁÅłÅłÅłÅłÅłÅłÅłÅłÅłÅłÅłÅłÅłÅłÅłÅłÅłÅłÅłÅłÅłÅłÅłÅłÅłÅłÅłÅłÅłÅłÅłÅŁÅłÅłÅłÅłÅłÅłÅłÅłÅłÅłÅłÅłÅłÅłÅłÅłÅłÅłÅłÅłÅłÅłÅłÅłÅłÅłÅłÅłÅłÅłÅłÅłÅłÅłÅłÅłÅłÅłÅłÅłÅłÅłÅłÅłÅłÅłÅłÅłÅłÅłÅłÅłÅłÅłÅłÅłÅłÅłÅłÅłÅłÅłÅłÅłÅłÅłÅłÅłÅłÅłÅłÅłÅłÅłÅłÅłÅłÅłÅłÅłÅłÅłÅłÅłÅłÅłÅłÅłÅłÅłÅłÅłÅłÅłÅłÅłÅłÅłÅłÅłÅłÅłÅłÅłÅłÅłÅłÅłÅłÅłÅłÅłÅłÅłÅłÅłÅłÅłÅłÅłÅłÅłÅłÅłÅłÅłÅłÅłÅłÅłÅłÅłÅłÅłÅłÅłÅłÅłÅłÅłÅłÅłÅłÅłÅłÅłÅłÅłÅłÅłÅłÅłÅłÅłÅłÅłÅłÅłÅłÅłÅłÅłÅłÅłÅłÅłÅłÅłÅłÅłÅłÅłÅłÅłÅłÅłÅłÅłÅłÅłÅłÅłÅłÅłÅłÅłÅłÅłÅłÅłÅłÅłÅłÅłÅłÅłÅłÅłÅłÅłÅłÅłÅłÅłÅłÅłÅłÅłÅłÅłÅłÅłÅłÅłÅłÅłÅłÅłÅłÅłÅłÅłÅłÅłÅłÅłÅłÅłÅłÅłÅłÅłÅłÅłÅłÅłÅłÅłÅłÅłÅłÅłÅłÅłÅłÅłÅłÅłÅłÅłÅłÅłÅłÅłÅłÅłÅłÅłÅłÅłÅłÅłÅłÅłÅłÅłÅłÅłÅłÅłÅłÅłÅłÅłÅłÅłÅłÅłÅłÅłÅłÅłÅłÅłÅłÅłÅłÅłÅłÅłÅłÅłÅłÅłÅłÅłÅłÅłÅłÅłÅłÅłÅłÅłÅłÅłÅłÅłÅłÅłÅłÅłÅłÅłÅłÅłÅłÅłÅłÅłÅłÅłÅłÅłÅłÅłÅłÅłÅłÅłÅłÅłÅłÅłÅłÅłÅłÅłÅłÅłÅłÅłÅłÅłÅłÅłÅłÅłÅłÅłÅłÅłÅłÅłÅłÅłÅłÅłÅłÅłÅłÅłÅłÅłÅłÅłÅłÅłÅłÅłÅłÅłÅłÅłÅłÅłÅłÅłÅłÅłÅłÅłÅłÅłÅłÅłÅłÅłÅłÅłÅłÅłÅłÅłÅłÅłÅłÅłÅłÅłÅłÅłÅłÅłÅłÅłÅłÅłÅłÅłÅłÅłÅłÅłÅłÅłÅłÅłÅłÅłÅłÅłÅłÅłÅłÅłÅłÅłÅłÅłÅłÅłÅłÅłÅłÅłÅłÅłÅłÅłÅłÅłÅłÅłÅłÅłÅłÅłÅłÅłÅłÅłÅłÅłÅłÅłÅłÅłÅłÅłÅłÅłÅłÅłÅłÅłÅłÅłÅłÅłÅłÅłÅłÅłÅłÅłÅłÅłÅłÅłÅłÅłÅłÅłÅłÅłÅłÅłÅłÅłÅłÅłÅłÅłÅłÅłÅłÅłÅłÅłÅłÅłÅłÅłÅłÅłÅłÅłÅłÅłÅłÅłÅłÅłÅłÅłÅłÅłÅłÅłÅłÅłÅłÅłÅłÅłÅłÅłÅłÅłÅłÅłÅłÅłÅłÅłÅłÅłÅłÅłÅłÅłÅłÅłÅłÅłÅłÅłÅłÅłÅłÅłÅłÅłÅłÅłÅłÅłÅłÅłÅłÅłÅłÅłÅłÅłÅłÅłÅłÅłÅłÅłÅłÅłÅłÅłÅłÅłÅłÅłÅłÅłÅłÅłÅłÅłÅłÅłÅłÅłÅłÅłÅłÅłÅłÅłÅłÅłÅłÅłÅłÅłÅłÅłÅłÅłÅłÅłÅłÅłÅłÅłÅłÅłÅłÅłÅłÅłÅłÅłÅłÅłÅłÅłÅłÅłÅłÅłÅłÅłÅłÅłÅłÅłÅłÅłÅłÅłÅłÅłÅłÅłÅłÅłÅłÅłÅłÅłÅłÅłÅłÅłÅłÅłÅłÅłÅłÅłÅłÅłÅłÅłÅłÅłÅłÅłÅłÅłÅłÅłÅłÅł": 2040,
      "ÅłÅłÅłÅłÅłÅłÅłÅłÅłÅłÅłÅłÅłÅłÅłÅłÅłÅłÅłÅłÅ¡ÅłÅłÅłÅłÅłÅłÅłÅłÅłÅ¡": 2041,
      "ÅļÅľ": 2042,
      "ÅłÅłÅķ": 2043,
      "Å¥Åĸ": 2044,
      "ÅĿÅłÅ¢": 2045,
      "ÅłÅłÅłÅłÅłÅłÅłÅłÅłÅłÅłÅłÅłÅłÅłÅłÅłÅłÅłÅłÅłÅłÅłÅłÅłÅłÅłÅłÅłÅłÅŁÅ¡": 2046,
      "Çı": 2047
    },
    "merges": [
      [
        "Å",
        "ł"
      ],
      [
        "Åł",
        "Åł"
      ],
      [
        "ÅłÅł",
        "ÅłÅł"
      ],
      [
        "ÅłÅłÅłÅł",
        "ÅłÅłÅłÅł"
      ],
      [
        "ÅłÅłÅłÅłÅłÅłÅłÅł",
        "ÅłÅłÅłÅłÅłÅłÅłÅł"
      ],
      [
        "ÅłÅłÅłÅłÅłÅłÅłÅłÅłÅłÅłÅłÅłÅłÅłÅł",
        "ÅłÅłÅłÅłÅłÅłÅłÅłÅłÅłÅłÅłÅłÅłÅłÅł"
      ],
      [
        "ÅłÅłÅłÅłÅłÅłÅłÅłÅłÅłÅłÅłÅłÅłÅłÅłÅłÅłÅłÅłÅłÅłÅłÅłÅłÅłÅłÅłÅłÅłÅłÅł",
        "ÅłÅłÅłÅłÅłÅłÅłÅłÅłÅłÅłÅłÅłÅłÅłÅłÅłÅłÅłÅłÅłÅłÅłÅłÅłÅłÅłÅłÅłÅłÅłÅł"
      ],
      [
        "Åł",
        "Å"
      ],
      [
        "ÅłÅłÅłÅłÅłÅłÅłÅłÅłÅłÅłÅłÅłÅłÅłÅłÅłÅłÅłÅłÅłÅłÅłÅłÅłÅłÅłÅłÅłÅłÅłÅłÅłÅłÅłÅłÅłÅłÅłÅłÅłÅłÅłÅłÅłÅłÅłÅłÅłÅłÅłÅłÅłÅłÅłÅłÅłÅłÅłÅłÅłÅłÅłÅł",
        "ÅłÅłÅłÅłÅłÅłÅłÅłÅłÅłÅłÅłÅłÅłÅłÅłÅłÅłÅłÅłÅłÅłÅłÅłÅłÅłÅłÅłÅłÅłÅłÅłÅłÅłÅłÅłÅłÅłÅłÅłÅłÅłÅłÅłÅłÅłÅłÅłÅłÅłÅłÅłÅłÅłÅłÅłÅłÅłÅłÅłÅłÅłÅłÅł"
      ],
      [
        "Å",
        "¡"
      ],
      [
        "Å",
        "Ł"
      ],
      [
        "ÅłÅłÅłÅł",
        "ÅłÅł"
      ],
      [
        "ÅłÅ",
        "¡"
      ],
      [
        "ÅłÅ",
        "Ł"
      ],
      [
        "ÅłÅłÅłÅłÅłÅłÅłÅłÅłÅłÅłÅłÅłÅłÅłÅłÅłÅłÅłÅłÅłÅłÅłÅłÅłÅłÅłÅłÅłÅłÅłÅłÅłÅłÅłÅłÅłÅłÅłÅłÅłÅłÅłÅłÅłÅłÅłÅłÅłÅłÅłÅłÅłÅłÅłÅłÅłÅłÅłÅłÅłÅłÅłÅłÅłÅłÅłÅłÅłÅłÅłÅłÅłÅłÅłÅłÅłÅłÅłÅłÅłÅłÅłÅłÅłÅłÅłÅłÅłÅłÅłÅłÅłÅłÅłÅłÅłÅłÅłÅłÅłÅłÅłÅłÅłÅłÅłÅłÅłÅłÅłÅłÅłÅłÅłÅłÅłÅłÅłÅłÅłÅłÅłÅłÅłÅłÅłÅł",
        "ÅłÅłÅłÅłÅłÅłÅłÅłÅłÅłÅłÅłÅłÅłÅłÅłÅłÅłÅłÅłÅłÅłÅłÅłÅłÅłÅłÅłÅłÅłÅłÅłÅłÅłÅłÅłÅłÅłÅłÅłÅłÅłÅłÅłÅłÅłÅłÅłÅłÅłÅłÅłÅłÅłÅłÅłÅłÅłÅłÅłÅłÅłÅłÅłÅłÅłÅłÅłÅłÅłÅłÅłÅłÅłÅłÅłÅłÅłÅłÅłÅłÅłÅłÅłÅłÅłÅłÅłÅłÅłÅłÅłÅłÅłÅłÅłÅłÅłÅłÅłÅłÅłÅłÅłÅłÅłÅłÅłÅłÅłÅłÅłÅłÅłÅłÅłÅłÅłÅłÅłÅłÅłÅłÅłÅłÅłÅłÅł"
      ],
      [
        "ÅłÅłÅłÅłÅłÅłÅłÅł",
        "ÅłÅłÅłÅłÅłÅł"
      ],
      [
        "ÅłÅłÅłÅłÅłÅłÅłÅł",
        "ÅłÅłÅłÅł"
      ],
      [
        "Å",
        "¢"
      ],
      [
        "Å",
        "ŀ"
      ],
      [
        "Å",
        "£"
      ],
      [
        "ÅłÅłÅłÅłÅłÅłÅłÅłÅłÅłÅłÅłÅłÅłÅłÅł",
        "ÅłÅłÅłÅł"
      ],
      [
        "Å",
        "Ŀ"
      ],
      [
        "ÅłÅłÅłÅłÅłÅłÅłÅłÅłÅłÅłÅłÅłÅłÅłÅł",
        "ÅłÅłÅłÅłÅłÅłÅłÅłÅłÅłÅłÅłÅłÅł"
      ],
      [
        "ÅłÅłÅłÅłÅłÅłÅłÅłÅłÅłÅłÅłÅłÅłÅłÅłÅłÅłÅłÅłÅłÅłÅłÅłÅłÅłÅłÅłÅłÅłÅłÅłÅłÅłÅłÅłÅłÅłÅłÅłÅłÅłÅłÅłÅłÅłÅłÅłÅłÅłÅłÅłÅłÅłÅłÅłÅłÅłÅłÅłÅłÅłÅłÅłÅłÅłÅłÅłÅłÅłÅłÅłÅłÅłÅłÅłÅłÅłÅłÅłÅłÅłÅłÅłÅłÅłÅłÅłÅłÅłÅłÅłÅłÅłÅłÅłÅłÅłÅłÅłÅłÅłÅłÅłÅłÅłÅłÅłÅłÅłÅłÅłÅłÅłÅłÅłÅłÅłÅłÅłÅłÅłÅłÅłÅłÅłÅłÅłÅłÅłÅłÅłÅłÅłÅłÅłÅłÅłÅłÅłÅłÅłÅłÅłÅłÅłÅłÅłÅłÅłÅłÅłÅłÅłÅłÅłÅłÅłÅłÅłÅłÅłÅłÅłÅłÅłÅłÅłÅłÅłÅłÅłÅłÅłÅłÅłÅłÅłÅłÅłÅłÅłÅłÅłÅłÅłÅłÅłÅłÅłÅłÅłÅłÅłÅłÅłÅłÅłÅłÅłÅłÅłÅłÅłÅłÅłÅłÅłÅłÅłÅłÅłÅłÅłÅłÅłÅłÅłÅłÅłÅłÅłÅłÅłÅłÅłÅłÅłÅłÅłÅłÅłÅłÅłÅłÅłÅłÅłÅłÅłÅłÅłÅłÅłÅłÅłÅłÅłÅłÅłÅłÅłÅłÅłÅłÅł",
        "ÅłÅłÅłÅłÅłÅłÅłÅłÅłÅłÅłÅłÅłÅłÅłÅłÅłÅłÅłÅłÅłÅłÅłÅłÅłÅłÅłÅłÅłÅłÅłÅłÅłÅłÅłÅłÅłÅłÅłÅłÅłÅłÅłÅłÅłÅłÅłÅłÅłÅłÅłÅłÅłÅłÅłÅłÅłÅłÅłÅłÅłÅłÅłÅłÅłÅłÅłÅłÅłÅłÅłÅłÅłÅłÅłÅłÅłÅłÅłÅłÅłÅłÅłÅłÅłÅłÅłÅłÅłÅłÅłÅłÅłÅłÅłÅłÅłÅłÅłÅłÅłÅłÅłÅłÅłÅłÅłÅłÅłÅłÅłÅłÅłÅłÅłÅłÅłÅłÅłÅłÅłÅłÅłÅłÅłÅłÅłÅłÅłÅłÅłÅłÅłÅłÅłÅłÅłÅłÅłÅłÅłÅłÅłÅłÅłÅłÅłÅłÅłÅłÅłÅłÅłÅłÅłÅłÅłÅłÅłÅłÅłÅłÅłÅłÅłÅłÅłÅłÅłÅłÅłÅłÅłÅłÅłÅłÅłÅłÅłÅłÅłÅłÅłÅłÅłÅłÅłÅłÅłÅłÅłÅłÅłÅłÅłÅłÅłÅłÅłÅłÅłÅłÅłÅłÅłÅłÅłÅłÅłÅłÅłÅłÅłÅłÅłÅłÅłÅłÅłÅłÅłÅłÅłÅłÅłÅłÅłÅłÅłÅłÅłÅłÅłÅłÅłÅłÅłÅłÅłÅłÅłÅłÅłÅłÅłÅłÅłÅłÅłÅłÅłÅłÅłÅłÅłÅł"
      ],
      [
        "Æ",
        "ĭ"
      ],
      [
        "ÅłÅ",
        "¢"
      ],
      [
        "Å",
        "¤"
      ],
      [
        "ÅłÅ",
        "ŀ"
      ],
      [
        "Å",
        "§"
      ],
      [
        "Å",
        "ľ"
      ],
      [
        "ÅŁ",
        "Å¡"
      ],
      [
        "Å",
        "¥"
      ],
      [
        "Å",
        "Ľ"
      ],
      [
        "Å",
        "Ĺ"
      ],
      [
        "ÅłÅł",
        "Å¡"
      ],
      [
        "Å",
        "ļ"
      ],
      [
        "Å",
        "¦"
      ],
      [
        "ÅłÅłÅłÅłÅłÅłÅłÅłÅłÅłÅłÅłÅłÅłÅłÅł",
        "ÅłÅł"
      ],
      [
        "Å",
        "Ļ"
      ],
      [
        "Å",
        "ĺ"
      ],
      [
        "ÅłÅł",
        "ÅŁ"
      ],
      [
        "Å¡",
        "Å¡"
      ],
      [
        "ÅłÅ",
        "£"
      ],
      [
        "Å",
        "¨"
      ],
      [
        "ÅłÅłÅłÅłÅłÅłÅłÅłÅłÅłÅłÅłÅłÅłÅłÅłÅłÅłÅłÅłÅłÅłÅłÅłÅłÅłÅłÅłÅłÅł",
        "ÅłÅŁ"
      ],
      [
        "Æ",
        "¤"
      ],
      [
        "Æ",
        "Ĵ"
      ],
      [
        "ÅłÅłÅłÅłÅłÅłÅłÅł",
        "ÅłÅ¡"
      ],
      [
        "ÅłÅłÅłÅłÅłÅłÅłÅłÅłÅłÅłÅłÅłÅłÅłÅłÅłÅłÅłÅłÅłÅłÅłÅłÅłÅłÅłÅłÅłÅłÅłÅłÅłÅłÅłÅłÅłÅłÅłÅłÅłÅłÅłÅłÅłÅłÅłÅłÅłÅłÅłÅłÅłÅłÅłÅłÅłÅłÅłÅłÅłÅłÅłÅłÅłÅłÅłÅłÅłÅłÅłÅłÅłÅłÅłÅłÅłÅłÅłÅłÅłÅłÅłÅłÅłÅłÅłÅłÅłÅłÅłÅłÅłÅłÅłÅłÅłÅłÅłÅłÅłÅłÅłÅłÅłÅłÅłÅłÅłÅłÅłÅłÅłÅłÅłÅłÅłÅłÅłÅłÅłÅłÅłÅłÅłÅłÅłÅłÅłÅłÅłÅłÅłÅłÅłÅłÅłÅłÅłÅłÅłÅłÅłÅłÅłÅłÅłÅłÅłÅłÅłÅłÅłÅłÅłÅłÅłÅłÅłÅłÅłÅłÅłÅłÅłÅłÅłÅłÅłÅłÅłÅłÅłÅłÅłÅłÅłÅłÅłÅłÅłÅłÅłÅłÅłÅłÅłÅłÅłÅłÅłÅłÅłÅłÅłÅłÅłÅłÅłÅłÅłÅłÅłÅłÅłÅłÅłÅłÅłÅłÅłÅłÅłÅłÅłÅłÅłÅłÅłÅłÅłÅłÅłÅłÅłÅłÅłÅłÅłÅłÅłÅłÅłÅłÅłÅłÅłÅłÅłÅłÅłÅłÅłÅłÅłÅłÅłÅłÅłÅłÅłÅłÅłÅłÅłÅłÅłÅłÅłÅłÅłÅłÅłÅłÅłÅłÅłÅłÅłÅłÅłÅłÅłÅłÅłÅłÅłÅłÅłÅłÅłÅłÅłÅłÅłÅłÅłÅłÅłÅłÅłÅłÅłÅłÅłÅłÅłÅłÅłÅłÅłÅłÅłÅłÅłÅłÅłÅłÅłÅłÅłÅłÅłÅłÅłÅłÅłÅłÅłÅłÅłÅłÅłÅłÅłÅłÅłÅłÅłÅłÅłÅłÅłÅłÅłÅłÅłÅłÅłÅłÅłÅłÅłÅłÅłÅłÅłÅłÅłÅłÅłÅłÅłÅłÅłÅłÅłÅłÅłÅłÅłÅłÅłÅłÅłÅłÅłÅłÅłÅłÅłÅłÅłÅłÅłÅłÅłÅłÅłÅłÅłÅłÅłÅłÅłÅłÅłÅłÅłÅłÅłÅłÅłÅłÅłÅłÅłÅłÅłÅłÅłÅłÅłÅłÅłÅłÅłÅłÅłÅłÅłÅłÅłÅłÅłÅłÅłÅłÅłÅłÅłÅłÅłÅłÅłÅłÅłÅłÅłÅłÅłÅłÅłÅłÅłÅłÅłÅłÅłÅłÅłÅłÅłÅłÅłÅłÅłÅłÅłÅłÅłÅłÅłÅłÅłÅłÅłÅłÅłÅłÅłÅłÅłÅłÅłÅłÅłÅłÅłÅłÅłÅłÅłÅłÅłÅłÅłÅłÅłÅłÅłÅłÅłÅłÅłÅłÅłÅłÅłÅłÅłÅłÅłÅłÅłÅłÅłÅłÅłÅłÅłÅłÅłÅłÅłÅłÅłÅłÅłÅłÅłÅł",
        "ÅłÅłÅłÅłÅłÅłÅłÅłÅłÅłÅłÅłÅłÅłÅłÅłÅłÅłÅłÅłÅłÅłÅłÅłÅłÅłÅłÅłÅłÅłÅłÅłÅłÅłÅłÅłÅłÅłÅłÅłÅłÅłÅłÅłÅłÅłÅłÅłÅłÅłÅłÅłÅłÅłÅłÅłÅłÅłÅłÅłÅłÅłÅłÅłÅłÅłÅłÅłÅłÅłÅłÅłÅłÅłÅłÅłÅłÅłÅłÅłÅłÅłÅłÅłÅłÅłÅłÅłÅłÅłÅłÅłÅłÅłÅłÅłÅłÅłÅłÅłÅłÅłÅłÅłÅłÅłÅłÅłÅłÅłÅłÅłÅłÅłÅłÅłÅłÅłÅłÅłÅłÅłÅłÅłÅłÅłÅłÅł"
      ],
      [
        "ÅłÅ",
        "Ŀ"
      ],
      [
        "ÅłÅłÅłÅłÅłÅłÅłÅłÅłÅłÅłÅłÅłÅłÅłÅłÅłÅłÅłÅłÅłÅłÅłÅłÅłÅłÅłÅłÅłÅł",
        "ÅłÅ¡"
      ],
      [
        "Å¡",
        "ÅŁ"
      ],
      [
        "Ä",
        "Ń"
      ],
      [
        "Å",
        "«"
      ],
      [
        "Æ",
        "Ī"
      ],
      [
        "Å",
        "ĸ"
      ],
      [
        "ÅłÅł",
        "ÅłÅ¡"
      ],
      [
        "Å",
        "©"
      ],
      [
        "Ä",
        "ĳ"
      ],
      [
        "Å",
        "ª"
      ],
      [
        "ÅłÅłÅłÅłÅłÅłÅłÅł",
        "ÅłÅŁ"
      ],
      [
        "Æ",
        "ĸ"
      ],
      [
        "ÅłÅłÅłÅłÅłÅłÅłÅłÅłÅłÅłÅłÅłÅłÅłÅłÅłÅłÅłÅłÅłÅłÅłÅłÅłÅłÅłÅłÅłÅłÅłÅłÅłÅłÅłÅłÅłÅłÅłÅłÅłÅłÅłÅłÅłÅłÅłÅłÅłÅłÅłÅłÅłÅłÅłÅłÅłÅłÅłÅłÅłÅłÅłÅł",
        "ÅłÅłÅłÅłÅłÅłÅłÅłÅłÅłÅłÅłÅłÅłÅłÅłÅłÅłÅłÅłÅłÅłÅłÅłÅłÅłÅłÅłÅłÅłÅłÅł"
      ],
      [
        "Æĭ",
        "ÅłÅłÅłÅłÅłÅłÅłÅłÅłÅłÅłÅł"
      ],
      [
        "Å",
        "¹"
      ],
      [
        "ÅłÅłÅłÅłÅłÅłÅłÅłÅłÅłÅłÅł",
        "ÅłÅ"
      ],
      [
        "ÅŁ",
        "ÅŁ"
      ],
      [
        "ÅłÅłÅłÅłÅłÅł",
        "ÅłÅ¡"
      ],
      [
        "Å",
        "ķ"
      ],
      [
        "ÅłÅłÅłÅłÅłÅł",
        "ÅłÅ"
      ],
      [
        "ÄŃ",
        "ÆĪ"
      ],
      [
        "ÅłÅłÅłÅłÅłÅłÅłÅłÅłÅłÅłÅłÅłÅłÅłÅłÅłÅłÅłÅł",
        "ÅłÅ¡"
      ],
      [
        "Æĸ",
        "Æĭ"
      ],
      [
        "ÆĴ",
        "Å§"
      ],
      [
        "ÆĴÅ§",
        "ÄŃÆĪ"
      ],
      [
        "ÅłÅł",
        "ÅłÅŁ"
      ],
      [
        "ÅłÅłÅłÅłÅłÅłÅłÅłÅłÅłÅłÅł",
        "ÅłÅŁ"
      ],
      [
        "ÅłÅłÅłÅłÅłÅłÅłÅł",
        "ÅłÅ"
      ],
      [
        "ÅłÅłÅłÅłÅłÅłÅłÅłÅłÅłÅłÅłÅłÅłÅłÅłÅłÅłÅłÅł",
        "ÅłÅŁ"
      ],
      [
        "ÅłÅłÅłÅłÅłÅłÅłÅłÅłÅłÅłÅł",
        "ÅłÅ¡"
      ],
      [
        "Å",
        "¬"
      ],
      [
        "ÅłÅłÅłÅłÅłÅł",
        "Å¡"
      ],
      [
        "Å",
        "Ķ"
      ],
      [
        "ÅłÅłÅłÅłÅłÅłÅłÅłÅłÅłÅłÅłÅłÅł",
        "Å¡"
      ],
      [
        "ÅłÅłÅłÅłÅłÅł",
        "ÅŁ"
      ],
      [
        "ÅłÅłÅłÅłÅłÅł",
        "ÅłÅŁ"
      ],
      [
        "Å",
        "¼"
      ],
      [
        "Å",
        "Ń"
      ],
      [
        "Å",
        "ĵ"
      ],
      [
        "Å¹",
        "ÆĸÆĭ"
      ],
      [
        "ÆĴÅ§ÄŃÆĪ",
        "Å¹ÆĸÆĭ"
      ],
      [
        "ÅłÅłÅłÅłÅłÅłÅłÅłÅłÅłÅłÅłÅłÅł",
        "ÅŁ"
      ],
      [
        "Å",
        "Ĵ"
      ],
      [
        "Å",
        "®"
      ],
      [
        "ÅłÅłÅłÅłÅłÅłÅłÅłÅłÅłÅłÅłÅłÅłÅłÅłÅłÅł",
        "Åł"
      ],
      [
        "ÅłÅłÅłÅłÅłÅłÅłÅłÅłÅłÅłÅłÅłÅłÅłÅł",
        "ÅłÅłÅłÅłÅłÅłÅłÅłÅłÅłÅłÅł"
      ],
      [
        "Å",
        "ĳ"
      ],
      [
        "ÅłÅłÅłÅłÅłÅłÅłÅłÅłÅłÅłÅłÅłÅłÅłÅł",
        "ÅłÅłÅłÅłÅłÅłÅłÅł"
      ],
      [
        "ÅłÅłÅłÅł",
        "Å¡"
      ],
      [
        "ÅłÅłÅłÅłÅłÅłÅłÅłÅłÅłÅłÅłÅłÅłÅłÅłÅłÅłÅłÅłÅłÅłÅłÅłÅłÅłÅłÅłÅłÅłÅłÅłÅłÅłÅłÅłÅłÅłÅłÅłÅłÅłÅłÅłÅłÅłÅłÅłÅłÅłÅłÅłÅłÅłÅłÅłÅłÅłÅłÅłÅłÅłÅłÅłÅłÅłÅłÅłÅłÅłÅłÅłÅłÅłÅłÅłÅłÅłÅłÅłÅłÅłÅłÅłÅłÅłÅłÅłÅłÅłÅłÅłÅłÅłÅłÅłÅłÅłÅłÅłÅłÅłÅłÅłÅłÅłÅłÅłÅłÅłÅłÅłÅłÅłÅłÅłÅłÅłÅłÅłÅłÅłÅłÅłÅłÅłÅłÅłÅłÅłÅłÅłÅłÅłÅłÅłÅłÅłÅłÅłÅłÅłÅłÅłÅłÅłÅłÅłÅłÅłÅłÅłÅłÅłÅłÅłÅłÅłÅłÅłÅłÅłÅłÅłÅłÅłÅłÅłÅłÅłÅłÅłÅłÅłÅłÅłÅłÅłÅłÅłÅłÅłÅłÅłÅłÅłÅłÅłÅłÅłÅłÅłÅłÅłÅłÅłÅłÅłÅłÅłÅłÅłÅłÅłÅłÅłÅłÅłÅłÅłÅłÅłÅłÅłÅłÅłÅłÅłÅłÅłÅłÅłÅłÅłÅłÅłÅłÅłÅłÅłÅłÅłÅłÅłÅłÅłÅłÅłÅłÅłÅłÅłÅłÅłÅłÅłÅłÅłÅłÅłÅłÅłÅłÅłÅłÅłÅłÅłÅłÅłÅłÅłÅłÅłÅłÅłÅłÅłÅłÅłÅłÅłÅłÅłÅłÅłÅłÅłÅłÅłÅłÅłÅłÅłÅłÅłÅłÅłÅłÅłÅłÅłÅłÅłÅłÅłÅłÅłÅłÅłÅłÅłÅłÅłÅłÅłÅłÅłÅłÅłÅłÅłÅłÅłÅłÅłÅłÅłÅłÅłÅłÅłÅłÅłÅłÅłÅłÅłÅłÅłÅłÅłÅłÅłÅłÅłÅłÅłÅłÅłÅłÅłÅłÅłÅłÅłÅłÅłÅłÅłÅłÅłÅłÅłÅłÅłÅłÅłÅłÅłÅłÅłÅłÅłÅłÅłÅłÅłÅłÅłÅłÅłÅłÅłÅłÅłÅłÅłÅłÅłÅłÅłÅłÅłÅłÅłÅłÅłÅłÅłÅłÅłÅłÅłÅłÅłÅłÅłÅłÅłÅłÅłÅłÅłÅłÅłÅłÅłÅłÅłÅłÅłÅłÅłÅłÅłÅłÅłÅłÅłÅłÅłÅłÅłÅłÅłÅłÅłÅłÅłÅłÅłÅłÅłÅłÅłÅłÅłÅłÅłÅłÅłÅłÅłÅłÅłÅłÅłÅłÅłÅłÅłÅłÅłÅłÅłÅłÅłÅłÅłÅłÅłÅłÅłÅłÅłÅłÅłÅłÅłÅłÅłÅłÅłÅłÅłÅłÅłÅłÅłÅłÅłÅłÅłÅłÅłÅłÅłÅłÅłÅłÅłÅłÅłÅłÅłÅłÅłÅłÅłÅłÅłÅłÅłÅłÅłÅłÅłÅłÅłÅłÅł",
        "ÅłÅłÅłÅłÅłÅłÅłÅłÅłÅłÅłÅłÅłÅłÅłÅłÅłÅłÅłÅłÅłÅłÅłÅłÅłÅłÅłÅłÅłÅłÅłÅłÅłÅłÅłÅłÅłÅłÅłÅłÅłÅłÅłÅłÅłÅłÅłÅłÅłÅłÅłÅłÅłÅłÅłÅłÅłÅłÅłÅłÅłÅłÅłÅłÅłÅłÅłÅłÅłÅłÅłÅłÅłÅłÅłÅłÅłÅłÅłÅłÅłÅłÅłÅłÅłÅłÅłÅłÅłÅłÅłÅłÅłÅłÅłÅłÅłÅłÅłÅłÅłÅłÅłÅłÅłÅłÅłÅłÅłÅłÅłÅłÅłÅłÅłÅłÅłÅłÅłÅłÅłÅłÅłÅłÅłÅłÅłÅłÅłÅłÅłÅłÅłÅłÅłÅłÅłÅłÅłÅłÅłÅłÅłÅłÅłÅłÅłÅłÅłÅłÅłÅłÅłÅłÅłÅłÅłÅłÅłÅłÅłÅłÅłÅłÅłÅłÅłÅłÅłÅłÅłÅłÅłÅłÅłÅłÅłÅłÅłÅłÅłÅłÅłÅłÅłÅłÅłÅłÅłÅłÅłÅłÅłÅłÅłÅłÅłÅłÅłÅłÅłÅłÅłÅłÅłÅłÅłÅłÅłÅłÅłÅłÅłÅłÅłÅłÅłÅłÅłÅłÅłÅłÅłÅłÅłÅłÅłÅłÅłÅłÅłÅłÅłÅłÅłÅłÅłÅłÅłÅłÅłÅłÅłÅłÅłÅłÅłÅłÅłÅłÅłÅłÅłÅłÅłÅł"
      ],
      [
        "Å",
        "¯"
      ],
      [
        "Å",
        "¾"
      ],
      [
        "ÅłÅłÅłÅł",
        "ÅŁ"
      ],
      [
        "Å",
        "°"
      ],
      [
        "Å",
        "Ĳ"
      ],
      [
        "Å¢",
        "Å¡"
      ],
      [
        "Å",
        "±"
      ],
      [
        "ÅłÅ",
        "¤"
      ],
      [
        "Å",
        "ı"
      ],
      [
        "Ä",
        "¶"
      ],
      [
        "Å",
        "´"
      ],
      [
        "Æ",
        "¦"
      ],
      [
        "ÅłÅ",
        "ľ"
      ],
      [
        "ÅłÅłÅłÅłÅłÅłÅłÅłÅłÅłÅłÅłÅłÅłÅłÅłÅłÅłÅłÅłÅłÅłÅłÅłÅłÅłÅłÅłÅłÅłÅłÅłÅłÅłÅłÅłÅłÅłÅłÅłÅłÅłÅłÅłÅłÅłÅłÅłÅłÅłÅłÅłÅłÅłÅłÅłÅłÅłÅłÅłÅłÅłÅłÅłÅłÅłÅłÅłÅłÅłÅłÅłÅłÅłÅłÅłÅłÅłÅłÅłÅłÅłÅłÅłÅłÅłÅłÅłÅłÅłÅłÅłÅłÅłÅłÅłÅłÅłÅłÅłÅłÅłÅłÅłÅłÅłÅłÅłÅłÅłÅłÅłÅłÅłÅłÅłÅłÅłÅłÅłÅłÅłÅłÅłÅłÅłÅłÅłÅłÅłÅłÅłÅłÅłÅłÅłÅłÅłÅłÅłÅłÅłÅłÅłÅłÅłÅłÅłÅłÅłÅłÅłÅłÅłÅłÅłÅłÅłÅłÅłÅłÅłÅłÅłÅłÅłÅłÅłÅłÅłÅłÅłÅłÅłÅłÅłÅłÅłÅłÅłÅłÅłÅłÅłÅłÅłÅłÅłÅłÅłÅłÅłÅłÅłÅłÅłÅłÅłÅłÅłÅłÅłÅłÅłÅłÅłÅłÅłÅłÅłÅłÅłÅłÅłÅłÅłÅłÅłÅłÅłÅłÅłÅłÅłÅłÅłÅłÅłÅłÅłÅłÅłÅłÅłÅłÅłÅłÅłÅłÅłÅłÅłÅłÅłÅłÅłÅłÅłÅłÅłÅłÅłÅłÅłÅłÅłÅłÅłÅłÅłÅłÅłÅłÅłÅłÅłÅłÅłÅłÅłÅłÅłÅłÅłÅłÅłÅłÅłÅłÅłÅłÅłÅłÅłÅłÅłÅłÅłÅłÅłÅłÅłÅłÅłÅłÅłÅłÅłÅłÅłÅłÅłÅłÅłÅłÅłÅłÅłÅłÅłÅłÅłÅłÅłÅłÅłÅłÅłÅłÅłÅłÅłÅłÅłÅłÅłÅłÅłÅłÅłÅłÅłÅłÅłÅłÅłÅłÅłÅłÅłÅłÅłÅłÅłÅłÅłÅłÅłÅłÅłÅłÅłÅłÅłÅłÅłÅłÅłÅłÅłÅłÅłÅłÅłÅłÅłÅłÅłÅłÅłÅłÅłÅłÅłÅłÅłÅłÅłÅłÅłÅłÅłÅłÅłÅłÅłÅłÅłÅłÅłÅłÅłÅłÅłÅłÅłÅłÅłÅłÅłÅłÅłÅłÅłÅłÅłÅłÅłÅłÅłÅłÅłÅłÅłÅłÅłÅłÅłÅłÅłÅłÅłÅłÅłÅłÅłÅłÅłÅłÅłÅłÅłÅłÅłÅłÅłÅłÅłÅłÅłÅłÅłÅłÅłÅłÅłÅłÅłÅłÅłÅłÅłÅłÅłÅłÅłÅłÅłÅłÅłÅłÅłÅłÅłÅłÅłÅłÅłÅłÅłÅłÅłÅłÅłÅłÅłÅłÅłÅłÅłÅłÅłÅłÅłÅłÅłÅłÅłÅłÅłÅłÅłÅłÅłÅłÅłÅłÅłÅłÅłÅłÅłÅłÅłÅłÅłÅłÅłÅłÅłÅłÅł",
        "ÅłÅłÅłÅłÅłÅłÅłÅłÅłÅłÅłÅłÅłÅłÅłÅłÅłÅłÅłÅłÅłÅłÅłÅłÅłÅłÅłÅłÅłÅłÅłÅłÅłÅłÅłÅłÅłÅłÅłÅłÅłÅłÅłÅłÅłÅłÅłÅłÅłÅłÅłÅłÅłÅłÅłÅłÅłÅłÅłÅłÅłÅłÅłÅłÅłÅłÅłÅłÅłÅłÅłÅłÅłÅłÅłÅłÅłÅłÅłÅłÅłÅłÅłÅłÅłÅłÅłÅłÅłÅłÅłÅłÅłÅłÅłÅł"
      ],
      [
        "ÅłÅŁ",
        "Å¡"
      ],
      [
        "Æ¤",
        "Ä"
      ],
      [
        "Å",
        "³"
      ],
      [
        "Å",
        "½"
      ],
      [
        "Å",
        "²"
      ],
      [
        "Å",
        "İ"
      ],
      [
        "ÅłÅłÅłÅłÅłÅłÅłÅłÅłÅłÅłÅłÅłÅłÅłÅł",
        "ÅłÅłÅłÅłÅłÅł"
      ],
      [
        "ÅŁ",
        "Å¢"
      ],
      [
        "Äĳ",
        "ÅłÅłÅłÅłÅłÅłÅłÅłÅłÅłÅłÅł"
      ],
      [
        "Åŀ",
        "Å¡"
      ],
      [
        "ÅŁ",
        "ÅłÅ¡"
      ],
      [
        "Ä",
        "·"
      ],
      [
        "ÅłÅłÅłÅł",
        "ÅłÅ¡"
      ],
      [
        "Å",
        "Į"
      ],
      [
        "ÅłÅłÅłÅłÅłÅłÅłÅłÅłÅłÅłÅłÅłÅł",
        "ÅłÅŁ"
      ],
      [
        "ÅłÅłÅłÅłÅłÅłÅłÅł",
        "ÅłÅ¢"
      ],
      [
        "Å",
        "į"
      ],
      [
        "Ä",
        "Ļ"
      ],
      [
        "Ä",
        "ĺ"
      ],
      [
        "ÅłÅł",
        "Åŀ"
      ],
      [
        "Åł",
        "Æ"
      ],
      [
        "Å",
        "ĥ"
      ],
      [
        "Å",
        "·"
      ],
      [
        "Ä",
        "¸"
      ],
      [
        "Å",
        "µ"
      ],
      [
        "Å",
        "Ģ"
      ],
      [
        "Å",
        "¶"
      ],
      [
        "Å",
        "º"
      ],
      [
        "ÅŁ",
        "Åŀ"
      ],
      [
        "Å",
        "Ĥ"
      ],
      [
        "Å",
        "ĭ"
      ],
      [
        "Ä",
        "¿"
      ],
      [
        "Å",
        "»"
      ],
      [
        "Å",
        "¸"
      ],
      [
        "ÅłÅŁ",
        "ÅłÅ¡"
      ],
      [
        "Ä",
        "Į"
      ],
      [
        "ÅłÅłÅłÅłÅłÅłÅłÅł",
        "ÅłÅŀ"
      ],
      [
        "ÅłÅłÅłÅłÅłÅłÅłÅł",
        "Å¡"
      ],
      [
        "Å",
        "Ħ"
      ],
      [
        "Å",
        "ģ"
      ],
      [
        "ÅłÅ",
        "¥"
      ],
      [
        "Ä",
        "¹"
      ],
      [
        "Å",
        "Ĭ"
      ],
      [
        "ÅłÅ",
        "Ľ"
      ],
      [
        "ÅłÅłÅłÅłÅłÅłÅłÅłÅłÅłÅłÅł",
        "Å¡"
      ],
      [
        "ÅłÅłÅłÅłÅłÅłÅłÅłÅłÅłÅłÅłÅłÅłÅłÅłÅłÅłÅłÅłÅłÅłÅłÅłÅłÅłÅłÅłÅłÅłÅłÅ¡",
        "ÅłÅłÅłÅłÅłÅłÅłÅłÅłÅłÅłÅłÅłÅłÅłÅłÅłÅłÅłÅłÅłÅłÅłÅłÅłÅłÅłÅłÅłÅłÅłÅłÅłÅłÅłÅłÅłÅłÅłÅłÅłÅłÅłÅłÅłÅłÅłÅłÅłÅłÅłÅłÅłÅłÅłÅłÅłÅłÅłÅłÅłÅłÅłÅłÅłÅłÅłÅłÅłÅłÅłÅłÅłÅłÅłÅłÅłÅłÅłÅłÅłÅłÅłÅłÅłÅłÅłÅłÅłÅłÅłÅłÅłÅłÅłÅłÅłÅłÅłÅłÅłÅłÅłÅłÅłÅłÅłÅłÅłÅłÅłÅłÅłÅłÅłÅłÅłÅłÅłÅłÅłÅłÅłÅłÅłÅłÅłÅłÅłÅłÅłÅłÅłÅłÅłÅłÅłÅłÅłÅłÅłÅłÅłÅłÅłÅłÅłÅłÅłÅłÅłÅłÅłÅłÅłÅłÅłÅłÅłÅłÅłÅłÅłÅłÅłÅłÅłÅłÅłÅłÅłÅłÅłÅłÅłÅłÅłÅłÅłÅłÅłÅłÅłÅłÅłÅłÅłÅłÅłÅłÅłÅłÅłÅłÅłÅłÅłÅłÅłÅłÅłÅłÅłÅłÅłÅłÅłÅłÅłÅłÅłÅłÅłÅłÅłÅłÅłÅłÅłÅłÅłÅłÅłÅłÅłÅłÅłÅłÅłÅłÅłÅłÅłÅłÅłÅłÅłÅłÅłÅłÅłÅłÅłÅłÅłÅłÅłÅłÅłÅłÅłÅłÅłÅłÅłÅłÅłÅłÅłÅłÅłÅłÅłÅłÅłÅłÅłÅłÅłÅłÅłÅłÅłÅłÅłÅłÅłÅłÅłÅłÅłÅłÅłÅłÅłÅłÅłÅłÅłÅłÅłÅłÅłÅłÅłÅłÅłÅłÅłÅłÅłÅłÅłÅłÅłÅłÅłÅłÅłÅłÅłÅłÅłÅłÅłÅłÅłÅłÅłÅłÅłÅłÅłÅłÅłÅłÅłÅłÅłÅłÅłÅłÅłÅłÅłÅłÅłÅłÅłÅłÅłÅłÅłÅłÅłÅłÅłÅłÅłÅłÅłÅłÅłÅłÅłÅłÅłÅłÅłÅłÅłÅłÅłÅłÅłÅłÅłÅłÅłÅłÅłÅłÅłÅłÅłÅłÅłÅłÅłÅłÅłÅłÅłÅłÅłÅłÅłÅłÅłÅłÅłÅłÅłÅłÅłÅłÅłÅłÅłÅłÅłÅłÅłÅłÅłÅłÅłÅłÅłÅłÅłÅłÅłÅłÅłÅłÅłÅłÅłÅłÅłÅłÅłÅłÅłÅłÅłÅłÅłÅłÅłÅłÅłÅłÅłÅłÅłÅłÅłÅłÅłÅłÅłÅłÅłÅłÅłÅłÅłÅłÅłÅłÅłÅłÅłÅłÅłÅłÅłÅłÅłÅłÅłÅłÅłÅłÅłÅłÅłÅłÅłÅłÅłÅłÅłÅłÅłÅłÅłÅłÅłÅłÅłÅłÅłÅłÅłÅłÅłÅłÅłÅłÅłÅłÅłÅłÅłÅłÅłÅłÅłÅłÅłÅłÅłÅłÅłÅłÅłÅłÅłÅłÅłÅłÅłÅłÅłÅłÅłÅłÅłÅłÅłÅłÅłÅłÅłÅłÅłÅłÅłÅłÅłÅłÅłÅłÅłÅłÅłÅłÅłÅłÅłÅłÅłÅłÅłÅłÅłÅłÅłÅłÅłÅłÅłÅłÅłÅłÅłÅłÅłÅłÅłÅłÅłÅłÅłÅłÅłÅłÅłÅłÅłÅłÅłÅłÅłÅłÅłÅłÅłÅłÅłÅłÅłÅłÅłÅłÅłÅłÅłÅłÅłÅłÅłÅłÅłÅłÅłÅłÅłÅłÅłÅłÅłÅłÅłÅłÅłÅłÅłÅłÅłÅłÅłÅłÅłÅłÅłÅłÅłÅłÅłÅłÅłÅłÅłÅłÅłÅłÅłÅłÅłÅłÅłÅłÅłÅłÅłÅł"
      ],
      [
        "ÅłÅłÅłÅłÅłÅłÅłÅłÅłÅłÅłÅłÅłÅłÅłÅłÅłÅłÅłÅłÅłÅłÅłÅłÅłÅłÅłÅłÅłÅłÅłÅŁ",
        "ÅłÅłÅłÅłÅłÅłÅłÅłÅłÅłÅłÅłÅłÅłÅłÅłÅłÅłÅłÅłÅłÅłÅłÅłÅłÅłÅłÅłÅłÅłÅłÅłÅłÅłÅłÅłÅłÅłÅłÅłÅłÅłÅłÅłÅłÅłÅłÅłÅłÅłÅłÅłÅłÅłÅłÅłÅłÅłÅłÅłÅłÅłÅłÅłÅłÅłÅłÅłÅłÅłÅłÅłÅłÅłÅłÅłÅłÅłÅłÅłÅłÅłÅłÅłÅłÅłÅłÅłÅłÅłÅłÅłÅłÅłÅłÅłÅłÅłÅłÅłÅłÅłÅłÅłÅłÅłÅłÅłÅłÅłÅłÅłÅłÅłÅłÅłÅłÅłÅłÅłÅłÅłÅłÅłÅłÅłÅłÅłÅłÅłÅłÅłÅłÅłÅłÅłÅłÅłÅłÅłÅłÅłÅłÅłÅłÅłÅłÅłÅłÅłÅłÅłÅłÅłÅłÅłÅłÅłÅłÅłÅłÅłÅłÅłÅłÅłÅłÅłÅłÅłÅłÅłÅłÅłÅłÅłÅłÅłÅłÅłÅłÅłÅłÅłÅłÅłÅłÅłÅłÅłÅłÅłÅłÅłÅłÅłÅłÅłÅłÅłÅłÅłÅłÅłÅłÅłÅłÅłÅłÅłÅłÅłÅłÅłÅłÅłÅłÅłÅłÅłÅłÅłÅłÅłÅłÅłÅłÅłÅłÅłÅłÅłÅłÅłÅłÅłÅłÅłÅłÅłÅłÅłÅłÅłÅłÅłÅłÅłÅłÅłÅłÅłÅłÅłÅłÅłÅłÅłÅłÅłÅłÅłÅłÅłÅłÅłÅłÅłÅłÅłÅłÅłÅłÅłÅłÅłÅłÅłÅłÅłÅłÅłÅłÅłÅłÅłÅłÅłÅłÅłÅłÅłÅłÅłÅłÅłÅłÅłÅłÅłÅłÅłÅłÅłÅłÅłÅłÅłÅłÅłÅłÅłÅłÅłÅłÅłÅłÅłÅłÅłÅłÅłÅłÅłÅłÅłÅłÅłÅłÅłÅłÅłÅłÅłÅłÅłÅłÅłÅłÅłÅłÅłÅłÅłÅłÅłÅłÅłÅłÅłÅłÅłÅłÅłÅłÅłÅłÅłÅłÅłÅłÅłÅłÅłÅłÅłÅłÅłÅłÅłÅłÅłÅłÅłÅłÅłÅłÅłÅłÅłÅłÅłÅłÅłÅłÅłÅłÅłÅłÅłÅłÅłÅłÅłÅłÅłÅłÅłÅłÅłÅłÅłÅłÅłÅłÅłÅłÅłÅłÅłÅłÅłÅłÅłÅłÅłÅłÅłÅłÅłÅłÅłÅłÅłÅłÅłÅłÅłÅłÅłÅłÅłÅłÅłÅłÅłÅłÅłÅłÅłÅłÅłÅłÅłÅłÅłÅłÅłÅłÅłÅłÅłÅłÅłÅłÅłÅłÅłÅłÅłÅłÅłÅłÅłÅłÅłÅłÅłÅłÅłÅłÅłÅłÅłÅłÅłÅłÅłÅłÅłÅłÅłÅłÅłÅłÅłÅłÅłÅłÅłÅłÅłÅłÅłÅłÅłÅłÅłÅłÅłÅłÅłÅłÅłÅłÅłÅłÅłÅłÅłÅłÅłÅłÅłÅłÅłÅłÅłÅłÅłÅłÅłÅłÅłÅłÅłÅłÅłÅłÅłÅłÅłÅłÅłÅłÅłÅłÅłÅłÅłÅłÅłÅłÅłÅłÅłÅłÅłÅłÅłÅłÅłÅłÅłÅłÅłÅłÅłÅłÅłÅłÅłÅłÅłÅłÅłÅłÅłÅłÅłÅłÅłÅłÅłÅłÅłÅłÅłÅłÅłÅłÅłÅłÅłÅłÅłÅłÅłÅłÅłÅłÅłÅłÅłÅłÅłÅłÅłÅłÅłÅłÅłÅłÅłÅłÅłÅłÅłÅłÅłÅłÅłÅłÅłÅłÅłÅłÅłÅłÅłÅłÅłÅłÅłÅłÅłÅłÅłÅłÅłÅłÅłÅłÅłÅłÅłÅłÅłÅłÅł"
      ],
      [
        "ÅłÅł",
        "Å¢"
      ],
      [
        "Å",
        "¿"
      ],
      [
        "ÅłÅłÅłÅł",
        "ÅłÅŁ"
      ],
      [
        "Å",
        "ħ"
      ],
      [
        "ÅłÅłÅłÅłÅłÅł",
        "Å¢"
      ],
      [
        "Å",
        "ĩ"
      ],
      [
        "ÅłÅ¡",
        "Å¡"
      ],
      [
        "Å",
        "ī"
      ],
      [
        "Æ",
        "ģ"
      ],
      [
        "Åŀ",
        "Å¢"
      ],
      [
        "ÅłÅłÅłÅłÅłÅłÅłÅłÅłÅłÅłÅł",
        "ÅłÅŀ"
      ],
      [
        "Å",
        "Ĩ"
      ],
      [
        "Ä",
        "ļ"
      ],
      [
        "Å",
        "Ī"
      ],
      [
        "Ä",
        "¾"
      ],
      [
        "Æ",
        "Ģ"
      ],
      [
        "Æ",
        "·"
      ],
      [
        "Ä",
        "¼"
      ],
      [
        "Åŀ",
        "ÅŁ"
      ],
      [
        "ÅłÅłÅłÅłÅłÅłÅłÅłÅłÅłÅłÅłÅłÅłÅłÅłÅłÅłÅłÅłÅłÅ¡",
        "ÅłÅłÅłÅłÅłÅłÅłÅłÅłÅ¡"
      ],
      [
        "ÅłÅłÅłÅłÅłÅłÅłÅłÅłÅłÅłÅłÅłÅłÅ¡",
        "ÅłÅłÅłÅłÅłÅłÅłÅłÅłÅ¡"
      ],
      [
        "ÅłÅłÅłÅłÅłÅł",
        "ÅłÅ¢"
      ],
      [
        "ÅłÅłÅłÅłÅłÅłÅłÅłÅłÅłÅłÅłÅłÅł",
        "Å¢"
      ],
      [
        "Ä",
        "µ"
      ],
      [
        "ÅłÅłÅłÅłÅłÅłÅłÅłÅłÅłÅłÅł",
        "ÅłÅ¢"
      ],
      [
        "Ä",
        "½"
      ],
      [
        "Å£",
        "ÅĹ"
      ],
      [
        "Ä",
        "º"
      ],
      [
        "Å¼",
        "ÆĸÆĭ"
      ],
      [
        "ÅłÅłÅłÅłÅłÅłÅłÅłÅłÅłÅłÅłÅłÅłÅłÅłÅłÅłÅłÅłÅłÅŁ",
        "ÅłÅłÅłÅłÅłÅłÅłÅłÅłÅŁ"
      ],
      [
        "Æ",
        "Ĭ"
      ],
      [
        "Å£",
        "Å¡"
      ],
      [
        "Ä",
        "»"
      ],
      [
        "ÅŁ",
        "ÅłÅłÅłÅŁ"
      ],
      [
        "ÅłÅłÅłÅłÅłÅłÅłÅłÅłÅłÅłÅłÅłÅłÅłÅłÅłÅłÅłÅł",
        "ÅłÅ¢"
      ],
      [
        "ÅłÅłÅłÅłÅłÅł",
        "Åŀ"
      ],
      [
        "ÆĴÅ§ÄŃÆĪ",
        "Å¼ÆĸÆĭ"
      ],
      [
        "Æ",
        "ĩ"
      ],
      [
        "ÅłÅ",
        "¦"
      ],
      [
        "Æ",
        "ħ"
      ],
      [
        "Å¢",
        "ÅŁ"
      ],
      [
        "ÅŁÅ¡",
        "Å¡"
      ],
      [
        "Æ",
        "ĥ"
      ],
      [
        "Æ",
        "ī"
      ],
      [
        "ÅłÅłÅłÅłÅłÅłÅłÅł",
        "ÅŁ"
      ],
      [
        "ÅłÅ",
        "ļ"
      ],
      [
        "Ä",
        "´"
      ],
      [
        "Ä",
        "Ľ"
      ],
      [
        "ÅłÅłÅłÅłÅłÅłÅłÅł",
        "ÅłÅ£"
      ],
      [
        "ÅłÅłÅłÅłÅłÅłÅłÅłÅłÅłÅłÅłÅłÅłÅłÅłÅłÅłÅłÅłÅłÅŁ",
        "ÅłÅłÅłÅłÅłÅłÅłÅłÅłÅ¡"
      ],
      [
        "ÅłÅłÅłÅłÅłÅłÅłÅłÅłÅłÅłÅłÅłÅłÅłÅłÅłÅł",
        "ÅłÅŁ"
      ],
      [
        "Æ",
        "Ĥ"
      ],
      [
        "ÅłÅłÅłÅłÅłÅłÅłÅłÅłÅłÅłÅłÅłÅłÅłÅł",
        "ÅŁ"
      ],
      [
        "Ä",
        "³"
      ],
      [
        "ÅłÅłÅłÅłÅłÅłÅłÅłÅłÅłÅłÅłÅłÅłÅłÅłÅłÅłÅłÅłÅłÅłÅłÅłÅłÅłÅłÅłÅłÅłÅłÅŁ",
        "ÅłÅłÅłÅłÅłÅłÅłÅłÅłÅłÅłÅłÅłÅłÅłÅłÅłÅłÅłÅłÅłÅłÅłÅłÅłÅłÅłÅłÅłÅłÅłÅŁ"
      ],
      [
        "ÅłÅłÅłÅłÅłÅłÅłÅłÅłÅłÅłÅłÅłÅł",
        "Åŀ"
      ],
      [
        "Ä",
        "Ĺ"
      ],
      [
        "ÅłÅ¡",
        "ÅŁ"
      ],
      [
        "Å¢",
        "Å¢"
      ],
      [
        "Æ¤Ä",
        "ĩ"
      ],
      [
        "Æ",
        "Ħ"
      ],
      [
        "Å¢",
        "ÅĹ"
      ],
      [
        "Æ",
        "ĳ"
      ],
      [
        "Æ",
        "£"
      ],
      [
        "ÅĿ",
        "Å¡"
      ],
      [
        "ÅłÅ¡",
        "ÅłÅŁ"
      ],
      [
        "Å¢",
        "Åŀ"
      ],
      [
        "ÅłÅłÅłÅłÅłÅłÅłÅłÅłÅłÅłÅłÅłÅłÅłÅłÅłÅłÅłÅłÅłÅ¡",
        "ÅłÅłÅłÅłÅłÅłÅłÅłÅłÅŁ"
      ],
      [
        "ÅłÅ",
        "§"
      ],
      [
        "ÅłÅłÅłÅłÅłÅłÅłÅłÅłÅłÅłÅłÅłÅłÅłÅł",
        "Å¡"
      ],
      [
        "Æ",
        "Ĩ"
      ],
      [
        "ÅłÅł",
        "ÅŁÅ¡"
      ],
      [
        "Ä",
        "²"
      ],
      [
        "Ä",
        "¯"
      ],
      [
        "Æ¤",
        "ÅĹ"
      ],
      [
        "Ä",
        "ľ"
      ],
      [
        "ÅłÅłÅłÅłÅłÅłÅłÅłÅłÅłÅłÅłÅłÅłÅłÅłÅłÅłÅłÅłÅłÅłÅłÅłÅłÅłÅłÅłÅłÅłÅłÅł",
        "ÅłÅłÅłÅłÅłÅłÅłÅłÅłÅłÅłÅłÅłÅłÅłÅłÅłÅłÅł"
      ],
      [
        "ÅłÅłÅłÅłÅłÅłÅłÅłÅłÅłÅłÅłÅłÅłÅłÅłÅłÅłÅłÅłÅłÅłÅłÅłÅłÅłÅłÅł",
        "Å¡"
      ],
      [
        "Ä",
        "°"
      ],
      [
        "ÅłÅłÅłÅłÅłÅłÅłÅłÅłÅłÅłÅłÅłÅłÅŁ",
        "ÅłÅłÅłÅłÅłÅłÅłÅłÅłÅŁ"
      ],
      [
        "Å¡",
        "Åŀ"
      ],
      [
        "ÅłÅłÅłÅłÅłÅłÅłÅłÅłÅłÅłÅłÅłÅłÅłÅłÅłÅłÅłÅłÅłÅłÅłÅłÅłÅłÅłÅłÅłÅłÅłÅłÅłÅłÅłÅłÅłÅłÅłÅłÅłÅłÅłÅłÅłÅłÅłÅłÅłÅłÅłÅłÅłÅłÅłÅłÅłÅłÅłÅłÅłÅłÅłÅłÅłÅłÅłÅłÅłÅłÅłÅłÅłÅłÅłÅłÅłÅłÅłÅłÅłÅłÅłÅłÅłÅłÅłÅłÅłÅłÅłÅłÅłÅłÅłÅłÅłÅłÅłÅłÅłÅłÅłÅłÅłÅłÅłÅłÅłÅłÅłÅłÅłÅłÅłÅłÅłÅłÅłÅłÅłÅłÅłÅłÅłÅłÅłÅłÅłÅłÅłÅłÅłÅłÅłÅłÅłÅłÅłÅłÅłÅłÅłÅłÅłÅłÅłÅłÅłÅłÅłÅłÅłÅłÅłÅłÅłÅłÅłÅłÅłÅłÅłÅłÅłÅłÅłÅłÅłÅłÅłÅłÅłÅłÅłÅłÅłÅłÅłÅłÅłÅłÅłÅłÅłÅłÅłÅłÅłÅłÅłÅłÅłÅłÅłÅłÅłÅłÅłÅłÅłÅłÅłÅłÅłÅłÅłÅłÅłÅłÅłÅłÅłÅłÅłÅłÅłÅłÅłÅłÅłÅłÅłÅłÅłÅłÅłÅłÅłÅłÅłÅłÅłÅłÅłÅłÅłÅłÅłÅłÅłÅłÅłÅłÅłÅłÅłÅłÅłÅłÅłÅłÅłÅłÅłÅłÅłÅłÅłÅłÅłÅłÅłÅłÅłÅłÅłÅłÅłÅłÅłÅłÅłÅłÅłÅłÅłÅłÅłÅłÅłÅłÅłÅłÅłÅłÅłÅłÅłÅłÅłÅłÅłÅłÅłÅłÅłÅłÅłÅłÅłÅłÅłÅłÅłÅłÅłÅłÅłÅłÅłÅłÅłÅłÅłÅłÅłÅłÅłÅłÅłÅłÅłÅłÅłÅłÅłÅłÅłÅłÅłÅłÅłÅłÅłÅłÅłÅłÅłÅłÅłÅłÅłÅłÅłÅłÅłÅłÅłÅłÅłÅłÅłÅłÅłÅłÅłÅłÅłÅłÅłÅłÅłÅłÅłÅłÅłÅłÅłÅłÅłÅłÅłÅłÅłÅłÅłÅłÅłÅłÅłÅłÅłÅłÅłÅłÅłÅłÅłÅłÅłÅłÅłÅłÅłÅłÅłÅłÅłÅłÅłÅłÅłÅłÅłÅłÅłÅłÅłÅłÅłÅłÅłÅłÅłÅłÅłÅłÅłÅłÅłÅłÅłÅłÅłÅłÅłÅłÅłÅłÅłÅłÅłÅłÅłÅłÅłÅłÅłÅłÅłÅłÅłÅłÅłÅłÅłÅłÅłÅłÅłÅłÅłÅłÅłÅłÅłÅłÅłÅłÅłÅłÅłÅłÅłÅłÅłÅłÅłÅłÅłÅłÅłÅłÅłÅłÅłÅłÅłÅłÅłÅłÅłÅłÅłÅłÅłÅłÅłÅłÅłÅłÅłÅłÅłÅłÅłÅłÅłÅłÅłÅłÅłÅłÅłÅłÅłÅłÅłÅłÅłÅłÅłÅłÅłÅłÅłÅłÅłÅłÅłÅłÅłÅłÅłÅłÅłÅłÅłÅłÅłÅłÅłÅłÅłÅłÅłÅłÅłÅłÅłÅłÅłÅłÅłÅłÅłÅłÅłÅłÅłÅłÅłÅłÅłÅłÅłÅłÅłÅłÅłÅłÅłÅłÅłÅłÅłÅłÅłÅłÅłÅłÅłÅłÅłÅłÅłÅłÅłÅłÅłÅłÅłÅłÅłÅłÅłÅłÅłÅłÅłÅłÅłÅłÅłÅłÅłÅłÅłÅłÅłÅłÅłÅłÅłÅłÅłÅłÅłÅłÅłÅłÅłÅłÅłÅłÅłÅłÅłÅłÅłÅłÅłÅłÅłÅłÅłÅłÅłÅłÅłÅłÅłÅłÅłÅłÅłÅłÅłÅł",
        "ÅłÅłÅłÅłÅłÅłÅłÅłÅłÅłÅłÅłÅłÅłÅłÅłÅłÅłÅłÅłÅłÅłÅłÅłÅłÅłÅłÅłÅłÅłÅłÅłÅłÅłÅłÅłÅłÅłÅłÅłÅłÅłÅłÅłÅłÅłÅłÅłÅłÅłÅłÅłÅłÅłÅłÅłÅłÅłÅłÅłÅłÅłÅłÅłÅłÅłÅłÅłÅłÅłÅłÅłÅłÅłÅłÅłÅłÅłÅłÅłÅłÅłÅłÅłÅłÅłÅłÅłÅłÅłÅłÅłÅłÅłÅłÅł"
      ],
      [
        "ÅŁ",
        "ÅłÅŁ"
      ],
      [
        "ÅłÅł",
        "ÅĿ"
      ],
      [
        "Ä",
        "®"
      ],
      [
        "Ä",
        "±"
      ],
      [
        "ÅłÅłÅłÅłÅłÅłÅłÅłÅłÅłÅłÅłÅłÅłÅłÅłÅłÅłÅłÅł",
        "ÅłÅŀ"
      ],
      [
        "ÅłÅłÅłÅłÅłÅłÅłÅłÅłÅłÅłÅłÅłÅł",
        "ÅłÅ¡"
      ],
      [
        "ÅŁ",
        "Å£"
      ],
      [
        "ÅłÅłÅłÅłÅłÅł",
        "ÅłÅŀ"
      ],
      [
        "Ä",
        "ĭ"
      ],
      [
        "ÅłÅ",
        "Ļ"
      ],
      [
        "ÅłÅŁ",
        "ÅłÅłÅłÅł"
      ],
      [
        "Å¡",
        "ÅłÅłÅłÅ¡"
      ],
      [
        "Æ",
        "ĵ"
      ],
      [
        "ÅłÅłÅłÅłÅłÅłÅłÅłÅłÅłÅłÅłÅłÅłÅłÅłÅłÅłÅłÅłÅłÅłÅłÅłÅłÅłÅłÅł",
        "ÅŁ"
      ],
      [
        "Æ",
        "Ķ"
      ],
      [
        "ÅłÅ¡",
        "ÅłÅłÅłÅł"
      ],
      [
        "Ä",
        "ĸ"
      ],
      [
        "Æ",
        "į"
      ],
      [
        "Ä",
        "Ģ"
      ],
      [
        "ÅłÅłÅłÅłÅłÅłÅłÅłÅłÅłÅłÅł",
        "ÅłÅĿ"
      ],
      [
        "Å¡",
        "Å¢"
      ],
      [
        "ÅłÅł",
        "ÅłÅ¢"
      ],
      [
        "ÅłÅłÅłÅłÅłÅłÅłÅłÅłÅłÅłÅłÅłÅłÅłÅłÅłÅłÅłÅłÅłÅłÅłÅłÅłÅłÅłÅłÅłÅłÅłÅłÅłÅłÅłÅłÅłÅłÅłÅłÅłÅłÅłÅłÅłÅłÅłÅłÅłÅłÅłÅłÅłÅłÅłÅłÅłÅłÅłÅłÅłÅłÅłÅłÅłÅłÅłÅłÅłÅłÅłÅłÅłÅłÅłÅłÅłÅłÅłÅłÅłÅłÅłÅłÅłÅłÅłÅłÅłÅłÅłÅłÅłÅłÅłÅłÅłÅłÅłÅłÅłÅłÅłÅłÅłÅłÅłÅłÅłÅłÅłÅłÅłÅłÅłÅłÅłÅłÅłÅłÅłÅłÅłÅłÅłÅłÅłÅłÅłÅłÅłÅłÅłÅłÅłÅłÅłÅłÅłÅłÅłÅłÅłÅłÅłÅłÅłÅłÅłÅłÅłÅłÅłÅłÅłÅłÅłÅłÅłÅłÅłÅłÅłÅłÅłÅłÅłÅłÅłÅłÅłÅłÅłÅłÅłÅłÅłÅłÅłÅłÅłÅłÅłÅłÅłÅłÅłÅłÅłÅłÅłÅłÅłÅłÅłÅłÅłÅłÅłÅłÅłÅłÅłÅłÅłÅłÅłÅłÅłÅłÅłÅłÅłÅłÅłÅłÅłÅłÅłÅłÅłÅłÅłÅłÅłÅłÅłÅłÅłÅłÅłÅłÅłÅłÅłÅłÅłÅłÅłÅłÅłÅłÅłÅłÅłÅłÅłÅłÅłÅłÅłÅłÅłÅłÅłÅłÅłÅłÅłÅłÅłÅłÅłÅłÅłÅłÅłÅłÅłÅłÅłÅłÅłÅłÅłÅłÅłÅłÅłÅłÅłÅłÅłÅłÅłÅłÅłÅłÅłÅłÅłÅłÅłÅłÅłÅłÅłÅłÅłÅłÅłÅłÅłÅłÅłÅłÅłÅłÅłÅłÅłÅłÅłÅłÅłÅłÅłÅłÅłÅłÅłÅłÅłÅłÅłÅłÅłÅłÅłÅłÅłÅłÅłÅłÅłÅłÅłÅłÅłÅłÅłÅłÅłÅłÅłÅłÅłÅłÅłÅłÅłÅłÅłÅłÅłÅłÅłÅłÅłÅłÅłÅłÅłÅłÅłÅłÅłÅłÅłÅłÅłÅłÅłÅłÅłÅłÅłÅłÅłÅłÅłÅłÅłÅłÅłÅłÅłÅłÅłÅłÅłÅłÅłÅłÅłÅłÅłÅłÅłÅłÅłÅłÅłÅłÅłÅłÅłÅłÅłÅłÅłÅłÅłÅłÅłÅłÅłÅłÅłÅłÅłÅłÅłÅłÅłÅłÅłÅłÅłÅłÅłÅłÅłÅłÅłÅłÅłÅłÅłÅłÅłÅłÅłÅłÅłÅłÅłÅłÅłÅłÅłÅłÅłÅłÅłÅłÅłÅłÅłÅłÅłÅłÅłÅłÅłÅłÅłÅłÅłÅłÅłÅłÅłÅłÅłÅłÅłÅłÅłÅłÅłÅłÅłÅłÅłÅłÅłÅłÅłÅłÅłÅłÅłÅłÅłÅłÅłÅłÅłÅłÅłÅłÅłÅłÅłÅłÅłÅłÅłÅłÅłÅłÅłÅłÅłÅłÅłÅłÅłÅłÅłÅłÅłÅłÅłÅłÅłÅłÅłÅłÅłÅłÅłÅłÅłÅłÅłÅłÅłÅłÅłÅłÅłÅłÅłÅłÅłÅłÅłÅłÅłÅłÅłÅłÅłÅłÅłÅłÅłÅłÅłÅłÅłÅłÅłÅłÅłÅłÅłÅłÅłÅłÅłÅłÅłÅłÅłÅłÅłÅłÅłÅłÅłÅłÅłÅłÅłÅłÅłÅłÅłÅłÅłÅłÅłÅłÅłÅłÅłÅłÅłÅłÅłÅłÅłÅłÅłÅł",
        "ÅłÅłÅłÅłÅłÅłÅłÅłÅłÅłÅłÅł"
      ],
      [
        "Æ",
        "Į"
      ],
      [
        "Æ",
        "ı"
      ],
      [
        "ÅłÅłÅłÅłÅłÅłÅłÅł",
        "ÅłÅĿ"
      ],
      [
        "ÅłÅłÅłÅłÅłÅłÅłÅłÅłÅłÅłÅłÅłÅłÅłÅłÅłÅłÅłÅł",
        "Åł"
      ],
      [
        "ÅŁ",
        "ÅĿ"
      ],
      [
        "ÅłÅ",
        "¨"
      ],
      [
        "Åŀ",
        "Åŀ"
      ],
      [
        "ÅłÅłÅłÅłÅłÅłÅłÅłÅłÅłÅłÅłÅłÅłÅłÅłÅłÅł",
        "ÅłÅ¡"
      ],
      [
        "ÆĴÅ§ÄŃÆĪÅ¹ÆĸÆĭ",
        "Å«"
      ],
      [
        "Æ",
        "¶"
      ],
      [
        "ÅłÅłÅłÅłÅłÅłÅłÅłÅłÅłÅłÅłÅłÅł",
        "Å£"
      ],
      [
        "ÅłÅłÅłÅłÅłÅł",
        "Å£"
      ],
      [
        "ÅłÅłÅłÅłÅłÅłÅłÅłÅłÅłÅłÅłÅłÅłÅłÅłÅłÅłÅłÅłÅłÅłÅłÅł",
        "Å¡"
      ],
      [
        "ÅłÅłÅłÅłÅłÅł",
        "ÅłÅ£"
      ],
      [
        "Æ",
        "Ĳ"
      ],
      [
        "Æ",
        "İ"
      ],
      [
        "ÅłÅ",
        "ĺ"
      ],
      [
        "Ä",
        "¬"
      ],
      [
        "ÅłÅłÅłÅłÅłÅłÅłÅłÅłÅłÅłÅłÅłÅłÅłÅłÅłÅłÅłÅłÅłÅłÅłÅłÅłÅłÅłÅłÅłÅłÅłÅłÅłÅłÅłÅłÅłÅłÅłÅłÅłÅłÅłÅłÅłÅłÅłÅłÅłÅłÅłÅłÅłÅłÅłÅłÅłÅłÅłÅłÅłÅłÅłÅłÅłÅłÅłÅłÅłÅłÅłÅłÅłÅłÅłÅłÅłÅłÅłÅłÅłÅłÅłÅłÅłÅłÅłÅłÅłÅłÅłÅłÅłÅłÅłÅł",
        "ÅłÅłÅłÅłÅłÅłÅłÅłÅłÅłÅłÅł"
      ],
      [
        "Æ",
        "Ľ"
      ],
      [
        "ÅłÅłÅłÅłÅłÅłÅłÅłÅłÅłÅłÅłÅłÅłÅłÅłÅłÅłÅłÅł",
        "Å¡"
      ],
      [
        "ÅłÅ",
        "Ĺ"
      ],
      [
        "ÅłÅłÅłÅłÅłÅłÅłÅłÅłÅłÅłÅł",
        "ÅłÅ£"
      ],
      [
        "ÅłÅł",
        "ÅłÅŀ"
      ],
      [
        "ÅłÅłÅłÅłÅłÅłÅłÅłÅłÅłÅłÅłÅłÅłÅłÅłÅłÅłÅłÅł",
        "ÅŁ"
      ],
      [
        "Å¤",
        "Å¡"
      ],
      [
        "Åŀ",
        "Å£"
      ],
      [
        "Ä",
        "Ĭ"
      ],
      [
        "Ä",
        "¨"
      ],
      [
        "ÅłÅłÅłÅłÅłÅłÅłÅłÅłÅłÅłÅłÅłÅłÅłÅłÅłÅłÅłÅłÅłÅłÅłÅłÅłÅłÅłÅłÅłÅłÅłÅ¡",
        "ÅłÅłÅłÅłÅłÅłÅłÅłÅłÅłÅłÅłÅłÅłÅłÅłÅłÅłÅłÅłÅłÅłÅłÅłÅłÅłÅłÅłÅłÅłÅłÅ¡"
      ],
      [
        "Ä",
        "ķ"
      ],
      [
        "ÅłÅ",
        "©"
      ],
      [
        "ÅłÅłÅłÅłÅłÅłÅłÅłÅłÅłÅłÅłÅłÅłÅłÅłÅłÅłÅłÅłÅłÅłÅłÅłÅłÅłÅłÅł",
        "Åł"
      ],
      [
        "Ä",
        "¤"
      ],
      [
        "ÅłÅłÅłÅłÅłÅłÅłÅłÅłÅłÅłÅłÅłÅł",
        "ÅĿ"
      ],
      [
        "ÅłÅ¡",
        "ÅłÅ¡"
      ],
      [
        "ÅłÅŁ",
        "ÅŁ"
      ],
      [
        "Åª",
        "ÅŁ"
      ],
      [
        "Ä",
        "«"
      ],
      [
        "Ç",
        "ĵ"
      ],
      [
        "Å£",
        "Å¢"
      ],
      [
        "ÅłÅłÅłÅłÅłÅłÅłÅłÅłÅłÅłÅłÅłÅłÅłÅłÅłÅłÅłÅłÅłÅłÅłÅłÅłÅłÅłÅłÅłÅłÅłÅłÅłÅłÅłÅłÅłÅłÅłÅłÅłÅłÅłÅłÅłÅłÅłÅłÅłÅłÅłÅłÅłÅłÅłÅłÅłÅłÅłÅłÅłÅłÅłÅłÅłÅłÅłÅłÅłÅłÅłÅłÅłÅłÅłÅłÅłÅłÅłÅłÅłÅłÅłÅłÅłÅłÅłÅłÅłÅłÅłÅłÅłÅłÅłÅłÅłÅłÅłÅłÅłÅłÅłÅłÅłÅłÅłÅłÅłÅłÅłÅłÅłÅłÅłÅłÅłÅłÅłÅłÅłÅłÅłÅłÅłÅłÅłÅłÅłÅłÅłÅłÅłÅłÅłÅłÅłÅłÅłÅłÅłÅłÅłÅłÅłÅłÅłÅłÅłÅłÅłÅłÅłÅłÅłÅłÅłÅłÅłÅłÅłÅłÅłÅłÅłÅłÅłÅłÅłÅłÅłÅłÅłÅłÅłÅłÅłÅłÅłÅłÅłÅłÅłÅłÅłÅłÅłÅłÅłÅłÅłÅłÅłÅłÅłÅłÅłÅłÅłÅłÅłÅłÅłÅłÅłÅłÅłÅłÅłÅłÅłÅłÅłÅłÅłÅłÅłÅłÅłÅłÅłÅłÅłÅłÅłÅłÅłÅłÅłÅłÅłÅłÅłÅłÅłÅłÅłÅłÅłÅłÅłÅłÅłÅłÅłÅłÅłÅłÅłÅłÅłÅłÅłÅłÅłÅłÅłÅłÅłÅłÅłÅłÅłÅłÅłÅłÅłÅłÅłÅłÅłÅłÅłÅłÅłÅłÅłÅłÅłÅłÅłÅłÅłÅłÅłÅłÅłÅłÅłÅłÅłÅłÅłÅłÅłÅłÅłÅłÅłÅłÅłÅłÅłÅłÅłÅłÅłÅłÅłÅłÅłÅłÅłÅłÅłÅłÅłÅłÅłÅłÅłÅłÅłÅłÅłÅłÅłÅłÅłÅłÅłÅłÅłÅłÅłÅłÅłÅłÅłÅłÅłÅłÅłÅłÅłÅłÅłÅłÅłÅłÅłÅłÅłÅłÅłÅłÅłÅłÅłÅłÅłÅłÅłÅłÅłÅłÅłÅłÅłÅłÅłÅłÅłÅłÅłÅłÅłÅłÅłÅłÅłÅłÅłÅłÅłÅłÅłÅłÅłÅłÅłÅłÅłÅłÅłÅłÅłÅłÅłÅłÅłÅłÅłÅłÅłÅłÅłÅłÅłÅłÅłÅłÅłÅłÅłÅłÅłÅłÅłÅłÅłÅłÅłÅłÅłÅłÅłÅłÅłÅłÅłÅłÅłÅłÅłÅłÅłÅłÅłÅłÅłÅłÅłÅłÅłÅłÅłÅłÅłÅłÅłÅłÅłÅłÅłÅłÅłÅłÅłÅłÅłÅłÅłÅłÅłÅłÅłÅłÅłÅłÅłÅłÅłÅłÅłÅłÅłÅłÅłÅłÅłÅłÅłÅłÅłÅłÅłÅłÅłÅłÅłÅłÅłÅłÅłÅłÅłÅłÅłÅłÅłÅłÅłÅłÅłÅłÅłÅłÅłÅłÅłÅłÅłÅłÅłÅłÅłÅłÅłÅłÅłÅłÅłÅłÅłÅłÅłÅłÅłÅłÅłÅłÅłÅłÅłÅłÅłÅłÅłÅłÅłÅłÅłÅłÅłÅłÅłÅłÅłÅłÅłÅłÅłÅłÅłÅłÅłÅłÅłÅłÅłÅłÅłÅłÅłÅłÅłÅłÅłÅłÅłÅłÅłÅłÅłÅłÅłÅłÅłÅłÅłÅłÅłÅłÅłÅłÅłÅłÅłÅłÅłÅłÅłÅłÅłÅłÅłÅłÅłÅłÅłÅłÅłÅłÅłÅłÅłÅł",
        "ÅłÅłÅłÅłÅłÅłÅłÅłÅłÅłÅłÅłÅłÅłÅłÅłÅłÅłÅłÅłÅłÅł"
      ],
      [
        "ÅłÅłÅłÅłÅłÅłÅłÅłÅłÅłÅłÅłÅłÅłÅłÅłÅłÅłÅłÅłÅłÅłÅłÅłÅłÅłÅłÅłÅłÅłÅłÅłÅłÅłÅłÅłÅłÅłÅłÅłÅłÅłÅłÅłÅłÅłÅłÅłÅłÅłÅłÅłÅłÅłÅłÅłÅłÅłÅłÅłÅłÅłÅłÅłÅłÅłÅłÅłÅłÅłÅłÅłÅłÅłÅłÅłÅłÅłÅłÅłÅłÅłÅłÅłÅłÅłÅłÅłÅłÅłÅłÅłÅłÅłÅłÅłÅłÅłÅłÅłÅłÅłÅłÅłÅłÅłÅłÅłÅłÅłÅłÅłÅłÅłÅłÅłÅłÅłÅłÅłÅłÅłÅłÅłÅłÅłÅłÅłÅłÅłÅłÅłÅłÅłÅłÅłÅłÅłÅłÅłÅłÅłÅłÅłÅłÅłÅłÅłÅłÅłÅłÅłÅłÅłÅłÅłÅłÅłÅłÅłÅłÅłÅłÅłÅłÅłÅłÅłÅłÅłÅłÅłÅłÅłÅłÅłÅłÅłÅłÅłÅłÅłÅłÅłÅłÅłÅłÅłÅłÅłÅłÅłÅłÅłÅłÅłÅłÅłÅłÅłÅłÅłÅłÅłÅłÅłÅłÅłÅłÅłÅłÅłÅłÅłÅłÅłÅłÅłÅłÅłÅłÅłÅłÅłÅłÅłÅłÅłÅłÅłÅłÅłÅłÅłÅłÅłÅłÅłÅłÅłÅłÅłÅłÅłÅłÅłÅłÅłÅłÅłÅłÅłÅłÅłÅłÅłÅłÅłÅłÅłÅłÅłÅłÅłÅłÅłÅłÅłÅłÅłÅłÅłÅłÅłÅłÅłÅłÅłÅłÅłÅłÅłÅłÅłÅłÅłÅłÅłÅłÅłÅłÅłÅłÅłÅłÅłÅłÅłÅłÅłÅłÅłÅłÅłÅłÅłÅłÅłÅłÅłÅłÅłÅłÅłÅłÅłÅłÅłÅłÅłÅłÅłÅłÅłÅłÅłÅłÅłÅłÅłÅłÅłÅłÅłÅłÅłÅłÅłÅłÅłÅłÅłÅłÅłÅłÅłÅłÅłÅłÅłÅłÅłÅłÅłÅłÅłÅłÅłÅłÅłÅłÅłÅłÅłÅłÅłÅłÅłÅłÅłÅłÅłÅłÅłÅłÅłÅłÅłÅłÅłÅłÅłÅłÅłÅłÅłÅłÅłÅłÅłÅłÅłÅłÅłÅłÅłÅłÅłÅłÅłÅłÅłÅłÅłÅłÅłÅłÅłÅłÅłÅłÅłÅłÅłÅłÅłÅłÅłÅłÅłÅłÅłÅłÅłÅłÅłÅłÅłÅłÅłÅłÅłÅłÅłÅłÅłÅłÅłÅłÅłÅłÅłÅłÅłÅłÅłÅłÅłÅłÅłÅłÅłÅłÅłÅłÅłÅłÅłÅłÅłÅłÅłÅłÅłÅłÅłÅłÅłÅłÅłÅłÅłÅłÅłÅłÅłÅłÅłÅłÅłÅłÅłÅłÅłÅłÅłÅłÅłÅłÅłÅłÅłÅłÅłÅłÅłÅłÅłÅłÅłÅłÅłÅłÅłÅłÅłÅłÅłÅłÅłÅłÅł",
        "ÅłÅłÅłÅłÅłÅłÅłÅłÅłÅłÅłÅłÅłÅłÅłÅłÅłÅłÅłÅłÅłÅłÅłÅłÅłÅłÅłÅłÅłÅłÅłÅłÅłÅłÅłÅłÅłÅłÅłÅłÅłÅłÅłÅłÅłÅłÅłÅłÅłÅłÅłÅłÅłÅłÅłÅłÅłÅłÅłÅłÅłÅłÅłÅł"
      ],
      [
        "Æ",
        "¢"
      ],
      [
        "ÅłÅłÅłÅłÅłÅłÅłÅłÅłÅłÅłÅłÅłÅłÅłÅłÅłÅłÅłÅłÅłÅłÅłÅłÅłÅłÅłÅłÅłÅłÅłÅłÅłÅłÅłÅłÅłÅłÅłÅłÅłÅłÅłÅłÅłÅłÅłÅłÅłÅłÅłÅłÅłÅłÅłÅłÅłÅłÅłÅłÅłÅłÅłÅłÅłÅłÅłÅłÅłÅłÅłÅłÅłÅłÅłÅłÅłÅłÅłÅłÅłÅłÅłÅłÅłÅłÅłÅłÅłÅłÅłÅłÅłÅłÅłÅłÅłÅłÅłÅłÅłÅłÅłÅłÅłÅłÅłÅłÅłÅłÅłÅłÅłÅłÅłÅłÅłÅłÅłÅłÅłÅłÅłÅłÅłÅłÅłÅłÅłÅłÅłÅłÅłÅłÅłÅłÅłÅłÅłÅłÅłÅłÅłÅłÅłÅłÅłÅłÅłÅłÅłÅłÅłÅłÅłÅłÅłÅłÅłÅłÅłÅłÅłÅłÅłÅłÅłÅłÅłÅłÅłÅłÅłÅłÅłÅłÅłÅłÅłÅłÅłÅłÅłÅłÅłÅłÅłÅłÅłÅłÅłÅłÅłÅłÅłÅłÅłÅłÅłÅłÅłÅłÅłÅłÅłÅłÅłÅłÅłÅłÅłÅłÅłÅłÅłÅłÅłÅłÅłÅłÅłÅłÅłÅłÅłÅłÅłÅłÅłÅłÅłÅłÅłÅłÅłÅłÅłÅłÅłÅłÅłÅłÅłÅłÅłÅłÅłÅłÅłÅłÅłÅłÅłÅłÅłÅłÅłÅłÅłÅłÅłÅłÅłÅłÅłÅłÅłÅłÅłÅłÅłÅłÅłÅłÅłÅłÅłÅłÅłÅłÅłÅłÅłÅłÅłÅłÅłÅłÅłÅłÅłÅłÅłÅłÅłÅłÅłÅłÅłÅłÅłÅłÅłÅłÅłÅłÅłÅłÅłÅłÅłÅłÅłÅłÅłÅłÅłÅłÅłÅłÅłÅłÅłÅłÅłÅłÅłÅłÅłÅłÅłÅłÅłÅłÅłÅłÅłÅłÅłÅłÅłÅłÅłÅłÅłÅłÅłÅłÅłÅłÅłÅłÅłÅłÅłÅłÅłÅłÅłÅłÅłÅłÅłÅłÅłÅłÅłÅłÅłÅłÅłÅłÅłÅłÅłÅłÅłÅłÅłÅłÅłÅłÅłÅłÅłÅłÅłÅłÅłÅłÅłÅłÅłÅłÅłÅłÅłÅłÅłÅłÅłÅłÅłÅłÅłÅłÅłÅłÅłÅłÅłÅłÅłÅłÅłÅłÅłÅłÅłÅłÅłÅłÅłÅłÅłÅłÅłÅłÅłÅłÅłÅłÅłÅłÅłÅłÅłÅłÅłÅłÅłÅłÅłÅłÅłÅłÅłÅłÅłÅłÅłÅłÅłÅłÅłÅłÅłÅłÅłÅłÅłÅłÅłÅłÅłÅłÅłÅłÅłÅłÅłÅłÅłÅłÅłÅłÅłÅłÅłÅłÅłÅłÅłÅłÅłÅłÅłÅłÅłÅłÅłÅłÅłÅłÅłÅłÅłÅłÅłÅłÅłÅłÅłÅłÅłÅłÅłÅłÅłÅłÅłÅłÅłÅłÅłÅłÅłÅłÅłÅłÅłÅłÅłÅłÅłÅłÅłÅłÅłÅłÅłÅłÅłÅłÅłÅłÅłÅłÅłÅłÅłÅłÅłÅłÅłÅłÅłÅłÅłÅłÅłÅłÅłÅłÅłÅłÅłÅłÅłÅłÅłÅłÅłÅłÅłÅłÅłÅłÅłÅłÅłÅłÅłÅłÅłÅłÅłÅłÅłÅłÅłÅłÅłÅłÅłÅłÅłÅłÅłÅłÅłÅłÅłÅłÅłÅłÅłÅłÅłÅłÅłÅłÅłÅłÅłÅłÅłÅłÅłÅłÅłÅłÅłÅłÅłÅłÅłÅłÅłÅłÅłÅłÅłÅłÅłÅłÅłÅłÅłÅłÅłÅłÅłÅłÅłÅłÅłÅłÅłÅł",
        "ÅłÅłÅłÅłÅłÅłÅłÅłÅłÅłÅłÅłÅłÅłÅłÅłÅłÅłÅłÅłÅłÅłÅłÅłÅłÅłÅłÅłÅłÅłÅłÅłÅłÅłÅłÅłÅłÅłÅłÅłÅłÅłÅłÅłÅłÅłÅłÅłÅłÅłÅłÅłÅłÅłÅłÅłÅłÅłÅłÅłÅłÅłÅłÅł"
      ],
      [
        "ÅłÅłÅłÅłÅłÅłÅłÅłÅłÅłÅłÅłÅłÅłÅłÅłÅłÅłÅłÅłÅłÅłÅłÅłÅłÅłÅłÅłÅłÅł",
        "ÅłÅŀ"
      ],
      [
        "Ä",
        "Ŀ"
      ],
      [
        "Ä",
        "Ĵ"
      ],
      [
        "ÅłÅłÅ¡",
        "Å¡"
      ],
      [
        "Æ",
        "¡"
      ],
      [
        "ÅłÅłÅłÅłÅłÅłÅłÅłÅłÅłÅłÅłÅłÅłÅłÅłÅłÅłÅłÅłÅłÅłÅłÅłÅłÅłÅłÅłÅłÅłÅłÅłÅłÅłÅłÅłÅłÅłÅłÅłÅłÅłÅłÅłÅłÅłÅłÅłÅłÅłÅłÅłÅłÅłÅłÅłÅłÅłÅłÅłÅłÅłÅłÅłÅłÅłÅłÅłÅłÅłÅłÅłÅłÅłÅłÅłÅłÅłÅłÅłÅłÅłÅłÅłÅłÅłÅłÅłÅłÅłÅłÅłÅłÅłÅłÅłÅłÅłÅłÅłÅłÅłÅłÅłÅłÅłÅłÅłÅłÅłÅłÅłÅłÅłÅłÅłÅłÅłÅłÅłÅłÅłÅłÅłÅłÅłÅłÅłÅłÅłÅłÅłÅłÅłÅłÅłÅłÅłÅłÅłÅłÅłÅłÅłÅłÅłÅłÅłÅłÅłÅłÅłÅłÅłÅłÅłÅłÅłÅłÅłÅłÅłÅłÅłÅłÅłÅłÅłÅłÅłÅłÅłÅłÅłÅłÅłÅłÅłÅłÅłÅłÅłÅłÅłÅłÅłÅłÅłÅłÅłÅłÅłÅłÅłÅłÅłÅłÅłÅłÅłÅłÅłÅłÅłÅłÅłÅłÅłÅłÅłÅłÅłÅłÅłÅłÅłÅłÅłÅłÅłÅłÅłÅłÅłÅłÅłÅłÅłÅłÅłÅłÅłÅłÅłÅłÅłÅłÅłÅłÅłÅłÅłÅłÅłÅłÅłÅłÅłÅłÅłÅłÅłÅłÅłÅłÅłÅłÅłÅłÅłÅłÅłÅłÅłÅłÅłÅłÅłÅłÅłÅłÅłÅłÅłÅłÅłÅłÅłÅłÅłÅłÅłÅłÅłÅłÅłÅłÅłÅłÅłÅłÅłÅłÅłÅłÅłÅłÅłÅłÅłÅłÅłÅłÅłÅłÅłÅłÅłÅłÅłÅłÅłÅłÅłÅłÅłÅłÅłÅłÅłÅłÅłÅłÅłÅłÅłÅłÅłÅłÅłÅłÅłÅłÅłÅłÅłÅłÅłÅłÅłÅłÅłÅłÅłÅłÅłÅłÅłÅłÅłÅłÅłÅłÅłÅłÅłÅłÅłÅłÅłÅłÅłÅłÅłÅłÅłÅłÅłÅłÅłÅłÅłÅłÅłÅłÅłÅłÅłÅłÅłÅłÅłÅłÅłÅłÅłÅłÅłÅłÅłÅłÅłÅłÅłÅłÅłÅłÅłÅłÅłÅłÅłÅłÅłÅłÅłÅłÅłÅłÅłÅłÅłÅłÅłÅłÅłÅłÅłÅłÅłÅłÅłÅłÅłÅłÅłÅłÅłÅłÅłÅłÅłÅłÅłÅłÅłÅłÅłÅłÅłÅłÅłÅłÅłÅłÅłÅłÅłÅłÅłÅłÅłÅłÅłÅłÅłÅłÅłÅłÅłÅłÅłÅłÅłÅłÅłÅłÅłÅłÅłÅłÅłÅłÅłÅłÅłÅłÅłÅłÅłÅłÅłÅłÅłÅłÅłÅłÅłÅłÅłÅłÅłÅłÅłÅłÅłÅłÅłÅłÅłÅłÅłÅłÅłÅłÅłÅłÅłÅłÅłÅłÅłÅłÅłÅłÅłÅłÅłÅłÅłÅłÅłÅłÅłÅłÅłÅłÅłÅłÅłÅłÅłÅłÅłÅłÅłÅłÅłÅłÅłÅłÅłÅłÅłÅłÅłÅłÅłÅłÅłÅłÅłÅłÅłÅłÅłÅłÅłÅłÅłÅłÅłÅłÅłÅłÅłÅłÅłÅłÅłÅłÅłÅłÅłÅłÅłÅłÅłÅłÅłÅłÅłÅłÅłÅłÅłÅłÅłÅłÅłÅłÅłÅłÅłÅłÅłÅłÅłÅłÅłÅłÅłÅłÅłÅłÅłÅłÅłÅłÅłÅłÅłÅłÅłÅłÅłÅłÅłÅłÅłÅłÅłÅłÅłÅłÅłÅłÅłÅłÅłÅłÅłÅłÅłÅłÅłÅłÅłÅłÅłÅłÅłÅłÅłÅłÅłÅłÅłÅłÅłÅłÅłÅłÅłÅłÅłÅłÅłÅłÅłÅłÅłÅłÅłÅłÅłÅłÅłÅłÅłÅłÅłÅłÅłÅłÅłÅłÅłÅłÅłÅłÅłÅłÅłÅłÅłÅłÅłÅłÅłÅłÅłÅłÅłÅłÅłÅłÅłÅłÅłÅłÅłÅłÅłÅłÅłÅłÅłÅłÅłÅłÅłÅłÅłÅłÅłÅłÅłÅłÅłÅłÅłÅłÅłÅłÅłÅłÅłÅłÅłÅłÅłÅłÅłÅłÅłÅłÅłÅłÅłÅłÅłÅłÅłÅłÅłÅłÅłÅłÅłÅłÅłÅłÅłÅłÅłÅłÅłÅłÅłÅłÅłÅłÅłÅłÅłÅłÅł",
        "ÅłÅłÅłÅłÅłÅłÅłÅłÅłÅłÅłÅłÅłÅłÅłÅłÅłÅłÅłÅłÅłÅłÅłÅłÅłÅłÅłÅłÅłÅłÅłÅłÅłÅłÅłÅłÅłÅłÅłÅłÅłÅłÅłÅłÅłÅłÅłÅłÅłÅłÅłÅłÅłÅłÅłÅłÅłÅłÅłÅłÅłÅłÅłÅłÅłÅłÅłÅłÅłÅłÅłÅłÅłÅłÅłÅłÅłÅłÅłÅłÅłÅłÅłÅłÅłÅłÅłÅłÅłÅłÅłÅłÅłÅłÅłÅłÅłÅłÅłÅłÅłÅłÅłÅłÅłÅłÅłÅłÅłÅłÅłÅłÅłÅłÅłÅłÅłÅłÅłÅłÅłÅłÅłÅłÅłÅłÅłÅł"
      ],
      [
        "Ä",
        "¢"
      ],
      [
        "Ä",
        "§"
      ],
      [
        "ÅłÅłÅłÅłÅłÅł",
        "ÅĿ"
      ],
      [
        "Å¢",
        "ÅĿ"
      ],
      [
        "ÅłÅłÅłÅłÅłÅłÅłÅłÅłÅłÅłÅłÅłÅłÅłÅłÅłÅłÅłÅłÅłÅłÅłÅłÅłÅłÅłÅłÅłÅłÅłÅł",
        "ÅłÅłÅłÅłÅłÅłÅłÅłÅłÅłÅłÅłÅłÅłÅłÅłÅłÅłÅłÅłÅłÅłÅłÅłÅłÅłÅłÅłÅłÅłÅłÅŁ"
      ],
      [
        "Ä",
        "ŀ"
      ],
      [
        "ÅłÅł",
        "Å£"
      ],
      [
        "Ä",
        "¥"
      ],
      [
        "ÅłÅłÅłÅłÅłÅłÅłÅłÅłÅłÅłÅłÅłÅłÅłÅł",
        "ÅłÅłÅ¡"
      ],
      [
        "ÅłÅłÅłÅłÅłÅłÅłÅłÅłÅłÅłÅł",
        "ÅŁ"
      ],
      [
        "Æ",
        "¥"
      ],
      [
        "Ä",
        "©"
      ],
      [
        "Ä",
        "Ł"
      ],
      [
        "ÅĿ",
        "Å£"
      ],
      [
        "ÅłÅłÅłÅłÅłÅłÅłÅłÅłÅłÅłÅłÅłÅł",
        "Å¤"
      ],
      [
        "Å£ÅĹ",
        "Å¡"
      ],
      [
        "Åľ",
        "Å¡"
      ],
      [
        "Ä",
        "ª"
      ],
      [
        "ÅŁ",
        "Å¤"
      ],
      [
        "ÅłÅłÅłÅłÅłÅłÅłÅłÅłÅ",
        "¤"
      ],
      [
        "Ä",
        "ĵ"
      ],
      [
        "Å¢",
        "Å£"
      ],
      [
        "ÅłÅłÅłÅłÅłÅłÅłÅłÅłÅłÅłÅłÅłÅłÅłÅł",
        "ÅłÅłÅłÅłÅłÅłÅłÅŁ"
      ],
      [
        "Æ¤",
        "Åļ"
      ],
      [
        "ÅłÅłÅłÅłÅłÅłÅłÅł",
        "Å¡ÅŁ"
      ],
      [
        "Å£",
        "Åĸ"
      ],
      [
        "Ä",
        "¡"
      ],
      [
        "ÅłÅłÅłÅłÅłÅłÅłÅłÅłÅłÅłÅłÅłÅłÅłÅłÅłÅłÅłÅłÅłÅłÅłÅłÅłÅłÅłÅłÅłÅłÅłÅ¡",
        "ÅłÅłÅłÅłÅłÅłÅłÅłÅłÅłÅłÅłÅłÅłÅłÅłÅłÅłÅłÅłÅłÅłÅłÅłÅłÅłÅłÅłÅłÅłÅłÅŁ"
      ],
      [
        "Ä",
        "¦"
      ],
      [
        "Ä",
        "Ķ"
      ],
      [
        "Åŀ",
        "ÅĿ"
      ],
      [
        "Å½",
        "ÆĭÅłÅłÅłÅłÅłÅłÅłÅłÅłÅłÅłÅł"
      ],
      [
        "ÅłÅ",
        "ª"
      ],
      [
        "ÅłÅłÅłÅłÅłÅłÅłÅłÅłÅłÅłÅłÅłÅłÅłÅłÅłÅłÅłÅł",
        "ÅłÅ£"
      ],
      [
        "ÅłÅłÅłÅłÅłÅłÅłÅłÅłÅłÅłÅłÅłÅ",
        "ľ"
      ],
      [
        "ÅłÅł",
        "Åľ"
      ],
      [
        "Å¢",
        "Åĸ"
      ],
      [
        "ÅłÅłÅłÅłÅłÅłÅłÅłÅłÅłÅłÅłÅłÅłÅłÅłÅłÅłÅłÅłÅłÅłÅłÅł",
        "ÅŁ"
      ],
      [
        "ÅłÅłÅłÅłÅłÅłÅłÅłÅłÅłÅłÅłÅłÅłÅłÅł",
        "ÅłÅŁ"
      ],
      [
        "Æ",
        "ķ"
      ],
      [
        "ÅłÅłÅłÅłÅłÅłÅłÅłÅłÅłÅłÅłÅłÅłÅłÅłÅłÅł",
        "ÅŁ"
      ],
      [
        "Å¡",
        "ÅłÅ"
      ],
      [
        "ÅĿ",
        "ÅŁ"
      ],
      [
        "ÅłÅłÅłÅłÅłÅłÅłÅłÅłÅłÅłÅłÅłÅ",
        "¤"
      ],
      [
        "ÅłÅłÅłÅłÅłÅłÅłÅłÅłÅłÅłÅłÅłÅłÅłÅł",
        "ÅłÅłÅłÅłÅłÅłÅłÅ¡"
      ],
      [
        "Ä",
        "£"
      ],
      [
        "ÅłÅł",
        "Åł"
      ],
      [
        "ÅłÅłÅłÅłÅłÅł",
        "Å©"
      ],
      [
        "ÅłÅłÅłÅłÅłÅłÅłÅ",
        "¤"
      ],
      [
        "Å¥",
        "Å¡"
      ],
      [
        "ÅłÅłÅłÅłÅłÅłÅłÅłÅłÅłÅłÅłÅłÅłÅłÅłÅłÅłÅłÅłÅłÅłÅłÅł",
        "ÅłÅłÅł"
      ],
      [
        "ÅłÅ¡",
        "ÅłÅłÅłÅ¡"
      ],
      [
        "ÅłÅłÅłÅłÅłÅł",
        "ÅłÅĿ"
      ],
      [
        "ÅłÅłÅłÅłÅłÅłÅłÅłÅłÅ",
        "ľ"
      ],
      [
        "Ä",
        "ĩ"
      ],
      [
        "Ä",
        "į"
      ],
      [
        "ÅłÅłÅłÅłÅłÅłÅłÅłÅłÅłÅłÅłÅłÅłÅłÅłÅłÅłÅłÅłÅłÅłÅłÅłÅłÅłÅłÅłÅłÅłÅłÅłÅłÅłÅłÅłÅłÅłÅłÅłÅłÅłÅłÅłÅłÅłÅłÅłÅłÅłÅłÅłÅłÅłÅłÅłÅłÅłÅłÅłÅłÅłÅłÅłÅłÅłÅłÅłÅłÅłÅłÅłÅłÅłÅłÅłÅłÅłÅłÅłÅłÅłÅłÅłÅłÅłÅłÅłÅłÅłÅłÅłÅłÅłÅłÅłÅłÅłÅłÅłÅłÅłÅłÅłÅłÅłÅłÅłÅłÅłÅłÅłÅłÅłÅłÅłÅłÅłÅłÅłÅłÅłÅłÅłÅłÅłÅłÅłÅłÅłÅłÅłÅłÅłÅłÅłÅłÅłÅłÅłÅłÅłÅłÅłÅłÅłÅłÅłÅłÅłÅłÅłÅłÅłÅłÅłÅłÅłÅłÅłÅłÅłÅłÅłÅłÅłÅłÅłÅłÅłÅłÅłÅłÅłÅłÅłÅłÅłÅłÅłÅłÅłÅłÅłÅłÅłÅłÅłÅłÅłÅłÅłÅłÅłÅłÅłÅłÅłÅłÅłÅłÅłÅłÅłÅłÅłÅłÅłÅłÅłÅłÅłÅłÅłÅłÅłÅłÅłÅłÅłÅłÅłÅłÅłÅłÅłÅłÅłÅłÅłÅłÅłÅłÅłÅłÅłÅłÅłÅłÅłÅłÅłÅłÅłÅłÅłÅłÅłÅłÅłÅłÅłÅłÅłÅłÅłÅłÅłÅłÅłÅłÅłÅłÅłÅłÅłÅłÅłÅłÅłÅłÅłÅłÅłÅłÅłÅłÅłÅłÅłÅłÅłÅłÅłÅłÅłÅłÅłÅłÅłÅłÅłÅłÅłÅłÅłÅłÅłÅłÅłÅłÅłÅłÅłÅłÅłÅłÅłÅłÅłÅłÅłÅłÅłÅłÅłÅłÅłÅłÅłÅłÅłÅłÅłÅłÅłÅłÅłÅłÅłÅłÅłÅłÅłÅłÅłÅłÅłÅłÅłÅłÅłÅłÅłÅłÅłÅłÅłÅłÅłÅłÅłÅłÅłÅłÅłÅłÅłÅłÅłÅłÅłÅłÅłÅłÅłÅłÅłÅłÅłÅłÅłÅłÅłÅłÅłÅłÅłÅłÅłÅłÅłÅłÅłÅłÅłÅłÅłÅłÅłÅłÅłÅłÅłÅłÅłÅłÅłÅłÅłÅłÅłÅłÅłÅłÅłÅłÅłÅłÅłÅłÅłÅłÅłÅłÅłÅłÅłÅłÅłÅłÅłÅłÅłÅłÅłÅłÅłÅłÅłÅłÅłÅłÅłÅłÅłÅłÅłÅłÅłÅłÅłÅłÅłÅłÅłÅłÅłÅłÅłÅłÅłÅłÅłÅłÅłÅłÅłÅłÅłÅłÅłÅłÅłÅłÅłÅłÅłÅłÅłÅłÅłÅłÅłÅłÅłÅłÅłÅłÅłÅłÅłÅłÅłÅłÅłÅłÅłÅłÅłÅłÅłÅłÅłÅłÅłÅłÅłÅłÅłÅłÅłÅłÅłÅłÅłÅłÅłÅłÅłÅłÅłÅłÅłÅłÅłÅłÅłÅłÅłÅłÅłÅłÅłÅłÅłÅłÅłÅłÅłÅłÅłÅłÅłÅłÅłÅłÅłÅłÅłÅłÅłÅłÅłÅłÅłÅłÅłÅłÅłÅłÅłÅłÅłÅłÅłÅłÅłÅłÅłÅłÅłÅłÅłÅłÅłÅłÅłÅłÅłÅłÅłÅłÅłÅłÅłÅłÅłÅłÅłÅłÅłÅłÅłÅłÅłÅłÅłÅłÅłÅłÅłÅłÅłÅłÅłÅłÅłÅłÅłÅłÅłÅłÅłÅłÅłÅłÅłÅłÅłÅłÅłÅłÅłÅłÅłÅłÅłÅłÅłÅłÅłÅłÅłÅłÅłÅłÅłÅłÅłÅłÅłÅłÅłÅłÅłÅłÅłÅłÅłÅłÅłÅłÅłÅłÅłÅłÅłÅłÅłÅłÅłÅłÅłÅłÅłÅłÅłÅłÅłÅłÅłÅłÅłÅłÅłÅłÅłÅłÅłÅłÅłÅłÅłÅłÅłÅłÅłÅłÅłÅłÅłÅłÅłÅłÅłÅłÅłÅłÅłÅłÅłÅłÅłÅłÅłÅłÅłÅłÅłÅłÅłÅłÅłÅłÅłÅłÅłÅłÅłÅłÅłÅłÅłÅłÅłÅłÅłÅłÅłÅłÅłÅłÅłÅłÅłÅłÅłÅłÅłÅłÅłÅłÅłÅłÅłÅłÅłÅłÅłÅłÅłÅłÅłÅłÅłÅłÅłÅłÅłÅłÅłÅłÅłÅłÅłÅłÅłÅłÅłÅłÅłÅłÅłÅłÅłÅłÅł",
        "ÅłÅłÅłÅłÅłÅłÅłÅłÅłÅłÅłÅłÅłÅłÅłÅłÅłÅłÅłÅłÅłÅłÅłÅłÅłÅłÅłÅłÅłÅłÅłÅłÅłÅłÅłÅłÅłÅłÅłÅłÅłÅłÅłÅłÅłÅłÅłÅłÅłÅłÅłÅłÅłÅłÅłÅłÅłÅłÅłÅłÅłÅłÅłÅł"
      ],
      [
        "ÅłÅłÅłÅłÅłÅł",
        "ÅłÆ"
      ],
      [
        "Æ·",
        "ÅĹ"
      ],
      [
        "Ä",
        "ł"
      ],
      [
        "ÅłÅłÅłÅłÅłÅłÅłÅłÅłÅłÅłÅłÅłÅłÅ¢",
        "ÅłÅłÅłÅłÅłÅłÅłÅłÅłÅ£"
      ],
      [
        "ÅłÅłÅłÅłÅłÅłÅłÅł",
        "Å¡Å¡"
      ],
      [
        "Å¾",
        "ÆĭÅłÅłÅłÅłÅłÅłÅłÅłÅłÅłÅłÅł"
      ],
      [
        "Å«",
        "ÅŁ"
      ],
      [
[...]
